<unk>	0
<s>	0
</s>	0
.	-3.22221
,	-3.42107
▁ve	-4.10959
▁bir	-4.52331
▁	-4.76042
’	-4.90539
'	-5.08548
n	-5.22964
▁bu	-5.39843
▁için	-5.43042
lar	-5.43235
i	-5.45759
a	-5.46316
ler	-5.4877
▁ile	-5.50851
e	-5.57678
▁de	-5.57833
da	-5.58348
▁da	-5.61164
de	-5.63833
nin	-5.73352
in	-5.81764
m	-5.83302
k	-5.83454
ları	-5.85282
leri	-5.86051
)	-5.87884
▁olarak	-5.88981
-	-5.92735
▁(	-5.97573
nın	-6.01495
▁Bu	-6.02928
ı	-6.04754
ın	-6.05445
▁çok	-6.0755
:	-6.09774
li	-6.11031
▁olan	-6.11115
ya	-6.12851
▁en	-6.22037
na	-6.22711
▁daha	-6.27359
ne	-6.27443
la	-6.29206
▁“	-6.29722
ye	-6.29953
si	-6.31342
le	-6.35075
...	-6.372
▁gibi	-6.39843
s	-6.40761
dan	-6.41728
t	-6.4311
lı	-6.43992
den	-6.45803
”	-6.49502
z	-6.55371
;	-6.55774
▁kadar	-6.57269
▁her	-6.57512
lerin	-6.57913
ni	-6.58177
▁"	-6.64072
ların	-6.67079
?	-6.68227
te	-6.6847
ta	-6.69289
▁sonra	-6.69566
dir	-6.70061
sı	-6.72314
l	-6.73071
an	-6.7328
u	-6.74146
▁ise	-6.75054
▁Türkiye	-6.77437
ma	-6.79999
▁-	-6.80176
nda	-6.82914
nde	-6.83899
▁veya	-6.84064
"	-6.84943
▁o	-6.85264
▁ne	-6.85912
r	-6.86503
▁yer	-6.89024
▁var	-6.90247
un	-6.93629
ki	-6.94987
▁ya	-6.95744
lik	-6.96776
nı	-6.96974
dır	-6.9723
▁ki	-6.97725
▁göre	-6.98114
▁tarafından	-6.98325
larını	-6.98814
di	-6.99168
▁1	-6.99195
lere	-6.99447
▁yeni	-7.01085
yi	-7.019
y	-7.02116
en	-7.02409
lerini	-7.03177
▁büyük	-7.0326
lara	-7.0425
p	-7.04817
d	-7.05082
/	-7.07997
▁2	-7.08321
▁zaman	-7.10298
▁olduğu	-7.10813
▁iyi	-7.11867
▁ilk	-7.12442
yı	-7.12485
me	-7.15764
▁A	-7.15913
▁3	-7.16644
▁şekilde	-7.18667
▁ilgili	-7.19696
▁ama	-7.22633
sa	-7.23403
lık	-7.24339
lu	-7.24484
▁tüm	-7.24626
yla	-7.24661
▁Bir	-7.26226
▁son	-7.29715
yle	-7.30699
▁olduğunu	-7.32676
▁iki	-7.32705
▁S	-7.34345
▁O	-7.34929
tan	-7.35896
▁önce	-7.36098
▁gün	-7.3738
ca	-7.37602
se	-7.37659
▁içinde	-7.38318
▁devam	-7.38378
larının	-7.39431
▁arasında	-7.40116
!	-7.40323
lerde	-7.41292
larda	-7.4141
▁önemli	-7.41984
er	-7.42174
▁değil	-7.42714
▁iş	-7.42966
nun	-7.43013
▁Türk	-7.43167
▁yıl	-7.44458
ten	-7.45252
▁karşı	-7.45898
▁hem	-7.4727
▁birlikte	-7.47797
▁İstanbul	-7.48301
▁diğer	-7.4836
ü	-7.4851
▁fazla	-7.48591
▁4	-7.48604
larına	-7.49004
lerinin	-7.49202
▁alan	-7.49315
▁güzel	-7.49607
ini	-7.50588
▁aynı	-7.51195
f	-7.51208
lerine	-7.51909
ndan	-7.52273
K	-7.5261
ce	-7.52727
▁diye	-7.534
nden	-7.53934
▁sahip	-7.54293
▁5	-7.54305
▁kendi	-7.5454
dı	-7.54903
ti	-7.5511
o	-7.55608
▁10	-7.56158
▁yapılan	-7.57444
b	-7.59007
▁özel	-7.59183
c	-7.59784
▁eden	-7.59794
▁bin	-7.60746
ş	-7.60818
S	-7.62306
▁C	-7.62795
▁E	-7.62821
▁Başkanı	-7.6312
▁oldu	-7.63134
▁gelen	-7.63214
h	-7.6325
▁su	-7.64129
▁farklı	-7.64299
▁K	-7.65205
▁bulunan	-7.65569
ır	-7.65637
g	-7.66218
▁tek	-7.66423
al	-7.66798
daki	-7.6702
▁sadece	-7.67447
lerden	-7.67732
ine	-7.68132
miz	-7.68231
mak	-7.68751
▁B	-7.68784
im	-7.6908
▁yok	-7.69768
tir	-7.69861
larında	-7.71045
▁doğru	-7.7108
▁olmak	-7.71329
C	-7.71477
ir	-7.72215
mi	-7.73342
ci	-7.74775
D	-7.75071
▁ben	-7.75472
lardan	-7.75568
▁nasıl	-7.7592
▁dedi	-7.7602
▁bile	-7.76417
tı	-7.76958
T	-7.77066
▁üzere	-7.77474
ken	-7.77815
deki	-7.77843
A	-7.7828
ar	-7.78444
▁uygun	-7.78639
▁T	-7.79263
▁şey	-7.79866
▁hizmet	-7.80005
▁olması	-7.81057
B	-7.81299
▁bilgi	-7.8132
▁Genel	-7.81611
▁başka	-7.81815
du	-7.82904
▁yılında	-7.83863
▁üzerine	-7.83971
▁M	-7.84291
arak	-7.84366
ını	-7.8444
▁az	-7.84447
mış	-7.84537
lerle	-7.85044
▁6	-7.8515
sini	-7.8554
niz	-7.86624
ün	-7.86747
lerinden	-7.86896
▁üzerinde	-7.87012
▁an	-7.87299
miş	-7.87682
▁a	-7.88022
▁eğitim	-7.8815
▁‘	-7.88388
▁yüksek	-7.88894
▁D	-7.89073
lerinde	-7.89285
▁:	-7.89492
lama	-7.89972
2	-7.9031
acak	-7.90639
▁etti	-7.91122
tır	-7.91423
at	-7.9162
larla	-7.92262
▁hakkında	-7.92402
▁mi	-7.9267
▁19	-7.92797
um	-7.92958
▁e	-7.92969
ç	-7.93688
▁biri	-7.93992
ra	-7.94079
mız	-7.9445
larından	-7.94922
M	-7.94946
▁bütün	-7.96401
▁olur	-7.97025
man	-7.97542
su	-7.9799
el	-7.98638
G	-7.98966
▁F	-7.99038
▁ortaya	-7.99149
ması	-7.99201
▁Allah	-7.99251
1	-7.99271
▁kişi	-8.00095
▁saat	-8.00315
▁15	-8.00447
▁kabul	-8.00476
▁G	-8.00737
▁ay	-8.00988
il	-8.01466
ur	-8.01857
▁hiç	-8.01875
▁yüzde	-8.0196
com	-8.02285
▁açık	-8.02345
▁ifade	-8.02382
▁#	-8.02466
▁Her	-8.02759
P	-8.02781
sını	-8.03
▁7	-8.03
▁insan	-8.03214
▁edilen	-8.03393
▁uzun	-8.03435
inde	-8.03517
▁olacak	-8.03679
cı	-8.04077
sine	-8.0416
v	-8.04371
▁para	-8.05287
re	-8.05746
ka	-8.06121
liği	-8.06475
ım	-8.06559
▁içerisinde	-8.07
ecek	-8.07054
▁ev	-8.07148
▁P	-8.08093
▁süre	-8.08103
ik	-8.08183
▁s	-8.08209
▁i	-8.08409
▁m	-8.0894
▁bazı	-8.0905
▁/	-8.09098
x	-8.09148
▁neden	-8.09289
F	-8.09679
▁8	-8.10021
siz	-8.10054
▁Ancak	-8.10602
dur	-8.10619
▁karar	-8.10697
▁yol	-8.10889
▁En	-8.10911
mek	-8.11082
▁al	-8.11214
▁–	-8.11461
▁yerine	-8.11642
sin	-8.11794
nız	-8.12138
▁yapan	-8.12463
▁konusunda	-8.12602
▁k	-8.12865
▁Ve	-8.13216
▁şu	-8.13275
▁tam	-8.13282
▁sıra	-8.1365
▁ancak	-8.13652
▁Üniversitesi	-8.13664
ıyor	-8.13724
Y	-8.13787
▁ardından	-8.13999
lan	-8.14065
lığı	-8.14442
▁Eğitim	-8.14513
▁geri	-8.14764
▁20	-8.15182
lü	-8.15224
sız	-8.15631
▁'	-8.15653
E	-8.15661
▁yakın	-8.16178
▁Dr	-8.17075
İ	-8.17233
▁yaptığı	-8.17325
▁Ne	-8.17412
ri	-8.17436
▁el	-8.17454
▁2018	-8.17635
▁vardır	-8.1772
▁günü	-8.18524
▁etmek	-8.18704
erek	-8.18756
ip	-8.19109
inin	-8.19394
▁ediyor	-8.19602
▁söz	-8.19733
oğlu	-8.19916
3	-8.19957
ına	-8.20124
▁kat	-8.20296
▁Avrupa	-8.2052
▁birçok	-8.20583
ge	-8.20896
▁Yeni	-8.20958
iz	-8.21088
▁iç	-8.212
▁n	-8.21214
O	-8.21405
▁I	-8.21786
▁kez	-8.21935
▁tercih	-8.22014
▁destek	-8.22041
sel	-8.22288
▁H	-8.22298
luk	-8.22316
▁olabilir	-8.22703
▁dikkat	-8.23088
▁Ben	-8.23213
▁size	-8.23836
▁olup	-8.24302
▁in	-8.24368
▁artık	-8.24394
▁böyle	-8.25009
▁bağlı	-8.25075
▁milyon	-8.2555
▁yine	-8.25642
▁geçen	-8.26015
▁12	-8.26077
▁hemen	-8.26113
▁Ankara	-8.2624
▁çalışma	-8.2637
▁kısa	-8.26611
▁ABD	-8.26709
▁altında	-8.26788
nu	-8.27621
sinde	-8.27728
▁hafta	-8.28164
▁benim	-8.28747
▁ait	-8.28761
▁18	-8.2896
▁olsun	-8.29481
▁ek	-8.29526
▁geldi	-8.29729
▁...	-8.29805
▁göz	-8.29805
▁zamanda	-8.29951
sına	-8.30332
H	-8.30415
tik	-8.30731
▁TL	-8.30864
▁küçük	-8.30897
▁eski	-8.3119
iyor	-8.31331
▁|	-8.31747
bi	-8.31868
▁gereken	-8.32419
▁hiçbir	-8.3264
▁Belediye	-8.32923
▁Ama	-8.33026
▁Y	-8.33218
▁çıkar	-8.33268
ba	-8.33547
4	-8.33975
▁veren	-8.34271
▁kadın	-8.34278
▁mı	-8.34278
▁bunu	-8.34316
▁ara	-8.34515
ıp	-8.34517
(	-8.34554
▁üzerinden	-8.3457
▁pek	-8.34834
	-8.34989
▁söyledi	-8.35284
▁Ayrıca	-8.35327
▁b	-8.35612
▁sosyal	-8.35942
ul	-8.36025
▁yaz	-8.36057
▁oldukça	-8.36381
yan	-8.36571
▁mu	-8.3687
▁hava	-8.36928
mesi	-8.36993
▁İl	-8.37858
▁genel	-8.3831
▁9	-8.38343
N	-8.38387
▁ilişkin	-8.38723
V	-8.3931
ında	-8.39504
.”	-8.40075
it	-8.40347
uz	-8.40714
va	-8.40723
▁hareket	-8.40797
▁yönelik	-8.40879
ak	-8.4138
▁gelir	-8.41402
▁tekrar	-8.41581
leme	-8.41667
sinin	-8.4182
▁nedeniyle	-8.41964
▁gece	-8.42095
gi	-8.426
▁üç	-8.42799
▁g	-8.42807
maya	-8.43064
▁Daha	-8.43147
nizi	-8.43248
▁yapmak	-8.43261
▁30	-8.43272
▁biraz	-8.43292
▁konusu	-8.43768
­	-8.43787
▁14	-8.43927
ve	-8.43985
I	-8.43987
▁U	-8.44134
dığı	-8.44637
▁onu	-8.44836
▁biz	-8.44988
is	-8.45195
▁gerçek	-8.45483
▁yanı	-8.45483
maktadır	-8.45566
▁zor	-8.46102
▁Kurulu	-8.46249
▁herhangi	-8.46459
."	-8.46471
▁at	-8.46547
ğ	-8.46577
▁elde	-8.4668
▁özellikle	-8.46821
▁%	-8.46856
▁ön	-8.47027
▁ürün	-8.47162
▁üst	-8.47189
▁bana	-8.47279
ter	-8.4778
L	-8.48046
▁2017	-8.48053
5	-8.48298
▁görev	-8.48419
▁dolayı	-8.48467
▁16	-8.48685
ha	-8.48854
▁ana	-8.49066
▁ziyaret	-8.49179
î	-8.49181
▁konu	-8.49278
▁kontrol	-8.49773
▁olmayan	-8.49932
▁takip	-8.4995
▁bugün	-8.50063
▁kapsamında	-8.50108
be	-8.50327
mektedir	-8.50348
çi	-8.50465
on	-8.50465
ke	-8.50513
▁çıkan	-8.50612
▁dünya	-8.50726
▁gerek	-8.50924
▁1.	-8.50967
▁olsa	-8.5114
▁ikinci	-8.51202
Ş	-8.51304
R	-8.51385
▁Son	-8.51412
▁durum	-8.5142
▁Ak	-8.51791
▁eder	-8.51797
▁gerekli	-8.52176
▁sahibi	-8.52189
▁başladı	-8.52287
muş	-8.52392
▁kız	-8.52547
▁tarihi	-8.52581
▁yeniden	-8.52701
▁kolay	-8.52789
et	-8.52945
▁olma	-8.52968
▁Belediyesi	-8.52995
▁çocuk	-8.53031
▁halinde	-8.53113
sal	-8.53254
▁onun	-8.5326
▁almak	-8.53523
▁11	-8.53733
▁sağlık	-8.53853
▁oyun	-8.53899
▁Çünkü	-8.54067
▁yap	-8.54087
▁hazır	-8.541
ay	-8.54232
sın	-8.54292
▁Dünya	-8.54296
▁temel	-8.54335
▁İş	-8.54633
▁yani	-8.54642
▁dışında	-8.54668
▁değildir	-8.54747
min	-8.55112
▁Erdoğan	-8.55126
sında	-8.5521
]	-8.55358
▁ayrı	-8.55502
▁araç	-8.5552
▁Bunun	-8.55577
▁çeşitli	-8.55623
▁yayın	-8.56033
nızı	-8.56215
▁telefon	-8.56391
▁geç	-8.56744
▁sık	-8.56806
▁c	-8.57234
▁burada	-8.57396
▁Re	-8.57417
▁Parti	-8.57881
▁bizim	-8.5802
unu	-8.58449
▁mümkün	-8.58483
▁rağmen	-8.58791
▁adet	-8.58872
Bu	-8.59034
▁Su	-8.59155
leriyle	-8.59284
U	-8.5949
yu	-8.59566
▁yardımcı	-8.59576
ol	-8.59965
▁genç	-8.59967
▁Ay	-8.60101
len	-8.6015
▁Ali	-8.60316
ının	-8.60333
▁sürekli	-8.61024
▁2.	-8.61036
mı	-8.61146
larıyla	-8.612
diği	-8.6122
ro	-8.61637
▁Başkan	-8.61672
▁bi	-8.61772
▁13	-8.62022
▁bunun	-8.62164
▁Ç	-8.62369
▁hak	-8.62577
abilirsiniz	-8.62682
▁sayesinde	-8.62709
▁devlet	-8.62982
▁derece	-8.6302
▁izle	-8.63045
▁ettiği	-8.63198
▁17	-8.63333
▁hızlı	-8.63345
▁internet	-8.63436
▁boyunca	-8.63555
▁Eğer	-8.63784
▁türlü	-8.64242
▁İlk	-8.64427
cu	-8.64564
▁sayılı	-8.64611
us	-8.64616
▁adı	-8.64759
▁haber	-8.64799
▁Merkezi	-8.65023
▁re	-8.65097
▁yapı	-8.65126
çı	-8.65287
7	-8.65369
▁Biz	-8.65568
abilir	-8.65625
▁oluyor	-8.65719
),	-8.65774
to	-8.65837
▁İ	-8.65993
▁24	-8.66039
▁Müdürlüğü	-8.66102
▁gerekir	-8.66192
▁il	-8.66237
▁Bakanlığı	-8.66316
ga	-8.6652
00	-8.66529
▁R	-8.66529
ek	-8.66544
ver	-8.66632
▁25	-8.66663
iş	-8.6667
kan	-8.66685
▁uygulama	-8.66853
sının	-8.66893
▁kaç	-8.66973
▁hangi	-8.66987
▁N	-8.67048
▁verilen	-8.67137
▁kötü	-8.67178
▁r	-8.67245
▁alt	-8.67359
ran	-8.67368
▁De	-8.67387
▁yaklaşık	-8.67545
dim	-8.67669
▁2016	-8.67872
▁değer	-8.68187
▁fark	-8.68265
▁bize	-8.68324
▁kullan	-8.68371
▁verdi	-8.68382
▁ince	-8.68469
▁ederek	-8.68528
▁tarihinde	-8.68534
os	-8.68549
▁çalışan	-8.6894
▁Al	-8.68959
zi	-8.68985
▁tür	-8.69333
ebilir	-8.69369
▁hale	-8.69562
bu	-8.69592
▁ödeme	-8.70129
▁teknik	-8.70155
▁anda	-8.70192
▁yardım	-8.70285
▁beni	-8.70556
▁yan	-8.70692
▁durumda	-8.70898
▁yanında	-8.71141
san	-8.71465
▁alma	-8.71477
tu	-8.71639
▁beraber	-8.71657
▁mü	-8.71794
▁Kara	-8.72008
▁Anadolu	-8.7231
▁proje	-8.7237
▁ilgi	-8.72445
▁yaptı	-8.72509
▁Özel	-8.72652
▁aldı	-8.72691
Ç	-8.72861
▁sistemi	-8.72863
8	-8.72973
▁olacaktır	-8.73001
▁0	-8.73173
▁nedenle	-8.73363
▁sonucu	-8.73601
çe	-8.73942
▁sizin	-8.73954
▁imza	-8.74433
▁aile	-8.74495
▁erkek	-8.74708
▁*	-8.7471
▁film	-8.74852
▁kalan	-8.7495
▁yapılacak	-8.75071
han	-8.75092
▁adam	-8.75117
▁Çok	-8.75164
▁kar	-8.75177
▁canlı	-8.7524
▁şeklinde	-8.75323
▁Milli	-8.7534
▁konuştu	-8.7539
▁mücadele	-8.75459
▁kitap	-8.7548
▁İzmir	-8.75532
▁ortak	-8.75646
▁baş	-8.75822
▁hep	-8.75893
▁Kasım	-8.75901
or	-8.75949
▁ülke	-8.75989
▁Temmuz	-8.76006
st	-8.7604
dım	-8.76099
▁adına	-8.76168
▁sene	-8.76278
sun	-8.76461
▁ona	-8.7652
▁100	-8.76858
▁dakika	-8.77336
▁takım	-8.77435
ılan	-8.77536
▁hizmeti	-8.77537
▁ses	-8.77634
▁Eylül	-8.77663
▁Mehmet	-8.77686
▁Tüm	-8.77688
▁giriş	-8.77718
▁sağ	-8.77744
▁bulunduğu	-8.77773
▁seçim	-8.77843
▁La	-8.77978
▁şöyle	-8.78089
▁yaşam	-8.78187
ndaki	-8.7824
▁ele	-8.78307
▁hedef	-8.78402
▁sayfa	-8.78483
za	-8.78548
sanız	-8.7864
▁savaş	-8.78754
▁güç	-8.78773
▁sorun	-8.78773
▁enerji	-8.7881
mıştır	-8.7888
▁Spor	-8.78993
miştir	-8.79044
▁etme	-8.79055
▁çıktı	-8.79228
▁Se	-8.79273
▁aç	-8.79299
▁spor	-8.79301
▁düzenlenen	-8.79372
nün	-8.79495
▁servis	-8.79521
▁kan	-8.7955
▁sırasında	-8.79648
▁konuda	-8.79727
tur	-8.7979
▁siz	-8.79811
siniz	-8.79852
▁bas	-8.80001
ed	-8.80259
▁Er	-8.80416
▁belli	-8.80493
▁kullanılan	-8.80613
▁açısından	-8.80624
▁anne	-8.80908
▁talep	-8.81006
▁geniş	-8.81046
▁hesap	-8.81138
▁bak	-8.81304
▁Ma	-8.81336
layan	-8.81374
do	-8.81622
▁y	-8.81737
ydi	-8.8181
▁edin	-8.81978
▁El	-8.82027
▁yemek	-8.82154
lo	-8.82246
bir	-8.82321
w	-8.82328
fi	-8.82372
▁Cumhurbaşkanı	-8.82389
▁sonunda	-8.82408
▁dahil	-8.82472
▁Ar	-8.82538
▁itibaren	-8.8264
▁Öz	-8.8278
▁dil	-8.82829
▁sizi	-8.82973
Ü	-8.83064
▁parça	-8.83129
ev	-8.83173
▁d	-8.83246
▁tedavi	-8.83264
ül	-8.83334
▁din	-8.83349
meye	-8.83453
ö	-8.83698
▁Ekim	-8.83715
▁saç	-8.83753
0	-8.83799
▁V	-8.83902
▁şehir	-8.83958
▁başarılı	-8.84108
▁yorum	-8.84295
▁yoğun	-8.84325
▁zarar	-8.84345
▁ak	-8.84377
▁l	-8.84494
▁marka	-8.8453
iye	-8.84543
▁insanlar	-8.84622
▁aldığı	-8.84688
▁geliyor	-8.8473
▁yazı	-8.84838
▁p	-8.84855
▁vardı	-8.84965
▁izin	-8.85002
▁teslim	-8.85085
▁üniversite	-8.8519
▁kişinin	-8.8531
ıcı	-8.85462
▁t	-8.85462
▁varsa	-8.85524
▁teşekkür	-8.85576
▁çevre	-8.85589
vi	-8.85589
ing	-8.85834
▁L	-8.85979
▁Mustafa	-8.86002
▁müşteri	-8.86254
6	-8.86358
▁2015	-8.86569
▁toplam	-8.866
▁Mart	-8.86685
▁site	-8.86864
▁fiyat	-8.86944
▁Bakanı	-8.86959
▁indir	-8.87175
▁doğal	-8.87236
▁yönetim	-8.87367
tr	-8.87379
inden	-8.87409
up	-8.88065
▁kredi	-8.88075
▁isteyen	-8.88154
▁f	-8.88173
mizi	-8.88182
▁amacıyla	-8.88206
ad	-8.88352
▁üretim	-8.88442
ılması	-8.88584
kar	-8.88586
▁merkezi	-8.88588
▁Haziran	-8.88649
▁bulundu	-8.88675
lük	-8.88762
▁tespit	-8.88841
▁AK	-8.88882
▁yıllık	-8.88914
▁te	-8.88957
▁dönem	-8.89108
▁başvuru	-8.8912
ıldı	-8.89235
▁verdiği	-8.8938
▁Devlet	-8.89411
▁güvenlik	-8.89479
▁Yönetim	-8.89574
▁yılı	-8.89587
▁meydana	-8.89825
▁yağ	-8.90001
fa	-8.90002
▁istiyorum	-8.90015
▁taş	-8.90058
▁satış	-8.90192
ndeki	-8.9022
▁50	-8.90385
▁web	-8.90601
▁sistem	-8.90631
am	-8.9078
▁soru	-8.90865
▁dile	-8.9099
▁21	-8.91058
j	-8.91195
▁gir	-8.91269
▁araştırma	-8.91275
▁güçlü	-8.91313
▁güven	-8.91477
▁yerde	-8.91484
▁Mayıs	-8.91547
▁oluşan	-8.9156
▁öyle	-8.91609
▁yana	-8.91621
sınız	-8.91667
▁yüz	-8.91878
der	-8.91933
▁kayıt	-8.92068
▁edecek	-8.92091
▁et	-8.92116
▁işlem	-8.92118
▁cevap	-8.92339
mızı	-8.92347
▁Ya	-8.92374
▁Sosyal	-8.92383
▁tamamen	-8.92544
▁bulunmaktadır	-8.92811
▁okul	-8.92812
▁ciddi	-8.92817
▁Büyük	-8.92817
▁yaş	-8.92819
▁edildi	-8.92995
ılır	-8.93078
▁2014	-8.9315
▁arasındaki	-8.93211
ça	-8.93237
▁sohbet	-8.93456
â	-8.93612
dik	-8.93941
▁ayrıca	-8.93979
▁ekonomik	-8.9403
▁edilmesi	-8.94213
▁firma	-8.94242
▁gerçekleştir	-8.94268
▁dolu	-8.94281
▁durumu	-8.94291
▁gider	-8.94308
▁yanlış	-8.94385
▁ders	-8.94407
▁yapma	-8.94444
men	-8.9445
▁z	-8.94473
▁mevcut	-8.94583
▁yüzden	-8.94629
lanan	-8.94713
▁etki	-8.95323
▁Ev	-8.95491
▁arama	-8.95624
▁dış	-8.95651
▁gelecek	-8.95686
▁[	-8.95717
▁ağır	-8.95776
▁kaliteli	-8.95776
Ö	-8.95991
▁önem	-8.96044
▁Büyükşehir	-8.96098
▁çünkü	-8.96099
▁iletişim	-8.96107
▁sizlere	-8.96112
▁ceza	-8.96134
iyle	-8.96214
▁gerekiyor	-8.96295
▁Türkçe	-8.96513
▁dönemde	-8.96526
▁kal	-8.96614
▁Kur	-8.96631
▁Prof	-8.96654
▁içi	-8.9676
▁Özellikle	-8.96806
▁yabancı	-8.96972
▁iddia	-8.96986
▁orta	-8.97172
ılmış	-8.97284
larımız	-8.97531
▁fakat	-8.97543
▁tarih	-8.97628
▁yatırım	-8.97643
▁puan	-8.97656
▁tasarım	-8.97707
▁3.	-8.97726
▁madde	-8.978
ber	-8.97803
▁rahat	-8.97838
iyet	-8.97839
ık	-8.97856
▁yoktur	-8.97867
spor	-8.97885
▁satın	-8.97923
▁bahis	-8.98048
▁haline	-8.98164
▁mutlu	-8.98477
▁hayat	-8.98544
▁Baş	-8.98664
▁edilir	-8.98667
▁başlayan	-8.98871
▁renk	-8.98957
▁mal	-8.98971
▁kamu	-8.98976
▁kendini	-8.99043
▁kap	-8.99244
▁top	-8.99366
▁sonrası	-8.99387
▁günlük	-8.9957
▁olay	-8.99696
▁Ka	-8.99715
▁ba	-8.99748
▁Şimdi	-8.99783
▁birkaç	-8.99808
▁bilgiler	-8.99815
▁anlat	-8.99859
▁yasa	-8.99962
▁ayında	-9.00065
nce	-9.00154
▁İşte	-9.00179
е	-9.00287
▁CHP	-9.00386
▁işi	-9.00548
▁bayan	-9.00582
▁resmi	-9.00605
▁alınan	-9.00617
▁tavsiye	-9.00625
ydı	-9.0067
▁zaten	-9.00742
▁Ocak	-9.00874
▁fiyatları	-9.00913
▁Nisan	-9.0095
▁on	-9.01115
ko	-9.01147
▁Ahmet	-9.01181
▁23	-9.01258
es	-9.01295
▁çözüm	-9.01304
▁oda	-9.01528
▁oy	-9.01535
▁sayısı	-9.01538
▁vermek	-9.01631
▁yolu	-9.01705
ıl	-9.01751
▁önceki	-9.01833
▁üye	-9.01904
▁ihtiyaç	-9.01938
▁bilgisayar	-9.01955
▁Cumhuriyet	-9.0197
▁Bey	-9.01995
▁teknoloji	-9.02216
▁esas	-9.02245
▁22	-9.02385
▁işaret	-9.02487
▁Atatürk	-9.02623
▁Fakat	-9.0266
▁verme	-9.02688
▁insanların	-9.027
▁şimdi	-9.0274
ız	-9.02866
▁sat	-9.02911
ch	-9.02996
▁milyar	-9.0302
▁aslında	-9.03063
▁video	-9.03131
▁araya	-9.03173
maz	-9.03208
▁yere	-9.03233
▁adım	-9.03302
▁Yani	-9.03317
ış	-9.03406
▁sen	-9.03526
▁öğrenci	-9.03583
▁hatta	-9.03636
▁say	-9.03691
▁dört	-9.03797
▁yapılması	-9.03826
gu	-9.03858
ut	-9.03949
ici	-9.03991
▁gerçekten	-9.03998
▁plan	-9.04181
▁ta	-9.04293
▁hasta	-9.04329
▁müzik	-9.04368
▁temiz	-9.04515
▁durumunda	-9.04519
tim	-9.04542
ür	-9.04619
as	-9.04659
van	-9.04725
▁grup	-9.04784
▁sabah	-9.04853
▁yaşayan	-9.05125
▁Ra	-9.0514
▁medya	-9.05192
▁kapı	-9.0525
▁Kar	-9.05512
▁dizi	-9.05615
▁başına	-9.05626
▁yeterli	-9.05627
▁altına	-9.05644
▁dünyanın	-9.05648
▁do	-9.05691
▁Birliği	-9.05711
▁alanında	-9.05776
▁Ba	-9.05801
▁adlı	-9.05937
▁Sa	-9.05974
dür	-9.06003
▁Sağlık	-9.0608
▁çalışmaları	-9.06218
▁arada	-9.06241
▁belediye	-9.06334
▁polis	-9.06563
▁Can	-9.06647
▁arkadaş	-9.06702
▁Müdürü	-9.06731
yen	-9.06781
lerimiz	-9.0684
mu	-9.07558
▁olmadığı	-9.07583
▁Osmanlı	-9.07617
W	-9.07734
nize	-9.07742
▁Li	-9.07843
nıza	-9.07843
▁alıyor	-9.07919
9	-9.0793
▁başında	-9.07938
▁Diğer	-9.0798
go	-9.08011
dığını	-9.08019
imi	-9.08024
▁kur	-9.0819
▁defa	-9.0832
▁önünde	-9.08338
▁dair	-9.08359
▁suç	-9.08362
▁ücretsiz	-9.08466
▁Rusya	-9.08469
siyle	-9.08486
▁faaliyet	-9.08581
▁düşük	-9.0863
ist	-9.08706
▁Di	-9.0885
mez	-9.08852
▁hakkı	-9.0891
▁ilçe	-9.08953
▁paylaş	-9.08959
▁ma	-9.09095
▁Suriye	-9.09101
▁model	-9.09328
▁kimse	-9.09332
▁uluslararası	-9.09499
ze	-9.09526
▁Z	-9.09601
▁er	-9.09639
▁basın	-9.09647
▁Aynı	-9.09758
▁ye	-9.09836
▁buna	-9.09967
▁sebep	-9.09982
▁Te	-9.10024
▁Mi	-9.10055
lığa	-9.10178
▁kilo	-9.10273
▁yeri	-9.103
imiz	-9.10344
▁W	-9.10405
▁örnek	-9.10546
▁Antalya	-9.10576
▁escort	-9.10648
▁normal	-9.10663
▁Ş	-9.1067
▁Aralık	-9.10683
liğe	-9.10859
▁2013	-9.11023
▁ilan	-9.11148
▁sınıf	-9.11174
lardır	-9.11178
▁olmuş	-9.11188
▁fotoğraf	-9.11263
▁sitesi	-9.11271
▁kararı	-9.11291
▁ediyorum	-9.11297
net	-9.11305
▁kurulu	-9.11331
▁görüş	-9.11385
▁parti	-9.1139
▁program	-9.11411
▁ka	-9.11433
▁dolar	-9.115
▁halk	-9.11521
lenen	-9.11525
▁can	-9.11587
ilen	-9.11809
sinden	-9.11863
▁VE	-9.12004
ý	-9.12177
son	-9.12181
▁uzak	-9.12206
▁40	-9.12213
▁An	-9.12239
▁açıklama	-9.12271
▁acı	-9.12305
▁bilim	-9.12346
▁sınav	-9.12373
▁mutlaka	-9.12445
▁maç	-9.12465
▁uzman	-9.12555
▁[...]	-9.12648
▁kurum	-9.12654
▁Gül	-9.12726
▁Orta	-9.12732
▁etkili	-9.1292
▁alır	-9.13011
▁bilgileri	-9.13171
▁engel	-9.13254
▁kır	-9.13344
50	-9.13358
bet	-9.13453
▁sayıda	-9.13681
▁Derneği	-9.13851
muz	-9.13929
▁Ara	-9.1393
co	-9.14062
▁sonuç	-9.14082
▁siyasi	-9.14099
mda	-9.14106
ton	-9.14163
▁bölüm	-9.14172
ebilirsiniz	-9.14205
▁Ha	-9.14253
▁eş	-9.14376
▁ar	-9.14456
▁deniz	-9.14473
▁akşam	-9.1451
▁sıcak	-9.14515
▁Başkanlığı	-9.14529
▁Yüksek	-9.14655
▁Teknik	-9.14761
▁çift	-9.14767
▁sağlar	-9.14823
▁lira	-9.14852
▁Ağustos	-9.14886
ot	-9.14901
lanmış	-9.14904
▁olmadığını	-9.14921
▁Fakültesi	-9.14935
▁katkı	-9.15005
▁sonrasında	-9.15006
▁No	-9.1501
▁aday	-9.1509
▁28	-9.15096
▁kaynak	-9.151
▁ister	-9.15109
▁zorunda	-9.15116
▁kullanım	-9.15137
▁olmaz	-9.15152
▁Kültür	-9.15161
lanması	-9.15205
▁beri	-9.15256
let	-9.15301
▁İlçe	-9.15484
▁araba	-9.15623
▁İnsan	-9.15647
▁net	-9.15664
▁sanat	-9.15693
▁ürünleri	-9.15837
teki	-9.16009
▁yurt	-9.16019
▁değerli	-9.1611
yim	-9.16173
▁alanda	-9.16261
▁bağ	-9.16272
▁Le	-9.16283
▁Bugün	-9.16512
▁oyunu	-9.16524
а	-9.16579
▁Mü	-9.16628
▁alanı	-9.16639
▁arası	-9.16671
▁çalış	-9.16724
▁gerektiğini	-9.16759
▁)	-9.16947
▁Ro	-9.17194
▁bizi	-9.1721
▁Kemal	-9.17234
▁kendisine	-9.17234
▁halde	-9.17236
▁toplum	-9.17274
pe	-9.17285
lanma	-9.17347
mizin	-9.17371
▁Almanya	-9.17371
▁kara	-9.17386
diğini	-9.17416
▁gerekmektedir	-9.17417
▁Bursa	-9.17432
iniz	-9.17437
▁beyaz	-9.17511
▁bakım	-9.17654
▁Araştırma	-9.17668
▁beş	-9.17786
▁be	-9.17817
▁Sayın	-9.17892
lerdir	-9.17984
ll	-9.18077
▁değerlendirme	-9.18083
▁kon	-9.18091
sen	-9.18208
▁hala	-9.18253
▁ünlü	-9.18323
▁sev	-9.18402
▁ulaş	-9.18466
▁yaşanan	-9.18491
tü	-9.18634
▁işlemi	-9.18637
▁İyi	-9.18788
▁baskı	-9.18806
mayı	-9.18811
▁se	-9.18835
▁yazılı	-9.18864
▁sa	-9.18911
▁kuru	-9.18939
▁tak	-9.18958
▁yandan	-9.19029
mo	-9.19103
▁veri	-9.19134
▁herkes	-9.19323
▁as	-9.19329
▁hayal	-9.19366
▁belirten	-9.1943
▁konuşma	-9.19453
▁yapılır	-9.19468
▁şeyler	-9.19591
▁kaldır	-9.19633
▁yarat	-9.19879
▁gösteren	-9.19905
▁amacı	-9.19964
▁aylık	-9.20016
taki	-9.20132
▁başarı	-9.20156
▁kas	-9.2023
▁As	-9.20272
▁İslam	-9.20367
▁sağlamak	-9.20467
lüğü	-9.20608
▁Kendi	-9.20718
▁sağlıklı	-9.20772
▁birinci	-9.20773
▁Çocuk	-9.20846
▁27	-9.20952
▁Uluslararası	-9.2098
▁sayı	-9.21119
▁alın	-9.21157
suz	-9.21176
ıyoruz	-9.21182
can	-9.21216
▁reklam	-9.21238
dü	-9.21316
▁yada	-9.21413
▁alacak	-9.2145
▁Madde	-9.21513
▁Çin	-9.21551
▁Tek	-9.21733
▁silah	-9.218
▁Merkez	-9.21839
▁programı	-9.21878
Z	-9.21958
ilmesi	-9.2203
▁aracı	-9.22051
▁2012	-9.22134
▁u	-9.22149
▁arka	-9.22262
yor	-9.22263
▁oyuncu	-9.22275
▁döneminde	-9.22298
▁bulunuyor	-9.22347
▁Na	-9.22443
▁sol	-9.22485
▁ileri	-9.22538
▁banka	-9.2256
▁belki	-9.2259
▁yazar	-9.22656
▁şirket	-9.22732
gen	-9.22785
▁görüntü	-9.22851
▁Bazı	-9.22876
ama	-9.22945
▁onlar	-9.23142
20	-9.23248
▁içine	-9.23249
▁is	-9.23392
ağı	-9.23445
▁dışı	-9.23468
▁çoğu	-9.2347
ünü	-9.23524
▁olursa	-9.23602
▁onların	-9.23677
sak	-9.23689
liğini	-9.23877
▁yara	-9.24029
laşma	-9.24041
▁tepki	-9.24182
▁yaparak	-9.2422
lat	-9.24224
▁na	-9.24246
▁Ek	-9.24326
▁çalışmalar	-9.24459
bo	-9.24683
▁di	-9.24768
▁26	-9.24792
▁başta	-9.24812
▁görmek	-9.24846
▁terör	-9.2486
▁Şubat	-9.24869
▁ilişki	-9.2519
▁istediğiniz	-9.25204
ey	-9.25204
lenme	-9.25241
▁onları	-9.25356
10	-9.25398
tal	-9.25512
▁eve	-9.25534
▁sağlayan	-9.25552
▁Ni	-9.25589
▁İki	-9.25632
▁sırada	-9.25735
▁saldırı	-9.25781
▁Ticaret	-9.25795
▁bölge	-9.2584
▁Mo	-9.25901
▁Şu	-9.25929
▁Burada	-9.25938
▁baba	-9.25961
▁tane	-9.25977
▁şeyi	-9.25981
▁Ko	-9.25992
▁görme	-9.26157
▁hediye	-9.2617
▁tanım	-9.26181
ından	-9.26188
▁alarak	-9.2623
▁köy	-9.26324
▁ücret	-9.2672
▁pazar	-9.26824
▁yapacak	-9.26877
▁29	-9.26909
▁otel	-9.27106
▁kişiler	-9.27125
▁eğer	-9.27158
▁düşünce	-9.27199
per	-9.27272
ilir	-9.27354
▁sözleşme	-9.27404
nca	-9.27418
▁So	-9.27427
nü	-9.27482
▁kazan	-9.27566
▁oranı	-9.2761
▁belge	-9.27766
ladı	-9.27781
ktan	-9.27854
▁isim	-9.27877
ger	-9.27902
▁inan	-9.27917
▁taşıma	-9.2822
▁gel	-9.28251
▁Kanun	-9.28326
▁bırak	-9.28391
▁tabi	-9.28406
▁verir	-9.28459
þ	-9.28637
▁Amerika	-9.28659
sıyla	-9.28672
lak	-9.28683
met	-9.28816
▁Sanayi	-9.28826
▁lazım	-9.2891
miyor	-9.28956
tor	-9.29063
X	-9.29148
▁X	-9.2921
▁duvar	-9.29278
▁kullanarak	-9.29377
no	-9.2944
▁İç	-9.29575
▁Ü	-9.29604
▁Ö	-9.2961
▁diyor	-9.29639
tığı	-9.29695
▁Bo	-9.29698
▁kafa	-9.29762
▁birisi	-9.29872
▁hayvan	-9.29953
▁liste	-9.29978
▁olun	-9.2998
▁Ke	-9.30114
‘	-9.302
mize	-9.30268
▁h	-9.30352
▁Halk	-9.30368
▁Milletvekili	-9.30404
▁kanun	-9.30408
▁hizmetleri	-9.30511
▁dünyada	-9.30561
▁veriyor	-9.30662
▁Doğu	-9.30792
▁Eski	-9.30792
larınızı	-9.30827
▁Proje	-9.30888
▁́	-9.30961
▁hayatını	-9.31274
▁darbe	-9.31334
▁&	-9.31364
ren	-9.31382
▁tatil	-9.31491
asyon	-9.31495
▁ürünler	-9.31597
▁ediyoruz	-9.31599
▁süresi	-9.31625
▁gerçekleştiril	-9.31686
▁yerinde	-9.31759
▁olmuştur	-9.31768
▁güncel	-9.31778
▁profesyonel	-9.31788
▁özelliği	-9.31904
▁Siz	-9.31924
leşme	-9.31943
iyoruz	-9.31981
▁kim	-9.31997
▁hayata	-9.32038
▁kapat	-9.3205
▁Me	-9.32248
▁aşağıdaki	-9.32276
▁yak	-9.32308
▁belirtilen	-9.32438
abilecek	-9.32709
▁sorunu	-9.32987
▁Do	-9.33053
▁meslek	-9.33133
▁vergi	-9.33156
▁yıllarda	-9.33255
köy	-9.33259
▁karşısında	-9.33293
▁Kadın	-9.33311
▁Mahallesi	-9.33354
▁J	-9.33354
yo	-9.33381
▁sonucunda	-9.33554
▁daire	-9.33575
▁yük	-9.33582
▁hal	-9.33595
▁çık	-9.33612
▁sahiptir	-9.33777
▁modelleri	-9.33798
▁nokta	-9.33819
▁etmektedir	-9.3393
▁bunlar	-9.33977
▁belirtti	-9.34055
▁benzer	-9.34099
▁üçüncü	-9.34126
ret	-9.34259
ap	-9.34293
▁der	-9.34342
▁kalma	-9.34419
▁kesin	-9.34499
ınız	-9.34549
lerinizi	-9.3462
▁yaptır	-9.34744
▁merak	-9.34777
kı	-9.34823
▁geçir	-9.3483
lıyor	-9.34872
▁of	-9.34907
mıza	-9.34928
▁açıklamada	-9.35049
▁zengin	-9.35145
▁toprak	-9.35177
▁başlar	-9.35181
▁asla	-9.35223
id	-9.35249
▁lisans	-9.35262
▁göster	-9.35265
▁hata	-9.35295
▁sefer	-9.35322
▁altı	-9.35326
▁ismi	-9.35354
th	-9.35497
▁İngilizce	-9.35507
yım	-9.35563
▁tur	-9.3559
▁Yardımcısı	-9.3568
▁yapıyor	-9.35688
▁numara	-9.35695
▁zevk	-9.35701
▁den	-9.35719
▁isimli	-9.35738
▁katıldı	-9.3577
▁rapor	-9.35895
lanır	-9.35967
▁gören	-9.35969
▁ederim	-9.36045
▁alışveriş	-9.36068
cak	-9.36129
▁ç	-9.36229
▁31	-9.36251
▁dosya	-9.36307
mıştı	-9.36332
▁öğren	-9.36369
ör	-9.36406
▁test	-9.36426
▁diş	-9.3644
▁vb	-9.3647
gı	-9.36493
▁kesinlikle	-9.36542
▁ekibi	-9.36563
▁inceleme	-9.36564
▁geçti	-9.3657
ho	-9.36601
▁kullanma	-9.36653
▁inşa	-9.36683
▁eşi	-9.36693
▁Hz	-9.36712
▁=	-9.36719
▁Ön	-9.36724
▁etmiş	-9.36748
▁hoş	-9.36768
_	-9.36811
+	-9.36836
▁insanın	-9.36845
▁yapmış	-9.36918
▁İran	-9.36971
▁Hava	-9.36989
▁ağ	-9.37043
▁Çalışma	-9.37084
▁dün	-9.37169
▁henüz	-9.37171
▁işletme	-9.37173
▁san	-9.37243
landı	-9.37292
▁yıldır	-9.37376
LER	-9.37417
▁özellikleri	-9.37569
▁kültür	-9.37732
▁Bilgi	-9.37737
yız	-9.37739
▁Bil	-9.37789
▁sezon	-9.37819
lendirme	-9.37869
dık	-9.38025
▁önüne	-9.38044
mizde	-9.38062
▁dağ	-9.38136
hane	-9.38148
op	-9.38159
▁elektrik	-9.38223
▁dava	-9.38227
sh	-9.38237
▁me	-9.38274
▁malzeme	-9.38281
▁çek	-9.38293
cık	-9.38335
▁Film	-9.38339
▁nedir	-9.38368
▁Benim	-9.38412
▁işe	-9.38431
ah	-9.38459
▁Konya	-9.38666
▁Da	-9.38679
lay	-9.38734
▁Fa	-9.38792
▁modern	-9.38832
▁Lig	-9.38846
acaktır	-9.38875
▁kart	-9.38971
▁yapıldı	-9.39014
▁Başbakan	-9.39032
▁müdahale	-9.39052
cü	-9.39082
▁kullanımı	-9.39156
malıdır	-9.39167
▁Bölüm	-9.3918
▁4.	-9.39191
luğu	-9.39248
ımız	-9.39301
▁anlamda	-9.3935
▁Fi	-9.39365
▁ilçesinde	-9.39368
oz	-9.3938
unun	-9.39451
▁kendine	-9.39471
▁kaza	-9.39489
▁Ta	-9.39498
sü	-9.39531
▁giren	-9.3962
▁düzenleme	-9.39668
▁sürede	-9.3969
gün	-9.39876
▁resim	-9.39883
▁Deniz	-9.39932
▁ihtiyacı	-9.39972
▁sonraki	-9.40074
▁mesaj	-9.40087
▁Konu	-9.40133
▁artış	-9.40136
▁seks	-9.40138
gan	-9.40148
▁işçi	-9.40179
▁2011	-9.40229
▁Aydın	-9.40242
▁bağlantı	-9.40492
▁basit	-9.40555
evi	-9.40593
mızın	-9.40656
▁sal	-9.40675
▁cam	-9.40691
▁bundan	-9.40722
▁kay	-9.40756
▁AB	-9.40821
▁sevgi	-9.40849
Ä	-9.4092
▁sanayi	-9.4101
▁Ana	-9.41107
Bir	-9.41121
alım	-9.4129
▁kişisel	-9.41315
▁demek	-9.41397
▁yoksa	-9.41431
▁dur	-9.41597
▁gücü	-9.41603
▁kol	-9.41671
▁Sayfa	-9.41826
▁yerel	-9.4194
▁öne	-9.41944
▁sert	-9.41969
▁yapmaya	-9.42062
▁günlerde	-9.42078
▁?	-9.42117
▁Bunu	-9.4212
▁fiyatı	-9.42145
liğin	-9.42145
▁etmesi	-9.42159
yum	-9.42206
▁Sonra	-9.4222
rak	-9.42232
▁belirterek	-9.4229
▁harika	-9.42381
▁Be	-9.42401
▁güneş	-9.42403
▁edilmiş	-9.4247
▁korku	-9.42484
▁alıp	-9.42547
hi	-9.42562
▁personel	-9.42572
fe	-9.42615
▁onlara	-9.42653
▁doğum	-9.42749
▁ekonomi	-9.42751
▁öğretim	-9.42777
▁gol	-9.42856
▁etkisi	-9.42972
±	-9.42988
▁Mar	-9.43136
tür	-9.43171
▁asıl	-9.43193
▁v	-9.43206
▁öğretmen	-9.43262
▁askeri	-9.43395
▁yavaş	-9.43412
▁Ders	-9.4349
▁teklif	-9.43536
▁ortalama	-9.43567
nizin	-9.4357
las	-9.43582
▁Taş	-9.43631
ck	-9.43734
▁davet	-9.43761
▁60	-9.43762
LAR	-9.43793
meyen	-9.43878
▁bol	-9.4392
▁Lo	-9.43997
▁geçmiş	-9.4402
▁metre	-9.44094
▁kendisini	-9.44144
▁faiz	-9.44255
▁Genç	-9.44289
iyorum	-9.44371
ılarak	-9.44402
▁Cumhuriyeti	-9.44518
▁Sen	-9.44621
▁ayı	-9.44629
if	-9.44643
▁dönüş	-9.44724
he	-9.44753
İM	-9.4486
▁geçiş	-9.4489
▁ölüm	-9.45118
pa	-9.45119
▁dua	-9.45178
▁kaldı	-9.45242
tar	-9.45264
AR	-9.45325
▁bunların	-9.45335
▁giden	-9.45451
IN	-9.45463
▁Uzun	-9.45509
▁milli	-9.45534
▁tanı	-9.45589
▁aşk	-9.456
makta	-9.45683
▁ad	-9.45702
▁işte	-9.45838
▁koruma	-9.45898
▁sona	-9.46006
▁si	-9.46013
nizde	-9.46032
▁+	-9.46055
Ha	-9.46136
madan	-9.46178
▁Fenerbahçe	-9.46202
▁konut	-9.46245
▁dayan	-9.46329
▁Sadece	-9.46336
▁km	-9.46443
▁(1)	-9.46443
▁Co	-9.4647
▁asker	-9.46476
kten	-9.46506
▁yönetimi	-9.46513
▁sergi	-9.46532
▁yaşındaki	-9.46615
▁ticaret	-9.46616
▁ekran	-9.46717
▁suyu	-9.46759
▁meyve	-9.46797
AK	-9.46832
▁Tarihi	-9.46868
▁Yer	-9.4689
▁dahi	-9.46963
▁Bölge	-9.47019
ılacak	-9.471
▁çocuklar	-9.47161
▁edip	-9.47222
sek	-9.47269
=	-9.47274
▁bilinen	-9.47338
▁sıkıntı	-9.47364
▁kişilerin	-9.47518
▁Vi	-9.47523
ıyorum	-9.4754
▁yaşında	-9.47574
▁bazen	-9.47597
▁derin	-9.4761
▁yola	-9.47728
▁Güvenlik	-9.47751
▁uçak	-9.47765
▁ada	-9.47847
▁serbest	-9.47933
▁evde	-9.4794
▁saygı	-9.47976
▁onay	-9.47984
▁Buna	-9.48015
▁çeken	-9.48028
▁Adana	-9.48055
▁siteleri	-9.48121
▁çaba	-9.4814
▁orada	-9.48165
▁erken	-9.48211
▁bebek	-9.48221
▁kapalı	-9.48331
://	-9.48406
şa	-9.48407
yiz	-9.48481
▁ışık	-9.48513
▁kampanya	-9.48656
▁sana	-9.48746
▁Hem	-9.48822
din	-9.48829
▁yazılım	-9.4885
▁am	-9.48888
▁yılda	-9.48896
▁TV	-9.48951
▁genellikle	-9.49001
▁uç	-9.49027
û	-9.49088
acağı	-9.49096
ımı	-9.4915
▁Güzel	-9.49154
nızda	-9.49156
mer	-9.49169
▁etmeye	-9.49235
uyor	-9.4927
▁sahne	-9.49296
▁aş	-9.49446
YA	-9.49449
▁Gün	-9.4946
▁desteği	-9.49492
▁yapımı	-9.49582
▁kitabı	-9.49603
▁kendisi	-9.49609
▁fikir	-9.49678
av	-9.49688
Ğ	-9.49763
ic	-9.49812
yon	-9.49816
tiği	-9.49824
mişti	-9.49863
dıkları	-9.49942
▁bina	-9.49964
MA	-9.49993
dum	-9.50007
▁Böylece	-9.50019
mde	-9.50095
dikleri	-9.50127
▁Beşiktaş	-9.50158
ley	-9.50178
▁çiçek	-9.50204
▁İngiltere	-9.50229
30	-9.50266
▁aktar	-9.50281
▁boş	-9.50301
ry	-9.50369
▁olmasına	-9.50374
▁çalışması	-9.50385
▁yapar	-9.50437
▁kullandı	-9.50454
ıldığı	-9.50471
▁tamam	-9.50484
▁ayar	-9.50486
▁saha	-9.50586
lenmiş	-9.50644
▁işlemleri	-9.50689
▁to	-9.50709
ron	-9.50722
▁mükemmel	-9.50765
▁kısmı	-9.50769
▁toplantı	-9.50806
lığını	-9.50841
▁kent	-9.50859
inci	-9.50867
▁:)	-9.50933
▁sınır	-9.51063
▁öncesi	-9.51117
▁üyesi	-9.51148
▁Küçük	-9.51159
▁gönder	-9.51224
masını	-9.51236
▁çay	-9.5125
▁temsil	-9.51256
▁>	-9.5128
▁sar	-9.513
ılma	-9.513
▁not	-9.5139
▁gezi	-9.51412
▁AKP	-9.51473
▁ver	-9.5149
▁Sanat	-9.51504
taş	-9.51557
▁olumsuz	-9.51579
▁Yine	-9.51588
▁öz	-9.5161
müş	-9.51693
▁oldukları	-9.51752
▁Kıbrıs	-9.51755
▁almış	-9.51799
▁bunları	-9.518
▁ayak	-9.51804
▁biçimde	-9.51821
sam	-9.51849
▁Google	-9.51898
▁nedeni	-9.51959
▁Yap	-9.5196
▁Kanunu	-9.5197
▁bitki	-9.52021
▁yeşil	-9.5208
▁Yaz	-9.52144
▁Örneğin	-9.52206
una	-9.52299
40	-9.52321
▁yetki	-9.52349
sından	-9.52389
▁2010	-9.52396
▁modeli	-9.52397
lendi	-9.52477
▁tip	-9.52567
▁Yılmaz	-9.52662
▁San	-9.52693
▁büyü	-9.52695
▁getiren	-9.52738
ildi	-9.52811
▁doğa	-9.52824
▁rol	-9.52836
ru	-9.52851
▁Aile	-9.52879
ner	-9.52888
izm	-9.52899
▁doğrultusunda	-9.52983
▁değişim	-9.53187
▁risk	-9.53313
▁alınması	-9.53348
▁eylem	-9.53355
▁artır	-9.53378
▁Haber	-9.53411
ırken	-9.53444
▁kelime	-9.5345
▁tartışma	-9.53452
üm	-9.53501
▁•	-9.53505
▁İsrail	-9.53581
lerimizi	-9.53595
▁Kürt	-9.53623
▁yapılmış	-9.53625
▁okuma	-9.53647
▁savunma	-9.53706
▁olduğuna	-9.53737
▁işbirliği	-9.53741
po	-9.53778
J	-9.53784
ıyla	-9.53808
▁lise	-9.53851
şi	-9.53863
▁ülkenin	-9.53904
▁gizli	-9.53923
▁süreç	-9.53954
▁ton	-9.53974
şe	-9.54111
▁Demir	-9.54141
▁dik	-9.54194
▁bil	-9.54197
▁tahmin	-9.54212
▁hayatı	-9.5426
▁istiyor	-9.54266
▁giderek	-9.54273
rı	-9.54297
`	-9.543
▁önemlidir	-9.54308
▁Har	-9.54433
▁çıkıyor	-9.54627
▁Kat	-9.54638
▁olumlu	-9.54684
▁eşya	-9.54685
▁online	-9.54688
▁geldiği	-9.54692
	-9.54708
▁The	-9.54727
▁kaynağı	-9.54788
diğimiz	-9.54798
▁transfer	-9.54824
▁lider	-9.54873
▁Otel	-9.54879
▁eğitimi	-9.5494
▁Okul	-9.54967
▁kullanıcı	-9.54986
▁deneyim	-9.55019
▁kartı	-9.55029
▁kalite	-9.55052
▁sonu	-9.55057
▁	-9.55154
▁Man	-9.55157
lim	-9.55224
layarak	-9.55262
mekte	-9.55307
▁kira	-9.55354
▁otobüs	-9.55361
▁Pa	-9.55449
▁ateş	-9.55453
▁diyerek	-9.55524
▁mekan	-9.55634
▁Söz	-9.55675
▁kesim	-9.55718
▁içeren	-9.55763
bey	-9.5577
▁art	-9.55806
▁belirli	-9.55817
▁To	-9.55839
ince	-9.55876
▁yargı	-9.55886
▁seyahat	-9.55948
▁çıkart	-9.55962
az	-9.55975
15	-9.55981
▁hafif	-9.56032
lenmesi	-9.56125
▁yararlan	-9.56126
▁bölümü	-9.56173
ılmıştır	-9.56195
▁öğrenciler	-9.56203
▁verildi	-9.5623
▁kadro	-9.56248
amaz	-9.56319
▁girdi	-9.56343
▁üzerindeki	-9.56362
LERİ	-9.56364
▁kişilik	-9.56402
ünün	-9.56408
dar	-9.56424
ks	-9.56437
▁merkez	-9.56442
▁kalp	-9.56452
▁yalnız	-9.56478
eceği	-9.56503
▁Kan	-9.56542
▁görüşme	-9.56553
lamak	-9.5669
▁doldur	-9.56717
ecektir	-9.56831
▁Bunlar	-9.56831
▁Meclis	-9.5685
▁İçin	-9.56928
tepe	-9.5696
▁getirdi	-9.56962
▁iz	-9.57028
▁hisse	-9.57031
▁olmasını	-9.57032
▁çerçevesinde	-9.5711
▁ihale	-9.57191
▁mahkeme	-9.57245
▁boya	-9.57285
larımızı	-9.57287
abiliyor	-9.57368
▁Bütün	-9.57374
▁motor	-9.57405
tım	-9.57417
▁vakit	-9.57419
▁yaşama	-9.57478
▁büyüme	-9.57543
▁televizyon	-9.57591
ebilecek	-9.57616
▁süreci	-9.57639
▁oku	-9.57655
▁ortadan	-9.57666
▁Ca	-9.5776
▁imkanı	-9.57814
▁bar	-9.5785
▁Rus	-9.57891
▁Bar	-9.579
elim	-9.57911
▁Ürün	-9.57986
Sa	-9.57992
▁cm	-9.57996
▁şarkı	-9.57997
meyi	-9.58038
▁bakış	-9.58051
Ma	-9.58099
▁tatlı	-9.58102
▁Recep	-9.58231
▁yay	-9.5824
▁çağrı	-9.58275
▁indirim	-9.58313
▁yaygın	-9.58332
▁uyu	-9.58352
ster	-9.5837
▁gaz	-9.5853
▁doğrudan	-9.58552
▁emin	-9.58611
▁Fransa	-9.58623
▁güvenli	-9.58635
▁Tarih	-9.58681
hat	-9.58702
tin	-9.5874
aj	-9.58791
▁bey	-9.58838
▁sinema	-9.58848
▁Uygulama	-9.589
▁Yapı	-9.58905
▁değişiklik	-9.58955
diğiniz	-9.58994
▁Çevre	-9.59011
▁Galatasaray	-9.59016
▁ulaşım	-9.59065
▁cinsel	-9.59092
▁değiştir	-9.59095
▁olmaya	-9.59117
ok	-9.59274
▁ol	-9.59276
▁hepsi	-9.5929
▁karakter	-9.59337
▁aşırı	-9.59363
▁Peki	-9.59426
leyen	-9.59455
▁av	-9.59479
▁yerini	-9.59566
:00	-9.59634
▁filmi	-9.59649
▁Bizim	-9.5972
▁yetkili	-9.59763
ly	-9.59791
▁aktif	-9.59798
▁kırmızı	-9.59931
▁otomobil	-9.59937
lenir	-9.59971
▁kes	-9.59985
▁kullanılır	-9.59997
▁yılın	-9.60046
▁sistemleri	-9.60066
▁bende	-9.60105
mızda	-9.60144
▁500	-9.60205
▁servisi	-9.60259
▁görsel	-9.60305
▁açıkladı	-9.60318
seniz	-9.60325
▁ke	-9.6033
▁getir	-9.60357
▁mobil	-9.604
▁bölgede	-9.60401
▁yasal	-9.60443
ji	-9.60444
%	-9.60452
Lİ	-9.60613
▁sarı	-9.60647
▁geliştir	-9.60657
▁arkadaşlar	-9.60743
inizi	-9.60769
▁Ku	-9.60813
▁paket	-9.60813
▁tarihli	-9.60857
lardı	-9.60898
▁Po	-9.60952
▁Fatih	-9.61028
▁anlaşma	-9.61111
▁sektör	-9.6123
▁At	-9.61315
▁diyen	-9.61351
▁performans	-9.61374
▁Zaman	-9.6143
▁yarı	-9.61476
▁çizgi	-9.61489
▁değeri	-9.61491
▁tesis	-9.61503
▁lütfen	-9.61517
▁5.	-9.61566
▁yalnızca	-9.61616
ban	-9.61623
ğa	-9.61727
▁ödül	-9.61729
▁sanatçı	-9.61782
▁Günü	-9.61816
▁»	-9.61932
▁In	-9.61983
▁hastane	-9.62116
▁Pazar	-9.62185
▁ekipleri	-9.62186
▁tut	-9.62213
▁Ga	-9.62274
▁Sultan	-9.62355
▁sonuçları	-9.62372
▁uygulaması	-9.62442
AL	-9.6245
Türkiye	-9.62457
▁şehit	-9.62506
▁senin	-9.62513
▁gitti	-9.6254
▁kurulan	-9.62597
▁almaktadır	-9.62652
▁kendilerine	-9.6266
▁koy	-9.6269
▁fayda	-9.62698
gin	-9.62725
▁gazete	-9.62747
▁altın	-9.62772
▁mahalle	-9.62802
▁hukuk	-9.6281
ucu	-9.62887
ket	-9.6293
▁bölgesinde	-9.62961
▁Batı	-9.6297
▁memnun	-9.62983
lığın	-9.62999
▁başlat	-9.63046
▁ucuz	-9.63057
▁süt	-9.6313
▁Hasan	-9.63137
▁neler	-9.63149
▁Yıldırım	-9.63323
▁ticari	-9.63329
masına	-9.63338
ser	-9.63453
▁sebebi	-9.63456
aç	-9.63483
▁Ver	-9.63505
▁soğuk	-9.63542
▁Pro	-9.63552
▁çıkış	-9.63592
▁düşünüyorum	-9.63625
▁hız	-9.63648
▁düzenli	-9.63684
▁standart	-9.63755
ER	-9.63805
▁Bankası	-9.63839
▁Web	-9.63848
▁projesi	-9.63849
landığı	-9.63863
12	-9.63863
▁otomatik	-9.63866
▁yaparken	-9.63909
▁Murat	-9.63919
ker	-9.63932
nd	-9.63998
ku	-9.64017
▁Hastanesi	-9.64021
▁bal	-9.64168
RA	-9.6422
sunuz	-9.64255
▁Ho	-9.64265
▁Odası	-9.64274
▁üyeleri	-9.64424
▁kamera	-9.64433
▁İn	-9.64482
▁ha	-9.64502
▁Bölümü	-9.64533
▁Kurumu	-9.6457
▁taraf	-9.64606
▁oyna	-9.64692
baş	-9.64693
▁istediği	-9.64733
▁Programı	-9.64783
üp	-9.64855
▁makine	-9.64918
▁kızı	-9.64921
25	-9.64954
▁güvenilir	-9.64996
gar	-9.65016
▁yöntem	-9.65018
▁the	-9.65033
▁Irak	-9.65115
nuz	-9.65115
ilmiş	-9.65262
▁kurul	-9.65326
▁sorumluluk	-9.6534
▁edil	-9.65523
▁Güney	-9.6554
▁yasak	-9.65584
Sİ	-9.65585
▁geçerli	-9.6564
ılıyor	-9.6564
▁Tayyip	-9.65673
Ben	-9.65705
16	-9.65722
▁yapısı	-9.65915
ası	-9.65962
ng	-9.66148
▁ilaç	-9.66151
▁Oyun	-9.66244
▁çıkma	-9.66252
▁dağıt	-9.66262
▁anlam	-9.66265
▁Sistemi	-9.66266
▁talebi	-9.66315
▁zemin	-9.66317
▁Bal	-9.66344
▁Artık	-9.66387
▁kullanmak	-9.66436
▁olmadan	-9.66471
▁oyunları	-9.66508
▁Süper	-9.6662
▁dedim	-9.66658
▁Partisi	-9.6671
▁sorumlu	-9.66736
▁gösteri	-9.66755
▁seni	-9.66812
▁''	-9.6683
duğu	-9.66891
▁ağrı	-9.66904
▁sipariş	-9.66957
laş	-9.66969
▁telefonu	-9.67022
▁gereği	-9.67025
▁Böyle	-9.67103
▁detaylı	-9.67118
je	-9.67131
larımızın	-9.67159
▁akıllı	-9.67246
▁ölçü	-9.67306
▁Üniversite	-9.6732
Ya	-9.67442
▁Bakan	-9.67449
ilecek	-9.67458
▁gelin	-9.67461
▁anlamına	-9.67464
▁katılan	-9.67475
▁Ed	-9.6754
▁dikkate	-9.67546
▁inşaat	-9.67564
▁oğlu	-9.67616
▁Gazete	-9.67727
▁trafik	-9.67789
▁yangın	-9.67815
▁günde	-9.67858
▁80	-9.67865
▁park	-9.67924
▁bulunur	-9.67935
▁edebilirsiniz	-9.67971
▁gör	-9.67987
▁kadınlar	-9.68043
▁kere	-9.68094
▁içindeki	-9.68124
▁Kuzey	-9.68263
▁verecek	-9.68263
▁millet	-9.68307
▁İbrahim	-9.68318
▁operasyon	-9.68322
▁Güneş	-9.68394
▁Açık	-9.68477
▁kalın	-9.6849
▁Para	-9.68503
▁pa	-9.68541
lem	-9.68549
▁Av	-9.68562
▁taşıyan	-9.68591
▁yarış	-9.6864
▁turizm	-9.68644
AN	-9.68709
eri	-9.6872
▁90	-9.68824
▁adını	-9.6888
▁almaya	-9.68939
EN	-9.68967
▁parçası	-9.6903
▁yanıt	-9.69036
▁seç	-9.69042
üyor	-9.6905
▁herkesin	-9.69053
▁tarihleri	-9.6907
leştir	-9.69075
▁gitme	-9.6909
▁İkinci	-9.69104
▁önceden	-9.69129
mis	-9.69143
▁firması	-9.69182
▁Müslüman	-9.69191
alı	-9.69234
▁Bi	-9.69295
▁açma	-9.69339
lam	-9.69426
▁ettir	-9.69464
▁sevgili	-9.69467
▁Göz	-9.695
▁halı	-9.6953
000	-9.69547
▁idi	-9.69555
▁insanları	-9.69567
▁analiz	-9.69579
▁Hakkında	-9.69582
▁söyleyen	-9.69592
▁hazırlanan	-9.69657
▁hazırlık	-9.69703
yken	-9.69717
▁şeker	-9.6973
malı	-9.69731
▁gelmiş	-9.6974
▁gıda	-9.69814
▁sermaye	-9.69964
▁and	-9.70021
▁çocukların	-9.70046
LARI	-9.70182
▁bo	-9.70191
▁taşı	-9.70217
▁va	-9.70218
▁Site	-9.70281
▁yolcu	-9.70312
▁başkanı	-9.7032
İN	-9.70379
▁olacağını	-9.70405
▁karşılaşma	-9.70411
▁cami	-9.70525
▁ülkede	-9.70529
cilik	-9.70562
başı	-9.70564
▁bulun	-9.70595
▁35	-9.70643
sem	-9.70671
▁Sınıf	-9.70689
▁Grup	-9.70702
▁Turizm	-9.70705
▁Va	-9.70758
eli	-9.70768
▁mezun	-9.70859
▁Altın	-9.70865
▁yaptıkları	-9.70878
▁değişik	-9.70882
▁Şube	-9.70883
▁takdirde	-9.70949
lerimizin	-9.71076
▁bahçe	-9.71115
90	-9.71141
▁kahve	-9.71196
▁gemi	-9.71244
▁yerli	-9.71301
▁Enerji	-9.71372
ağa	-9.71391
▁pro	-9.71397
landır	-9.71474
bar	-9.71518
▁istedi	-9.71652
▁ilanı	-9.71724
▁atan	-9.71761
▁zamanlarda	-9.71976
tık	-9.72029
▁grubu	-9.72043
AT	-9.72052
sta	-9.72158
▁düş	-9.72211
▁yaka	-9.72243
▁ulaşabilirsiniz	-9.72244
▁binlerce	-9.72285
▁bütçe	-9.72291
▁Si	-9.72334
cılık	-9.72393
hal	-9.72432
▁başlıyor	-9.72461
var	-9.72489
▁olduğundan	-9.72496
mon	-9.72516
11	-9.72595
▁sik	-9.72606
▁düzen	-9.72625
▁so	-9.72631
DE	-9.72693
▁Program	-9.727
▁kaydetti	-9.72707
▁ilave	-9.72754
▁belir	-9.7277
▁alındı	-9.72803
▁yatak	-9.72828
layıp	-9.72851
▁tablo	-9.73009
▁belgesi	-9.73118
▁İşletme	-9.7318
▁sivil	-9.7319
▁anlama	-9.73191
60	-9.73193
acağını	-9.732
▁görevi	-9.73217
▁futbol	-9.73298
▁alım	-9.73309
▁amaç	-9.7332
▁kış	-9.73325
▁değerlendir	-9.73337
▁yükle	-9.73353
▁Anayasa	-9.73357
▁toplumsal	-9.73395
ebiliyor	-9.73418
▁kimi	-9.73424
▁Kamu	-9.73465
▁ortam	-9.73503
▁tarım	-9.73523
▁üretimi	-9.73546
▁denetim	-9.73565
▁içerik	-9.73575
▁elektronik	-9.73601
▁Onun	-9.73622
▁www	-9.7364
eceğini	-9.73656
▁II	-9.73745
acağız	-9.73764
▁alternatif	-9.73786
▁tarafı	-9.73808
▁bağımsız	-9.73811
lari	-9.73825
▁200	-9.73836
▁Var	-9.73838
▁ürünü	-9.73881
▁kanal	-9.739
80	-9.73911
▁siyah	-9.73963
ss	-9.73995
▁Emniyet	-9.74012
▁sigorta	-9.74034
▁70	-9.74052
▁piyasa	-9.74064
▁hastalık	-9.74066
▁amaçlı	-9.74118
▁sonuna	-9.74159
▁toplu	-9.7419
▁yat	-9.74194
▁politika	-9.74262
▁itibariyle	-9.74321
▁demektir	-9.74326
▁işin	-9.74352
?”	-9.74367
▁Nasıl	-9.7442
▁beslenme	-9.74421
▁kullanılması	-9.74458
▁Yapılan	-9.74461
▁Ri	-9.74511
▁bitir	-9.74583
yse	-9.74596
▁kurtar	-9.74611
mar	-9.74615
▁dini	-9.74653
▁tutar	-9.7469
layın	-9.74714
▁Samsun	-9.74966
DA	-9.75081
▁ediliyor	-9.75091
▁fi	-9.75168
▁dünyaya	-9.75219
▁Tar	-9.75237
emez	-9.75253
ste	-9.75298
▁fe	-9.75307
▁çekti	-9.75353
yü	-9.75368
▁bırakma	-9.75385
▁iken	-9.75403
▁Kitap	-9.75414
▁Şehir	-9.75495
▁güvenliği	-9.75513
▁takımı	-9.75572
▁gelişme	-9.75601
▁başı	-9.7562
▁babası	-9.75704
▁adresi	-9.7571
▁uyar	-9.75735
▁Han	-9.75755
▁Merhaba	-9.75783
▁ayır	-9.75892
▁benzeri	-9.75932
▁dolayısıyla	-9.75971
▁he	-9.76047
▁kişiye	-9.76071
▁görülen	-9.76144
▁cilt	-9.76158
▁İnternet	-9.76192
▁sor	-9.76201
▁Öğretim	-9.76248
▁durumlarda	-9.76256
dığımız	-9.76326
lâ	-9.76363
▁Ege	-9.76402
▁tüketici	-9.7643
▁cok	-9.76443
▁pay	-9.76444
ciler	-9.7646
▁hakları	-9.76465
ben	-9.76495
▁bilir	-9.76569
*	-9.76594
▁edilmiştir	-9.76674
▁2009	-9.76678
▁dönemi	-9.76708
▁boz	-9.76735
▁Mu	-9.76742
ral	-9.76752
▁balık	-9.76752
▁fırsat	-9.76763
▁verilir	-9.76779
▁seviye	-9.76783
▁genelinde	-9.76826
▁rahatsız	-9.76836
Ka	-9.76841
▁kitle	-9.76887
▁bul	-9.76961
18	-9.76985
▁Hatta	-9.76994
tör	-9.76997
▁neredeyse	-9.7701
▁kul	-9.77024
19	-9.77025
▁Osman	-9.77038
▁yaşadığı	-9.77087
▁olanlar	-9.77135
▁tehdit	-9.7717
▁la	-9.77211
▁hızla	-9.7724
▁şikayet	-9.77244
▁öncelikle	-9.7725
▁Kız	-9.77258
▁yumurta	-9.77318
oloji	-9.77321
▁akıl	-9.77335
▁örgüt	-9.77355
▁düşman	-9.77359
▁Hizmetleri	-9.77423
▁Grubu	-9.77426
▁düşün	-9.77445
▁Evet	-9.7745
cılar	-9.77475
▁sağlığı	-9.77484
leş	-9.77565
mesini	-9.77601
▁orman	-9.77654
▁devre	-9.77688
abilmek	-9.77703
ğı	-9.77805
rken	-9.77818
ab	-9.77841
▁cihaz	-9.77935
▁PKK	-9.77977
eği	-9.7799
nızın	-9.78007
unda	-9.78069
▁olmalı	-9.78083
▁Oku	-9.78122
pi	-9.78157
▁ter	-9.78165
▁ruh	-9.78194
▁verilmesi	-9.78198
▁cep	-9.782
▁ettiğini	-9.78247
▁ortamda	-9.7828
▁olacağı	-9.78318
▁gözü	-9.78327
▁har	-9.78332
▁maddesi	-9.78371
▁şekil	-9.7839
▁boyu	-9.78413
▁Yıldız	-9.78513
▁alış	-9.78536
▁bünyesinde	-9.78601
▁em	-9.78636
-1	-9.7866
iç	-9.78714
▁Peygamber	-9.78727
irken	-9.78757
uk	-9.78841
AM	-9.7888
▁konser	-9.78897
▁tecrübe	-9.7902
▁oran	-9.79024
▁miktar	-9.79026
gü	-9.79042
▁mutfak	-9.79056
45	-9.79068
▁sizler	-9.79071
▁bekliyor	-9.79122
▁Teknoloji	-9.79172
ON	-9.7921
▁etkin	-9.79281
uş	-9.79303
▁Cuma	-9.79344
▁popüler	-9.79389
rat	-9.794
▁olmalıdır	-9.79447
▁Sarı	-9.79518
laştır	-9.79548
rek	-9.79575
layabilirsiniz	-9.79576
▁şık	-9.79589
▁yön	-9.79608
▁6.	-9.79672
▁söylüyor	-9.79725
isi	-9.79726
lek	-9.79784
▁Tam	-9.79802
▁Hi	-9.79824
▁birbirinden	-9.79847
>	-9.79868
ans	-9.79884
▁sokak	-9.79946
ysa	-9.79947
▁Bak	-9.79987
▁üzeri	-9.80003
▁öğrencilerin	-9.80028
▁Ata	-9.80079
▁Tarım	-9.80081
▁x	-9.80083
▁öner	-9.80087
▁konuş	-9.80093
▁Et	-9.80097
▁gösterir	-9.80124
▁arkadaşı	-9.80144
▁çocuğu	-9.80198
▁çocuğun	-9.80216
▁Kay	-9.80268
▁tel	-9.80268
▁idare	-9.80283
▁Ter	-9.80292
▁eşit	-9.80316
▁düzey	-9.80333
▁Kurul	-9.80336
▁tasarımı	-9.80366
▁Paşa	-9.8038
kal	-9.80446
▁Mersin	-9.80493
▁üret	-9.80493
24	-9.80508
▁tipi	-9.80545
▁mağaza	-9.80583
▁öğret	-9.80602
▁Din	-9.80704
▁Jo	-9.80713
▁Aslında	-9.80745
▁eksik	-9.80758
▁açılan	-9.80767
▁hikaye	-9.80768
▁verilme	-9.8079
İK	-9.80825
▁MADDE	-9.80841
▁Çelik	-9.8085
▁uyku	-9.80878
▁hakim	-9.80892
14	-9.80904
▁iptal	-9.80918
▁Bilim	-9.80981
▁usta	-9.81017
▁köşe	-9.81042
▁aşağıda	-9.81042
|	-9.81054
▁hoca	-9.81102
▁gösteriyor	-9.81102
▁dili	-9.81103
▁süren	-9.81106
eti	-9.81134
süz	-9.81154
▁ser	-9.81267
▁seri	-9.8127
▁yapabilirsiniz	-9.81271
▁kullandığı	-9.81322
▁final	-9.81431
▁dal	-9.81452
har	-9.81468
▁nakliyat	-9.8148
meden	-9.81572
▁istiyoruz	-9.81658
▁şiir	-9.817
▁Ge	-9.81799
▁Facebook	-9.81854
▁beğen	-9.81859
▁kurumsal	-9.81906
▁ekip	-9.8195
▁kendilerini	-9.81958
▁renkli	-9.82065
▁işler	-9.82106
▁paylaşım	-9.82118
▁noktada	-9.82134
▁ederken	-9.82298
▁hat	-9.82447
▁kullanan	-9.82467
lanıyor	-9.82471
▁Ol	-9.82518
lin	-9.8252
о	-9.82561
▁siyaset	-9.82567
kin	-9.82584
▁yıllar	-9.826
▁bakan	-9.82605
▁soruşturma	-9.82606
▁2008	-9.82611
▁fatura	-9.82643
cik	-9.82645
▁duygu	-9.82647
▁Yönetimi	-9.82654
▁Adı	-9.82677
UN	-9.82737
▁Ömer	-9.82845
▁vs	-9.82882
▁hücre	-9.82884
▁olduğumuz	-9.82917
ff	-9.8294
▁sabit	-9.82962
▁tanesi	-9.82969
arı	-9.82983
▁adayı	-9.82992
▁Ramazan	-9.83004
70	-9.83005
▁terk	-9.83083
▁kuş	-9.83126
▁nefes	-9.83179
▁masa	-9.83205
▁Alman	-9.83238
▁cezası	-9.83297
▁şifre	-9.83333
ebileceği	-9.83346
▁Önce	-9.83358
▁davran	-9.83362
▁sürücü	-9.8338
ð	-9.83403
gerçekleştirilen	-9.83476
▁Hizmet	-9.83497
▁yöntemi	-9.83679
ME	-9.83708
▁borç	-9.83793
▁vurgu	-9.83853
▁ofis	-9.83874
▁kiralama	-9.83963
▁Hüseyin	-9.83994
ize	-9.84056
▁He	-9.84056
▁hükümet	-9.84072
▁istiyorsanız	-9.84073
ân	-9.84076
dığınız	-9.84161
üs	-9.84242
▁Escort	-9.84277
▁kuvvet	-9.84346
▁Car	-9.84386
ladığı	-9.84387
▁temizlik	-9.84398
ment	-9.84421
▁sorunları	-9.84453
▁vermiş	-9.84456
▁oluştur	-9.84508
▁olmaktadır	-9.84583
▁giy	-9.84627
▁Pi	-9.84771
▁es	-9.84782
▁ücreti	-9.84812
▁Dolayısıyla	-9.84817
▁Van	-9.8483
▁gözaltına	-9.84917
▁bakımından	-9.84945
esi	-9.8499
▁deri	-9.85076
▁düşen	-9.85195
melidir	-9.85217
müz	-9.85225
lardaki	-9.85229
▁bilimsel	-9.85315
2018	-9.8541
▁kimlik	-9.85413
▁salon	-9.85448
▁Az	-9.85452
▁deneme	-9.85474
▁gazeteci	-9.85474
▁New	-9.85483
▁sektöründe	-9.85565
▁mah	-9.85624
▁İletişim	-9.85634
▁boy	-9.85671
▁kurtul	-9.85729
▁yıldız	-9.85737
▁hali	-9.85759
▁şekli	-9.85781
▁insanı	-9.85795
layacak	-9.85797
▁aykırı	-9.85861
▁sağlam	-9.85874
tma	-9.85933
▁Euro	-9.85982
13	-9.86057
▁po	-9.86085
▁gözlem	-9.86096
ih	-9.86155
▁problem	-9.86206
▁Dil	-9.8624
▁temin	-9.86275
mayan	-9.86397
mıyor	-9.86425
kat	-9.86436
▁Onlar	-9.86464
▁kategori	-9.86473
▁edebilir	-9.86479
▁vermektedir	-9.86493
▁ö	-9.86495
EL	-9.86514
35	-9.86603
UR	-9.86606
▁demir	-9.86668
▁muhteşem	-9.86669
21	-9.86708
▁Dışişleri	-9.86789
▁oranında	-9.8679
▁ağaç	-9.86829
▁İşleri	-9.86837
▁Yayın	-9.86906
▁fabrika	-9.86971
▁çalıştır	-9.86989
17	-9.87005
▁Nur	-9.87014
▁adalet	-9.87045
▁Dış	-9.87091
rt	-9.8711
22	-9.87158
▁kazandır	-9.87188
em	-9.87198
▁dinle	-9.87198
▁yarın	-9.87203
▁MHP	-9.87294
fer	-9.87296
▁yalan	-9.8733
▁olmayı	-9.87342
▁ca	-9.87348
▁Vali	-9.87351
▁Ülke	-9.87373
▁iyice	-9.8739
▁Kim	-9.87394
▁futbolcu	-9.87439
▁arz	-9.87449
ilerek	-9.87463
▁45	-9.87493
▁gelmesi	-9.87512
▁katılım	-9.87537
▁sözü	-9.87547
▁Gençlik	-9.87605
▁işleri	-9.87636
▁gelip	-9.87656
▁Lisans	-9.87751
▁uygulan	-9.87798
▁hasar	-9.87821
▁sunan	-9.87822
▁Or	-9.87975
hu	-9.88005
▁İngiliz	-9.88042
▁kısım	-9.88062
▁engelli	-9.88077
kaya	-9.88095
▁Ser	-9.88102
▁edildiği	-9.88122
▁acil	-9.8823
▁yedi	-9.88239
▁Malatya	-9.88256
▁im	-9.88257
▁demokrasi	-9.88269
▁uygulamaları	-9.88294
▁olduğunuz	-9.88309
▁Ligi	-9.88326
▁edilecek	-9.88327
▁it	-9.88394
▁hastalığı	-9.88399
▁yaşlı	-9.8848
▁Muhammed	-9.88494
▁arazi	-9.88506
▁rengi	-9.88509
AY	-9.88575
▁ge	-9.88582
▁teşvik	-9.88623
▁makinesi	-9.8867
liyor	-9.88696
▁Hayat	-9.88702
▁Tıp	-9.88704
▁karşılık	-9.88736
▁Kaya	-9.88738
▁barış	-9.88748
▁gösterdi	-9.88766
▁kıl	-9.88773
▁kültürel	-9.88803
İZ	-9.88886
▁gelme	-9.88907
▁Ad	-9.88953
▁Gece	-9.88961
▁buraya	-9.88961
▁aralarında	-9.88972
▁sok	-9.89014
▁Windows	-9.89024
▁Doç	-9.89091
▁alanları	-9.89125
▁seçenekleri	-9.89259
▁has	-9.89273
▁Gerçek	-9.89291
▁dalga	-9.89317
▁yılından	-9.89341
▁karşıya	-9.89403
▁yayınlanan	-9.89423
▁istihdam	-9.89452
meli	-9.89498
▁kalitesi	-9.895
▁çeşit	-9.8952
▁Kocaeli	-9.89539
▁ısı	-9.89562
▁Asya	-9.89608
eceğiz	-9.89659
sizlik	-9.89676
▁sunuyor	-9.89677
▁öğrenme	-9.89708
liğine	-9.8971
▁alabilirsiniz	-9.8971
▁Temel	-9.89785
yıp	-9.8979
▁türü	-9.89813
▁sorunlar	-9.8982
▁yolunda	-9.89822
▁dijital	-9.89856
▁pi	-9.89856
▁Yıl	-9.8987
▁hattı	-9.89883
▁FETÖ	-9.89884
ilme	-9.89899
▁arttır	-9.89901
▁çekme	-9.89937
oto	-9.89992
▁Gaziantep	-9.90007
▁bayram	-9.90021
ücü	-9.90048
▁çalışıyor	-9.90077
▁başkan	-9.90094
leniyor	-9.90101
leştirme	-9.90125
▁Elektrik	-9.90172
▁şirketi	-9.90176
▁yaklaşım	-9.90183
▁aşağı	-9.90187
▁doktor	-9.90188
▁ho	-9.9028
▁algı	-9.90292
ft	-9.90325
ov	-9.90341
▁Süleyman	-9.90341
▁denge	-9.90396
▁Kredi	-9.90404
hir	-9.90438
LA	-9.90447
her	-9.90546
▁;	-9.90575
kleri	-9.90585
▁Olay	-9.90603
LE	-9.90604
▁bildir	-9.90626
▁yemeği	-9.90721
▁sağlayacak	-9.90756
▁Bay	-9.9077
▁Pe	-9.9082
▁Top	-9.90841
▁yapıldığı	-9.90846
liler	-9.90892
▁konularda	-9.90896
▁alınma	-9.90906
▁koltuk	-9.9093
▁uyarı	-9.90963
posta	-9.90977
▁emekli	-9.90997
▁halkın	-9.9103
İL	-9.91041
▁uyumlu	-9.91048
▁esnasında	-9.91078
lanmıştır	-9.91087
▁bölümünde	-9.9112
▁Belki	-9.91124
▁bulunması	-9.91189
larınız	-9.9119
sunu	-9.91203
▁inci	-9.9122
▁yedek	-9.91233
▁Araç	-9.91247
▁batı	-9.91252
▁uyum	-9.91325
▁ilginç	-9.91356
▁makale	-9.91385
leriniz	-9.91416
▁bulmak	-9.91434
▁sinir	-9.91463
&	-9.91497
NA	-9.91508
▁soy	-9.91567
▁çöz	-9.91611
▁Saat	-9.91615
▁ulusal	-9.91626
▁taşın	-9.9164
▁kanıt	-9.91661
▁bence	-9.91665
▁toplumun	-9.91715
▁konuşan	-9.91761
lerimize	-9.91798
▁Ulusal	-9.91811
▁kargo	-9.91849
▁Etiketler	-9.91856
▁hekim	-9.91861
▁bulunma	-9.91878
▁Sev	-9.91906
▁Projesi	-9.91956
▁iade	-9.91967
▁sebebiyle	-9.91984
▁değişikliği	-9.92018
▁bugüne	-9.92034
▁olmadı	-9.92055
▁belirlenen	-9.92067
▁başladığı	-9.92136
▁Karadeniz	-9.9215
▁kayıp	-9.9216
▁eriş	-9.92187
▁kadının	-9.92196
lerdeki	-9.92232
▁özen	-9.92261
▁Öğrenci	-9.9235
▁rüya	-9.92353
▁attı	-9.92357
▁olanak	-9.92399
▁üstünde	-9.92419
▁zamanı	-9.92428
▁Es	-9.92441
▁vücut	-9.92442
▁aklı	-9.92462
▁öncesinde	-9.92493
▁geçme	-9.92496
▁bit	-9.9251
▁32	-9.9261
▁Ki	-9.92615
▁ülkemizde	-9.92616
En	-9.92619
▁maçı	-9.92644
▁girdiği	-9.92686
▁ör	-9.92689
ES	-9.92693
syon	-9.92701
▁kapan	-9.92743
▁Resmi	-9.92773
▁yoluyla	-9.92823
▁Ja	-9.92824
▁Tabi	-9.92824
▁Lisesi	-9.92867
ilebilir	-9.92877
ük	-9.9289
▁kuruluş	-9.92913
▁fa	-9.9294
▁evden	-9.93034
▁kolayca	-9.9304
ıt	-9.93044
▁doğu	-9.93049
▁Anne	-9.93101
▁geçtiğimiz	-9.93112
▁itiraz	-9.93221
şehir	-9.93224
▁isteği	-9.93304
ham	-9.93441
▁tarzı	-9.93444
▁aldım	-9.9346
▁mali	-9.93577
▁Apple	-9.93584
duk	-9.93655
sil	-9.93657
▁geliştirme	-9.93658
▁farkı	-9.93713
▁bilgiye	-9.93742
▁çal	-9.93745
▁adeta	-9.93751
▁platform	-9.93764
▁elbise	-9.93769
▁par	-9.93795
mdan	-9.93837
▁uğraş	-9.93847
ova	-9.93921
▁gitmek	-9.93922
kon	-9.93929
▁biridir	-9.93953
▁açıdan	-9.94003
▁örgütü	-9.9407
▁yaşamak	-9.94086
▁faydalan	-9.9409
▁kadınların	-9.94156
mayın	-9.94157
▁miktarı	-9.94185
▁ideal	-9.94248
▁Bundan	-9.94316
▁Kulübü	-9.94319
▁odası	-9.94346
▁sevk	-9.94411
▁Mal	-9.94425
▁kanser	-9.94493
26	-9.9453
▁Yazı	-9.94578
▁Beyaz	-9.94619
▁sıkı	-9.9465
▁Arap	-9.94652
ği	-9.94698
▁düz	-9.94702
zer	-9.94732
▁geçici	-9.94782
▁ci	-9.94835
▁Meclisi	-9.94919
▁Kısa	-9.94934
▁maliyet	-9.94934
▁Orman	-9.94963
▁aşı	-9.94975
▁Kişi	-9.94983
imizin	-9.95039
bel	-9.95072
dy	-9.95082
▁kök	-9.95087
larındaki	-9.95215
▁Şa	-9.95266
▁birbirine	-9.95328
▁yazma	-9.95476
▁Kent	-9.95483
▁Havalimanı	-9.95485
▁alınarak	-9.95502
ud	-9.95543
ard	-9.95572
▁kalk	-9.95619
▁vermeye	-9.95673
▁eser	-9.95689
▁yüzey	-9.95691
▁birer	-9.95723
▁hesabı	-9.95735
diğim	-9.95782
▁Akdeniz	-9.95811
paşa	-9.95927
▁Seçim	-9.95973
mesine	-9.9598
▁Ab	-9.96013
▁tedavisi	-9.9605
▁ayet	-9.96052
▁endişe	-9.96055
▁maddi	-9.96102
landırma	-9.96146
▁kaybetti	-9.96161
▁erkekler	-9.96211
▁Doğru	-9.96218
▁Gazi	-9.96238
▁alınır	-9.96247
▁sanki	-9.96321
▁noktası	-9.96343
▁ürünlerin	-9.96372
AS	-9.96373
aş	-9.96459
▁selam	-9.96489
vo	-9.96496
▁organizasyon	-9.96496
▁düğün	-9.96578
▁içeriği	-9.96584
▁adres	-9.96653
▁Fer	-9.96657
inize	-9.9668
▁Koç	-9.96732
▁gül	-9.96798
▁yanına	-9.96831
▁Kal	-9.96841
▁işleme	-9.96862
▁bilme	-9.96875
▁tarz	-9.96894
abı	-9.9691
▁Mısır	-9.9692
▁bulma	-9.96934
▁isterseniz	-9.96939
▁Go	-9.97007
▁Aşk	-9.97011
▁sayede	-9.97029
▁namaz	-9.97032
larım	-9.97038
dığım	-9.97051
▁Vakfı	-9.97052
▁gerektiği	-9.97097
Ta	-9.97126
▁devletin	-9.97164
▁yerlerde	-9.97173
tra	-9.9719
for	-9.97192
▁Per	-9.97242
▁çekici	-9.97256
▁porno	-9.9727
▁Savaşı	-9.97324
▁Amerikan	-9.97388
▁aşama	-9.97388
▁ata	-9.97477
▁birden	-9.97505
▁fikri	-9.97508
ksiyon	-9.97542
▁olduklarını	-9.97556
▁alması	-9.9758
IM	-9.97599
▁günümüzde	-9.97646
▁çiz	-9.97667
Ne	-9.97725
▁Mahkemesi	-9.97739
-2	-9.97739
▁planı	-9.97744
▁banyo	-9.97844
iği	-9.97852
06	-9.97859
▁metin	-9.97891
▁Yol	-9.97903
▁heyecan	-9.97921
▁eğlence	-9.97921
▁dakikada	-9.97922
▁yarışma	-9.97925
▁Ceza	-9.97946
▁Başvuru	-9.98003
▁anlatan	-9.98055
75	-9.98099
▁küresel	-9.98104
▁dost	-9.98116
▁Not	-9.98155
EK	-9.98173
▁uçuş	-9.98245
▁sıvı	-9.98289
▁yolda	-9.98298
▁w	-9.98299
▁yen	-9.98302
tt	-9.98316
▁05	-9.9837
leyerek	-9.98374
01	-9.9842
▁cümle	-9.98449
▁yayım	-9.98493
▁tamamı	-9.98494
veya	-9.98496
▁elbette	-9.9851
▁bilen	-9.98517
abilen	-9.98549
▁tiyatro	-9.98606
▁tabii	-9.98661
umuz	-9.98778
▁Park	-9.98841
▁araştır	-9.98901
▁İnşaat	-9.98913
▁Gök	-9.98914
▁ifadelerini	-9.98984
▁firmamız	-9.99024
▁yerden	-9.99068
▁anlattı	-9.99072
▁Meslek	-9.99078
▁etmiştir	-9.99091
▁herkese	-9.99103
lılar	-9.99105
▁1-	-9.99208
dal	-9.99237
▁insanlara	-9.99255
▁arıza	-9.99269
▁başlayacak	-9.99294
▁getirmek	-9.9935
▁anlayışı	-9.99352
07	-9.99408
▁Trabzon	-9.99408
▁bazıları	-9.99433
▁sağlıyor	-9.99436
▁ameliyat	-9.99437
▁co	-9.99441
▁civarında	-9.995
▁vererek	-9.99511
bin	-9.99529
▁ayakkabı	-9.9959
▁birini	-9.99617
▁mesafe	-9.99617
▁sonuçlar	-9.99713
▁değiştirme	-9.9978
03	-9.99797
▁Android	-9.99824
▁memur	-9.9986
▁düzeyde	-9.99915
▁öde	-9.99922
▁konuk	-10.0006
▁çalışır	-10.0006
▁keyifli	-10.001
▁edilmektedir	-10.0015
▁şiddet	-10.0019
tay	-10.0023
▁Sınav	-10.0028
▁yüzünden	-10.0033
▁böylece	-10.0035
▁katı	-10.0043
▁faydalı	-10.0045
▁|--	-10.0047
▁ihracat	-10.0048
▁önde	-10.0048
▁Eskişehir	-10.0051
lanarak	-10.0055
▁bilgisi	-10.0061
▁Trump	-10.0062
ılmaktadır	-10.0063
▁nesil	-10.0063
▁beyan	-10.0065
ılabilir	-10.0065
▁gidiyor	-10.0068
▁bulabilirsiniz	-10.007
▁vatandaş	-10.0075
▁Bel	-10.008
yar	-10.0081
▁isteme	-10.0083
▁birinin	-10.0085
ınca	-10.0086
▁ok	-10.0087
▁Yeşil	-10.009
▁Doğan	-10.0091
▁ettim	-10.0092
ct	-10.0096
▁yaşat	-10.0103
▁zorunlu	-10.0105
ımızın	-10.0106
▁iktidar	-10.0111
▁un	-10.0115
▁yapın	-10.0117
▁hi	-10.0119
▁kağıt	-10.0121
▁şunları	-10.0124
▁Bayramı	-10.0125
▁Polis	-10.0129
ET	-10.0136
▁arzu	-10.0136
▁kilometre	-10.0137
sat	-10.0139
acağım	-10.0143
▁fiziksel	-10.0145
▁ondan	-10.0146
▁işlemler	-10.0147
yacak	-10.0148
▁garanti	-10.0151
ia	-10.0154
▁ufak	-10.0156
▁etkinliği	-10.0159
▁aracılığıyla	-10.0161
▁merkezinde	-10.0163
08	-10.0166
▁adamı	-10.0174
▁şehrin	-10.0177
27	-10.0181
▁halka	-10.0183
▁üstün	-10.0184
▁düşünme	-10.0185
▁kod	-10.0187
▁sunulan	-10.0193
▁kaldığı	-10.0193
▁Ce	-10.0194
▁koru	-10.0199
AP	-10.0203
▁kumaş	-10.0207
▁hanım	-10.0207
▁pazarlama	-10.0208
▁yoktu	-10.0209
▁Neden	-10.0209
düğü	-10.0209
▁Diyarbakır	-10.0211
▁özellik	-10.0217
▁Kon	-10.022
▁misafir	-10.0224
▁Ber	-10.0224
▁Tasarım	-10.0229
▁kazanan	-10.0229
▁gelişmiş	-10.0233
til	-10.0233
▁anı	-10.024
▁fırsatı	-10.0243
▁etkinlik	-10.0246
gül	-10.0249
▁Roma	-10.025
▁bomba	-10.025
▁programları	-10.025
▁du	-10.0251
▁nda	-10.0257
▁01	-10.0258
▁verimli	-10.026
gal	-10.026
▁biliyor	-10.0266
▁Müşteri	-10.0269
▁7.	-10.0271
dikten	-10.0272
LI	-10.0275
Al	-10.0278
abileceği	-10.0279
▁süreçte	-10.028
LAN	-10.028
▁Bilgisayar	-10.0281
ts	-10.0282
▁beden	-10.0284
▁yönetici	-10.0288
ıyordu	-10.0289
▁fon	-10.0295
▁esnaf	-10.0295
▁Amaç	-10.0296
▁tanıma	-10.0298
▁kazandı	-10.0299
▁edilebilir	-10.03
▁Kurum	-10.0301
▁alanlarda	-10.0302
gel	-10.0306
▁300	-10.0314
▁ölçüde	-10.0317
tme	-10.032
▁Şirket	-10.0321
▁kalıcı	-10.0321
▁·	-10.0321
▁meydan	-10.0322
▁huzur	-10.0324
▁mutluluk	-10.0324
SA	-10.0325
31	-10.033
▁buradan	-10.0332
▁komşu	-10.0339
muştur	-10.0342
larımıza	-10.0342
▁gidip	-10.0343
▁davranış	-10.0344
lerindeki	-10.0344
▁söyleme	-10.0347
▁seçimi	-10.0352
▁getirdiği	-10.0352
layıcı	-10.0358
▁hayatta	-10.0361
TE	-10.0363
▁maruz	-10.0365
▁Hak	-10.0366
Biz	-10.0367
▁satışı	-10.0368
▁üstüne	-10.0368
▁Kır	-10.0369
▁çekim	-10.037
▁pratik	-10.0371
28	-10.0372
yoruz	-10.0372
▁dar	-10.0372
▁dev	-10.0372
▁bilet	-10.0375
▁hayran	-10.0375
▁nerede	-10.0376
▁ortamı	-10.0377
▁sesi	-10.0378
▁gündeme	-10.0382
so	-10.0382
▁Daire	-10.0387
▁2007	-10.039
▁rekabet	-10.0391
imizi	-10.0392
▁Toplam	-10.0399
▁günler	-10.0403
65	-10.0408
▁açı	-10.0409
▁genelde	-10.0409
▁İsmail	-10.041
▁gönül	-10.041
▁Kol	-10.0412
yer	-10.0414
▁Şahin	-10.0415
▁yeme	-10.0415
▁üretici	-10.0417
▁radyo	-10.0417
dil	-10.0425
▁Karşı	-10.0427
dıklarını	-10.0431
bay	-10.0431
▁mevcuttur	-10.0431
09	-10.0437
▁dönüşüm	-10.0438
▁falan	-10.0439
q	-10.0441
ebilen	-10.0443
ılıp	-10.0446
▁geleneksel	-10.0447
▁çevir	-10.0448
ent	-10.0449
▁tık	-10.0452
▁suretiyle	-10.0456
▁metal	-10.0457
▁Destek	-10.0459
▁çocukları	-10.0459
▁dönüştür	-10.046
ite	-10.0465
▁yakından	-10.0466
les	-10.0467
▁Komisyonu	-10.0471
▁döviz	-10.048
▁deprem	-10.048
lidir	-10.0485
▁gurur	-10.0485
▁mesele	-10.0485
▁Alan	-10.0492
ep	-10.0495
▁hayırlı	-10.0497
▁Çanakkale	-10.0498
32	-10.0499
▁getirme	-10.0499
▁Ekonomi	-10.0504
▁belirtildi	-10.0507
dağ	-10.0508
▁görevli	-10.0509
art	-10.0511
▁yağmur	-10.0519
gun	-10.0522
▁zayıf	-10.0523
▁Tan	-10.0526
▁gez	-10.0527
▁tanıt	-10.053
ğe	-10.0535
▁çıkmış	-10.0539
▁klima	-10.0544
▁Veri	-10.0544
▁8.	-10.0544
▁sınırlı	-10.0548
▁Kayseri	-10.0551
mik	-10.0553
▁Em	-10.0556
▁kurma	-10.0558
▁kaybı	-10.0565
▁AL	-10.0571
▁ko	-10.0571
▁kahvaltı	-10.0577
▁arı	-10.0582
unuz	-10.0588
▁sigara	-10.059
▁uyan	-10.0592
▁bekleme	-10.0598
▁depo	-10.0602
▁gösterdiği	-10.0603
▁Satış	-10.061
top	-10.0611
▁Üç	-10.0615
▁Nakliyat	-10.0616
▁Futbol	-10.0618
▁kimyasal	-10.0618
▁mavi	-10.062
▁icin	-10.0622
▁Yan	-10.0623
▁Gıda	-10.0623
▁Je	-10.0626
▁Öte	-10.0627
▁abi	-10.0629
▁sap	-10.063
mal	-10.0634
▁çalışmalarını	-10.0638
www	-10.0641
▁kardeş	-10.0642
fil	-10.0644
rem	-10.0648
raf	-10.0649
▁Geçen	-10.0652
org	-10.0653
bat	-10.0654
lıdır	-10.0655
▁izleme	-10.0656
lamaya	-10.0658
▁mümkündür	-10.0658
▁Giriş	-10.066
fet	-10.0663
▁duy	-10.0671
▁olmaması	-10.0672
zan	-10.0672
▁Men	-10.0672
ris	-10.0677
▁izni	-10.0683
▁saf	-10.0684
▁ilerle	-10.0686
kları	-10.0691
SI	-10.0699
▁karşılaş	-10.0699
▁yapmanız	-10.0702
▁gerçekleşen	-10.0703
▁prim	-10.0704
▁Firma	-10.0708
05	-10.0709
▁ölü	-10.071
▁duruma	-10.0712
▁noktasında	-10.0713
yarak	-10.0714
▁İnce	-10.0716
▁alıcı	-10.0722
lenerek	-10.0729
▁çıkacak	-10.0729
▁milletvekili	-10.0731
▁Gu	-10.0731
▁girme	-10.0732
▁firmaları	-10.0732
manız	-10.0733
▁Banka	-10.0737
▁Fe	-10.0737
▁link	-10.0738
▁temsilcileri	-10.0742
▁gelişim	-10.0743
yol	-10.0745
▁oto	-10.0746
▁ilçesi	-10.0748
▁sınırları	-10.0748
▁Oda	-10.0752
▁Eğitimi	-10.0754
▁halkı	-10.0754
▁Bölgesi	-10.0755
▁yönünde	-10.0762
▁varlığı	-10.0763
▁2000	-10.0763
▁tat	-10.0764
▁görüşü	-10.0765
▁St	-10.0767
▁koca	-10.078
▁Köyü	-10.078
▁Hukuk	-10.0781
▁günün	-10.0782
▁yapabilir	-10.0783
▁man	-10.0785
▁ederiz	-10.0792
▁açtı	-10.0794
▁numarası	-10.0801
▁mm	-10.0808
▁başlığı	-10.081
▁değerleri	-10.081
▁eğlenceli	-10.0813
▁olayı	-10.0814
▁saniye	-10.0819
ina	-10.082
ara	-10.0831
▁uzat	-10.0833
yin	-10.0834
▁sizleri	-10.0836
▁yarım	-10.0838
▁anlamı	-10.0839
iliyor	-10.084
▁Öncelikle	-10.0845
▁Afrika	-10.0848
▁kulak	-10.0854
ation	-10.0857
▁tutul	-10.0857
od	-10.0862
▁uygulamalar	-10.0864
▁Hu	-10.0866
lendir	-10.0867
▁oluşturma	-10.0868
EV	-10.0871
▁şube	-10.0872
▁Tah	-10.0877
val	-10.0877
▁Gür	-10.0879
▁klasik	-10.0881
don	-10.0883
Ge	-10.0884
2017	-10.0885
▁başar	-10.0893
▁seksi	-10.0894
▁şartları	-10.0896
▁fuar	-10.0899
▁azalt	-10.09
lamış	-10.09
▁şehri	-10.0905
▁yöntemleri	-10.0911
▁geçer	-10.0916
zı	-10.0917
▁temas	-10.0922
▁Za	-10.0925
ac	-10.0927
▁toplantısı	-10.093
Allah	-10.0931
▁rahmet	-10.0932
istan	-10.0932
▁beyin	-10.0935
▁Fransız	-10.0935
▁yapması	-10.0937
99	-10.0937
▁Zaten	-10.0939
▁Köy	-10.094
▁çekiyor	-10.0949
ebilmek	-10.0954
▁raporu	-10.0957
▁vize	-10.096
▁36	-10.0961
▁Millet	-10.0965
▁kriz	-10.0966
▁firmalar	-10.0969
▁üstü	-10.0969
▁Tur	-10.0971
▁ilke	-10.0971
lığına	-10.0973
▁numaralı	-10.0974
▁Üyesi	-10.0974
▁araçlar	-10.0976
lt	-10.0981
▁vatandaşlar	-10.099
lanabilir	-10.0991
▁http	-10.0993
▁sorular	-10.0999
▁yaptığımız	-10.0999
23	-10.101
▁sözleri	-10.1013
nik	-10.1014
▁Müzik	-10.1016
▁seçeneği	-10.102
▁kedi	-10.1022
▁anında	-10.1023
▁Yazar	-10.1025
▁sakin	-10.1031
▁olunca	-10.1032
▁geçirme	-10.1032
▁gerekse	-10.1032
▁ettik	-10.1032
lma	-10.1034
▁varlık	-10.1035
▁şa	-10.1035
diklerini	-10.1036
▁yatır	-10.1038
▁Servis	-10.104
ana	-10.1041
▁tarihinden	-10.1041
AB	-10.1043
▁İtalya	-10.1048
atör	-10.1049
lanacak	-10.1049
altı	-10.105
▁sorgu	-10.1051
RE	-10.1053
▁götür	-10.1059
▁hapis	-10.106
▁çelik	-10.1061
▁Okulu	-10.1061
oğu	-10.1062
▁Koca	-10.1062
▁tuz	-10.107
▁umut	-10.1073
▁Bunların	-10.1074
▁kurban	-10.1077
▁oyunlar	-10.1078
▁göç	-10.1079
▁elinde	-10.1079
▁parmak	-10.108
▁saati	-10.108
▁çeviri	-10.1081
mden	-10.1082
▁önümüzdeki	-10.1083
▁deney	-10.1083
▁sürecinde	-10.1084
▁yapmayı	-10.1091
▁denir	-10.1092
▁İslâm	-10.1095
leyici	-10.1096
▁Ağ	-10.1097
▁Yaşam	-10.1097
▁nüfus	-10.1098
▁Bodrum	-10.1099
▁Görev	-10.1101
log	-10.1102
▁şeyin	-10.1102
▁iman	-10.1104
▁gelişmeler	-10.1108
malısınız	-10.1109
▁Kaza	-10.1111
sızlık	-10.1111
▁güncelleme	-10.1111
▁sunar	-10.1112
imize	-10.1114
bur	-10.1118
▁Hal	-10.1119
UM	-10.1122
▁soruları	-10.1123
▁Sar	-10.1125
0.000	-10.1129
▁süredir	-10.1131
bil	-10.1132
OR	-10.1133
▁kazanç	-10.1141
▁düzenlediği	-10.1142
▁dolaş	-10.1143
▁peygamber	-10.1145
36	-10.1148
▁dergi	-10.1148
bank	-10.1154
▁diy	-10.1158
▁2019	-10.1159
▁yaptık	-10.1159
▁çatışma	-10.116
▁annesi	-10.1165
▁haberleri	-10.1168
▁yukarı	-10.1168
▁kimsenin	-10.1168
şı	-10.1168
eceksiniz	-10.1168
▁zamanında	-10.1173
▁günden	-10.1173
▁güne	-10.1175
İT	-10.1181
▁altını	-10.1184
▁döndü	-10.1184
▁atma	-10.1184
▁şart	-10.1188
▁nakliye	-10.1189
▁bireysel	-10.1189
▁petrol	-10.119
▁olaylar	-10.1192
▁tarifi	-10.1198
▁şüphe	-10.12
lerim	-10.1202
▁kalır	-10.1204
▁faaliyetleri	-10.121
ışı	-10.1212
▁cihazı	-10.1219
▁çıktığı	-10.122
rik	-10.1223
ydu	-10.1223
▁Çay	-10.1224
▁kut	-10.1225
▁form	-10.1228
▁Kanunun	-10.1229
▁olmaları	-10.1235
Me	-10.1235
▁kardeşi	-10.1236
ez	-10.1237
▁pencere	-10.1242
َ	-10.1244
▁mezar	-10.1249
▁gördü	-10.1255
▁çağır	-10.1256
▁kahraman	-10.1257
▁katıldığı	-10.1258
▁aran	-10.126
ece	-10.1264
▁hariç	-10.1266
▁Başka	-10.1266
▁projeler	-10.1267
▁okur	-10.1274
▁Erkek	-10.1279
▁aracın	-10.1281
▁sürü	-10.1284
▁vazgeç	-10.1286
▁birliği	-10.1288
▁kalmış	-10.1289
▁(2)	-10.129
▁ilişkiler	-10.1307
Te	-10.1311
▁Hazır	-10.1315
▁tepe	-10.1319
▁yaptım	-10.1331
▁İs	-10.1334
TA	-10.1335
▁Kullanıcı	-10.1336
▁kendimi	-10.1337
▁Şen	-10.1342
▁sağlanması	-10.1346
ledi	-10.1346
▁yarar	-10.1352
▁malzemeleri	-10.1354
▁Tü	-10.1355
▁görünüyor	-10.136
ildiği	-10.1362
▁kenar	-10.1363
▁dayalı	-10.1364
▁Hafta	-10.1366
39	-10.1368
▁Bahçe	-10.1371
▁meme	-10.1375
▁stres	-10.1378
▁farkında	-10.1379
▁Bas	-10.1382
▁Ye	-10.1382
KA	-10.1385
▁teknolojisi	-10.1386
▁çatı	-10.1386
▁makam	-10.1388
▁Rum	-10.1389
eme	-10.1389
▁tehlike	-10.139
▁korumak	-10.1394
▁miktarda	-10.1395
▁edilme	-10.1401
▁geliş	-10.1405
▁tanıtım	-10.1406
▁Kontrol	-10.141
CE	-10.1415
▁çe	-10.1416
▁Sakarya	-10.1421
▁derecede	-10.1428
abil	-10.1429
▁sitesinde	-10.143
▁geleceği	-10.1434
▁tescil	-10.1436
▁harcama	-10.1437
▁yaklaş	-10.1437
▁Eş	-10.144
▁no	-10.1442
▁33	-10.1447
▁yaratıcı	-10.1448
mayacak	-10.1449
▁Du	-10.145
▁verici	-10.1453
Cumhurbaşkanlığı	-10.1454
▁hüküm	-10.146
▁yapılmaktadır	-10.1461
▁nesne	-10.1462
▁(19	-10.1463
▁Festivali	-10.1464
▁mobilya	-10.1464
▁geldiğini	-10.1467
▁konular	-10.1476
sidir	-10.1479
29	-10.1483
▁sunmaktadır	-10.1483
rit	-10.1486
▁Fotoğraf	-10.1487
▁bildirim	-10.1488
▁oldum	-10.1489
▁yapım	-10.1497
▁Ci	-10.1498
▁alanlar	-10.15
▁Sal	-10.15
▁kurumlar	-10.1503
▁payı	-10.1507
▁kalbi	-10.1507
▁sürece	-10.1507
▁saatlerinde	-10.1509
umu	-10.151
▁ku	-10.1511
▁duyma	-10.1513
amayan	-10.1515
▁sıfır	-10.1517
▁vatan	-10.1517
▁söyle	-10.1519
▁atık	-10.1521
ant	-10.1522
▁Oysa	-10.153
▁gördüğü	-10.1533
▁kavga	-10.1534
laması	-10.1535
▁enflasyon	-10.1537
▁öğrencileri	-10.1538
▁evi	-10.1539
▁unut	-10.1541
▁vermesi	-10.1542
▁yansıt	-10.1542
kara	-10.1542
mm	-10.155
▁artan	-10.1567
res	-10.1569
▁Kapı	-10.157
▁bedel	-10.1573
▁istanbul	-10.1573
▁çalıştığı	-10.1576
▁toz	-10.1585
▁Servisi	-10.1586
▁restoran	-10.1587
▁buldu	-10.159
yorum	-10.1592
▁Is	-10.1593
▁yılları	-10.1593
▁tez	-10.1596
lendiği	-10.1597
▁yıllardır	-10.1598
▁ili	-10.16
▁uygulanan	-10.1604
kü	-10.161
kur	-10.1619
ire	-10.162
▁cephe	-10.1621
▁Yunanistan	-10.1622
▁İle	-10.1622
likleri	-10.1623
▁yaşıyor	-10.1625
▁ayağı	-10.1627
▁açılış	-10.1627
▁diz	-10.1628
yet	-10.163
▁blog	-10.1632
▁inanç	-10.1634
▁haberi	-10.1636
yip	-10.1641
▁ede	-10.1642
▁geldik	-10.1647
▁acaba	-10.1647
▁iPhone	-10.1648
▁düştü	-10.1652
▁Adam	-10.1652
▁yönel	-10.1654
▁namazı	-10.1654
tro	-10.1655
▁Saç	-10.1656
▁kilit	-10.1658
▁Abdullah	-10.1663
indeki	-10.1666
likle	-10.1667
▁geçiyor	-10.1667
▁Yatırım	-10.167
▁34	-10.1672
ali	-10.1675
▁Marka	-10.1681
▁kutu	-10.1689
tti	-10.1692
▁Yurt	-10.1694
▁yönet	-10.1694
?"	-10.1696
▁maaş	-10.1698
▁kulüp	-10.1698
che	-10.1701
▁TBMM	-10.1702
▁görül	-10.1704
kim	-10.1704
▁söylen	-10.1704
▁projeleri	-10.1707
▁Dünyanın	-10.1709
▁sizlerle	-10.1712
▁Dönem	-10.1716
▁yapıp	-10.1716
▁harf	-10.1717
▁Caddesi	-10.1719
üne	-10.172
fo	-10.1721
▁sunduğu	-10.1724
▁Soru	-10.1726
düğünü	-10.1732
likler	-10.1733
▁artması	-10.1733
▁kullanılabilir	-10.1733
▁ilişkileri	-10.1735
▁günah	-10.1736
▁değildi	-10.1738
▁gittiği	-10.1741
▁yönde	-10.1742
▁meclis	-10.1742
▁kaplama	-10.1746
▁ayr	-10.1747
▁ten	-10.1747
türk	-10.1747
▁hatun	-10.1764
▁Yunan	-10.1769
LİK	-10.177
▁araçları	-10.1775
▁düşünül	-10.1777
bb	-10.1781
▁dernek	-10.1782
@	-10.1782
▁sebeple	-10.1784
▁içeri	-10.1786
▁haz	-10.1788
▁panel	-10.1789
▁emniyet	-10.1792
▁seven	-10.1793
abilmesi	-10.1794
▁Şehit	-10.1799
▁Digiturk	-10.1801
▁maddesinin	-10.1801
▁Sigorta	-10.1807
▁Müdür	-10.181
▁anahtar	-10.1811
▁ters	-10.1811
sey	-10.1814
▁Federasyonu	-10.1816
▁iste	-10.1819
▁Hasta	-10.1819
▁tarif	-10.1824
ât	-10.183
tel	-10.183
▁pozisyon	-10.183
02	-10.1832
Türk	-10.1833
▁Adalet	-10.1839
▁muayene	-10.184
yr	-10.1841
▁edilerek	-10.1841
EY	-10.1843
▁olabilirsiniz	-10.185
ligi	-10.185
▁ulaşmak	-10.1854
▁Alevi	-10.1856
tion	-10.1857
yat	-10.1866
▁evlilik	-10.1866
▁Hemen	-10.1867
▁gayet	-10.1867
▁Am	-10.1869
▁Bur	-10.1871
luğa	-10.1874
▁hayır	-10.1874
▁bayanlar	-10.1874
▁Kas	-10.1875
▁bedeli	-10.1877
tif	-10.1878
▁yükleme	-10.1879
▁açıklaması	-10.1881
▁Hakan	-10.1883
▁55	-10.1884
▁ordu	-10.1884
▁dedektiflik	-10.1888
▁göğüs	-10.1891
▁yılının	-10.1894
▁ulaştı	-10.1895
ram	-10.1903
▁tüket	-10.1904
▁olduk	-10.1905
▁ip	-10.191
▁festival	-10.1911
▁oluşturan	-10.1911
▁ailesi	-10.1911
▁korunması	-10.1911
▁başlıklı	-10.1912
manın	-10.1913
▁kazı	-10.1913
▁Tabii	-10.1916
▁şüpheli	-10.1918
▁yıla	-10.192
▁sessiz	-10.1921
meyecek	-10.1923
▁Dur	-10.1923
▁tutma	-10.1927
▁yetiştir	-10.1929
▁gelmektedir	-10.1933
▁sağlama	-10.1934
ıyorsunuz	-10.1938
▁dikkatli	-10.194
Sen	-10.1945
ýn	-10.1949
55	-10.1949
▁Personel	-10.1951
!”	-10.1952
Se	-10.1954
▁150	-10.1955
▁Günümüzde	-10.1959
▁ağız	-10.196
▁halen	-10.1961
▁Der	-10.1964
bek	-10.1965
▁ürünün	-10.1968
▁sebze	-10.1978
34	-10.198
▁yukarıda	-10.1982
▁onunla	-10.1982
▁düşür	-10.1983
▁yapılıyor	-10.1984
▁taze	-10.1986
ümüz	-10.1987
▁Telefon	-10.1989
▁Şi	-10.1989
▁söylemek	-10.1994
car	-10.1997
uru	-10.1998
▁aşkın	-10.2002
▁olduğum	-10.2002
▁konaklama	-10.2003
▁evinde	-10.2004
▁ekmek	-10.2005
▁yar	-10.2006
stan	-10.2008
▁politikası	-10.2009
▁yüzü	-10.201
lerimi	-10.201
▁ez	-10.2018
▁bisiklet	-10.2024
pan	-10.2026
▁güzellik	-10.2029
▁Yusuf	-10.2029
▁gelince	-10.2031
gın	-10.2033
▁Baba	-10.2034
▁göstermek	-10.2035
▁maçında	-10.2037
▁Mutfak	-10.2037
▁hakkını	-10.2038
▁perde	-10.2038
▁alımı	-10.2039
▁bonus	-10.2039
mın	-10.2041
▁moda	-10.2041
▁alacağı	-10.2047
yordu	-10.2047
land	-10.2048
▁bel	-10.205
CI	-10.2053
▁görür	-10.2054
▁uy	-10.2057
▁pe	-10.2062
▁Sistem	-10.2064
leyip	-10.2065
eş	-10.2066
zen	-10.2067
▁ah	-10.2067
▁Marmara	-10.207
▁köpek	-10.2073
▁dayanıklı	-10.2075
▁koku	-10.2075
▁Gör	-10.2076
▁2006	-10.2078
▁sağlan	-10.208
37	-10.2082
/1	-10.2083
▁kuzey	-10.2085
▁çalışmak	-10.2088
▁yolculuk	-10.2089
▁Sel	-10.209
dere	-10.2093
▁Cumartesi	-10.2094
▁sunucu	-10.2096
mut	-10.2097
çu	-10.2099
şen	-10.2103
▁48	-10.2106
▁olmasa	-10.2109
▁Kazan	-10.2112
▁saatleri	-10.2113
▁zamanlar	-10.2119
▁doku	-10.2125
▁temizliği	-10.2125
▁çıkması	-10.2126
▁Tem	-10.2126
bal	-10.2127
larken	-10.2128
▁Ermeni	-10.2131
▁ettikleri	-10.2137
▁çözümü	-10.2139
▁Ti	-10.2142
ven	-10.2145
▁Savaş	-10.2146
▁Bana	-10.2147
▁oturma	-10.2147
▁üretilen	-10.2154
▁öğle	-10.2157
▁kaçır	-10.2158
▁oluşur	-10.2162
▁Gi	-10.217
▁ülkeler	-10.2171
▁Sabah	-10.2178
▁Kayıt	-10.2179
üstü	-10.2179
leyebilirsiniz	-10.2182
▁Kore	-10.2185
▁Dalı	-10.2186
▁süper	-10.2187
▁donanım	-10.219
▁Video	-10.219
▁Pat	-10.2193
▁baz	-10.2195
▁işgal	-10.2196
▁iletişime	-10.2198
▁göstermektedir	-10.22
▁Hiç	-10.22
▁yerler	-10.2202
▁pat	-10.2204
▁usul	-10.2204
▁Öğretmen	-10.2205
▁yazık	-10.2207
iyordu	-10.2207
▁imkan	-10.2213
▁sahil	-10.2215
▁isti	-10.2218
33	-10.2219
▁merhaba	-10.2221
EM	-10.2222
BA	-10.2223
▁albüm	-10.2229
▁Paris	-10.2235
▁hizmetler	-10.2241
▁Denizli	-10.2244
▁erişim	-10.2245
▁Farklı	-10.2248
▁konferans	-10.2249
ınızı	-10.2252
▁Sevgili	-10.2255
▁yıkama	-10.2258
OS	-10.226
▁kaydı	-10.2261
▁özgürlük	-10.2262
▁Takımı	-10.2263
▁mail	-10.2267
▁ir	-10.2268
▁kendinizi	-10.2269
▁süs	-10.2271
İS	-10.2271
▁Mobil	-10.2272
▁tehlikeli	-10.2273
▁coğrafya	-10.2273
▁etmeyi	-10.2276
wa	-10.2276
▁pas	-10.2279
tre	-10.2279
▁anlar	-10.2282
▁unutma	-10.2282
▁değin	-10.2287
▁çalışmaya	-10.2291
▁duyuru	-10.2292
kte	-10.2292
▁Öyle	-10.2296
▁Con	-10.2297
▁bakımı	-10.2297
▁Karar	-10.2297
▁roman	-10.2299
▁Eve	-10.2303
▁kalem	-10.2304
▁isimler	-10.2304
▁söylediği	-10.2305
▁ayda	-10.2305
IR	-10.2306
▁karış	-10.2307
▁bakma	-10.231
-19	-10.2313
▁Sayı	-10.2315
▁sanırım	-10.2316
af	-10.232
▁Sak	-10.2323
mü	-10.2328
Tİ	-10.2333
▁tören	-10.2333
▁Kap	-10.2333
▁Sağ	-10.2334
yecek	-10.2334
US	-10.2337
▁sür	-10.2341
▁git	-10.2342
▁beklenen	-10.2344
▁Barış	-10.2344
▁uygulanması	-10.2346
▁Yabancı	-10.2354
▁lideri	-10.2359
anlar	-10.236
kâr	-10.2369
sý	-10.237
vet	-10.237
▁ikili	-10.2381
▁kavuş	-10.2383
▁sun	-10.2384
▁$	-10.2386
▁üyelik	-10.239
▁hayatın	-10.2393
▁kum	-10.2394
▁kale	-10.2397
lis	-10.2398
▁Art	-10.2403
yacaktır	-10.2404
abilmektedir	-10.241
▁ibadet	-10.241
▁Bayan	-10.2416
▁ayrılma	-10.2418
▁gerçeği	-10.242
▁tamamladı	-10.242
of	-10.2422
nci	-10.2424
▁maçta	-10.2431
▁forma	-10.2433
▁sıcaklık	-10.2435
▁köprü	-10.2437
▁yürüyüş	-10.2441
▁disiplin	-10.2441
▁topu	-10.2444
▁şansı	-10.2445
UL	-10.2447
De	-10.2449
▁takımın	-10.2449
▁çıkardı	-10.2452
▁delil	-10.2455
▁Birinci	-10.2455
leyin	-10.2456
ja	-10.2456
▁çıkarma	-10.2457
▁gördüm	-10.2458
iyeti	-10.246
▁Tanrı	-10.2461
set	-10.2463
▁aylarında	-10.2466
38	-10.2469
▁dediği	-10.247
▁yerleşim	-10.2471
lenecek	-10.2471
▁Sivas	-10.2473
▁damar	-10.2476
▁kesme	-10.248
▁sil	-10.2481
lemek	-10.2482
▁söyler	-10.2482
rah	-10.2483
▁uzay	-10.2483
▁olmuştu	-10.2483
▁oranları	-10.2498
▁hızı	-10.2503
▁önemi	-10.2505
▁taraftan	-10.2505
▁rahatlıkla	-10.2507
▁Çek	-10.2508
▁yerleri	-10.251
▁Hoca	-10.2511
mat	-10.2514
▁kurmak	-10.2521
▁Yemek	-10.2521
▁idari	-10.2522
▁gök	-10.2526
▁seçme	-10.2527
▁harita	-10.2528
▁Şanlıurfa	-10.2528
▁düzeni	-10.2537
▁dönemin	-10.2538
▁don	-10.2542
▁Twitter	-10.2542
▁tl	-10.2544
▁sendika	-10.255
▁Diş	-10.2553
▁açtığı	-10.2554
▁Yaş	-10.2554
▁Fen	-10.2555
▁sektörü	-10.2555
▁vi	-10.2558
ıdır	-10.256
▁yöneticileri	-10.256
par	-10.2565
▁men	-10.2568
2016	-10.2568
▁Kalite	-10.257
▁kurulması	-10.2571
▁yavru	-10.2573
▁”	-10.2576
▁topla	-10.2576
▁havuz	-10.258
▁İşlem	-10.2581
▁Doğum	-10.259
▁kaba	-10.2592
ıldığını	-10.2594
▁sporcu	-10.2596
▁Birçok	-10.2596
▁kodu	-10.2597
▁başlangıç	-10.2601
ef	-10.2603
▁süreli	-10.2609
zel	-10.261
▁kaynakları	-10.2616
▁istek	-10.2616
▁grafik	-10.2617
▁(1	-10.2619
▁Erzurum	-10.2619
▁harekete	-10.2624
ps	-10.2627
▁Pazartesi	-10.2631
▁görülür	-10.2632
▁sürdür	-10.2633
medi	-10.2634
▁makyaj	-10.2634
▁çanta	-10.2638
▁anlayış	-10.2641
lacak	-10.2642
▁İmam	-10.2642
▁olamaz	-10.2644
▁görün	-10.2645
AH	-10.2647
▁köyü	-10.2649
lediği	-10.265
▁İlgili	-10.2658
46	-10.2661
▁Emre	-10.2663
▁görüyoruz	-10.2663
kta	-10.2666
▁Online	-10.2666
▁yaşa	-10.2668
ED	-10.2669
▁bildirdi	-10.267
▁Mer	-10.2672
ting	-10.2673
▁kamp	-10.2676
▁başvur	-10.2678
▁gösterme	-10.2678
▁azından	-10.2679
▁maalesef	-10.268
▁Hollanda	-10.268
▁teşekkürler	-10.2686
vel	-10.2688
TO	-10.2693
▁bilgilendirme	-10.2694
▁muhafaza	-10.2698
ili	-10.2698
▁Kupası	-10.2702
madı	-10.2705
▁Bununla	-10.2707
▁birlik	-10.2707
▁yerleştir	-10.2708
▁sisteminin	-10.2708
yüz	-10.271
▁demokratik	-10.2711
▁olası	-10.2712
▁HDP	-10.2715
▁ulaştır	-10.2717
▁organ	-10.2718
“	-10.2723
-3	-10.2726
▁hareketi	-10.2729
▁kontrolü	-10.273
▁olabilecek	-10.2731
▁karıştır	-10.2737
eceğiniz	-10.2742
▁izlemek	-10.2748
▁Ardından	-10.275
▁Kılıçdaroğlu	-10.2753
▁uğra	-10.2754
▁Evi	-10.2757
kın	-10.2758
▁ger	-10.2759
▁tren	-10.276
▁gelerek	-10.2762
▁lezzet	-10.2765
▁bekleniyor	-10.2765
LU	-10.2766
tek	-10.2771
▁verilecek	-10.2771
▁satışa	-10.2774
yerek	-10.2775
▁olmaktan	-10.2777
leşen	-10.2777
▁kavramı	-10.2779
▁etkinlikler	-10.2783
[	-10.2785
▁başlamış	-10.2786
▁olu	-10.2786
▁kullanıcılar	-10.2787
▁ulaşma	-10.2787
▁örneği	-10.2788
▁lo	-10.2789
TL	-10.2789
▁olgun	-10.2791
▁girişimi	-10.2797
ebilmesi	-10.2798
tis	-10.2798
▁birşey	-10.28
▁Çarşamba	-10.28
▁Ham	-10.2801
▁Mah	-10.2802
Her	-10.2802
kol	-10.2804
▁Üretim	-10.2805
baba	-10.2806
▁Değer	-10.2812
▁merkezine	-10.2815
▁Hayır	-10.282
lerce	-10.2823
▁sınıfı	-10.2823
eğe	-10.2827
▁başladım	-10.2828
▁seçenek	-10.2837
▁haklı	-10.2838
▁Basın	-10.2838
lıklar	-10.2839
▁özellikler	-10.284
▁Enstitüsü	-10.284
üz	-10.284
▁Üst	-10.2841
▁Kor	-10.2841
müştür	-10.2842
▁bulunmak	-10.2847
▁düşme	-10.285
rin	-10.2853
▁takdir	-10.2862
ig	-10.2863
▁kıyı	-10.2863
▁buluşma	-10.2865
▁Aç	-10.2873
▁Sıra	-10.2874
▁evine	-10.2875
▁Cam	-10.2878
▁mer	-10.2879
▁milletin	-10.2884
▁koşulları	-10.2888
▁arasına	-10.2888
▁emek	-10.2892
larca	-10.2893
▁Ger	-10.2894
▁parlak	-10.2895
▁On	-10.2896
▁isten	-10.2897
▁Mücadele	-10.2899
▁bizlere	-10.29
▁yolları	-10.2901
▁alana	-10.2906
▁attığı	-10.2909
laştırma	-10.291
▁büyüsü	-10.2915
▁Zira	-10.2918
▁çapında	-10.2921
siyon	-10.2925
▁Alt	-10.2929
▁Yakın	-10.2932
▁dışarı	-10.2937
▁besin	-10.294
▁anti	-10.2943
aba	-10.2944
▁Oto	-10.2945
ras	-10.2945
bra	-10.2948
▁tamir	-10.2949
lıkları	-10.2956
▁Ada	-10.2958
rma	-10.2959
▁Günlük	-10.2959
▁edeceğiz	-10.296
▁dans	-10.2962
▁ahşap	-10.2963
▁yağı	-10.2965
▁Takım	-10.2966
▁onur	-10.2967
▁09	-10.2971
▁değişiklikler	-10.2971
ow	-10.2972
▁teklifi	-10.2972
▁evin	-10.2974
name	-10.2985
pınar	-10.2989
▁SA	-10.299
sti	-10.299
.10	-10.2993
▁adamın	-10.2995
ld	-10.2998
▁yüzlerce	-10.2998
▁j	-10.3002
▁sanal	-10.3003
maları	-10.3006
▁icra	-10.3007
ilmiştir	-10.301
▁okun	-10.3012
▁kayıtlı	-10.3013
▁verileri	-10.3016
ty	-10.3017
▁şirketin	-10.3017
▁sey	-10.3018
53	-10.3025
▁Terör	-10.3029
▁Çift	-10.3031
mel	-10.3032
▁Toplum	-10.3036
▁Yılı	-10.3038
▁yapıyoruz	-10.3039
▁Tel	-10.304
▁uyarınca	-10.3043
▁Geçtiğimiz	-10.3046
▁yazdığı	-10.3046
▁vakti	-10.3047
miyorum	-10.3048
▁Dairesi	-10.3055
▁tutan	-10.3056
▁olduğunda	-10.3057
▁Jandarma	-10.3059
▁Hanım	-10.3064
▁düzenlenecek	-10.3068
▁akademik	-10.3073
▁masaj	-10.3077
▁şeyleri	-10.3082
▁direk	-10.3083
NE	-10.3083
ble	-10.3085
▁isterim	-10.3087
▁Lu	-10.309
▁Balıkesir	-10.3092
▁alabilir	-10.3094
▁Ru	-10.3098
▁Yağ	-10.3098
▁eleştiri	-10.3101
rk	-10.3101
▁eleman	-10.3104
▁Yüz	-10.3106
▁değişimi	-10.3108
▁günleri	-10.3112
Kİ	-10.3112
▁getiriyor	-10.3114
95	-10.3116
▁rüzgar	-10.3119
▁alınacak	-10.3121
ünde	-10.3122
▁Yorum	-10.3126
▁Tu	-10.3128
▁Ordu	-10.3134
▁kad	-10.3138
▁zam	-10.3141
▁Manisa	-10.3143
dem	-10.3143
▁bağlan	-10.3144
▁Bebek	-10.3145
▁isteyenler	-10.3147
sk	-10.3153
lenebilir	-10.3154
eb	-10.3155
47	-10.3156
▁gelmiştir	-10.3157
▁bozul	-10.3158
▁Hali	-10.3164
▁değerlendiril	-10.3165
▁doğan	-10.3167
▁yık	-10.3168
SS	-10.3168
▁korun	-10.317
▁maddeler	-10.3171
▁08	-10.3172
▁altyapı	-10.3175
▁kasa	-10.3176
▁vur	-10.3178
▁ettiğiniz	-10.3179
OK	-10.318
▁yumuşak	-10.3181
larınızın	-10.3181
▁Beş	-10.3184
▁ahlak	-10.3187
▁içer	-10.3189
▁hassas	-10.3192
▁düşünüyor	-10.3192
amıyor	-10.3197
▁kazanma	-10.3201
▁açılması	-10.3203
▁eşliğinde	-10.3205
▁Sun	-10.3206
▁vefat	-10.3207
▁manevi	-10.3208
▁herkesi	-10.3208
▁38	-10.3211
▁istedim	-10.3225
arken	-10.3226
▁Savunma	-10.3228
kor	-10.323
MAN	-10.3234
ib	-10.3237
▁yürürlüğe	-10.3238
▁Ağır	-10.3238
▁edici	-10.3238
▁yönlendir	-10.324
▁ekle	-10.3242
▁yardımı	-10.3244
▁yükselt	-10.3244
▁katıl	-10.3244
mizden	-10.3245
▁Toplantı	-10.3246
▁gü	-10.325
83	-10.3251
▁maliyeti	-10.3253
▁döner	-10.3259
▁Sistemleri	-10.3264
▁zirve	-10.3265
▁Boz	-10.3265
▁arkadaşım	-10.3265
pp	-10.3266
▁ilanları	-10.3266
▁öğrencilere	-10.3267
dük	-10.3267
▁devri	-10.3268
▁bulur	-10.3268
▁hedefi	-10.327
▁artışı	-10.327
▁Metin	-10.3271
▁kaya	-10.3272
idir	-10.3279
▁görüyor	-10.3279
▁komisyon	-10.3285
▁kaçak	-10.3286
▁Gerek	-10.3288
▁katkıda	-10.329
▁geldiğinde	-10.3291
▁rezervasyon	-10.3294
▁ülkelerin	-10.3295
▁savcı	-10.3296
▁kişiyi	-10.3296
▁Oyunu	-10.3297
▁ettiler	-10.33
▁kı	-10.33
▁oranda	-10.33
▁kombi	-10.3301
İR	-10.3302
▁Arkadaş	-10.3302
diler	-10.3304
▁Ey	-10.3306
▁kopya	-10.3309
Kur	-10.3311
▁dokun	-10.3313
▁for	-10.3314
▁mesleki	-10.3318
▁Fo	-10.3323
▁işletim	-10.3325
▁Sağlığı	-10.3328
nizle	-10.333
▁Bağ	-10.3331
▁Hangi	-10.3334
▁400	-10.3336
▁söylem	-10.334
▁Aday	-10.3341
▁evet	-10.3341
▁zararlı	-10.3342
▁Yaklaşık	-10.3342
ılmaz	-10.3343
▁Bolu	-10.3346
ullah	-10.3346
▁etkileri	-10.3346
▁adıyla	-10.3349
▁araştırmalar	-10.3353
zu	-10.3353
▁ra	-10.3355
▁sevme	-10.3357
▁arkadaşları	-10.3362
▁Fiyat	-10.3363
duğunu	-10.3364
▁boyutu	-10.3365
▁cinayet	-10.3367
▁karşımıza	-10.3376
▁kalıp	-10.338
mil	-10.3381
▁mevzuat	-10.3381
▁rakam	-10.3383
▁9.	-10.3385
lıyoruz	-10.3396
▁Gar	-10.3398
▁Çocuklar	-10.3399
▁sabır	-10.3399
▁göl	-10.3409
▁2005	-10.3409
▁sürpriz	-10.3412
▁olmanın	-10.3414
öl	-10.342
mus	-10.3424
▁suyun	-10.3427
▁Konseyi	-10.3429
▁düşüş	-10.343
üş	-10.3433
▁Üye	-10.3434
▁11.	-10.3435
▁giyim	-10.3438
▁Ses	-10.3438
▁katılma	-10.3451
▁öğrenmek	-10.3451
▁hükmü	-10.3451
▁Üstelik	-10.3451
lon	-10.3452
▁birim	-10.3462
▁filmin	-10.3468
▁HD	-10.3472
emeyen	-10.3475
▁sex	-10.3478
▁ş	-10.3479
▁cennet	-10.3482
ds	-10.3482
▁haftada	-10.3486
▁denk	-10.3486
▁öğrenim	-10.3487
▁değiş	-10.3496
▁oluşturmak	-10.3497
▁konulu	-10.3498
▁şunu	-10.35
▁deneyimi	-10.3501
▁sahte	-10.3504
▁ihtimali	-10.3507
▁açıldı	-10.3509
▁Konut	-10.351
▁personeli	-10.351
▁öneri	-10.3512
48	-10.352
▁bekle	-10.3521
▁kısmında	-10.3523
▁Suudi	-10.3523
meyin	-10.3524
ayım	-10.3525
▁tarafında	-10.3526
▁etmeniz	-10.3527
▁psikolojik	-10.3527
▁eğlen	-10.3529
▁Haberleri	-10.3531
▁özgür	-10.3532
▁sertifika	-10.3535
est	-10.3536
▁ayrıntılı	-10.3536
▁dışındaki	-10.3539
▁Orhan	-10.354
▁75	-10.354
leyecek	-10.3541
▁Bakım	-10.3541
▁Ju	-10.3543
bak	-10.3544
TM	-10.3544
om	-10.3546
▁izleyici	-10.3549
kça	-10.355
▁getirir	-10.355
▁derken	-10.3556
▁kullanılarak	-10.3558
▁kare	-10.3559
▁geçmesi	-10.356
▁girer	-10.356
muyor	-10.3561
▁ham	-10.3567
▁istenen	-10.357
▁durumun	-10.3573
▁bunlara	-10.3577
▁Selçuk	-10.358
▁çeşitleri	-10.358
▁Mühendisliği	-10.3581
▁dışına	-10.3583
▁İste	-10.3583
▁ilişkisi	-10.3584
▁anayasa	-10.3584
▁vatandaşların	-10.3584
▁müze	-10.3587
mp	-10.3588
▁duruyor	-10.3588
İş	-10.3599
muzda	-10.36
▁Dizi	-10.3601
▁kalıyor	-10.3602
LIK	-10.3604
▁yapılabilir	-10.3606
Si	-10.3609
):	-10.361
▁anla	-10.3616
kent	-10.3617
▁sorunun	-10.3617
▁bizler	-10.3618
▁kaybetme	-10.3619
▁gerçekleşti	-10.362
▁avantaj	-10.362
▁bileti	-10.3624
▁tasarruf	-10.3625
▁asit	-10.3625
▁Hareket	-10.3626
▁Pek	-10.3628
▁alanına	-10.363
fl	-10.3633
▁öldür	-10.3635
▁ayakta	-10.3636
▁Perşembe	-10.364
▁Hayvan	-10.3641
ife	-10.3641
▁diyet	-10.3644
▁TÜ	-10.3646
▁sayısının	-10.3652
▁Işık	-10.3652
▁gelişen	-10.3654
▁lüks	-10.3656
mir	-10.366
cam	-10.3661
▁bilmiyorum	-10.3662
▁konuları	-10.3664
▁etiket	-10.367
04	-10.3672
▁sözler	-10.3676
▁Kış	-10.3677
▁çöp	-10.3677
#	-10.3678
▁kapsamlı	-10.3679
▁egzersiz	-10.368
▁otur	-10.368
▁öte	-10.368
▁yetiş	-10.3681
▁dir	-10.3683
Re	-10.3683
▁sü	-10.3685
tem	-10.3688
▁arasından	-10.3688
▁blok	-10.369
▁Yok	-10.369
▁kor	-10.3692
üt	-10.3695
ebilme	-10.3695
ettin	-10.3696
leyebilir	-10.3698
▁gidecek	-10.3698
▁tasar	-10.3698
▁amaçla	-10.37
GE	-10.37
▁hissetme	-10.37
▁(2	-10.37
▁kurdu	-10.3702
mızdan	-10.3703
▁boyut	-10.3704
▁çalışmalarına	-10.3705
▁le	-10.3708
▁atama	-10.3716
▁kapasitesi	-10.3725
▁yayımlanan	-10.3728
44	-10.3729
▁başkenti	-10.3729
▁market	-10.3734
▁dönemlerde	-10.3736
▁firmaların	-10.3738
▁Kalkınma	-10.374
▁işveren	-10.3742
▁pasta	-10.3742
▁250	-10.3748
▁Geri	-10.3749
sar	-10.3751
▁performansı	-10.376
▁kendileri	-10.376
▁kral	-10.3762
nder	-10.3763
▁konuyu	-10.3765
▁Uzman	-10.3765
▁resimleri	-10.3766
▁Devleti	-10.3767
▁York	-10.3767
▁bilgilere	-10.3768
▁Gö	-10.3769
▁kongre	-10.377
▁birimi	-10.3772
▁alanlarında	-10.3773
▁etmez	-10.3775
▁emri	-10.3778
▁birimleri	-10.3781
lenmiştir	-10.3787
diğinde	-10.3788
▁Kullan	-10.3788
▁Uğur	-10.3789
▁senaryo	-10.3789
▁geride	-10.3789
muştu	-10.3789
iyorsunuz	-10.3793
▁yaptığınız	-10.3793
▁Salı	-10.3802
▁alakalı	-10.3805
▁hareketli	-10.3808
▁görünce	-10.381
▁37	-10.3811
▁buluştur	-10.3815
mun	-10.3818
madığı	-10.3822
▁hitap	-10.3823
49	-10.3823
▁ağzı	-10.3828
▁gizle	-10.3829
▁uzan	-10.3832
▁muhalefet	-10.3833
▁sunum	-10.3833
dî	-10.3836
▁verilmiştir	-10.3838
▁65	-10.384
▁Ala	-10.3842
▁yapılmıştır	-10.3843
▁evrak	-10.3846
▁kiralık	-10.3846
▁kuralları	-10.3848
▁Birleşik	-10.385
▁gününde	-10.3853
▁sıcaklığı	-10.3857
▁yetkilileri	-10.3858
▁almıştır	-10.3858
▁maden	-10.3859
▁şirketler	-10.3861
▁gram	-10.3861
▁yürütülen	-10.3863
▁alırken	-10.3865
▁tüketimi	-10.3868
▁kanat	-10.3868
▁ilgilen	-10.387
▁Ortak	-10.3871
▁Mimar	-10.3873
lanmaktadır	-10.3875
▁per	-10.3887
▁silin	-10.3888
▁aşamasında	-10.3891
▁yaşamını	-10.3893
İŞ	-10.3893
yalım	-10.3896
▁kadını	-10.3897
mit	-10.3907
▁taksi	-10.3907
▁verdim	-10.3908
▁özgü	-10.3909
▁ağırlık	-10.3909
▁eri	-10.3912
▁yüksel	-10.3916
▁satır	-10.3918
mail	-10.3919
mur	-10.3921
▁kaygı	-10.3923
▁Sözleşme	-10.3923
mb	-10.3924
▁güney	-10.3926
meleri	-10.3927
dılar	-10.3927
▁gidil	-10.3928
▁laf	-10.393
▁mesajı	-10.3934
▁Örnek	-10.3935
kiralama	-10.3936
cek	-10.394
▁vücudun	-10.3941
▁tablet	-10.3941
ers	-10.3942
▁dostu	-10.3945
▁bakın	-10.3947
▁parçaları	-10.3951
fon	-10.3951
▁tutuklu	-10.3951
tum	-10.3952
▁karanlık	-10.3952
▁hayatına	-10.3954
▁Müzesi	-10.3957
▁tan	-10.3962
▁sonsuz	-10.3963
▁tanış	-10.3965
▁bölgesi	-10.3966
larımı	-10.3973
▁dü	-10.3977
▁ruhu	-10.3979
▁canlandır	-10.398
▁sistemin	-10.3981
▁oluşturduğu	-10.3983
▁kemik	-10.3987
▁eseri	-10.3988
▁çiftçi	-10.3989
▁rekor	-10.3992
▁devir	-10.3997
mıştım	-10.3997
▁gayret	-10.3998
▁kaybeden	-10.3998
▁öğrenildi	-10.4002
rü	-10.4006
▁uyuşturucu	-10.4007
▁husus	-10.4009
dıktan	-10.4012
▁öğrencisi	-10.402
59	-10.402
▁ülkelerde	-10.4023
▁dersleri	-10.4025
▁salonu	-10.4028
▁sorumluluğu	-10.403
üre	-10.4032
▁Sizin	-10.4035
▁organize	-10.4035
▁st	-10.4039
▁yorumlar	-10.404
▁olmuyor	-10.4042
▁bizimle	-10.4042
▁üretil	-10.4043
▁Size	-10.4044
▁kayna	-10.4044
▁getirilmesi	-10.4046
▁unutmayın	-10.4047
▁anlatıyor	-10.4047
▁Mahkeme	-10.4047
▁bekleyen	-10.4048
▁Medya	-10.405
▁tar	-10.4055
▁aksine	-10.4055
▁fer	-10.4057
sün	-10.406
lerinize	-10.4062
▁stok	-10.4062
▁bölgeye	-10.4063
▁patlama	-10.4066
▁gerilim	-10.4071
▁TE	-10.4071
▁gücünü	-10.4072
▁geçirdiği	-10.4074
fir	-10.4074
▁istifa	-10.4074
▁02	-10.4075
▁Kadınlar	-10.4078
▁boru	-10.408
▁markası	-10.4081
OL	-10.4081
▁emeği	-10.4082
▁Herkes	-10.4083
▁sürüyor	-10.4087
▁2-	-10.4087
▁seviyorum	-10.4088
▁pahalı	-10.4089
▁Pan	-10.4091
▁oynadığı	-10.4091
2015	-10.4091
»	-10.4094
▁Yönetmelik	-10.4095
▁dizisi	-10.4097
▁toplantısında	-10.41
▁BÖLÜM	-10.4102
key	-10.4103
▁direkt	-10.4106
ril	-10.4107
▁bağış	-10.4107
kullanılmaktadır	-10.411
▁kutlama	-10.411
ST	-10.4113
▁doktora	-10.4116
1)	-10.4117
▁sayfasında	-10.4117
▁şirketleri	-10.4119
▁dersi	-10.4119
▁görevini	-10.4123
IZ	-10.4124
▁koyun	-10.4129
▁tra	-10.413
▁03	-10.4133
▁manzara	-10.4135
▁onarım	-10.4138
66	-10.4145
ırlar	-10.4148
68	-10.4149
vat	-10.4152
▁metrekare	-10.4153
▁gördük	-10.4153
▁görülmektedir	-10.4154
▁hangisi	-10.4155
iki	-10.4158
▁plastik	-10.4158
▁Sohbet	-10.4161
▁ortasında	-10.4165
▁İm	-10.4166
▁Mali	-10.4168
▁açan	-10.417
▁dönme	-10.417
▁arkasında	-10.4173
▁desen	-10.4175
▁sevdiği	-10.4175
▁Mor	-10.4183
▁galibiyet	-10.4183
▁Cami	-10.4184
▁noktaları	-10.4188
▁plana	-10.4189
▁gelişimi	-10.419
▁macera	-10.4191
▁kablo	-10.4192
yak	-10.4193
▁kalabalık	-10.4194
▁derdi	-10.4195
▁sınırı	-10.4195
▁kural	-10.4197
▁listesi	-10.4198
▁eli	-10.4205
cağı	-10.4206
▁Bayram	-10.4208
▁teknolojik	-10.4211
▁raf	-10.4216
▁beyler	-10.4216
sindeki	-10.4219
▁Mesela	-10.4222
▁keyif	-10.4223
▁sanık	-10.4225
yal	-10.4225
ımızı	-10.4228
stra	-10.4234
▁şans	-10.4239
▁anlamında	-10.4239
▁evli	-10.4244
▁yetersiz	-10.4247
▁başlamıştır	-10.4248
▁altındaki	-10.4248
▁etkinlikleri	-10.4248
▁kalmak	-10.4249
▁HA	-10.4253
dro	-10.4253
▁cihazlar	-10.4253
▁İspanya	-10.4256
▁çalıştı	-10.4256
▁bildirildi	-10.4257
▁değişken	-10.4259
▁riski	-10.4261
▁Q	-10.4264
lıkla	-10.4265
acağınız	-10.4267
▁bölümde	-10.4267
▁pişir	-10.4272
▁finansal	-10.4279
ürü	-10.4281
▁Maliye	-10.4284
▁ışığı	-10.4284
▁AR	-10.4288
▁ÜNİVERSİTESİ	-10.4289
▁Görüntü	-10.429
▁Londra	-10.4292
İstanbul	-10.4292
mas	-10.4292
▁yaptığını	-10.4292
sıdır	-10.4297
▁hatırlat	-10.4299
▁savun	-10.43
-10	-10.4301
▁koyma	-10.4307
▁arayan	-10.4308
▁borcu	-10.4309
▁kitapları	-10.4309
amadığı	-10.431
yolu	-10.4315
▁Sonuç	-10.4316
▁duyar	-10.4318
▁İlişkin	-10.432
▁eşlik	-10.4323
ebe	-10.4331
▁mevsim	-10.4331
▁gözden	-10.4332
64	-10.4332
sit	-10.4333
▁kişilere	-10.4333
abilme	-10.4335
erken	-10.4336
▁çözümler	-10.4341
acaksınız	-10.4342
▁Wi	-10.4343
▁İnan	-10.4344
luğunu	-10.4344
▁koyu	-10.4346
Dİ	-10.4346
▁yılına	-10.4347
▁tutarı	-10.4348
▁Kartal	-10.4351
▁haberler	-10.4351
liğinin	-10.4354
hr	-10.4354
▁hakem	-10.4356
▁Cem	-10.4366
▁hayatında	-10.4366
▁sizden	-10.4368
öz	-10.4369
▁denilen	-10.437
▁kategorisinde	-10.4371
▁vali	-10.4372
ski	-10.4372
▁belgeler	-10.4372
▁efsane	-10.4376
▁Çiçek	-10.4376
▁bizzat	-10.4376
Q	-10.4378
ub	-10.4378
▁düşünür	-10.4379
▁iklim	-10.4379
▁Yasa	-10.4381
▁sözleşmesi	-10.4383
▁yolculuğu	-10.4385
▁şeye	-10.4387
▁Ürünleri	-10.4387
▁aydın	-10.4394
▁rakip	-10.4395
olojik	-10.4395
imizde	-10.4396
▁yi	-10.4399
▁oluşturur	-10.44
▁benimle	-10.44
▁kullanılma	-10.4402
▁girişimci	-10.4403
▁anlamlı	-10.4404
▁serisi	-10.4405
lerdi	-10.4407
▁malzemeler	-10.4408
▁bıraktı	-10.4409
ırım	-10.4409
▁durumlar	-10.4418
▁uygulay	-10.442
▁Evden	-10.4422
▁seviyede	-10.4424
▁koruyucu	-10.4426
▁Tak	-10.4429
▁bayrak	-10.443
▁ro	-10.443
ESİ	-10.4434
▁Kanal	-10.4434
▁Mas	-10.4434
▁edenler	-10.4435
▁belirlenmesi	-10.4435
▁içme	-10.4438
▁ri	-10.4438
▁devreye	-10.4444
▁kavram	-10.4444
▁yapacağı	-10.4453
▁tu	-10.4453
42	-10.4453
▁kalması	-10.4455
▁işyeri	-10.4456
cisi	-10.4458
▁Bin	-10.4458
▁odaklı	-10.4464
▁şartlar	-10.4465
▁karşılıklı	-10.4469
▁toplama	-10.447
.(	-10.4476
▁düzgün	-10.4476
▁Kızıl	-10.4476
▁sığın	-10.4477
▁oynanan	-10.4481
▁Bazen	-10.4483
▁sizlerin	-10.4485
▁ortada	-10.4492
▁tarihine	-10.4495
▁Dar	-10.4495
▁cesaret	-10.4496
▁geçirmek	-10.4496
▁İşçi	-10.4504
zon	-10.4505
▁Ünlü	-10.4505
▁Vergi	-10.4505
▁şair	-10.4506
▁gecesi	-10.4507
AD	-10.4513
▁tutun	-10.4514
▁annem	-10.4516
▁belgeleri	-10.4516
▁mini	-10.4517
▁zeka	-10.4518
▁fiyatlar	-10.4519
▁bat	-10.4522
56	-10.4523
▁mağdur	-10.4523
dis	-10.4525
▁girmesi	-10.4527
ıyorlar	-10.453
ex	-10.4532
▁Star	-10.4532
▁mektup	-10.4532
▁seyirci	-10.4533
▁terörist	-10.4534
▁kalacak	-10.4535
▁forum	-10.4539
▁yazarı	-10.4541
▁mes	-10.4542
malar	-10.4545
▁eşsiz	-10.4545
▁kurulmuş	-10.4545
▁inancı	-10.4546
▁ederler	-10.4548
▁Resim	-10.4549
▁takibi	-10.4555
▁zorundadır	-10.4556
▁Tatil	-10.4558
▁Arabistan	-10.4559
▁MA	-10.4559
▁bilgilerin	-10.4561
▁taşıyor	-10.4561
▁açıkça	-10.4561
sto	-10.4562
▁ce	-10.4565
▁or	-10.4565
▁Ze	-10.4565
▁kullanıldığı	-10.4566
▁sordu	-10.4569
▁Esas	-10.4572
atı	-10.4574
▁diyorum	-10.4576
▁kazanmak	-10.4576
▁yaralandı	-10.4577
şan	-10.458
▁go	-10.4582
IL	-10.4582
▁ihlal	-10.4582
▁Uzmanı	-10.4584
▁bes	-10.4589
▁yazısı	-10.4591
▁kapasite	-10.4593
üncü	-10.4595
cuk	-10.4597
▁sahipliği	-10.4597
▁asgari	-10.4597
▁Etki	-10.4597
▁Sü	-10.4598
kür	-10.4598
▁değişen	-10.4598
▁anlamak	-10.46
▁42	-10.4601
▁ikisi	-10.4605
▁Kerim	-10.4606
▁mo	-10.4613
▁yönetmen	-10.4614
▁isimleri	-10.4617
▁yürüt	-10.4618
▁sağlamaktadır	-10.4621
▁kuruluşu	-10.4622
▁hukuki	-10.4622
▁taksit	-10.4623
▁verilmiş	-10.4624
▁ülkeye	-10.4625
▁yakıt	-10.4627
▁dön	-10.4627
▁dinamik	-10.4629
▁Radyo	-10.4631
▁beceri	-10.4631
▁estetik	-10.4631
▁Dün	-10.4631
▁sunmak	-10.4636
DI	-10.4636
▁çıkıp	-10.4637
yın	-10.4637
teri	-10.4637
▁motoru	-10.464
▁veriler	-10.4641
▁bilinç	-10.4645
▁alınmış	-10.4646
asyonu	-10.4647
▁gönderme	-10.4648
▁kullanıcıların	-10.4649
▁başlama	-10.4649
▁protein	-10.465
▁boyun	-10.4652
▁ocak	-10.4654
bul	-10.466
▁çocuklara	-10.4662
mam	-10.4663
▁örneğin	-10.4665
çü	-10.4666
▁protesto	-10.467
▁İhale	-10.467
▁odaları	-10.4671
▁sorgulama	-10.4672
▁Arka	-10.4672
▁yapmaktadır	-10.4674
▁ucu	-10.4674
ısı	-10.4675
▁Yahudi	-10.4676
hâ	-10.4678
▁olmayacak	-10.4678
▁duyur	-10.4678
▁tartış	-10.468
▁Gazetesi	-10.4682
▁görünüm	-10.4685
43	-10.4685
▁İnsanlar	-10.4685
▁doğur	-10.4688
▁teşkil	-10.4689
DER	-10.469
DEN	-10.4695
landığını	-10.4696
▁Tra	-10.4696
▁Doğal	-10.4697
▁paralel	-10.4699
.[	-10.4699
▁ER	-10.47
▁cevabı	-10.4703
▁kuruluşlar	-10.4704
Ar	-10.4704
▁paylaşmak	-10.4704
▁mimari	-10.4705
▁tanışma	-10.4707
▁adaylar	-10.4707
bri	-10.4707
▁sorunsuz	-10.4709
▁teminat	-10.471
▁tutmak	-10.4711
–	-10.4712
▁zamanla	-10.4712
▁set	-10.4713
chi	-10.4713
▁47	-10.4714
▁Koruma	-10.4715
69	-10.4718
▁kitaplar	-10.4722
▁rahatsızlık	-10.4726
▁kurduğu	-10.4727
▁Komutanlığı	-10.4727
▁Hükümet	-10.4732
▁aydınlatma	-10.4733
▁tekne	-10.4733
ön	-10.4734
▁bayi	-10.4734
▁Hastane	-10.4734
▁Plan	-10.4736
▁biliyoruz	-10.4736
▁olayın	-10.4739
▁benden	-10.4739
▁biliyorum	-10.4742
▁52	-10.4743
port	-10.4745
▁Dergisi	-10.4746
57	-10.4748
▁içerir	-10.4749
▁kendisinin	-10.4751
▁ziyaretçi	-10.4751
▁Kuvvetleri	-10.4752
▁hükümleri	-10.4753
VA	-10.4753
▁nin	-10.4755
ebilmektedir	-10.4756
▁1000	-10.4756
▁kısmını	-10.4757
▁yolunu	-10.4758
▁öncü	-10.4759
▁tv	-10.4763
▁Efendi	-10.4764
yacağı	-10.4764
▁ga	-10.4768
▁detayları	-10.477
▁karşın	-10.4774
▁formu	-10.4775
▁kelimesi	-10.4777
▁fırın	-10.4778
▁kanalı	-10.4779
▁Ayşe	-10.4779
sever	-10.478
▁mikro	-10.4783
▁Hacı	-10.4785
▁Kadıköy	-10.4787
▁sır	-10.4788
▁hakkındaki	-10.4788
▁düzenlendi	-10.4793
▁üzül	-10.4793
▁gen	-10.4794
2014	-10.4794
▁Sol	-10.4796
▁problemi	-10.4798
▁siyasal	-10.4798
▁sistemini	-10.4801
▁beklenti	-10.4802
▁insana	-10.4804
▁bedava	-10.4804
▁yarısı	-10.4806
▁hissi	-10.4806
▁oynama	-10.4807
▁gönüllü	-10.4809
▁saatte	-10.4813
:30	-10.4816
▁Sitesi	-10.4816
▁verebilir	-10.4817
▁2004	-10.4819
▁zafer	-10.4819
▁hatır	-10.482
▁potansiyel	-10.482
▁piyasaya	-10.4829
lenmektedir	-10.4829
▁sistemine	-10.4833
▁merdiven	-10.4834
RO	-10.4836
▁Kurt	-10.4838
▁testi	-10.4838
▁ıs	-10.4843
gre	-10.4848
▁konum	-10.4848
▁ülkemizin	-10.4851
▁düşer	-10.4851
▁milletvekilleri	-10.4852
▁vazgeçilmez	-10.4852
▁kuruluşları	-10.4853
AV	-10.4855
▁sız	-10.4855
▁Kuru	-10.486
▁anket	-10.4861
▁duyu	-10.4863
2)	-10.4863
▁mekân	-10.4868
▁Eli	-10.4869
▁ismini	-10.4872
▁soğu	-10.4873
▁okuyucu	-10.4874
Do	-10.4875
▁çağ	-10.4877
▁strateji	-10.4878
▁çekmek	-10.4881
▁çevresinde	-10.4885
▁BM	-10.489
kış	-10.4891
▁referans	-10.4891
▁olmakla	-10.4896
▁turu	-10.4897
▁koydu	-10.4898
▁dünyasında	-10.49
▁başlaması	-10.4901
▁medyum	-10.4902
▁hac	-10.4904
ses	-10.4908
▁Ortadoğu	-10.4908
▁kurgu	-10.4909
▁vatandaşlarımız	-10.491
85	-10.4912
54	-10.4913
memesi	-10.4914
▁olayları	-10.4914
▁Lise	-10.4917
▁kimliği	-10.4919
▁doğdu	-10.4921
▁randevu	-10.4922
Dr	-10.4922
▁olmanız	-10.4924
▁sahipleri	-10.4928
▁yerlere	-10.4928
▁dekorasyon	-10.493
inizin	-10.4933
▁kolaylıkla	-10.4937
▁başarılar	-10.4937
▁uygulamaya	-10.4938
▁Yayınları	-10.4939
▁Şarkı	-10.4939
▁itibarıyla	-10.4943
ang	-10.4945
▁ayrıntı	-10.4949
▁merkezleri	-10.4951
▁krizi	-10.4953
▁gündüz	-10.4954
ılacaktır	-10.4959
form	-10.496
▁2002	-10.4961
▁Samsung	-10.4962
▁içerisine	-10.4963
.30	-10.4964
▁@	-10.4966
▁çabuk	-10.4968
que	-10.4969
▁çektiği	-10.4969
▁Sınavı	-10.497
▁mor	-10.497
▁Canlı	-10.4971
usu	-10.4973
▁Hindistan	-10.4974
▁filmleri	-10.4975
▁ila	-10.4981
▁irade	-10.4985
ört	-10.4985
▁yaşamı	-10.4985
▁kültürü	-10.4988
▁edebiyat	-10.4991
▁Masa	-10.4993
▁emir	-10.4994
▁verilmektedir	-10.5
▁sever	-10.5001
▁geçtiği	-10.5002
▁Mac	-10.5002
▁kop	-10.5004
▁hastalıkları	-10.5004
▁bulunduğunu	-10.5004
▁öykü	-10.5007
▁kaşığı	-10.5008
▁göze	-10.5009
▁medyada	-10.501
▁Sinema	-10.5011
▁hizmete	-10.5011
▁istediğini	-10.5013
▁yarattığı	-10.5015
▁bahsed	-10.5017
AŞ	-10.5017
▁ardı	-10.5019
▁almayı	-10.502
▁Oyunları	-10.5027
▁ilerleme	-10.5029
▁Güven	-10.5029
▁yürüme	-10.5032
▁tatmin	-10.5034
nç	-10.5036
LO	-10.5036
▁uygulanır	-10.5037
likten	-10.5039
▁değilim	-10.5041
fak	-10.5042
▁uydu	-10.5043
ice	-10.5045
▁hepimiz	-10.5047
aret	-10.5047
▁Hakları	-10.5047
▁açıklandı	-10.5048
▁yaralı	-10.5054
▁yas	-10.5055
▁hocam	-10.5057
SE	-10.5058
▁ağı	-10.5066
▁ayrıldı	-10.5066
▁Doktor	-10.5067
▁KO	-10.5068
▁Çağ	-10.5069
▁planlama	-10.5069
▁kg	-10.5071
▁Acil	-10.5071
▁görmüş	-10.5073
enler	-10.5073
▁kızın	-10.5076
abileceğiniz	-10.5081
▁06	-10.5081
▁Salonu	-10.5093
aklı	-10.5093
▁bay	-10.5093
▁Af	-10.5095
▁verdik	-10.5096
▁geliştirmek	-10.5097
hit	-10.5098
▁sektörünün	-10.5103
▁işini	-10.5105
▁başladık	-10.5105
▁DE	-10.5105
63	-10.5106
▁geriye	-10.5113
cil	-10.5113
hur	-10.5115
▁Dağ	-10.5115
▁duyduğu	-10.5115
geç	-10.5115
▁kapak	-10.5115
▁orijinal	-10.5116
mem	-10.5119
▁etkiler	-10.5122
▁Sokak	-10.5124
▁kanseri	-10.5125
▁leke	-10.5125
▁temsilcisi	-10.5126
▁mide	-10.5128
▁Par	-10.5129
▁seyred	-10.5133
digi	-10.5134
▁avukat	-10.5135
▁çıkarak	-10.5136
▁Fuarı	-10.514
▁Mekan	-10.5148
▁albümü	-10.515
▁biber	-10.515
▁fotoğrafları	-10.5154
▁konuya	-10.5156
▁gençler	-10.5156
▁Ülkemizde	-10.5161
▁ortamında	-10.5163
▁um	-10.5165
şar	-10.5165
▁geçirdi	-10.517
▁kılın	-10.5171
▁makinası	-10.5174
▁Hiçbir	-10.5177
▁Trabzonspor	-10.5177
▁istediğim	-10.5178
▁çıkarmak	-10.5182
luyor	-10.5183
▁çevril	-10.5184
▁yıllarında	-10.5187
eceğim	-10.5189
▁hazırlanmış	-10.519
üşü	-10.5191
▁gerekçe	-10.5193
AZ	-10.52
▁şarj	-10.5201
▁bunlardan	-10.5202
▁Aksi	-10.5202
▁şimdiden	-10.5205
▁biçimi	-10.5206
▁İlçesi	-10.5206
emi	-10.5207
▁oynan	-10.5209
▁Sayılı	-10.5209
▁yeterince	-10.521
▁alkol	-10.5211
▁aldık	-10.5213
▁yapılarak	-10.5214
say	-10.5218
▁şirketlerin	-10.5218
▁seviyesinde	-10.5221
uncu	-10.5222
▁dinleme	-10.5223
▁kapsamda	-10.5224
▁Çe	-10.5228
▁39	-10.5228
▁Sey	-10.523
▁çözül	-10.5233
ا	-10.5234
str	-10.5235
▁tebrik	-10.5236
▁haftalık	-10.5237
▁tutku	-10.5239
▁geçmek	-10.524
▁okumak	-10.524
▁bekliyoruz	-10.524
▁Japonya	-10.5242
▁edecektir	-10.5242
▁Valisi	-10.5244
▁kasaba	-10.5246
▁etrafında	-10.5247
▁belirt	-10.525
▁çap	-10.525
▁getiril	-10.5251
▁arşiv	-10.5252
▁ab	-10.5252
▁Gir	-10.5253
ASI	-10.5256
gir	-10.5262
▁Giresun	-10.5264
▁odaklan	-10.5265
▁yazdı	-10.5265
▁Makine	-10.5266
▁medeniyet	-10.5269
▁hepsini	-10.5269
âh	-10.5273
iyorlar	-10.5275
▁Beni	-10.5279
▁bakar	-10.5289
nuzu	-10.529
matik	-10.5298
▁saklan	-10.5302
▁Microsoft	-10.5303
▁olurdu	-10.5303
▁sinyal	-10.5303
▁kampanyası	-10.5304
▁çalışıyoruz	-10.5306
▁Instagram	-10.5306
▁Bülent	-10.5311
▁elinden	-10.5312
▁şaşır	-10.5313
mle	-10.5313
▁bizleri	-10.5314
▁yor	-10.5314
▁demiş	-10.5316
demir	-10.5318
▁yaşamın	-10.5321
▁sekiz	-10.5322
▁duygusal	-10.5325
ag	-10.5328
▁yeteneği	-10.5331
cılığı	-10.5332
▁müdür	-10.5332
likte	-10.5335
▁Gelir	-10.5337
▁seminer	-10.5338
▁Elektronik	-10.5347
▁vurgulayan	-10.5348
▁değerler	-10.5351
▁okuyan	-10.5351
▁Azerbaycan	-10.5351
▁Yolu	-10.5354
▁aza	-10.5357
▁hafıza	-10.5362
▁temsilci	-10.5362
fat	-10.5364
▁trend	-10.5368
▁eline	-10.5372
▁belirleme	-10.5372
ışma	-10.5373
Fi	-10.5374
▁Örgütü	-10.5377
alan	-10.5377
▁kurs	-10.538
▁inşallah	-10.538
▁girmek	-10.5382
osu	-10.5383
ktedir	-10.5386
▁geliştirilmesi	-10.5387
nes	-10.5388
▁yıkıl	-10.5389
▁sikiş	-10.539
▁damla	-10.5392
▁kusur	-10.5396
▁olabileceği	-10.5398
▁tok	-10.5399
▁deli	-10.54
▁oraya	-10.54
▁ihtiyaçlarını	-10.5403
▁geçerek	-10.5404
tıkları	-10.5406
▁Lütfen	-10.5408
▁akım	-10.5411
▁misiniz	-10.5413
▁Biraz	-10.5414
▁sınavı	-10.5415
▁uzmanı	-10.5416
▁çarp	-10.5417
▁binası	-10.5418
▁karşılığı	-10.542
▁ihraç	-10.5421
▁Meydanı	-10.5423
▁bilinci	-10.5424
▁tanrı	-10.5426
▁Vatandaş	-10.5432
▁Ah	-10.5432
▁Bilimleri	-10.5433
58	-10.5433
tığını	-10.5433
▁zorla	-10.5434
pro	-10.5436
▁bez	-10.5437
▁yapılma	-10.5437
▁Edirne	-10.5437
klarını	-10.5438
amadı	-10.5443
▁plaj	-10.5444
▁(3)	-10.5447
▁ettiğimiz	-10.5447
▁kek	-10.5453
▁tamamlan	-10.5454
▁semt	-10.5457
▁41	-10.5458
▁Reklam	-10.546
▁Ac	-10.546
▁meselesi	-10.5461
▁ikamet	-10.5462
ımıza	-10.5465
▁gerçekleştirdi	-10.5465
▁filtre	-10.5467
ight	-10.5467
▁Devamını	-10.5473
▁We	-10.5475
▁Kitabı	-10.5479
▁oluş	-10.548
/2	-10.5481
▁disk	-10.5482
▁tavan	-10.5487
▁limit	-10.549
zar	-10.5491
hil	-10.5491
▁bağır	-10.5492
▁olsaydı	-10.5492
▁Orada	-10.5497
▁KA	-10.5499
▁ihmal	-10.5499
▁yetişkin	-10.55
▁rota	-10.55
▁vadeli	-10.5501
▁Camii	-10.5502
▁devleti	-10.5503
▁okula	-10.5503
iyo	-10.5505
▁heykel	-10.5505
gra	-10.5508
▁çıkmak	-10.551
▁Sinan	-10.5515
▁Gel	-10.5515
▁ambalaj	-10.5516
▁Mes	-10.5519
▁geçmişte	-10.5519
▁sektörde	-10.5522
▁daima	-10.5522
▁örnekleri	-10.5522
ther	-10.5524
▁kullanır	-10.5526
▁posta	-10.5527
HA	-10.5528
▁İçişleri	-10.5529
▁Kişisel	-10.5531
▁Şeker	-10.5531
▁Hayatı	-10.5533
▁İz	-10.5536
▁tuvalet	-10.5539
▁hazırladığı	-10.5541
▁karşısına	-10.5542
▁bölgelerde	-10.5542
▁Sim	-10.5543
doğan	-10.5545
▁dilim	-10.5548
▁Şubesi	-10.5552
▁izleyen	-10.5555
▁sel	-10.5556
▁bakalım	-10.5559
▁oyuncular	-10.556
tasyon	-10.556
tmek	-10.5561
larınıza	-10.5561
▁kafe	-10.5562
▁hamile	-10.5563
▁maddeleri	-10.5564
98	-10.5567
▁yiyecek	-10.5567
▁imalat	-10.5567
▁Has	-10.5568
▁İtalyan	-10.5568
▁Kongresi	-10.5569
▁tema	-10.5569
arım	-10.5571
▁bağlantısı	-10.5572
▁Özgür	-10.5574
▁beğeni	-10.5578
▁Tür	-10.5579
rif	-10.558
▁mezunu	-10.558
Bo	-10.5582
▁keyfi	-10.5585
▁Sizler	-10.5588
▁rica	-10.559
▁Emlak	-10.559
▁harca	-10.5594
Yeni	-10.5595
▁yaşan	-10.5595
▁gerekirse	-10.5596
▁44	-10.5597
▁etmekte	-10.5598
gon	-10.5598
52	-10.5599
▁Etkinlik	-10.5599
▁120	-10.5599
▁robot	-10.5602
▁Mini	-10.5605
CA	-10.5608
▁yaptırım	-10.5609
▁parçalar	-10.5611
abiliriz	-10.5612
▁Kuş	-10.5612
▁Onu	-10.5612
▁turist	-10.5614
▁programlar	-10.5616
▁karşılığında	-10.5617
▁Değerlendirme	-10.5617
▁duyurdu	-10.562
▁maddesinde	-10.5621
▁sağladığı	-10.5622
▁diploma	-10.5622
▁tezgah	-10.5623
▁ac	-10.5623
▁bilgilerini	-10.5624
▁Piyasa	-10.5626
▁kütüphane	-10.5628
51	-10.5629
▁Gider	-10.5631
▁Pu	-10.5632
▁Yardım	-10.5636
▁Selim	-10.5639
▁paylaştı	-10.5643
▁isyan	-10.5646
▁mar	-10.5648
▁inanılmaz	-10.565
▁akraba	-10.565
▁lezzetli	-10.5651
▁alet	-10.5651
▁kitabın	-10.5653
▁akla	-10.5655
▁skor	-10.5656
▁Yavuz	-10.5656
▁Gal	-10.5658
▁tavır	-10.5658
▁yeti	-10.5659
▁koşu	-10.566
▁olmazsa	-10.5663
▁üreten	-10.5664
▁tutum	-10.5667
ði	-10.567
▁2003	-10.5672
▁bulundur	-10.5673
▁rakibi	-10.5676
▁kıyafet	-10.5677
▁ağrısı	-10.5682
▁53	-10.5682
▁zorlu	-10.5683
mizle	-10.5684
▁tarafta	-10.5685
▁kaydeden	-10.569
▁kaynaklanan	-10.5695
▁kullanmaya	-10.5696
▁işle	-10.5696
▁Çözüm	-10.5698
rd	-10.5698
▁projenin	-10.57
▁rastlan	-10.5701
61	-10.5703
▁talimat	-10.5704
▁gölge	-10.5706
▁sürdü	-10.5707
sul	-10.5708
▁neticesinde	-10.5713
▁fazlası	-10.5714
▁yöre	-10.5718
IK	-10.572
▁durma	-10.5721
uğu	-10.5722
▁yararlı	-10.5723
▁saray	-10.5723
maktan	-10.5724
pt	-10.5724
▁tarihte	-10.5724
▁öğretmenler	-10.5725
yn	-10.5726
▁baştan	-10.5728
▁gereklidir	-10.5732
larımızda	-10.5732
▁siteler	-10.5734
▁diliyorum	-10.5735
▁istenilen	-10.5736
laşan	-10.5736
▁sesli	-10.5738
▁girişi	-10.5738
▁eleştir	-10.5739
▁lig	-10.5739
▁şiş	-10.574
Ba	-10.574
▁İŞ	-10.574
▁Parkı	-10.5746
Dünya	-10.5747
▁Hep	-10.5754
▁esnek	-10.5755
▁li	-10.5759
▁ayna	-10.576
ura	-10.5761
▁bulunmakta	-10.5761
ata	-10.5763
▁Mutlu	-10.5764
diye	-10.5767
▁arkadaşlık	-10.5768
▁çoğal	-10.577
▁Hızlı	-10.5775
▁yazan	-10.5778
YK	-10.5782
▁sırt	-10.5782
mediği	-10.5784
▁uza	-10.5788
▁kapısı	-10.5792
▁samimi	-10.5792
▁platformu	-10.5796
▁Ekonomik	-10.5796
▁dikkati	-10.5799
▁babam	-10.5801
▁güçlendir	-10.5802
▁Tiyatro	-10.5803
▁görebilirsiniz	-10.5804
▁kararlar	-10.5805
▁ihtiyacınız	-10.5806
miştim	-10.5807
▁olağanüstü	-10.5807
▁devamlı	-10.5811
▁hadis	-10.5812
▁katlı	-10.5813
▁tarihlerinde	-10.5813
▁Maç	-10.5813
▁bilmiyor	-10.5816
we	-10.5819
tes	-10.582
amayacağı	-10.582
▁bugünkü	-10.5822
▁utan	-10.5826
▁Kılıç	-10.5826
▁Hatay	-10.5829
▁girecek	-10.5836
▁vurguladı	-10.5837
▁biçim	-10.5837
▁sigortalı	-10.5838
▁Ateş	-10.5839
▁bölgenin	-10.5841
▁gr	-10.5842
▁tıklayın	-10.5843
▁olduğunun	-10.5843
ile	-10.5844
▁nem	-10.5846
▁sade	-10.5846
▁şahıs	-10.5847
▁af	-10.5847
▁oradan	-10.585
dor	-10.5853
ood	-10.5857
irler	-10.586
▁adamları	-10.5862
▁Bakanlık	-10.5863
▁Gerçekten	-10.5863
▁Malzeme	-10.5863
▁Halil	-10.5863
ere	-10.5866
▁taban	-10.5866
▁ot	-10.5868
▁Filistin	-10.5868
▁açıklamalarda	-10.5874
▁Ulu	-10.5874
TI	-10.5875
▁yaprak	-10.5876
▁Yerel	-10.5877
▁Tekirdağ	-10.5877
▁Ajansı	-10.5877
▁Seç	-10.5879
▁şuan	-10.5879
sunda	-10.5881
▁bıçak	-10.5881
Baş	-10.5893
▁edeceği	-10.5894
▁tarihten	-10.5896
▁olurken	-10.59
▁ze	-10.5901
▁buz	-10.5904
▁Öztürk	-10.5907
▁dediler	-10.5908
▁Aslan	-10.591
▁özgün	-10.591
▁yürü	-10.5911
▁aittir	-10.5912
▁gazetesi	-10.5916
▁00	-10.5917
▁Ücretsiz	-10.5917
▁İdaresi	-10.5919
▁kaynaklı	-10.592
▁savaşı	-10.5922
▁cadde	-10.5922
▁sisteme	-10.5924
▁sp	-10.5925
▁pil	-10.5925
okul	-10.5929
lıyorum	-10.5932
▁boğaz	-10.5932
▁halkının	-10.5935
▁anlaşıl	-10.5936
ılmasını	-10.5936
▁ti	-10.5939
▁vücudu	-10.594
EP	-10.5945
▁Belgesi	-10.5945
▁kaldırılması	-10.5946
▁öğrencilerimiz	-10.5946
▁..	-10.5949
▁depolama	-10.5949
kir	-10.5949
▁olmasının	-10.5953
daş	-10.5953
▁Motor	-10.5953
amayacak	-10.5954
▁bitme	-10.5957
▁Ele	-10.596
uc	-10.5961
▁yoluna	-10.5961
▁düşünen	-10.5963
ity	-10.5967
▁bulduğu	-10.597
▁ithal	-10.5971
▁Şekil	-10.5971
▁imar	-10.5971
▁buluyor	-10.5972
▁buluş	-10.5976
▁dâhil	-10.5979
▁gittik	-10.5982
ime	-10.5984
▁cerrahi	-10.5985
▁öldü	-10.5987
▁oluşturulan	-10.5992
▁bireyler	-10.5993
▁sektörün	-10.5995
nizden	-10.5995
▁sizinle	-10.5996
▁Ağrı	-10.5998
▁gönderdi	-10.6001
▁kızlar	-10.6001
▁farklılık	-10.6005
▁iftar	-10.6007
▁hay	-10.6008
▁kül	-10.6008
wi	-10.601
▁abone	-10.6013
▁Modern	-10.6013
ÖR	-10.6014
▁düzenlemeler	-10.6015
▁planda	-10.6021
ulur	-10.6022
▁beton	-10.6026
▁kendime	-10.6026
▁zamanlı	-10.6027
▁casino	-10.6027
▁silahlı	-10.6028
▁seçil	-10.603
▁Dağı	-10.6032
lıktan	-10.6034
▁gittim	-10.6034
burg	-10.6035
▁istikrar	-10.6035
fen	-10.6039
▁Nedir	-10.6039
lüğünü	-10.6041
zo	-10.6041
▁yürek	-10.6042
ciliği	-10.6042
▁ME	-10.6044
▁Sil	-10.6045
söz	-10.6045
▁vesile	-10.6051
▁yürütül	-10.6053
▁bulan	-10.6057
▁tahsil	-10.6057
▁Suriyeli	-10.606
▁Forum	-10.6066
▁12.	-10.6069
▁Oyuncu	-10.607
▁satılık	-10.607
▁tıp	-10.6072
Di	-10.6072
part	-10.6072
▁Gaz	-10.6074
lor	-10.6074
kül	-10.6075
▁Denetim	-10.6075
:)	-10.6076
dığında	-10.6076
▁Yazılım	-10.6078
▁açısı	-10.6078
▁yardımıyla	-10.6079
▁yazıyor	-10.6082
▁getirilen	-10.6084
▁Bet	-10.6085
▁ic	-10.6086
▁hakaret	-10.6086
▁Ziraat	-10.6091
▁Dön	-10.6092
▁gor	-10.6095
▁sitede	-10.61
▁konularında	-10.6101
▁etmişti	-10.6102
▁Tablo	-10.6104
▁kir	-10.6106
lus	-10.6106
▁örgü	-10.6107
▁örtü	-10.6107
▁Dili	-10.6108
▁komut	-10.611
▁açar	-10.6112
▁madalya	-10.6117
▁600	-10.6117
▁yapılacaktır	-10.6118
MI	-10.6121
▁Emin	-10.6121
▁hatırla	-10.6123
▁gönderilen	-10.6124
▁finans	-10.6125
leşmiş	-10.6126
▁başardı	-10.6129
▁seçimleri	-10.613
▁duran	-10.6133
line	-10.6135
▁şahit	-10.6143
▁filmler	-10.6145
▁içinden	-10.6148
▁Matematik	-10.6153
▁omuz	-10.6154
meniz	-10.6154
▁07	-10.6159
▁Kazakistan	-10.6162
▁karakteri	-10.6162
▁ap	-10.6164
▁kalitesini	-10.6164
▁Doğa	-10.6165
▁durdur	-10.6166
Siz	-10.6167
EC	-10.6168
muzun	-10.6168
▁Mat	-10.6169
▁renkler	-10.6171
▁Fran	-10.6172
▁ölçüm	-10.6172
▁Sıcak	-10.6172
▁gözet	-10.6174
▁Yüksel	-10.6177
▁topluluk	-10.6177
▁enerjisi	-10.6179
▁birine	-10.6182
▁Yardımcı	-10.6185
▁profil	-10.6186
▁göreve	-10.6189
▁‘’	-10.619
▁belirgin	-10.6192
▁tespiti	-10.6194
▁tahta	-10.6199
eddin	-10.6202
▁Kongre	-10.6203
▁Kurumsal	-10.6203
▁kalkınma	-10.6204
▁bastır	-10.6207
kçe	-10.621
ilmelidir	-10.6212
▁veriyoruz	-10.6215
500	-10.6215
▁Hepsi	-10.6215
▁verin	-10.6217
▁gecikme	-10.6218
▁antrenman	-10.6219
▁boşalt	-10.6221
▁Şampiyonası	-10.6222
▁hü	-10.6223
▁Rize	-10.6223
ami	-10.6225
▁Kaç	-10.6229
▁Toplantısı	-10.6231
▁matematik	-10.6232
cc	-10.6236
▁töreni	-10.6236
▁çerçeve	-10.6237
▁havalimanı	-10.6238
▁Gra	-10.6242
▁toplamda	-10.6242
▁Aşağıdaki	-10.6242
▁davası	-10.6243
▁muh	-10.6245
▁Aziz	-10.6248
▁çevirme	-10.6249
▁puanı	-10.6253
▁imkân	-10.6254
▁girmiş	-10.6255
▁programında	-10.6255
▁hakikat	-10.6256
▁oyunun	-10.6257
▁dedektif	-10.6259
▁sütü	-10.6261
▁girişim	-10.6262
▁yeter	-10.6263
▁ifadesi	-10.6269
▁Sorun	-10.627
uç	-10.627
ütü	-10.6271
▁eksikliği	-10.6272
▁girip	-10.6273
▁Rektör	-10.6274
▁3-	-10.6276
sındaki	-10.6276
▁niteliği	-10.6277
▁tank	-10.6278
▁gruplar	-10.6279
▁burs	-10.6279
ticaret	-10.628
78	-10.6281
▁Bunlardan	-10.6284
▁olacağız	-10.6285
▁John	-10.6286
▁müracaat	-10.6289
▁sunuyoruz	-10.6296
▁dahilinde	-10.6296
▁araçların	-10.6297
med	-10.6301
▁ihtiyaçları	-10.6303
▁musunuz	-10.6303
suzluk	-10.6303
▁örgütleri	-10.6305
▁Uygun	-10.6306
▁TA	-10.6309
▁mesela	-10.6309
▁stratejik	-10.6309
▁aldığını	-10.631
▁başından	-10.631
62	-10.631
▁Toprak	-10.6311
▁pozitif	-10.6311
▁paketi	-10.6311
▁Adnan	-10.6311
▁EK	-10.6312
▁çikolata	-10.6312
▁Dönemi	-10.6313
▁burun	-10.6314
▁türleri	-10.6316
ari	-10.6317
▁müsabaka	-10.6325
▁Çoğu	-10.6327
sur	-10.6328
▁karışık	-10.6329
▁Şah	-10.633
▁Kral	-10.6332
▁özelliklerini	-10.6335
▁54	-10.6337
soy	-10.6337
▁Göre	-10.6338
▁rolü	-10.6338
▁Ağa	-10.6338
▁ey	-10.634
▁enfeksiyon	-10.6341
▁Süt	-10.6345
▁işçiler	-10.6345
memiş	-10.6346
▁Kadir	-10.6346
▁pop	-10.6346
▁tüy	-10.6347
▁maksimum	-10.6347
▁Hotel	-10.6348
sp	-10.6348
▁dert	-10.6349
▁bağlama	-10.635
▁zeytin	-10.6351
▁grupları	-10.6352
▁Ruh	-10.6356
▁ilaçlar	-10.6359
maktayız	-10.6359
▁temizleme	-10.6361
çılar	-10.6361
▁istedikleri	-10.6362
▁Play	-10.6364
▁kesil	-10.6364
ebileceğiniz	-10.6367
▁kür	-10.6368
ction	-10.6369
▁yüzyıl	-10.6371
▁opsiyon	-10.6373
tesi	-10.6373
▁Hastalıkları	-10.6374
41	-10.6376
▁oyuncak	-10.6377
67	-10.638
GS	-10.638
▁Mus	-10.6381
▁vermeyi	-10.6382
▁Araba	-10.6383
amıyorum	-10.6384
▁modeller	-10.6384
▁sahası	-10.6385
▁Elbette	-10.6386
▁AD	-10.6387
▁Kaynak	-10.6387
▁Ziyaret	-10.6387
▁56	-10.6392
▁birey	-10.6396
rar	-10.6396
▁komutan	-10.6396
▁memnuniyeti	-10.6397
▁Kurban	-10.6397
▁gösterilen	-10.6397
▁port	-10.6398
TÜ	-10.6398
▁mesleği	-10.6399
şu	-10.6401
imin	-10.6401
▁kademe	-10.6402
▁Kudüs	-10.6404
▁https	-10.6405
lıkta	-10.6408
cal	-10.641
▁yaptığım	-10.6412
eyim	-10.6412
▁zamandır	-10.6417
▁Gezi	-10.6417
▁AY	-10.642
▁öfke	-10.6421
▁Mardin	-10.6422
▁kilise	-10.6424
lerinizin	-10.6424
▁çalışmaların	-10.6425
▁uzaklaştır	-10.6425
▁evvel	-10.6425
Po	-10.643
▁ü	-10.643
▁Hay	-10.6431
▁bırakın	-10.6432
lanıp	-10.6433
▁dök	-10.6438
bol	-10.6439
▁elini	-10.6441
▁oluşmaktadır	-10.6442
▁masraf	-10.6445
▁niye	-10.6445
▁çekin	-10.6446
77	-10.6447
▁dökül	-10.6449
▁Dev	-10.6451
eğin	-10.6454
▁kursu	-10.6454
▁fıkra	-10.6455
▁tahsis	-10.6456
▁ÖZ	-10.6458
▁getirildi	-10.6459
▁hayvanlar	-10.646
▁hesaplama	-10.6464
▁EN	-10.6465
▁işlev	-10.6466
▁başa	-10.6466
▁Hedef	-10.6468
86	-10.6469
▁Arslan	-10.6469
▁Kardeş	-10.647
ÜN	-10.6472
▁Ukrayna	-10.6473
yazı	-10.6474
ebiliriz	-10.6476
▁For	-10.6477
▁Karaman	-10.6478
▁müziği	-10.6479
▁şeyden	-10.648
▁gözleri	-10.6481
▁abla	-10.6484
▁önemlisi	-10.6485
▁Sınır	-10.6487
▁düzeyi	-10.6489
▁beraberinde	-10.6491
▁Tor	-10.6492
▁Bayrak	-10.6493
▁ilim	-10.6495
sunun	-10.6495
▁vergisi	-10.6495
▁içe	-10.6496
▁Boy	-10.6497
▁sayılır	-10.6497
▁çamaşır	-10.6497
▁yaratma	-10.6502
▁sorunların	-10.6503
▁kutsal	-10.6506
▁Test	-10.6507
▁vermeden	-10.6508
▁EĞİTİM	-10.6512
▁düzeltme	-10.6514
▁detay	-10.6515
▁aldığınız	-10.6517
▁aldıkları	-10.6518
▁Muğla	-10.652
▁arkadaşlarımız	-10.652
▁haksız	-10.6521
▁his	-10.6521
▁Başkanımız	-10.6522
leşmesi	-10.6523
▁ekledi	-10.6524
▁Birlik	-10.6525
▁okulu	-10.6527
▁Bilimler	-10.6536
▁ülkeleri	-10.6539
▁turnuva	-10.654
▁yetkisi	-10.6541
▁taahhüt	-10.6548
▁Alınır	-10.6548
▁niyet	-10.6548
▁gibidir	-10.6549
▁tesisi	-10.655
AA	-10.6551
▁aşık	-10.6551
▁Raporu	-10.6551
▁kaçın	-10.6554
▁bahar	-10.6555
▁Kampanya	-10.6555
▁fırça	-10.6556
▁dördüncü	-10.6557
riz	-10.6559
▁kamuoyu	-10.656
▁kullanıyor	-10.656
▁güzelliği	-10.656
çok	-10.6561
▁tıklayınız	-10.6562
▁Mavi	-10.6563
▁sınırsız	-10.6563
işi	-10.6566
ülü	-10.6569
▁şehirde	-10.6572
▁dolarlık	-10.6572
vas	-10.6572
pas	-10.6577
▁yaşar	-10.6578
▁Kimi	-10.6579
▁ölümü	-10.6581
▁santral	-10.6582
ebil	-10.6582
▁pompa	-10.6585
▁Japon	-10.6586
▁Siyah	-10.6587
▁seçilen	-10.6587
▁muhtar	-10.659
▁balkon	-10.659
▁kurulum	-10.6593
▁Kav	-10.6595
▁Güvenliği	-10.6596
▁görünme	-10.6596
▁bayrağı	-10.6597
masının	-10.6599
▁şartı	-10.6603
▁önlem	-10.6604
▁vitamin	-10.6606
▁Toto	-10.6606
▁edi	-10.6609
▁SE	-10.6614
▁Yaşar	-10.6617
ilip	-10.6618
UZ	-10.662
▁yaşı	-10.6621
▁evre	-10.6622
▁Sin	-10.6622
▁bildiği	-10.6623
▁tedbir	-10.6624
▁krem	-10.6625
▁hızlandır	-10.6626
▁kimseye	-10.6626
luğun	-10.6628
kum	-10.6628
▁uğur	-10.6631
▁menü	-10.6631
tri	-10.6632
▁Normal	-10.6633
▁Bahar	-10.6634
▁Geç	-10.6635
▁başla	-10.6642
▁ömür	-10.6644
▁yaşta	-10.6645
allah	-10.6648
▁görünen	-10.6648
▁şah	-10.6648
▁sunul	-10.6648
hem	-10.6649
▁heyet	-10.665
lığının	-10.6652
▁uzaklıkta	-10.6652
▁Zafer	-10.6652
▁Yu	-10.6654
▁Metal	-10.6655
Ve	-10.6657
▁ötürü	-10.6657
Mo	-10.6657
▁kolaylaştır	-10.6658
▁Yoksa	-10.6659
▁Diyanet	-10.6661
şit	-10.6662
▁04	-10.6664
ümü	-10.6664
▁kritik	-10.6665
▁adresine	-10.6665
▁imam	-10.6665
▁Katılım	-10.6669
▁okudu	-10.667
Gün	-10.6673
▁Çalış	-10.6673
▁58	-10.6673
▁Adıyaman	-10.6674
▁İlaç	-10.6675
▁Borsa	-10.6675
▁nişan	-10.6677
▁Kırmızı	-10.6677
▁ispat	-10.6677
ılmaya	-10.6678
▁borsa	-10.6683
▁gümrük	-10.6684
▁hikâye	-10.6684
▁sıradan	-10.6685
shi	-10.6685
▁çoğunluğu	-10.6686
Kar	-10.6686
larý	-10.6688
▁sek	-10.6688
▁süresince	-10.6689
▁cemaat	-10.6689
▁rehber	-10.669
▁bildiri	-10.6691
▁denen	-10.6692
▁kullanılacak	-10.6692
▁başlık	-10.6696
▁olursunuz	-10.6697
▁etmiyor	-10.6698
▁âyet	-10.6699
▁Herhangi	-10.6699
▁sofra	-10.6699
▁referandum	-10.6701
▁bacak	-10.6701
▁cenaze	-10.6702
▁aksesuar	-10.6703
bas	-10.6705
▁zincir	-10.6707
▁Gelin	-10.6708
▁giriyor	-10.6708
▁mak	-10.6709
▁Trafik	-10.6711
▁canım	-10.6711
▁Kullanım	-10.6712
ğu	-10.6715
▁Kargo	-10.6718
▁ilerleyen	-10.6719
▁hastaneye	-10.6719
▁konuyla	-10.6719
88	-10.672
▁Kapsam	-10.6722
▁ço	-10.6722
▁ankara	-10.6725
▁Uç	-10.6725
▁Önemli	-10.6726
seydi	-10.6728
stik	-10.6728
▁DA	-10.6728
76	-10.6729
▁noktaya	-10.6729
▁ilahi	-10.6729
▁yükseliş	-10.673
UT	-10.6733
yâ	-10.6733
▁oynayan	-10.6735
▁olmasından	-10.6736
▁türkçe	-10.6737
▁gönderi	-10.6737
▁sayfada	-10.6739
▁problemleri	-10.674
▁kaybol	-10.674
▁gay	-10.6743
▁Akşam	-10.6747
makla	-10.6748
▁görüşmeler	-10.6749
▁layık	-10.675
▁yüzme	-10.6752
▁yıldan	-10.6753
▁46	-10.6753
▁kupa	-10.6756
▁gerekçesiyle	-10.6758
▁43	-10.6759
mekteyiz	-10.6761
▁aldığım	-10.6763
ros	-10.6763
▁ora	-10.6764
▁sözcük	-10.6764
▁Düğün	-10.6768
▁Tal	-10.677
▁Hakkı	-10.6773
▁yaratan	-10.6777
bit	-10.678
▁hastalığın	-10.678
▁oyuncusu	-10.6782
▁Far	-10.6783
▁Güç	-10.6787
▁yağış	-10.6789
▁bizden	-10.6791
rum	-10.6793
▁şok	-10.6793
yordum	-10.6794
▁gelecekte	-10.6795
râ	-10.6795
▁oturum	-10.6796
dıkça	-10.6796
kil	-10.68
▁tohum	-10.6803
liyim	-10.6804
▁Paket	-10.6805
▁beklen	-10.6805
maması	-10.6811
▁keyfini	-10.6812
unuzu	-10.6814
undan	-10.6814
▁Un	-10.6815
▁dünyayı	-10.6816
TV	-10.6816
▁sıralama	-10.6816
meyeceği	-10.6818
▁budur	-10.6824
yabilir	-10.6824
▁açmak	-10.6826
▁çak	-10.6831
malıyız	-10.6832
▁entegre	-10.6833
▁toplantıda	-10.6833
▁mücadelesi	-10.6837
▁eğ	-10.6838
▁sevin	-10.6838
▁mimar	-10.6839
kay	-10.6839
▁Kart	-10.684
▁varlığını	-10.6841
▁Düzen	-10.6841
▁sandalye	-10.6843
▁tüketim	-10.6843
▁Kale	-10.6847
▁hu	-10.6852
▁ödülü	-10.6856
tom	-10.6857
71	-10.6861
-4	-10.6861
▁Saray	-10.6862
▁Yönetmeliği	-10.6863
▁önlemek	-10.6864
▁sitemizde	-10.6864
▁Veli	-10.6865
▁protokol	-10.6865
▁üyeliği	-10.6866
!..	-10.6866
100	-10.6866
▁kısaca	-10.6866
▁anlaş	-10.687
▁doğalgaz	-10.6871
▁Onur	-10.6872
acağımız	-10.6874
▁aşamada	-10.6875
▁limon	-10.6875
resi	-10.6876
▁okulda	-10.6878
▁ruhsat	-10.6881
▁öden	-10.6882
lah	-10.6882
öğrenebilirsiniz	-10.6883
▁Durum	-10.6883
▁pilot	-10.6883
▁dosyası	-10.6884
▁onlarca	-10.6885
▁burcu	-10.6886
▁metro	-10.6888
▁yapıldığını	-10.6888
▁bakmak	-10.6888
YO	-10.689
▁anlatım	-10.689
▁maddenin	-10.6891
abileceğini	-10.6891
▁saldır	-10.6893
▁euro	-10.6893
▁denize	-10.6894
liğinde	-10.6895
▁nereye	-10.6895
▁deme	-10.6896
▁Wa	-10.6896
▁Rapor	-10.6896
▁gar	-10.6898
▁Salih	-10.69
▁tartışıl	-10.6901
▁Bakanlar	-10.6903
▁politikaları	-10.6903
▁BİR	-10.6908
▁Ödülü	-10.6908
maktır	-10.691
▁geçmişi	-10.6912
▁yazmak	-10.6913
leştirilmesi	-10.6915
▁şiirleri	-10.6916
▁bekliyorum	-10.6918
▁yorumları	-10.6919
▁49	-10.6919
layabilir	-10.692
gh	-10.6921
▁Konuşma	-10.6925
▁dosyaları	-10.6926
▁emanet	-10.6928
▁aracılığı	-10.6932
▁meşru	-10.6936
▁dönemine	-10.6937
sco	-10.6938
▁yollar	-10.6939
▁Haberler	-10.6939
▁etmeleri	-10.694
▁ömrü	-10.6942
▁somut	-10.6943
▁64	-10.6946
▁Rüyada	-10.6946
▁yönetmelik	-10.6949
▁ilham	-10.6949
▁tazminat	-10.695
▁sürdürüyor	-10.6953
Rİ	-10.6953
▁boşluk	-10.6955
▁ikna	-10.6955
▁başkanlığı	-10.6957
list	-10.6958
▁Gökçe	-10.6961
▁sevdikleri	-10.6963
▁Cor	-10.6963
▁sonradan	-10.6967
ýný	-10.6967
▁ihracatı	-10.6968
YE	-10.6969
▁herşey	-10.697
▁sünnet	-10.6971
▁Turkcell	-10.6971
▁bilmek	-10.6971
▁oturan	-10.6971
▁görevlileri	-10.6972
▁kıs	-10.6975
▁eserleri	-10.6976
kap	-10.6978
▁ordusu	-10.6978
▁tarayıcı	-10.6979
vir	-10.6979
▁Duvar	-10.698
▁IP	-10.6981
▁firmanın	-10.6982
▁önerileri	-10.6982
▁ekipman	-10.6985
▁litre	-10.6985
▁Bah	-10.6986
▁liman	-10.6986
▁hareketleri	-10.6986
ino	-10.6988
▁süreçleri	-10.6988
▁duruşma	-10.699
▁karmaşık	-10.6991
▁nefret	-10.6993
▁görülüyor	-10.6994
▁günümüze	-10.6995
▁Parça	-10.6996
▁artar	-10.6996
▁kime	-10.7
▁Dost	-10.7001
▁yüzünü	-10.7001
▁hükümeti	-10.7002
▁sak	-10.7002
▁tab	-10.7003
▁tekniği	-10.7003
▁geçiren	-10.7004
▁Bor	-10.7005
▁Ödeme	-10.7006
▁bebeğin	-10.7006
eç	-10.7008
▁Yük	-10.701
▁dis	-10.7012
▁vitamini	-10.7012
▁hizmetlerini	-10.7012
oo	-10.7013
▁arayıp	-10.7013
▁kurtarma	-10.7013
▁Saf	-10.7016
▁milyonlarca	-10.7016
▁51	-10.7017
▁Standart	-10.7018
▁Belir	-10.7021
▁olmasıdır	-10.7021
▁elma	-10.7022
▁kolu	-10.7023
▁potansiyeli	-10.7023
vr	-10.7029
▁%100	-10.7029
üsü	-10.703
▁etkileşim	-10.7034
▁Hukuku	-10.7036
▁salata	-10.7039
2013	-10.7039
▁inanıyorum	-10.704
▁deneyimli	-10.7041
▁bitti	-10.7042
melisiniz	-10.7047
▁kuvvetli	-10.7049
▁Boya	-10.7051
▁Bina	-10.7054
▁ilgisi	-10.7056
og	-10.7057
▁uyandır	-10.7062
▁Ücret	-10.7062
▁Halı	-10.7064
96	-10.7066
gor	-10.7066
▁giderken	-10.7067
▁ırk	-10.7067
▁çağdaş	-10.7067
▁türk	-10.7068
▁ayrılan	-10.7069
▁satıcı	-10.7071
▁aldığımız	-10.7071
▁geçecek	-10.7072
▁suçlu	-10.7072
▁fonksiyon	-10.7075
▁görülme	-10.7075
▁çizim	-10.7081
3)	-10.7082
▁kadrosu	-10.7082
▁buyur	-10.7082
▁hane	-10.7083
br	-10.7085
▁ortağı	-10.7086
▁Kombi	-10.7087
▁arsa	-10.7087
▁kariyer	-10.7089
▁montaj	-10.7091
▁ithalat	-10.7091
▁atılan	-10.7094
▁meşhur	-10.7095
▁okulun	-10.7096
▁belgesel	-10.7097
▁politik	-10.7097
▁koltuğu	-10.7098
▁Turan	-10.7098
▁anlatmak	-10.7099
▁kala	-10.71
tırma	-10.7101
▁ziyade	-10.7103
-12	-10.7103
larımızla	-10.7106
▁faktörler	-10.7107
▁katılımıyla	-10.7107
▁bölümleri	-10.7107
Be	-10.7107
zim	-10.7107
Ak	-10.7109
nızdan	-10.7111
▁Klima	-10.7113
lerimizde	-10.7115
▁katılımcı	-10.7116
▁seçin	-10.7116
▁Değerli	-10.7117
▁niteliğinde	-10.7117
▁tarife	-10.7117
ruk	-10.7124
▁etkileyen	-10.7125
▁minik	-10.7131
▁Hazine	-10.7133
▁Ker	-10.7137
▁13.	-10.7137
▁şifa	-10.7138
▁ölç	-10.7139
▁başlıkları	-10.7142
▁yapacağız	-10.7142
▁şeref	-10.7143
▁önemini	-10.7144
▁gözler	-10.7146
Ama	-10.7147
▁yo	-10.7148
▁Gönder	-10.7148
▁Sermaye	-10.7148
▁Olan	-10.7149
▁yöntemler	-10.715
▁personelin	-10.7153
low	-10.7154
▁Geliştirme	-10.7154
▁Mahmut	-10.7155
▁görevleri	-10.7157
▁tanık	-10.7159
▁olmasın	-10.7161
▁bardak	-10.7163
▁istatistik	-10.7165
▁Min	-10.7166
▁insanlık	-10.7168
▁nitelikte	-10.717
▁telefondan	-10.717
uyorum	-10.7171
▁hemde	-10.7173
▁kurumları	-10.7174
▁Dava	-10.7174
▁yapıyorum	-10.7175
▁onlardan	-10.7176
▁eti	-10.7177
▁Dersin	-10.718
▁eserler	-10.718
Mü	-10.718
ladığınız	-10.7181
▁kopar	-10.7181
▁görüldü	-10.7184
▁aktivite	-10.7184
▁göçmen	-10.7185
▁ağırlığı	-10.7186
▁belde	-10.7187
▁istemez	-10.7187
▁paylaşma	-10.7187
mıyorum	-10.7189
▁bek	-10.7194
▁yüklü	-10.7196
mes	-10.7198
▁kimseler	-10.7199
▁gelişmeleri	-10.7204
▁sizde	-10.7205
▁kardeşim	-10.7205
▁Rehberi	-10.7207
one	-10.7208
▁bununla	-10.7209
▁Tedavi	-10.7209
▁ediyorlar	-10.721
mışlardır	-10.7211
▁yapacağınız	-10.7212
▁ekleme	-10.7212
▁İdare	-10.7213
▁Cemal	-10.7213
▁bilgisayarınız	-10.7213
▁kutusu	-10.7215
nüz	-10.7221
▁kav	-10.7223
▁kelimeler	-10.7224
▁Elazığ	-10.7224
▁Açıklama	-10.7225
▁tıbbi	-10.7226
▁ulaşan	-10.7228
▁ilaçlama	-10.723
▁diğeri	-10.723
▁Nitekim	-10.723
▁zamana	-10.7232
▁Sevgi	-10.7232
IT	-10.7233
▁etken	-10.7235
▁ağırlıklı	-10.7241
ring	-10.7242
▁Dikkat	-10.7243
▁atölye	-10.7243
▁yemin	-10.7246
ımın	-10.7248
▁ekstra	-10.725
▁düşüncesi	-10.7251
▁gümüş	-10.7253
▁trans	-10.7253
▁belirlendi	-10.7255
▁Adli	-10.7257
lip	-10.7257
▁verip	-10.7259
▁Dis	-10.726
▁hamur	-10.726
▁devrim	-10.726
▁Toplu	-10.7262
▁geliştirilen	-10.7264
▁şiddetli	-10.7264
dd	-10.7273
▁Sur	-10.7273
▁Peygamberimiz	-10.7276
▁Fu	-10.7279
▁gerektiren	-10.7279
▁sözlerine	-10.728
iv	-10.7282
▁sürdürülebilir	-10.7282
▁miras	-10.7282
▁cinsiyet	-10.7283
▁Sekreteri	-10.7283
▁sahada	-10.7287
▁bulunul	-10.7289
▁hile	-10.729
▁hamle	-10.729
82	-10.7293
▁getirerek	-10.7293
abildiği	-10.7294
▁Kür	-10.7296
▁Direktörü	-10.7296
▁vizyon	-10.7297
▁programına	-10.7299
▁ikram	-10.73
meliyiz	-10.73
▁sakın	-10.7304
▁heyeti	-10.7306
▁Düz	-10.7307
ore	-10.7309
▁mecbur	-10.7311
▁atış	-10.7312
▁Üsküdar	-10.7313
▁defter	-10.7315
▁teşhis	-10.7315
▁ediyordu	-10.7316
▁başlan	-10.7317
▁organik	-10.7324
▁kamyon	-10.7324
▁merkezli	-10.7324
lit	-10.7325
▁devrimci	-10.7327
▁müdürlüğü	-10.7329
▁dek	-10.7331
▁yazılmış	-10.7331
menin	-10.7331
▁Avusturya	-10.7331
▁soğan	-10.7331
▁mağlup	-10.7333
▁Mak	-10.7336
▁gayrimenkul	-10.7336
▁sayfası	-10.7336
▁direniş	-10.7337
lamaktadır	-10.7341
▁birleştir	-10.7343
▁coşku	-10.7343
con	-10.7344
▁maçın	-10.7345
▁dürüst	-10.7347
▁ünite	-10.7351
red	-10.7352
▁kanı	-10.7354
▁Holding	-10.7356
▁Dernek	-10.7356
▁Çalışan	-10.7357
▁basınç	-10.7357
suna	-10.7357
▁Tamam	-10.736
▁güçleri	-10.7361
▁müzakere	-10.7362
▁danışmanlık	-10.7362
▁hayli	-10.7363
▁başvurusu	-10.7363
▁Baskı	-10.7366
olog	-10.7366
bü	-10.7367
▁egemen	-10.7367
çer	-10.7368
▁hacmi	-10.7369
uyoruz	-10.737
▁yükseldi	-10.737
▁Fırat	-10.737
▁evlenme	-10.737
▁dünyadaki	-10.7371
▁Özet	-10.7372
▁durumuna	-10.7375
istik	-10.7377
▁tadını	-10.7379
▁edilmelidir	-10.7381
BB	-10.7383
▁mat	-10.7385
▁Pazarlama	-10.7393
▁bulut	-10.7393
▁Dijital	-10.7394
▁doğrusu	-10.7395
rap	-10.7397
He	-10.7397
▁gösterge	-10.74
▁Evde	-10.7401
▁Sektör	-10.7401
iyer	-10.7401
rî	-10.7401
TR	-10.7402
▁gelişmesi	-10.7404
▁uz	-10.7406
▁Şiir	-10.741
▁yükselen	-10.741
gur	-10.7411
▁NATO	-10.7413
▁Sayısı	-10.7413
▁kentin	-10.7414
ışık	-10.7414
▁yazıları	-10.7415
▁uzaktan	-10.7415
▁hususlar	-10.7418
▁Arkadaşlar	-10.7422
ERİ	-10.7424
ılmalıdır	-10.7425
▁2001	-10.7426
▁hap	-10.7426
▁Edebiyat	-10.7427
▁dolara	-10.743
▁sağladı	-10.7432
▁çalışanların	-10.7432
▁keşfe	-10.7432
▁tatili	-10.7433
▁çalışanları	-10.7435
▁milleti	-10.7435
▁kokusu	-10.7435
2012	-10.7436
▁Kes	-10.7436
▁Söyle	-10.7439
▁sürdüren	-10.7442
▁peynir	-10.7443
▁Memur	-10.7445
▁Dolar	-10.7445
▁bizde	-10.7447
▁Yüce	-10.7448
▁işten	-10.7448
out	-10.7452
ılmasına	-10.7453
▁uzanan	-10.7453
hen	-10.7453
▁dinlenme	-10.7454
▁görevlisi	-10.7454
▁dönen	-10.7454
▁hikayesi	-10.7457
▁koyduğu	-10.7459
▁!	-10.7459
bre	-10.746
▁açığı	-10.7461
▁koşul	-10.7461
▁boyunda	-10.7462
ong	-10.7463
▁müslüman	-10.7464
amadım	-10.7464
▁ni	-10.7465
▁yapay	-10.7467
▁gidiş	-10.7467
▁vade	-10.7471
▁oyunda	-10.7472
!"	-10.7472
▁konusundaki	-10.7472
▁toplanan	-10.7472
▁verdiğimiz	-10.7476
▁sürül	-10.7476
$	-10.7477
▁lan	-10.748
▁işareti	-10.7481
▁Eşya	-10.7485
▁adresinden	-10.7488
▁çekil	-10.7488
▁kaybettiği	-10.7488
öğretim	-10.7489
An	-10.7489
▁Gelen	-10.7491
▁konumunda	-10.7491
▁ailenin	-10.7491
▁yaşandı	-10.7494
▁Boş	-10.7495
▁yapış	-10.7495
▁kanama	-10.7497
▁hedefleri	-10.7497
▁sözlü	-10.7497
▁Tanı	-10.7497
▁yaşadıkları	-10.7498
▁Kanada	-10.7498
▁biten	-10.7498
▁sevdiğim	-10.7501
mekten	-10.7502
▁Faaliyet	-10.7503
▁adli	-10.7504
▁terim	-10.7505
▁dizayn	-10.7505
▁yaptırmak	-10.7506
lerimizden	-10.7508
▁Bek	-10.751
▁yazın	-10.751
▁Dair	-10.7511
▁görüntüler	-10.7511
▁Dünyada	-10.7512
fik	-10.7513
▁yerinden	-10.7513
▁öp	-10.7513
▁Say	-10.7513
▁olayların	-10.7514
▁Bes	-10.7515
▁TC	-10.7515
▁dersler	-10.7517
▁adayların	-10.7521
tığımız	-10.7523
▁İlişkiler	-10.7526
▁Bahçeli	-10.7526
▁Yrd	-10.7527
para	-10.7527
▁oluşuyor	-10.7528
▁kararlı	-10.7529
▁pasaport	-10.7534
▁yazılımı	-10.7534
▁Hürriyet	-10.7535
▁organizasyonu	-10.7538
ebileceğini	-10.754
▁Bizler	-10.7541
şer	-10.7549
ysanız	-10.755
▁kimin	-10.755
▁müdürü	-10.7551
▁görüldüğü	-10.7557
▁Tepe	-10.756
▁2-3	-10.7562
▁Mesaj	-10.7564
▁olgu	-10.7566
▁standartları	-10.7568
▁TRT	-10.7568
▁Değişiklik	-10.7569
▁suya	-10.757
▁görüşmeleri	-10.757
▁aralık	-10.7573
▁taşımacılık	-10.7576
▁belirtmek	-10.7579
▁adımlar	-10.7579
▁yirmi	-10.758
▁Mesleki	-10.758
▁yem	-10.7581
▁sayısını	-10.7583
biz	-10.7584
▁sevilen	-10.7585
▁nice	-10.7587
İs	-10.7588
▁duruşu	-10.7591
▁Alanya	-10.7595
▁tebliğ	-10.7597
▁ag	-10.7597
▁haş	-10.7598
▁değişme	-10.7599
▁Özellikleri	-10.76
muzu	-10.7601
▁kına	-10.7604
tıcı	-10.7605
▁onlarla	-10.7606
▁Belge	-10.7607
▁başarısız	-10.7608
▁sarf	-10.7609
▁edildiğini	-10.7609
▁Planı	-10.7611
▁Savcı	-10.7612
▁katma	-10.7616
▁chat	-10.7616
SAN	-10.7617
▁Zeytin	-10.7617
▁dönük	-10.7619
▁çalışırken	-10.7619
Mİ	-10.762
▁edilecektir	-10.7622
▁sah	-10.7624
▁artırmak	-10.7624
▁dediğimiz	-10.7625
▁kızım	-10.7626
▁AS	-10.7626
▁muhasebe	-10.7628
▁mutfağı	-10.7628
▁gündem	-10.763
ağ	-10.763
▁Milletler	-10.7631
▁ex	-10.7631
200	-10.7632
▁sembol	-10.7633
▁başarıyla	-10.7634
▁zorlan	-10.7635
▁arttı	-10.7635
▁tarla	-10.7636
anne	-10.7637
▁Selam	-10.7639
▁bilin	-10.7639
▁Yara	-10.7642
▁tavuk	-10.7643
▁tıklayarak	-10.7644
▁Cengiz	-10.7644
▁mekanizma	-10.7644
▁gideceği	-10.7645
▁kapağı	-10.7645
gr	-10.7648
▁kazandığı	-10.7648
▁arkadaşlarım	-10.7649
elli	-10.765
ayet	-10.765
▁Yapımı	-10.7651
IS	-10.7651
▁satan	-10.7652
▁Roman	-10.7652
▁sag	-10.7653
kul	-10.7654
▁olabileceğini	-10.7654
▁Tören	-10.7655
▁Ona	-10.7657
tic	-10.7658
▁detaylar	-10.7658
▁seyret	-10.7659
▁Tesis	-10.7664
▁Banyo	-10.7664
▁Olma	-10.7667
TP	-10.7667
▁görünümü	-10.7667
8)	-10.7671
▁Kab	-10.7671
▁Bize	-10.7671
▁kurucu	-10.7671
89	-10.7671
▁etek	-10.7672
▁Ekran	-10.7674
▁razı	-10.7675
sor	-10.7675
▁KKTC	-10.768
Ey	-10.7683
▁ölme	-10.7685
LEN	-10.7686
▁vereceği	-10.7687
▁sürdürdü	-10.7687
▁kendinize	-10.7688
▁yenileme	-10.7696
▁alama	-10.7698
▁hastalıklar	-10.77
▁kurumu	-10.7701
-20	-10.7702
▁bıraktığı	-10.7702
cel	-10.7702
▁Mil	-10.7704
▁içerisindeki	-10.7706
▁sıklıkla	-10.7706
▁iğne	-10.7707
▁gönderildi	-10.7708
▁domates	-10.7711
▁erkeklerin	-10.7719
▁bakıldığında	-10.7719
▁logo	-10.772
▁Türkler	-10.772
▁Fiyatları	-10.7725
ÜZ	-10.7729
▁gereğince	-10.7732
▁gelenek	-10.7733
▁Genellikle	-10.7734
off	-10.7734
lemiş	-10.7735
▁Kir	-10.7736
▁yapılacağı	-10.7737
▁Yarışma	-10.7737
▁Op	-10.7738
▁İhracat	-10.7739
▁Rabbi	-10.7739
▁virüs	-10.7741
▁foto	-10.7742
▁askerlik	-10.7743
▁otopark	-10.7743
▁fotoğraflar	-10.7744
kale	-10.7745
▁birbirlerine	-10.7746
▁Güncel	-10.7747
▁gelebilir	-10.7748
göz	-10.7749
laşmış	-10.7749
rim	-10.7749
▁Qu	-10.7751
▁piyasada	-10.7751
▁ola	-10.7753
▁garip	-10.7757
▁Hac	-10.7758
▁III	-10.7759
▁Biri	-10.776
zik	-10.7761
▁Sürekli	-10.7762
▁yatırımcı	-10.7764
▁ülkesi	-10.7765
ýþ	-10.7766
▁Onların	-10.7769
▁Ölüm	-10.777
azi	-10.7771
ekli	-10.7773
▁Il	-10.7773
▁karın	-10.7773
.6	-10.7774
▁işlemci	-10.7774
▁memleket	-10.7775
▁Ste	-10.7775
▁63	-10.7775
▁alındığı	-10.7777
▁yayınlandı	-10.7778
▁Musa	-10.7779
▁kaş	-10.7781
72	-10.7782
▁gelmez	-10.7783
▁çeyrek	-10.7783
lüğe	-10.7785
▁oluşturulması	-10.7787
▁teknolojileri	-10.7788
...”	-10.7789
▁tarihinin	-10.779
▁sisteminde	-10.7792
gaz	-10.7793
▁olabiliyor	-10.7793
acı	-10.7794
▁ceviz	-10.7794
yel	-10.7798
▁IŞİD	-10.7798
▁taşınmaz	-10.7799
▁mesai	-10.78
des	-10.7801
▁Tv	-10.7801
▁pu	-10.7804
▁öğretmeni	-10.7807
▁belirlenir	-10.7809
▁Eren	-10.781
▁özgürlüğü	-10.781
▁çare	-10.7814
▁katılmak	-10.7817
gram	-10.7817
▁tesisat	-10.7817
▁format	-10.7818
sion	-10.7818
▁sandık	-10.7819
▁şişe	-10.7821
▁kuran	-10.7822
▁sözlerini	-10.7822
lý	-10.7823
▁karşılaştır	-10.7826
Pa	-10.7826
▁sağlayacaktır	-10.7828
▁yoğunluğu	-10.783
▁patates	-10.783
▁yüzyılda	-10.7831
IŞ	-10.7831
▁bölümünü	-10.7833
ünüzü	-10.7836
▁haberine	-10.7838
▁taşıt	-10.7841
▁etkisini	-10.7842
▁GB	-10.7842
ling	-10.7844
▁şekeri	-10.7844
gil	-10.7848
▁kullanıma	-10.7848
▁Sık	-10.7849
▁izmir	-10.7851
▁Tut	-10.7852
▁lastik	-10.7854
▁za	-10.7855
iğe	-10.7856
▁emre	-10.7856
tuğu	-10.7857
▁çök	-10.7858
▁üyelerinin	-10.7859
▁Sır	-10.786
▁maske	-10.7862
▁renkleri	-10.7862
▁bardağı	-10.7863
▁seviyor	-10.7863
▁intihar	-10.7864
▁May	-10.7867
▁Pay	-10.7867
▁katil	-10.7868
▁fizik	-10.7872
▁pre	-10.7872
▁hâkim	-10.7873
ladım	-10.7873
▁gereksiz	-10.7873
▁isterse	-10.7874
▁vaka	-10.7877
▁Devamı	-10.7878
uf	-10.7878
▁gerektir	-10.7878
▁toplumu	-10.788
▁Kanununun	-10.7881
DS	-10.7882
▁tesisleri	-10.7887
▁elektro	-10.7887
▁işlemlerini	-10.7888
GA	-10.7889
▁dünyası	-10.7891
▁faktör	-10.7891
▁kurabiye	-10.7892
▁Kom	-10.7894
psi	-10.7895
▁Muha	-10.7897
▁57	-10.7898
▁bebeği	-10.7899
▁yapabilecek	-10.79
▁Tüketici	-10.7901
sch	-10.7902
▁kurumların	-10.7905
▁yoldan	-10.7907
▁verdiğini	-10.7908
▁yenilikçi	-10.7908
▁Otobüs	-10.7912
SU	-10.7913
▁Kul	-10.7913
▁bölgedeki	-10.7913
▁Th	-10.7916
▁Çık	-10.792
▁mantar	-10.792
▁Açma	-10.7923
ure	-10.7926
▁bölgesel	-10.7928
▁hissettir	-10.7929
▁bankalar	-10.7929
ağın	-10.7932
▁başlamak	-10.7934
▁gelmeye	-10.7934
DU	-10.7935
▁geçin	-10.7935
▁olanların	-10.7935
▁faaliyetler	-10.7938
▁sitemiz	-10.7939
▁tasarlanmış	-10.794
84	-10.7942
▁yaşadı	-10.7943
▁yönlendirme	-10.7945
▁Mon	-10.7946
.19	-10.7946
▁dağıtım	-10.7946
sim	-10.7948
▁röportaj	-10.7952
▁yılların	-10.7952
▁zira	-10.7954
▁teslimat	-10.7955
▁Aracı	-10.7955
▁Alp	-10.7956
▁dünyasının	-10.7957
▁sön	-10.796
▁Bekir	-10.7961
▁oluşturuyor	-10.7962
▁Kodu	-10.7964
▁Hesap	-10.7965
▁Kad	-10.7966
ulan	-10.797
▁hükümetin	-10.7971
▁öğrencinin	-10.7971
▁suçlama	-10.7974
▁kü	-10.7975
Ara	-10.7976
imde	-10.7978
ttiği	-10.7982
▁hastanede	-10.7983
▁RE	-10.7985
▁oldugu	-10.7989
▁Anti	-10.7989
▁gerçekleş	-10.799
uyla	-10.7991
▁sezonu	-10.7993
▁seviyesi	-10.7995
4)	-10.7996
emediği	-10.7996
▁verdikleri	-10.7997
▁atar	-10.7997
▁almanız	-10.7998
▁ayının	-10.7999
ılacağı	-10.8
OĞLU	-10.8002
▁tüzel	-10.8002
▁Yalnız	-10.8002
▁kurucusu	-10.8004
▁Erdem	-10.8004
▁verilerin	-10.8004
▁MÜ	-10.8005
▁grubun	-10.8005
▁Mahalle	-10.8006
▁kararları	-10.8011
age	-10.8015
▁müjde	-10.8015
▁yüce	-10.8016
▁Brezilya	-10.8017
▁mülteci	-10.8017
▁ticareti	-10.8018
▁ürünlerini	-10.8018
▁yatağı	-10.802
vâ	-10.8021
▁gezegen	-10.8022
▁kenti	-10.8022
▁savaşın	-10.8023
▁barındır	-10.8023
▁Balık	-10.8023
▁Seri	-10.8025
▁ekleyin	-10.8028
▁Vekili	-10.8029
▁fakir	-10.8029
tas	-10.8031
atif	-10.8032
▁görünür	-10.8032
▁koş	-10.8034
▁ihti	-10.8037
▁İSTANBUL	-10.8037
▁Başarı	-10.8038
▁Bilişim	-10.8038
▁özet	-10.8038
▁1,5	-10.8039
▁İsveç	-10.8039
▁kaldık	-10.804
▁beklentileri	-10.8041
▁verildiği	-10.8042
star	-10.8043
▁Sha	-10.8043
▁talepleri	-10.8044
▁kaynaklar	-10.8045
▁ettiklerini	-10.8046
93	-10.8047
▁kanaat	-10.8047
▁çoğunlukla	-10.8048
▁uygulanma	-10.8049
▁gönderdiği	-10.8049
▁yarışı	-10.805
▁Hü	-10.805
▁kullanıcıları	-10.8051
▁durumunu	-10.8052
▁saçma	-10.8054
▁eksiksiz	-10.8061
▁TÜRK	-10.8062
▁yönlü	-10.8062
▁doküman	-10.8063
▁etmeden	-10.8065
▁Yangın	-10.8067
nizdeki	-10.8069
▁Arapça	-10.807
▁Dol	-10.8074
▁kok	-10.8074
▁ücretleri	-10.8075
▁esir	-10.8077
ımızda	-10.8077
▁degil	-10.8079
▁Başbakanı	-10.8079
▁Durumu	-10.8079
▁açılma	-10.8079
▁gençlerin	-10.8082
▁edilemez	-10.8083
▁resmen	-10.8083
▁davranışları	-10.8084
ess	-10.8085
▁mas	-10.8088
▁anlamıyla	-10.8089
▁nükleer	-10.8089
▁mana	-10.809
▁beklediği	-10.809
▁yapılmasını	-10.809
▁yaşamış	-10.809
▁elemanları	-10.8091
Nİ	-10.8092
▁okuyun	-10.8094
▁atmak	-10.8095
▁başkanlık	-10.8097
SK	-10.8098
▁görevlendiril	-10.8099
▁belirti	-10.81
▁tarihe	-10.8101
▁61	-10.8101
▁81	-10.8108
▁--	-10.811
▁kom	-10.8114
▁ısrar	-10.8114
▁Bizans	-10.8114
▁bozma	-10.8114
▁döküm	-10.8115
▁Gümrük	-10.8115
Li	-10.8118
vil	-10.8119
ort	-10.8121
▁oyuna	-10.8121
▁düzeyinde	-10.8125
▁ilçesine	-10.8125
▁sab	-10.8126
▁beklet	-10.8126
raz	-10.8129
▁üste	-10.813
▁istismar	-10.8133
▁çadır	-10.8134
▁liraya	-10.8134
▁mensupları	-10.8134
▁Ahşap	-10.8135
Ay	-10.8139
abilirler	-10.814
▁tanımlama	-10.8143
▁duru	-10.8143
73	-10.8144
▁Televizyon	-10.8144
▁yapıştır	-10.8146
▁Port	-10.8148
▁Emir	-10.8151
Ko	-10.8154
▁cumhuriyet	-10.8155
▁Hikaye	-10.8157
▁tarama	-10.816
▁reform	-10.816
▁sök	-10.8162
▁özü	-10.8163
▁Firmamız	-10.8164
Su	-10.8165
▁Sem	-10.8166
▁Yanı	-10.8166
▁Rah	-10.8169
▁aşkı	-10.817
▁doz	-10.817
▁Olarak	-10.8171
▁girerek	-10.8172
▁KPSS	-10.8175
▁gerçekleşecek	-10.8176
▁ölen	-10.8176
▁düzenledi	-10.8177
▁Selçuklu	-10.8178
▁küme	-10.8184
▁ihbar	-10.8184
EŞ	-10.8188
▁tahliye	-10.8188
▁nci	-10.8189
▁ulaştığı	-10.8191
ika	-10.8193
▁sıkış	-10.8194
▁yazılar	-10.8195
▁haricinde	-10.8195
▁yaptıklarını	-10.8196
▁Yetkili	-10.8199
miyoruz	-10.82
▁Â	-10.8203
▁hain	-10.8203
▁şer	-10.8203
▁otorite	-10.8204
baz	-10.8205
▁yağlı	-10.8207
▁asansör	-10.8208
UK	-10.8209
ladığımız	-10.8209
lanmaya	-10.821
.12	-10.8212
▁okullar	-10.8213
lerinizde	-10.8213
▁Dik	-10.8214
▁pazarı	-10.8215
▁demişti	-10.8217
llah	-10.8217
▁bulunmayan	-10.8218
▁Muharrem	-10.8219
▁Def	-10.822
▁Zi	-10.8222
ick	-10.8223
97	-10.8225
▁yolun	-10.8225
▁Göl	-10.8225
▁Üçüncü	-10.8226
pu	-10.8231
▁Kum	-10.8231
▁getirecek	-10.8233
▁fotoğrafı	-10.8233
RI	-10.8233
▁UEFA	-10.8237
▁yazılan	-10.8237
mâ	-10.8237
▁nereden	-10.8237
▁açıklamalar	-10.8238
▁Com	-10.8239
larımızdan	-10.8239
SO	-10.8241
▁durak	-10.8242
ELİ	-10.8243
▁oynamak	-10.8244
üzü	-10.8247
▁değilse	-10.8247
▁köyünde	-10.8248
▁felsefe	-10.8251
larıdır	-10.8251
92	-10.8252
tüğü	-10.8253
▁müthiş	-10.8254
▁ibaresi	-10.8255
▁kaleci	-10.826
DP	-10.8262
▁Birleşmiş	-10.8263
▁göstergesi	-10.8263
▁Basketbol	-10.8263
▁ulus	-10.8264
▁Oğuz	-10.8264
▁Tez	-10.8265
▁Avustralya	-10.8266
▁kork	-10.8266
▁koşullar	-10.8266
▁Model	-10.8268
▁Valiliği	-10.827
▁İndir	-10.8271
bî	-10.8271
▁bölgelerinde	-10.8272
▁devamı	-10.8272
▁çalışanlar	-10.8272
KO	-10.8273
▁kâr	-10.8274
NET	-10.8275
▁Sch	-10.8277
▁Yönetmeliğin	-10.8277
TAN	-10.8279
dışı	-10.8279
uzu	-10.828
▁Pri	-10.8284
▁grev	-10.8284
▁95	-10.8284
▁yolla	-10.8286
▁con	-10.8295
▁villa	-10.8295
▁başlattı	-10.8296
▁haklarını	-10.8297
▁Bol	-10.8298
▁kendimizi	-10.8298
▁hâlâ	-10.83
▁Arı	-10.8303
▁Uz	-10.8303
▁bayıl	-10.8304
ografi	-10.8306
şır	-10.8306
▁Kırım	-10.8308
▁yapıya	-10.8309
yelim	-10.8309
81	-10.8309
▁Ban	-10.831
▁işkence	-10.831
▁zorluk	-10.8312
▁nak	-10.8313
▁uzaklaş	-10.8313
▁kentinde	-10.8313
▁Şam	-10.8313
▁imkansız	-10.8314
79	-10.8315
▁Amerikalı	-10.8315
▁versiyonu	-10.8318
▁Usta	-10.8319
▁felaket	-10.8319
▁Talep	-10.832
▁1999	-10.832
▁kazanır	-10.832
▁taşır	-10.8322
▁kendisinden	-10.8327
▁Bro	-10.833
▁Mühendislik	-10.8332
▁Ebu	-10.8335
▁mod	-10.8336
▁şüphesiz	-10.8337
kuş	-10.8338
dra	-10.834
▁kıymet	-10.8341
▁Sergi	-10.8342
▁us	-10.8343
▁duyulan	-10.8343
▁hormon	-10.8346
maksızın	-10.8347
▁Moda	-10.8347
▁görmeye	-10.8348
▁Vakıf	-10.8348
▁Kuran	-10.8349
▁bağlıdır	-10.8352
▁kayded	-10.8353
▁çıkışı	-10.8353
▁etrafı	-10.8356
▁yüreği	-10.8357
lemesi	-10.8357
▁oruç	-10.8358
▁artıyor	-10.8358
işim	-10.8359
▁Yönetici	-10.8359
▁nolu	-10.8361
▁Çam	-10.8362
tici	-10.8362
▁çekerek	-10.8364
ding	-10.8365
▁tamamlanması	-10.837
▁açığa	-10.837
▁koyup	-10.837
87	-10.8371
▁operasyonu	-10.8376
▁kullanabilir	-10.8376
âb	-10.8377
▁Müslümanlar	-10.8377
▁videosu	-10.8381
▁nitelikli	-10.8381
▁stil	-10.8382
▁haftasında	-10.8383
▁aya	-10.8385
▁mahkum	-10.8385
▁Cihaz	-10.8386
▁değiştirmek	-10.8386
▁birbirini	-10.8388
ümüzde	-10.8391
▁kaydedil	-10.8391
▁Konser	-10.8394
▁mineral	-10.8396
ilmektedir	-10.8396
▁kupon	-10.8398
▁Efendimiz	-10.84
▁Kiralama	-10.8408
▁Yalçın	-10.8409
▁sıkıntılar	-10.8412
▁öncelikli	-10.8413
▁üzüntü	-10.8416
laşması	-10.8416
▁kağıdı	-10.8425
▁baktığı	-10.843
▁pis	-10.8433
▁İnşallah	-10.8433
▁başlayarak	-10.8433
▁Polat	-10.8435
▁kolon	-10.8437
▁Dört	-10.8437
▁kaleme	-10.8437
▁mesafede	-10.8438
▁hayali	-10.8441
fra	-10.8446
bes	-10.8447
▁Yunus	-10.8447
▁sur	-10.8448
▁Ekip	-10.8448
TK	-10.8449
▁nitelik	-10.845
emiyor	-10.845
▁Çetin	-10.8451
▁değerini	-10.8451
-6	-10.8452
▁dükkan	-10.8453
▁(3	-10.8453
▁başlandı	-10.8453
▁kullanın	-10.8454
▁Kaymakamı	-10.8455
iyi	-10.8456
▁yüksekliği	-10.8457
74	-10.8458
▁elektrikli	-10.8459
▁beraberlik	-10.8463
▁Kolay	-10.8464
▁nimet	-10.8472
âm	-10.8474
▁kemer	-10.8474
▁müte	-10.8475
▁muhabbet	-10.8475
▁eğilim	-10.8475
▁takı	-10.8476
▁sistemler	-10.8478
▁milliyetçi	-10.8479
▁Turgut	-10.8479
▁edebil	-10.8482
▁duyan	-10.8483
ildiğinde	-10.8484
Fa	-10.8486
▁düşmesi	-10.8492
lî	-10.8492
avi	-10.8493
▁kapsayan	-10.8493
▁başrol	-10.8496
▁Türkmen	-10.8497
▁Yo	-10.8499
▁bilmeyen	-10.85
▁Galaxy	-10.8502
▁Profesyonel	-10.8502
▁Yay	-10.8502
▁if	-10.8505
▁Kimse	-10.8506
ney	-10.8506
▁Hat	-10.8509
▁Renk	-10.8509
▁sundu	-10.851
▁diyorlar	-10.8511
▁tecavüz	-10.8511
▁sınava	-10.8513
▁Naz	-10.8513
▁Pas	-10.8513
▁diren	-10.8514
▁duyarlı	-10.8515
▁kurumun	-10.8516
▁yetenek	-10.8517
▁lif	-10.8518
üç	-10.8519
▁Sezon	-10.8521
▁ı	-10.8522
▁nelerdir	-10.8524
-5	-10.8525
ray	-10.8526
▁yurtdışında	-10.8526
önü	-10.8527
▁yatırımlar	-10.8531
tak	-10.8532
▁gövde	-10.8534
94	-10.8534
▁saatlik	-10.8534
ora	-10.8534
▁kurallar	-10.8535
abi	-10.8537
▁neyse	-10.8541
▁içten	-10.8541
▁çözme	-10.8542
▁kurulmuştur	-10.8542
▁1980	-10.8543
▁ülkeyi	-10.8545
▁Yeri	-10.8548
sâ	-10.855
pol	-10.855
masıyla	-10.8551
▁bırakıp	-10.8552
▁vurul	-10.8553
▁kişiden	-10.8554
▁yorumu	-10.8554
▁tarihsel	-10.8554
▁Taraf	-10.8556
▁Tay	-10.8557
▁Komutanı	-10.8562
▁onayı	-10.8562
▁ifadesini	-10.8563
▁Nu	-10.8563
▁fantezi	-10.8564
▁Cilt	-10.8564
▁hakkına	-10.8565
▁düşündü	-10.8567
▁gelmek	-10.8569
sir	-10.8571
▁Afrin	-10.8571
▁şehrinde	-10.8575
▁kurşun	-10.8578
▁başlatılan	-10.8578
Ra	-10.8579
▁ülkemiz	-10.858
ilmek	-10.8582
▁uygula	-10.8582
gazi	-10.8584
▁memuru	-10.8587
▁Yaşa	-10.8587
▁tuttu	-10.8588
▁tecrübeli	-10.8589
uldu	-10.8591
▁haberdar	-10.8592
▁karısı	-10.8592
▁takımları	-10.8592
El	-10.8594
▁gerçekleştirmek	-10.8595
liyoruz	-10.8595
▁Kök	-10.8596
▁tıpkı	-10.8597
▁yıkan	-10.8598
ğini	-10.8599
▁kayıtları	-10.8599
▁rahatlat	-10.8601
âr	-10.8601
▁konuşul	-10.8602
zam	-10.8605
▁BA	-10.8606
▁Fuar	-10.8606
▁Şeyh	-10.861
▁işçilerin	-10.8615
▁kalmadı	-10.8615
▁çalın	-10.8619
▁rivayet	-10.8619
▁çorba	-10.8619
KAN	-10.862
▁duş	-10.862
▁olmamak	-10.862
▁ederse	-10.8622
mekle	-10.8623
▁Teknolojileri	-10.8623
▁Sir	-10.8624
▁ileti	-10.8625
▁yurtdışı	-10.8626
▁çürü	-10.8626
▁İS	-10.8627
▁NE	-10.8627
▁ih	-10.8628
▁artırma	-10.8629
▁Anabilim	-10.8631
▁çekilen	-10.8632
▁edebilecek	-10.8633
▁sığ	-10.8633
▁sıkça	-10.8635
9)	-10.8635
▁KDV	-10.8635
ılmak	-10.8637
▁İmparatorluğu	-10.8637
▁Yukarıda	-10.8637
leridir	-10.8638
2011	-10.8638
▁çeker	-10.8639
▁midir	-10.8641
▁etkisiyle	-10.8641
▁olanı	-10.8642
▁toptan	-10.8643
▁85	-10.8643
▁vurdu	-10.8645
▁karşılama	-10.8645
▁car	-10.8646
▁fl	-10.8648
▁bazında	-10.8648
▁yarısında	-10.8648
▁yapılar	-10.8649
▁tutuklan	-10.865
larınızda	-10.8653
sik	-10.8654
▁kenarında	-10.8656
▁erdi	-10.8656
▁bor	-10.8657
ıldığında	-10.8657
TER	-10.8659
/19	-10.8659
▁Operasyon	-10.8663
yorsunuz	-10.8663
▁yuva	-10.8664
▁aksa	-10.8665
▁Tatlı	-10.8669
▁inanma	-10.867
▁amca	-10.8672
▁pl	-10.8673
▁dayanışma	-10.8675
▁gebelik	-10.8678
▁kısmına	-10.8679
letme	-10.868
▁dk	-10.8681
nan	-10.8681
▁salgı	-10.8684
▁karbon	-10.8684
TAŞ	-10.8687
▁Mobilya	-10.8687
▁sürüm	-10.8687
▁izledi	-10.8687
▁şampiyon	-10.8688
meksizin	-10.8689
▁çalışmalarının	-10.8689
▁indirme	-10.869
▁GENEL	-10.8691
▁Cevap	-10.8692
▁Antik	-10.8694
▁gündür	-10.8694
ast	-10.8695
by	-10.8696
▁AN	-10.8696
▁akışı	-10.8697
▁köle	-10.8697
▁TR	-10.8699
-18	-10.87
▁planlanan	-10.8701
▁Dan	-10.8703
▁kadına	-10.8707
▁malzemesi	-10.871
▁sin	-10.871
▁mıdır	-10.8713
▁cihazları	-10.8714
▁başkanları	-10.8715
▁Makina	-10.8715
▁İsviçre	-10.8716
▁durumları	-10.8717
▁hazırlama	-10.8719
arac	-10.8719
▁tüp	-10.872
SL	-10.8721
▁başlamıştı	-10.8722
▁katılacak	-10.8724
▁dergisi	-10.8725
!!!	-10.8725
▁Cha	-10.8726
▁gençlik	-10.8729
▁başlıca	-10.8729
▁Dal	-10.873
▁USB	-10.873
▁olursak	-10.8732
▁1.5	-10.8733
▁netice	-10.8735
▁katılımı	-10.8736
▁GÜN	-10.8736
▁Air	-10.8736
▁Sam	-10.8738
▁aksi	-10.8738
kes	-10.8739
▁Hız	-10.8741
▁akşamı	-10.8743
▁piş	-10.8744
▁analizi	-10.8744
▁başvuruları	-10.8744
▁çıkarılan	-10.8745
▁karşılaştığı	-10.8746
▁çalışacak	-10.8746
▁Dosya	-10.8747
▁Eyüp	-10.8748
▁lamba	-10.8749
▁Mevcut	-10.8751
▁Soy	-10.8752
leştirilmiş	-10.8752
▁birinde	-10.8753
▁oğlum	-10.8756
ibe	-10.8757
▁kıyasla	-10.8757
▁açıklamaya	-10.8761
▁konuşuyor	-10.8762
▁işlemini	-10.8763
▁kitapta	-10.8763
▁Garanti	-10.8765
▁ekonomisi	-10.8766
▁uygundur	-10.8766
▁olacaksınız	-10.8766
▁Kiralık	-10.8766
▁Üzerine	-10.8767
▁kalça	-10.8767
▁fazlasıyla	-10.8772
▁kumanda	-10.8775
▁boyutlu	-10.8775
▁suyunu	-10.8783
▁tırman	-10.8784
ture	-10.8785
▁artı	-10.8787
yeni	-10.8788
sis	-10.8788
▁ekranı	-10.8789
▁kör	-10.879
▁Maden	-10.8791
▁yahut	-10.8791
tah	-10.8792
▁çıkardığı	-10.8792
▁konforlu	-10.8793
▁Gelişim	-10.8794
▁Arama	-10.8796
▁Hav	-10.8798
▁artarak	-10.8798
MO	-10.8799
▁hayatının	-10.88
▁kaldırıldı	-10.88
▁bitkiler	-10.8801
▁direktör	-10.8803
▁ettiğim	-10.8804
▁uyma	-10.8805
▁alev	-10.8807
▁sürümü	-10.8809
▁bozulma	-10.8811
▁geleceğini	-10.8813
▁Usul	-10.882
▁ittifak	-10.8827
▁Belçika	-10.8829
▁4-	-10.8829
fes	-10.8831
▁Burak	-10.8832
▁saptan	-10.8832
▁düşünün	-10.8832
▁Bunları	-10.8834
▁havada	-10.8837
▁yardımcısı	-10.8838
▁engelleme	-10.8838
▁ün	-10.8839
▁arıyorum	-10.8839
▁bedeni	-10.884
▁oynuyor	-10.884
▁karşılamak	-10.8841
mişlerdir	-10.8842
▁menfaat	-10.8843
▁Öğrenciler	-10.8843
▁gelmişti	-10.8844
▁kaldırma	-10.8844
▁çeşidi	-10.8845
▁bağlamda	-10.8845
▁boşa	-10.8846
▁yönü	-10.8848
▁mevki	-10.885
▁İbn	-10.8851
▁Kıs	-10.8853
▁Geniş	-10.8856
▁şarkısı	-10.8858
▁vekil	-10.8859
▁Adet	-10.8859
▁vakıf	-10.8862
▁gri	-10.8863
ümüzü	-10.8864
▁istasyon	-10.8867
ero	-10.8867
saydı	-10.8867
dikçe	-10.887
likli	-10.8871
pen	-10.8871
▁Erkekler	-10.8873
▁almıştı	-10.8874
▁yerleştirme	-10.8875
uklu	-10.8878
▁sos	-10.8878
yy	-10.8878
▁yapımcı	-10.8879
▁tuş	-10.888
▁mükellef	-10.8883
▁makina	-10.8884
▁yaşandığı	-10.8884
▁ekibimiz	-10.8885
▁havuzu	-10.8886
▁Piyasası	-10.8886
▁seçimler	-10.8886
ou	-10.8888
▁itibar	-10.8888
▁oluşu	-10.8888
EF	-10.889
▁OL	-10.8892
▁geldim	-10.8892
▁çin	-10.8893
▁geçerlidir	-10.8893
▁Tebliğ	-10.8893
öv	-10.8895
▁çalışmalara	-10.89
▁mülk	-10.8901
▁idrar	-10.8907
▁oynadı	-10.8907
yalı	-10.8908
▁katliam	-10.8911
rip	-10.8911
▁laboratuvar	-10.8911
inizde	-10.8913
irsiniz	-10.8916
▁bulundukları	-10.8917
▁iri	-10.8918
▁ürettiği	-10.8919
▁yerin	-10.8919
nur	-10.892
rol	-10.8921
▁istisna	-10.8921
▁asır	-10.8922
uşu	-10.8924
/3	-10.8924
FA	-10.8928
▁hastaların	-10.893
▁İsa	-10.893
▁Çeşitli	-10.8931
▁180	-10.8935
▁1990	-10.8935
emeyecek	-10.8935
fre	-10.8936
▁diyebiliriz	-10.8936
▁tadı	-10.8937
İB	-10.8937
masından	-10.894
▁kullanışlı	-10.8943
▁planları	-10.8944
▁feda	-10.895
▁Fatma	-10.8952
▁Alın	-10.8952
▁Ap	-10.8953
laştı	-10.8954
▁Yarışması	-10.8955
▁motosiklet	-10.8957
▁bilgilendir	-10.8958
▁istekleri	-10.8959
▁basketbol	-10.8959
▁Berlin	-10.8962
▁vicdan	-10.8964
▁taşıdığı	-10.8965
▁72	-10.8965
ğını	-10.8966
▁dilekçe	-10.897
▁adlandır	-10.897
▁Kahramanmaraş	-10.8976
▁unsur	-10.8979
▁sürecek	-10.8981
▁Saha	-10.8982
▁kıymetli	-10.8982
şk	-10.8984
▁soğutma	-10.8984
▁parayı	-10.8987
▁PC	-10.8988
isti	-10.8989
▁konuşmada	-10.899
▁müşterilerine	-10.8991
▁nadir	-10.8992
▁yaratmak	-10.8992
▁makineleri	-10.8993
▁açıklamasında	-10.8993
▁vermekte	-10.8994
▁İYİ	-10.8995
▁imalatı	-10.8996
cm	-10.8996
▁varmış	-10.8997
dos	-10.8999
▁küp	-10.9
▁ekleyip	-10.9001
▁sevgilisi	-10.9001
▁Alanı	-10.9003
rad	-10.9008
▁gene	-10.9008
▁böcek	-10.901
▁seti	-10.901
▁değerlendirilme	-10.901
▁yapmıştır	-10.9012
▁duyguları	-10.9012
cor	-10.9013
▁tanınan	-10.9014
▁dolap	-10.9014
▁dayanan	-10.9019
▁Yüksekokulu	-10.9019
▁kusursuz	-10.9022
▁ebeveyn	-10.9024
▁Körfez	-10.9024
▁hatıra	-10.9025
▁bilinçli	-10.9025
üldü	-10.9026
▁kesintisiz	-10.9028
▁oluşması	-10.9029
▁Ofis	-10.9029
gg	-10.903
▁Muhasebe	-10.9031
zaman	-10.9031
rul	-10.9031
▁düzenlen	-10.9032
▁sayıları	-10.9032
hisar	-10.9033
▁halini	-10.9034
▁tetik	-10.9034
▁Formu	-10.9035
▁başını	-10.9035
cısı	-10.9036
RS	-10.9039
▁buradaki	-10.904
İP	-10.9044
▁kaydedildi	-10.9048
lilik	-10.9048
▁Blog	-10.9049
▁yaşamaya	-10.905
ack	-10.905
▁800	-10.905
GB	-10.9053
▁Ayak	-10.9053
▁ülkelerinde	-10.9053
▁Akıllı	-10.9054
▁ailesinin	-10.9054
▁Sitemizde	-10.9057
toloji	-10.9059
▁maddelerin	-10.9062
amp	-10.9063
▁amel	-10.9067
▁gübre	-10.9067
▁oranla	-10.9069
▁doğumlu	-10.9069
▁baktığımızda	-10.907
gerçekleştirildi	-10.907
▁yatırımları	-10.9072
gerçekleştirdiği	-10.9072
▁seçmen	-10.9073
ço	-10.9073
▁Tuğ	-10.9074
▁frekans	-10.9074
▁filmde	-10.9075
▁ihtiyacını	-10.9077
▁görmesi	-10.9077
▁vermiştir	-10.9077
▁masal	-10.9079
▁evlat	-10.9079
▁peşinde	-10.9086
▁modül	-10.909
▁veriliyor	-10.909
▁ötesinde	-10.9091
▁Çar	-10.9094
▁Faruk	-10.9095
▁taraftar	-10.9096
ulduğu	-10.9096
▁Um	-10.9099
▁tanıtımı	-10.9103
▁kucak	-10.9103
▁olanağı	-10.9104
▁Sekreter	-10.9105
▁Yönetmen	-10.9105
▁Mekke	-10.9106
sınıf	-10.9106
ibi	-10.9107
▁Kursu	-10.9108
hra	-10.9109
eceğimiz	-10.9113
▁itiraf	-10.9118
▁buhar	-10.9118
▁kuruldu	-10.9121
▁satılan	-10.9123
▁teknikleri	-10.9125
▁şeytan	-10.9128
▁öl	-10.9131
park	-10.9133
▁yakalandı	-10.9134
dr	-10.9139
▁fiş	-10.9139
▁hesabınız	-10.914
▁özelliğini	-10.9142
▁Kategori	-10.9146
▁cuma	-10.9149
dol	-10.9149
▁geleceğe	-10.9152
pazar	-10.9152
▁faaliyetlerini	-10.9155
▁tayin	-10.9159
düm	-10.9159
yüzü	-10.9159
▁yoksul	-10.9163
▁Sad	-10.9164
çiler	-10.9165
▁istemiyor	-10.9165
▁görüntüleri	-10.9168
▁ısınma	-10.9169
▁ağacı	-10.9174
▁Bitki	-10.9175
▁yemekleri	-10.9176
▁nihayet	-10.9181
▁kararını	-10.9181
▁apartman	-10.9183
▁üncü	-10.9186
La	-10.9186
zz	-10.9187
▁açıp	-10.9188
▁Che	-10.9188
Son	-10.9188
▁han	-10.919
▁tarifleri	-10.919
▁dokuz	-10.9191
▁BO	-10.9194
larsa	-10.9195
▁59	-10.9195
▁istediğimiz	-10.9197
▁açılır	-10.9198
▁istediklerini	-10.9204
▁durur	-10.9204
▁özür	-10.9204
-0	-10.9206
▁yum	-10.9206
▁yapmadan	-10.9207
cıların	-10.9209
cilerin	-10.9211
▁sırasıyla	-10.9213
▁etsin	-10.9214
▁partisi	-10.9214
şık	-10.9217
▁Bilgiler	-10.9218
sünü	-10.9219
▁eksen	-10.9219
▁Mev	-10.922
▁bireylerin	-10.9222
▁örnekler	-10.9223
▁nar	-10.9223
▁Karşıyaka	-10.9225
▁Sivil	-10.9226
▁Komitesi	-10.9226
OP	-10.9226
ound	-10.9229
▁poli	-10.9229
▁Belediyespor	-10.923
▁kaplı	-10.9231
yacağım	-10.9231
▁çıkarılması	-10.9231
▁büyüyen	-10.9233
▁kırsal	-10.9234
▁uygulanacak	-10.9235
▁kendiniz	-10.9235
▁buluştu	-10.9237
▁çılgın	-10.9237
yeceğini	-10.9238
▁sezonun	-10.9238
▁Güler	-10.9241
▁Fazla	-10.9242
▁tamamını	-10.9243
▁bulunmamaktadır	-10.9243
▁sürecinin	-10.9243
▁kuruş	-10.9244
▁videoları	-10.9244
▁sitesinden	-10.9245
▁belirlemek	-10.9245
▁siki	-10.9245
ırsa	-10.9245
▁Öğretmenleri	-10.9246
▁Kilis	-10.9247
▁taciz	-10.9247
ted	-10.9249
▁Deri	-10.925
▁Muhtar	-10.925
▁Tri	-10.925
▁koymak	-10.9251
blo	-10.9252
enek	-10.9252
▁yönünden	-10.9252
▁meş	-10.9253
▁paylaştığı	-10.9253
yıl	-10.9254
▁Ayrı	-10.9255
▁tüketil	-10.9255
▁materyal	-10.9256
▁sürecini	-10.9256
Bil	-10.9257
▁yapılmalıdır	-10.9259
▁Hakkari	-10.926
lanmasını	-10.9262
▁Kütahya	-10.9262
▁epey	-10.9262
▁takvim	-10.9263
▁Yat	-10.9263
▁Bende	-10.9264
▁Kars	-10.9264
▁tercüme	-10.9267
▁Met	-10.9268
İnsan	-10.9269
▁hastanın	-10.9269
▁redded	-10.927
▁fil	-10.9271
▁67	-10.9272
▁branş	-10.9274
▁çektir	-10.9276
▁fare	-10.9276
▁üz	-10.9277
▁fikirleri	-10.9278
▁gazi	-10.9281
▁sorusu	-10.9282
lendirilmesi	-10.9282
▁hazırlan	-10.9283
ART	-10.9284
ülmesi	-10.9286
▁Cep	-10.9288
▁000	-10.9289
pon	-10.929
▁nite	-10.9291
▁çıkaran	-10.9291
▁kırık	-10.9291
▁Eğ	-10.9291
▁ilkesi	-10.9294
▁Saygı	-10.9295
▁Bütçe	-10.9299
lerimizle	-10.9301
▁konak	-10.9306
▁ilkokul	-10.9308
▁Hel	-10.9312
▁düzenlenmesi	-10.9312
ook	-10.9313
▁Silahlı	-10.9313
▁söyleyerek	-10.9314
▁terapi	-10.9315
bor	-10.9315
▁Ex	-10.9317
▁simge	-10.9317
▁arayarak	-10.9317
▁adlandırılan	-10.9318
▁kaldım	-10.9319
tiğini	-10.9319
▁Karaca	-10.932
▁Başakşehir	-10.9321
▁aslı	-10.9321
▁duygusu	-10.9322
▁serin	-10.9323
▁staj	-10.9323
▁koyul	-10.9324
▁hatları	-10.9326
▁katkısı	-10.9326
▁güvence	-10.9327
▁resimler	-10.9327
cy	-10.9328
▁Sarayı	-10.933
▁torba	-10.9331
▁Otomobil	-10.9331
zir	-10.9335
▁kalori	-10.9337
▁günümüz	-10.9337
▁memnuniyet	-10.9339
▁sakat	-10.9342
ÜL	-10.9342
lenip	-10.9343
As	-10.9343
PA	-10.9344
▁babasının	-10.9344
▁pembe	-10.9344
Er	-10.9345
▁ücretli	-10.9346
▁İstiklal	-10.9346
▁bitirdi	-10.9346
▁hükme	-10.9347
▁muhtemelen	-10.9347
▁Ör	-10.9349
▁görüntüsü	-10.9351
▁katında	-10.9352
▁Kâ	-10.9352
▁BİRİNCİ	-10.9353
▁Metro	-10.9354
bed	-10.9355
▁atarak	-10.9356
▁ik	-10.9357
▁istemiyorum	-10.9358
▁yuvarlak	-10.9359
iyye	-10.9362
▁önlemler	-10.9363
âl	-10.9365
▁karışımı	-10.9365
▁minimum	-10.9366
ınızın	-10.9366
▁burda	-10.937
ska	-10.937
▁diyoruz	-10.937
▁imkanları	-10.9372
▁sulama	-10.9374
▁Demokrasi	-10.9375
ÇE	-10.9375
are	-10.9376
▁büyüt	-10.9377
▁tutuyor	-10.9378
lantı	-10.9381
▁bot	-10.9382
üğü	-10.9384
▁tapu	-10.9387
▁Ümit	-10.9387
▁Net	-10.9389
▁Levent	-10.9391
▁gu	-10.9391
▁kanalları	-10.9392
▁projelerin	-10.9392
▁Alım	-10.9393
▁etmesini	-10.9393
▁almadan	-10.9393
▁olurlar	-10.9393
gs	-10.9393
Mar	-10.9395
▁azalma	-10.9396
▁Engin	-10.9396
▁sağlanır	-10.9399
▁aynen	-10.9401
▁büyüklüğü	-10.9403
▁Cerrahi	-10.9406
büs	-10.9406
▁çalışmalarında	-10.9406
▁ikiye	-10.9408
▁aydınlat	-10.9408
▁hazırlanıyor	-10.9408
▁oturdu	-10.941
▁başkanlığında	-10.9411
▁kirli	-10.9414
-11	-10.9415
▁sayılan	-10.9416
▁dışarıdan	-10.9419
▁daim	-10.942
▁gö	-10.9422
▁eğitime	-10.9423
▁bilinmektedir	-10.9426
▁Yargıtay	-10.9426
▁Önceki	-10.9428
▁Milyon	-10.9428
seri	-10.9431
▁kalkış	-10.9431
▁(4)	-10.9432
ID	-10.9432
▁Göster	-10.9434
▁eşim	-10.9434
▁seviyesine	-10.9436
MS	-10.9436
▁bilgiyi	-10.9437
ılırken	-10.9437
▁adında	-10.9438
▁Değişim	-10.9438
▁usulü	-10.944
▁finansman	-10.9441
▁teker	-10.9441
▁Pen	-10.9442
▁oluşumu	-10.9442
▁cumhurbaşkanı	-10.9443
▁Ünal	-10.9445
lığında	-10.9445
▁Özdemir	-10.9448
nuzda	-10.9449
▁İster	-10.9452
kit	-10.9452
▁sevinirim	-10.9453
ýnda	-10.9454
kra	-10.9455
▁pozisyonu	-10.9456
ju	-10.9456
ülmüş	-10.9457
▁çekirdek	-10.9458
.11.2018	-10.9463
▁Komisyon	-10.9464
▁â	-10.9472
bağ	-10.9476
Ev	-10.9476
laştığı	-10.9477
küler	-10.9477
▁62	-10.9479
▁birtakım	-10.9481
▁sürecin	-10.9484
▁Tanıtım	-10.9484
▁Medi	-10.9486
▁nakit	-10.9487
▁İmar	-10.9487
▁muhalif	-10.9488
doğu	-10.9489
▁İpek	-10.9491
ARI	-10.9491
▁Bulgaristan	-10.9491
▁bakteri	-10.9492
▁çat	-10.9493
▁etkileme	-10.9493
gov	-10.9493
▁numaraları	-10.9494
▁başarısı	-10.9495
▁çete	-10.9495
▁adayları	-10.9496
▁Cafe	-10.9498
vin	-10.9498
▁çayı	-10.9501
▁verilerine	-10.9502
▁Teşkilatı	-10.9503
▁yerleştiril	-10.9504
▁imkânı	-10.9504
▁huzurlu	-10.9505
▁beste	-10.9505
▁Bence	-10.9506
▁Demirtaş	-10.9506
▁Okuma	-10.9507
▁türkiye	-10.9508
▁Temizlik	-10.9509
▁meta	-10.9511
▁1-2	-10.9512
▁buldum	-10.9512
▁sigortası	-10.9512
kre	-10.9515
▁Val	-10.9515
▁Gemi	-10.9515
▁sorunlarını	-10.9517
▁böl	-10.9518
▁Serdar	-10.9518
gat	-10.9518
▁ileride	-10.952
▁kaçınılmaz	-10.9521
▁bozukluğu	-10.9522
▁Kural	-10.9522
ola	-10.9522
▁oksijen	-10.9523
▁yepyeni	-10.9523
▁yaklaşımı	-10.9524
▁Don	-10.9524
▁alkış	-10.9529
çay	-10.9529
▁gitmiş	-10.953
▁kolaylık	-10.953
▁yaşantı	-10.9531
▁iyileştirme	-10.9532
▁asi	-10.9533
▁rastla	-10.9533
6)	-10.9538
▁kova	-10.9539
▁türkü	-10.9539
ys	-10.9539
lenmek	-10.9543
kom	-10.9543
▁saldırısı	-10.9544
▁edilmesini	-10.9544
win	-10.9545
▁Mira	-10.9545
stre	-10.9545
▁açıklanan	-10.9545
▁gelsin	-10.9546
▁Böylelikle	-10.9548
▁bilinir	-10.955
▁çıkmaya	-10.955
-15	-10.9551
▁Yükseköğretim	-10.9553
▁pantolon	-10.9556
▁döneme	-10.9557
▁kab	-10.9557
ates	-10.9557
berg	-10.9558
▁Kastamonu	-10.9559
▁belirtileri	-10.956
iyat	-10.9562
▁ödev	-10.9564
▁sözcüğü	-10.9569
▁görüşleri	-10.9572
▁suçu	-10.9573
▁göreceksiniz	-10.9574
▁rev	-10.9576
▁köpeği	-10.9577
lenmeye	-10.9577
▁Akça	-10.9578
▁zorunludur	-10.9579
▁işlerini	-10.9581
▁konunun	-10.9581
▁gerçekleştiren	-10.9582
▁Bank	-10.9584
▁anal	-10.9586
▁emekçi	-10.9586
▁66	-10.9586
▁kıvam	-10.9587
▁sim	-10.9589
ilecektir	-10.959
▁istedik	-10.959
▁Borç	-10.9594
▁tamiri	-10.9595
vaz	-10.9597
▁Derin	-10.9597
▁Kendisi	-10.96
▁Haftası	-10.9601
üdür	-10.9602
▁durdu	-10.9602
▁KUR	-10.9603
▁tas	-10.9604
▁çalışıyorum	-10.9607
▁ilişkilerin	-10.9608
▁önlemleri	-10.9615
▁Ziya	-10.9617
ence	-10.962
▁Kaymakam	-10.962
▁çıkmaktadır	-10.9621
▁rejim	-10.9621
▁Altı	-10.9622
lilerin	-10.9624
▁Sat	-10.9625
▁Kütüphane	-10.9625
▁listesinde	-10.9627
▁Hayvancılık	-10.9629
▁ÖSYM	-10.963
▁Merhabalar	-10.9631
▁yukarıdaki	-10.9631
▁maçları	-10.9632
ktif	-10.9632
▁Form	-10.9638
▁titiz	-10.9639
▁organları	-10.9639
▁toprakları	-10.9641
▁bakarak	-10.9642
▁şekillendir	-10.9642
▁karayolu	-10.9642
▁aleyhi	-10.9647
▁yürütme	-10.9647
▁ziyareti	-10.9647
etme	-10.9647
▁kıta	-10.9648
▁videoyu	-10.9651
▁küçül	-10.9651
▁Batman	-10.9651
ift	-10.9652
▁anılan	-10.9653
▁umu	-10.9655
the	-10.9656
Mu	-10.9657
▁sonuçlarını	-10.9658
▁bilinmeyen	-10.9658
▁getirmiş	-10.9659
▁faydası	-10.966
▁Kurtuluş	-10.9661
▁baskın	-10.9662
▁buğday	-10.9663
▁İçinde	-10.9664
▁ayın	-10.9664
▁başlı	-10.9665
▁hizmetini	-10.9666
▁Sonrasında	-10.9667
▁verirken	-10.9667
▁zel	-10.9667
▁Birkaç	-10.967
▁pamuk	-10.9672
▁olmaksızın	-10.9672
▁Kasa	-10.9672
▁düştüğü	-10.9672
▁tutulması	-10.9675
▁Telekom	-10.9676
▁kavuştur	-10.9676
▁LED	-10.9677
▁ekipler	-10.9677
▁haliyle	-10.9678
▁Ahmed	-10.9678
oyun	-10.968
▁göstererek	-10.9682
riye	-10.9682
▁alınmıştır	-10.9683
▁Zonguldak	-10.9684
▁ambulans	-10.9686
▁solunum	-10.9688
▁dere	-10.9689
▁elçi	-10.9691
▁yüzüne	-10.9693
▁dilediğiniz	-10.9693
▁SEO	-10.9696
▁Çal	-10.9696
▁Gülen	-10.9699
▁sure	-10.9703
çek	-10.9705
▁kısmen	-10.9706
??	-10.9707
▁bağlantılı	-10.9707
▁siteye	-10.9709
▁Gölü	-10.9709
▁atıyor	-10.9712
▁diyecek	-10.9713
▁istasyonu	-10.9713
ons	-10.9713
▁Kaş	-10.9714
▁aktardı	-10.9715
bah	-10.9717
kas	-10.9718
▁gözle	-10.9719
▁Moskova	-10.972
▁Kahve	-10.9721
▁seçimlerde	-10.9721
▁teşkilat	-10.9721
▁Gökhan	-10.9724
▁kaybetmiş	-10.9725
▁bulmuş	-10.9726
▁İsti	-10.9726
▁ilde	-10.9728
▁muhtemel	-10.9729
▁Geliş	-10.9729
▁nüfusu	-10.973
vur	-10.973
yacağız	-10.973
▁şimdiye	-10.9732
▁sarışın	-10.9733
▁düşmüş	-10.9738
▁Karabük	-10.9739
▁direnç	-10.9739
▁tabir	-10.974
▁Elma	-10.9741
İl	-10.9741
▁baktı	-10.9743
▁sitenin	-10.9743
▁çarpı	-10.9746
▁Serbest	-10.9748
▁SU	-10.9749
Ke	-10.975
▁genişlet	-10.975
▁cari	-10.975
▁itfaiye	-10.9751
▁Hocam	-10.9751
▁İnsanların	-10.9755
▁anımsa	-10.9757
laşır	-10.9758
▁Bağımsız	-10.9761
▁işsizlik	-10.9763
▁tarafa	-10.9765
▁Kabul	-10.9767
▁gördüğünüz	-10.9769
▁ulaşması	-10.9772
sol	-10.9772
▁fakülte	-10.9775
▁yıldızı	-10.9776
▁getirdik	-10.9777
▁silme	-10.9778
▁düzelt	-10.978
▁seçildi	-10.9781
▁sahibinin	-10.9781
.9	-10.9782
yacaksınız	-10.9782
▁Market	-10.9786
▁Gümüş	-10.9786
▁yazdır	-10.9787
irse	-10.9787
▁Ümraniye	-10.9789
▁Bul	-10.979
▁bı	-10.979
▁Pir	-10.9793
▁Kalp	-10.9794
▁Ayar	-10.9796
▁dul	-10.9797
▁çıkmıştır	-10.9797
▁kule	-10.9798
▁tef	-10.9798
row	-10.9798
▁Maltepe	-10.9799
alt	-10.9802
▁hazırlanması	-10.9802
▁Çorum	-10.9803
şir	-10.9804
İYE	-10.9805
▁Kızılay	-10.9807
▁ayakları	-10.9807
dýr	-10.9807
▁fazlasını	-10.9808
▁Görüşme	-10.9809
▁feth	-10.9812
▁mağara	-10.9813
stat	-10.9814
tun	-10.9814
▁mucize	-10.9815
▁Askeri	-10.9816
▁birikimi	-10.9816
DİR	-10.9816
▁insanlarla	-10.9816
▁kulübü	-10.9818
▁Nakliye	-10.9821
▁far	-10.9822
▁katılımcılar	-10.9824
▁parsel	-10.9826
dınız	-10.9827
▁görüştü	-10.9831
▁yapmakta	-10.9831
▁detaylara	-10.9831
▁tr	-10.9832
▁cebi	-10.9832
cer	-10.9833
qua	-10.9834
▁Hele	-10.9837
diniz	-10.9838
▁böbrek	-10.9841
▁figür	-10.9842
▁müşterilerimize	-10.9844
▁belirttiği	-10.9844
▁fiil	-10.9847
▁kabar	-10.9847
▁yakınları	-10.9849
▁giderilmesi	-10.9849
▁dedik	-10.9851
▁tabanlı	-10.9854
▁Bahis	-10.9855
▁yasağı	-10.9856
ymiş	-10.9857
▁telefonunuz	-10.9859
aat	-10.9863
▁SP	-10.9864
▁istekli	-10.9865
▁sürücüsü	-10.9866
▁taşımak	-10.9869
▁Zeki	-10.9872
▁Şehircilik	-10.9875
▁karşılaştırma	-10.9875
▁Rıza	-10.9876
▁Bra	-10.9879
+1	-10.988
emedi	-10.988
müştü	-10.9881
▁Suç	-10.9882
▁gun	-10.9883
▁konuşmasında	-10.9883
▁pan	-10.9883
▁seçti	-10.9884
tığınız	-10.9884
ünüz	-10.9884
▁aklıma	-10.9884
▁Düzce	-10.9885
▁sorularını	-10.9888
▁yakında	-10.989
▁plakalı	-10.9891
▁kurtuluş	-10.9891
TB	-10.9893
▁yazımızda	-10.9893
▁bırakmak	-10.9894
▁Senin	-10.9894
▁haram	-10.9895
▁Full	-10.9895
▁amatör	-10.9897
▁kullanılıyor	-10.99
▁kariyeri	-10.9901
▁evleri	-10.9902
▁hayati	-10.9902
▁Cer	-10.9902
▁Vergisi	-10.9902
▁düşüyor	-10.9904
ilmez	-10.9905
▁(%	-10.9906
▁Alışveriş	-10.9907
▁vazife	-10.9907
▁1)	-10.9907
▁sahasında	-10.9907
▁Platformu	-10.9907
▁iyileşme	-10.9908
▁War	-10.9909
▁vuruş	-10.991
duktan	-10.9911
▁mantığı	-10.9913
▁kötülük	-10.9916
▁etraf	-10.9918
yebilir	-10.9919
▁hassasiyet	-10.9919
TC	-10.9921
mektir	-10.9921
▁olduktan	-10.9924
▁bulduk	-10.9924
▁alerji	-10.9925
▁yaptıktan	-10.9926
▁karışım	-10.9927
SP	-10.9927
zet	-10.9929
RT	-10.993
PO	-10.9931
▁geleneği	-10.9931
▁teması	-10.9932
rac	-10.9933
▁yetkililer	-10.9935
▁Ertuğrul	-10.9936
▁toprağa	-10.9936
▁kadınlara	-10.9936
▁destekleme	-10.9938
evî	-10.9941
▁üzüm	-10.9943
▁kapa	-10.9943
▁takviye	-10.9944
landırılması	-10.9944
▁çözümleri	-10.9944
▁kaybeder	-10.9947
▁Den	-10.9949
▁vasıtasıyla	-10.995
▁Çavuşoğlu	-10.995
▁Tas	-10.995
▁Yöntem	-10.9955
▁zan	-10.9956
▁yırt	-10.996
PE	-10.996
▁bakımdan	-10.9961
▁Kut	-10.9968
▁tamamlandı	-10.9968
▁idam	-10.9968
▁bakıyor	-10.9969
rus	-10.997
IC	-10.9971
ung	-10.9972
▁mantık	-10.9975
lıların	-10.9979
▁yoğurt	-10.998
general	-10.998
▁Gelecek	-10.9981
▁oyuncuları	-10.9982
▁ayrılmış	-10.9982
▁unutulmaz	-10.9982
▁dileriz	-10.9983
▁Sn	-10.9983
▁insani	-10.9984
iğin	-10.9985
▁etmedi	-10.9989
Bugün	-10.9989
▁ateşli	-10.9989
▁biyo	-10.999
▁dilek	-10.999
▁miting	-10.9991
▁dönüm	-10.9991
▁derneği	-10.9992
▁kadınları	-10.9992
lemeye	-10.9992
-16	-10.9992
▁Sipariş	-10.9994
▁toplumda	-10.9996
▁cevabını	-10.9996
▁düşünüyoruz	-10.9998
▁İdari	-10.9999
▁Çelebi	-11.0004
▁tamamlayan	-11.0006
▁öncelik	-11.0007
▁tepsi	-11.001
▁fu	-11.0011
lanmasına	-11.0011
Şu	-11.0011
▁Sert	-11.0011
▁jandarma	-11.0012
▁AVM	-11.0012
▁Burcu	-11.0012
-30	-11.0013
▁yönelt	-11.0013
▁ısıtma	-11.0013
▁etmeyin	-11.0014
Gel	-11.0015
▁değ	-11.0015
▁tabanı	-11.0016
▁ayına	-11.0016
▁ortaklık	-11.0017
▁700	-11.0018
▁My	-11.0019
▁sayın	-11.002
▁hastalar	-11.0021
taj	-11.0022
▁konumu	-11.0024
şim	-11.0024
▁Neyse	-11.0025
▁gürültü	-11.0028
▁rakamlar	-11.0028
▁edelim	-11.003
▁edeceğini	-11.0032
▁kalmaz	-11.0033
▁Isparta	-11.0034
ies	-11.0034
▁Kaba	-11.0034
▁post	-11.0034
pet	-11.0034
urken	-11.0035
▁ibaret	-11.0036
▁Beden	-11.0037
▁geçirildi	-11.0039
▁ekim	-11.004
İH	-11.0041
▁oynat	-11.0042
▁bağımlı	-11.0042
▁heyecanı	-11.0045
▁çalışmaktadır	-11.0046
▁yöneticisi	-11.0047
▁keskin	-11.005
cra	-11.005
.01	-11.0052
▁iştirak	-11.0052
LÜ	-11.0052
▁yapısını	-11.0053
▁haritası	-11.0054
▁giysi	-11.0057
▁Kararı	-11.0057
▁mesleğin	-11.006
▁uzmanlık	-11.0061
▁yazmış	-11.0063
▁fan	-11.0066
▁başlattığı	-11.0066
▁NO	-11.0067
▁bahane	-11.0069
▁hükümlerine	-11.0069
▁korkusu	-11.0072
▁olduğumu	-11.0073
▁kazanım	-11.0073
▁dişi	-11.0073
▁ilgisini	-11.0074
▁vatandaşı	-11.0076
▁açılacak	-11.0076
▁müddet	-11.0077
▁transferi	-11.0077
▁eklem	-11.0079
▁sürüş	-11.0081
▁yaşına	-11.0082
▁kurulumu	-11.0084
yl	-11.0087
yağ	-11.0089
▁Evleri	-11.0092
▁Bulut	-11.0094
▁erkeğin	-11.0096
tigi	-11.0098
▁tutuklandı	-11.0099
▁ihtimal	-11.0099
▁seans	-11.0103
▁eylemi	-11.0105
▁Sözleşmesi	-11.0105
▁Kamp	-11.0105
▁başlamadan	-11.0106
▁tanımı	-11.0107
▁Ur	-11.0108
▁sensör	-11.0109
▁atmosfer	-11.0109
▁Önder	-11.0111
▁burası	-11.0112
▁yargılama	-11.0114
▁çerçevede	-11.0115
▁bah	-11.0117
▁doğra	-11.0117
▁görülebilir	-11.0119
▁endeksi	-11.012
▁operatör	-11.0121
ato	-11.0121
▁fırtına	-11.0122
▁taşımacılığı	-11.0122
SEL	-11.0123
▁Bit	-11.0123
▁gec	-11.0124
▁etkileyici	-11.0125
▁Oyna	-11.0126
▁gördüğüm	-11.0127
▁Vatan	-11.0127
larýn	-11.0127
▁vermez	-11.0128
▁kabuk	-11.013
▁Sözleri	-11.0132
▁uzmanlar	-11.0132
▁yapama	-11.0132
▁tah	-11.0134
▁Avukat	-11.0135
▁çevresi	-11.0138
▁mutlak	-11.0138
▁sözünü	-11.0139
▁Hükümeti	-11.0139
▁masum	-11.014
▁geçirilen	-11.0141
▁Adem	-11.0142
▁Divan	-11.0146
▁derhal	-11.0146
▁Rüya	-11.0147
▁müşterilerimiz	-11.0148
▁işletmeler	-11.0148
▁Şampiyonlar	-11.0149
▁borçlu	-11.015
▁keşif	-11.0151
▁çim	-11.0151
▁İspanyol	-11.0154
▁ülkeden	-11.0155
cileri	-11.0155
▁cildi	-11.0156
▁takdim	-11.0157
▁şehirler	-11.0158
▁açılışı	-11.0159
▁aydır	-11.0159
▁içki	-11.0161
örü	-11.0165
deniz	-11.0165
törü	-11.0167
▁şartlarda	-11.0167
▁negatif	-11.0167
▁dışarıda	-11.0169
Or	-11.017
▁Nuri	-11.017
▁Soğuk	-11.0175
▁internette	-11.0176
liğinden	-11.0177
5)	-11.0177
▁etkisiz	-11.0179
▁birikim	-11.018
▁tasarımcı	-11.0183
▁favori	-11.0186
hip	-11.0187
mesinin	-11.0187
▁kuruluşların	-11.0188
▁faydaları	-11.0191
▁olmakta	-11.0192
▁afet	-11.0192
▁Yoğun	-11.0194
▁Varlık	-11.0195
▁açlık	-11.0197
▁başbakan	-11.02
▁facebook	-11.02
lamıyor	-11.0202
▁Yıllar	-11.0202
▁merhamet	-11.0202
▁ilkeleri	-11.0204
▁kaydıyla	-11.0207
▁güvenliğini	-11.0208
▁kullanmayı	-11.0212
Tek	-11.0216
▁bulunmadığı	-11.0217
▁aktaran	-11.0218
▁saklı	-11.0219
▁soluk	-11.022
▁noktasına	-11.0222
▁kurtulmak	-11.0222
ÖZ	-11.0223
▁sokakta	-11.0223
TS	-11.0223
leştirmek	-11.0225
▁değiştiril	-11.0227
▁Siyaset	-11.0228
▁Tom	-11.0228
▁helikopter	-11.0229
loji	-11.023
▁perakende	-11.0232
▁dudak	-11.0233
▁gitar	-11.0234
▁68	-11.0234
Çok	-11.0235
trol	-11.0235
▁ÖN	-11.0237
▁sağlanan	-11.0241
leştiği	-11.0243
▁sesleri	-11.0245
▁İzle	-11.0247
▁fiziki	-11.0247
▁tıkla	-11.0248
▁göm	-11.0249
▁sağlayabil	-11.0251
▁sorma	-11.0252
▁götürdü	-11.0252
üf	-11.0255
▁etmeyen	-11.0257
▁cehennem	-11.0259
▁ndan	-11.0261
▁aileleri	-11.0262
▁Zey	-11.0264
▁Seyahat	-11.0265
▁Çağrı	-11.0266
▁eyalet	-11.0267
▁temenni	-11.0267
▁Fet	-11.0269
▁sponsor	-11.027
▁patent	-11.0272
▁PA	-11.0272
kem	-11.0272
ÜK	-11.0272
▁Organizasyon	-11.0272
▁okudum	-11.0273
▁Küresel	-11.0273
▁Dekorasyon	-11.0273
aza	-11.0273
▁talebinde	-11.0276
▁başlayıp	-11.0277
▁yazıyı	-11.0277
▁topluma	-11.0278
▁başladığını	-11.0279
▁konumda	-11.0285
▁ertesi	-11.0287
▁severler	-11.0288
▁yazıda	-11.0289
▁Kapalı	-11.0291
▁kolları	-11.0291
▁kazanmış	-11.0292
ls	-11.0292
▁öteki	-11.0295
▁Tekrar	-11.0296
▁problemler	-11.0301
▁uzatma	-11.0301
▁Özcan	-11.0301
▁Bilecik	-11.0303
yacağını	-11.0303
▁bakanlık	-11.0306
▁Hekim	-11.0307
▁İçi	-11.0309
hak	-11.031
▁başvurma	-11.031
cha	-11.0311
emeyeceği	-11.0314
SM	-11.0314
▁kökenli	-11.0314
▁merci	-11.0315
Bak	-11.0316
▁İsmet	-11.0319
▁tahmini	-11.032
▁Duygu	-11.0321
IP	-11.0321
▁bölgesindeki	-11.0322
▁Cephe	-11.0323
not	-11.0324
▁denildi	-11.0324
▁Endüstri	-11.0325
▁Ölçü	-11.0325
▁yaşanma	-11.0327
▁Erol	-11.0329
cem	-11.0329
▁Yedi	-11.033
▁kardeşleri	-11.033
▁Artvin	-11.0331
daha	-11.0331
▁vadede	-11.0334
ach	-11.0334
▁kuşak	-11.0335
day	-11.0337
▁önünü	-11.0341
duğumuz	-11.0344
▁görülmesi	-11.0346
▁İN	-11.0346
▁yut	-11.0347
▁seçimlerinde	-11.0347
▁eğitimini	-11.0348
▁almakta	-11.0349
▁Dav	-11.035
▁sesini	-11.035
▁yorul	-11.0352
▁korunma	-11.0352
▁belgelerin	-11.0352
los	-11.0353
▁Trans	-11.0354
▁çağrısı	-11.0355
▁by	-11.0355
▁paylaşımı	-11.0356
▁karı	-11.0357
▁söyleşi	-11.0358
▁saldırılar	-11.0362
▁defalarca	-11.0363
ALI	-11.0365
▁yaşadığımız	-11.0366
▁Mimarlık	-11.0366
YON	-11.0368
▁koyuyor	-11.0372
▁İlan	-11.0376
▁mutluluğu	-11.0378
▁3-4	-11.0382
atlı	-11.0382
▁edemez	-11.0383
▁Yargı	-11.0383
▁sistemde	-11.0384
▁Yolcu	-11.0386
▁yemekler	-11.0387
▁kısmının	-11.0389
▁bulunacak	-11.0389
▁konuşması	-11.039
▁tedarik	-11.0391
yurt	-11.0392
ori	-11.0394
▁bitkisel	-11.0395
irim	-11.0399
▁yenilikler	-11.04
kov	-11.04
▁zeytinyağı	-11.0402
▁seyir	-11.0402
▁Tim	-11.0402
▁barındıran	-11.0403
▁Sta	-11.0403
▁Mars	-11.0404
İST	-11.0404
▁cins	-11.0405
▁duman	-11.0405
sy	-11.0406
▁basamak	-11.0406
▁hd	-11.0408
▁üretmek	-11.0411
▁imal	-11.0414
ÜR	-11.0414
▁bilmediği	-11.0417
landığında	-11.0418
▁Bursaspor	-11.0418
▁değişiklikleri	-11.042
▁gerçekçi	-11.0422
▁bulabil	-11.0424
7)	-11.0424
.11	-11.0426
▁Finansal	-11.0428
▁şarkıları	-11.0428
▁izliyor	-11.0429
▁yapabileceği	-11.043
▁deyip	-11.043
▁memleketi	-11.0432
▁sitesine	-11.0432
▁çalışmanın	-11.0432
Cİ	-11.0434
▁oluşum	-11.0436
▁yapanlar	-11.0437
▁bereket	-11.0438
▁teori	-11.0438
▁hayvanların	-11.0439
mün	-11.0439
▁ekrana	-11.044
▁AA	-11.044
▁Genelkurmay	-11.0443
▁işlemlerinin	-11.0444
▁şe	-11.0445
leşir	-11.0446
▁öğe	-11.0448
▁Afyonkarahisar	-11.0448
▁karara	-11.0448
▁deplasmanda	-11.0449
▁göstermesi	-11.0449
▁mesajları	-11.045
▁açılmış	-11.0452
İn	-11.0454
▁İb	-11.0456
▁Aşağıda	-11.0456
▁eminim	-11.0456
▁iOS	-11.0456
▁parametre	-11.0457
▁arayışı	-11.0462
Zİ	-11.0463
yınca	-11.0465
▁alman	-11.0466
▁değişir	-11.0467
▁komik	-11.0468
ym	-11.0468
▁açıklamaları	-11.0469
▁sağlayarak	-11.0469
▁boğ	-11.0469
▁kimdir	-11.047
▁Esnaf	-11.0471
▁özlem	-11.0471
▁BU	-11.0472
▁Final	-11.0474
▁eğitimin	-11.0475
kası	-11.0476
▁Düzenleme	-11.0478
▁Öl	-11.0479
▁eşyaları	-11.048
▁ailesine	-11.0482
▁1998	-11.0482
▁ru	-11.0484
▁Zeynep	-11.0485
▁okulların	-11.0485
▁zihni	-11.0486
sinler	-11.0487
▁Erzincan	-11.0487
▁Yalova	-11.0487
▁aktör	-11.0489
▁ANKARA	-11.049
▁Tokat	-11.0492
▁oturuyor	-11.0493
metre	-11.0495
ildiğini	-11.0497
▁boynu	-11.0499
▁Red	-11.0499
▁Tuna	-11.05
mizdeki	-11.0502
▁fena	-11.0503
▁Kelime	-11.0505
▁coğrafi	-11.0507
▁gerçekleşmesi	-11.0507
▁yıllarca	-11.0508
▁gerektiğinde	-11.0509
▁düşürme	-11.051
▁Klasik	-11.0512
▁partner	-11.0515
▁yıkım	-11.0515
▁parası	-11.0519
ULU	-11.052
▁Isı	-11.0521
▁tadilat	-11.0521
▁olasılığı	-11.0524
▁hizmetlerin	-11.0525
▁kavur	-11.0527
▁Avcı	-11.0528
▁boşal	-11.0531
trop	-11.0531
▁Mc	-11.0532
▁yönetiminde	-11.0532
▁bahsettiği	-11.0533
▁kuram	-11.0535
▁ajans	-11.0535
▁koleksiyon	-11.0536
▁atom	-11.0537
▁iseniz	-11.0537
▁tuşuna	-11.0538
▁mühendislik	-11.054
▁dolma	-11.0542
▁sitesinin	-11.0546
▁bant	-11.0549
▁olmama	-11.0549
▁Yazıcı	-11.0549
Eğer	-11.055
▁dostluk	-11.0551
▁yil	-11.0552
tina	-11.0552
▁ülkemize	-11.0554
▁engeller	-11.0554
▁sanatı	-11.0555
▁bölümünden	-11.0555
▁Çakır	-11.0556
▁koyan	-11.0557
▁keşfetme	-11.0557
tuk	-11.0557
▁sevimli	-11.0558
▁Gen	-11.0559
▁Spa	-11.056
91	-11.0563
▁yapalım	-11.0567
▁üretme	-11.0567
▁köklü	-11.0569
▁Müdürlük	-11.0569
▁bitirme	-11.0569
▁arayın	-11.0571
▁yayla	-11.0571
▁programda	-11.0572
LİĞİ	-11.0573
▁besinler	-11.0575
▁full	-11.0576
▁duygular	-11.0581
▁Celal	-11.0582
▁kaçırma	-11.0582
▁niyeti	-11.0583
▁derler	-11.0585
▁davranma	-11.0585
▁nur	-11.0587
▁hikmet	-11.0588
▁güler	-11.0589
tive	-11.0589
▁zamanın	-11.0589
▁Amatör	-11.059
▁buzdolabı	-11.0591
▁haftanın	-11.0592
▁şarkıcı	-11.0593
▁Sahil	-11.0594
▁kuşat	-11.0594
▁evrensel	-11.0595
▁antik	-11.0596
jo	-11.0598
Kara	-11.06
liğimiz	-11.0601
astro	-11.0601
▁Malzemeleri	-11.0602
çılık	-11.0603
▁Sahip	-11.0603
▁Dakika	-11.0605
▁topluluğu	-11.0606
▁davranışlar	-11.0607
▁şebeke	-11.0608
▁çıktığını	-11.0608
▁lazer	-11.061
▁hidro	-11.061
▁yapabilme	-11.061
▁yollarını	-11.0612
▁Özer	-11.0613
▁mac	-11.0616
▁dönüp	-11.0617
▁arkadas	-11.0618
▁işlemlerin	-11.0619
▁konusunu	-11.0622
/4	-11.0623
▁genetik	-11.0623
▁Sür	-11.0623
▁yatırma	-11.0624
▁Max	-11.0625
▁yaşıyoruz	-11.0628
him	-11.0629
▁gezme	-11.0634
▁günlerinde	-11.0636
▁saldırgan	-11.0637
▁elden	-11.0639
▁yaban	-11.0639
▁evlen	-11.0639
▁sürecine	-11.0639
▁dilerim	-11.064
▁hazırlanmıştır	-11.0641
MM	-11.0642
▁kurutma	-11.0643
▁okullarda	-11.0645
▁Geçmiş	-11.0648
▁ayrılır	-11.0649
▁edebiyatı	-11.0649
ÜM	-11.0652
GO	-11.0655
▁alacağınız	-11.0657
yonu	-11.0657
Gİ	-11.0659
KI	-11.0659
▁mis	-11.0662
ırız	-11.0662
▁kocaman	-11.0662
▁tir	-11.0667
▁uzmanları	-11.0668
▁Col	-11.0668
▁zihniyet	-11.0668
▁şeklindeki	-11.0668
ebildiği	-11.0668
Par	-11.067
▁görüyorum	-11.0672
▁sürükle	-11.0672
lâm	-11.0674
▁arkada	-11.0674
▁içecek	-11.0674
▁maaşı	-11.0675
▁Çatı	-11.0676
▁endüstriyel	-11.0678
▁meşgul	-11.0678
cker	-11.0681
ceği	-11.0685
▁yönetme	-11.0685
▁aşan	-11.0687
▁hı	-11.0688
▁düğme	-11.0688
grafi	-11.0692
▁Millî	-11.0693
tekin	-11.0694
▁Merkezleri	-11.0694
▁Sözcüsü	-11.0696
▁fiyatlarla	-11.0697
▁seviyeye	-11.0697
▁depresyon	-11.0698
▁hazırlamak	-11.0699
▁uygulamaların	-11.07
▁Üzerinde	-11.0705
▁DO	-11.0705
▁tava	-11.0707
▁Tuzla	-11.0709
Ah	-11.071
DO	-11.0712
▁gidin	-11.0714
far	-11.0715
▁Dünyası	-11.0716
▁atlat	-11.0716
düz	-11.0717
▁iyilik	-11.0718
▁kayak	-11.0719
▁Sana	-11.072
▁Risk	-11.0721
▁Hani	-11.0721
▁yeterlidir	-11.0723
▁istikbal	-11.0724
▁adımı	-11.0724
▁önder	-11.0726
▁hemşire	-11.0726
bilir	-11.0727
▁asfalt	-11.0732
▁öngörülen	-11.0736
ığı	-11.0737
▁değerlendirmesi	-11.0738
▁zihinsel	-11.074
▁Ulaştırma	-11.074
▁yiyecekler	-11.0741
oma	-11.0742
▁kıyafetleri	-11.0742
▁yararlanmak	-11.0743
▁veriyorum	-11.0744
▁ümit	-11.0744
severler	-11.0746
jik	-11.0746
ılım	-11.0747
▁moral	-11.0748
▁taşınması	-11.0748
▁döşeme	-11.0749
▁üreticileri	-11.0752
▁Pınar	-11.0753
▁gözlerini	-11.0754
▁hastalıkların	-11.0755
bilim	-11.0756
▁dondurma	-11.0756
▁yoksun	-11.0756
bl	-11.0757
▁99	-11.0757
▁inanan	-11.0757
PS	-11.0757
▁şi	-11.0759
▁binanın	-11.0759
▁sayısında	-11.0761
duğunuz	-11.0763
▁Makinesi	-11.0767
▁akımı	-11.0767
▁kesinti	-11.0768
yap	-11.0769
▁gitmesi	-11.0769
▁kullanılmak	-11.0771
dâ	-11.0773
▁kişileri	-11.0774
▁salonunda	-11.0775
▁bekler	-11.0781
▁Internet	-11.0781
▁Bö	-11.0783
▁Bat	-11.0785
▁taşımaktadır	-11.0786
▁sevda	-11.0786
▁ihanet	-11.0787
▁Depo	-11.0788
▁kentsel	-11.0788
▁Hayal	-11.0789
▁eklenti	-11.0789
beş	-11.0791
SD	-11.0791
▁Üyeleri	-11.0791
▁Büro	-11.0792
II	-11.0792
▁Seçme	-11.0794
▁diyalog	-11.0795
orta	-11.0797
book	-11.0797
▁hizmetin	-11.0798
▁Sağlıklı	-11.0799
ust	-11.08
▁derinlik	-11.08
sko	-11.0802
▁Yıllık	-11.0805
ladıkları	-11.0805
▁Başsavcılığı	-11.0805
▁şeffaf	-11.0806
▁ulaşabil	-11.0808
▁Devam	-11.0809
▁rejimi	-11.081
▁sıkıştır	-11.0811
▁karaciğer	-11.0812
▁Server	-11.0812
▁zamanki	-11.0813
/5	-11.0814
▁tasarımları	-11.0817
GÜ	-11.0818
lığından	-11.0818
▁adil	-11.0819
▁liralık	-11.082
▁müşteriler	-11.0822
▁varan	-11.0822
▁belirtiyor	-11.0824
▁motivasyon	-11.0824
lmaz	-11.0825
▁sıralarında	-11.0828
▁ağa	-11.0829
▁kapatma	-11.0829
▁artırılması	-11.0829
▁sevinç	-11.0829
▁Numaralı	-11.083
▁düşünceleri	-11.083
▁topar	-11.0831
▁elit	-11.0831
cim	-11.0832
▁istikamet	-11.0832
▁Zor	-11.0833
izasyon	-11.0834
▁prosedür	-11.0835
▁gerektirir	-11.0836
▁yetiştiril	-11.0836
▁isabet	-11.0838
▁idaresi	-11.0838
▁hırsız	-11.0838
▁çekiliş	-11.084
▁sevişme	-11.0841
▁yürüten	-11.0841
▁göt	-11.0842
▁gökyüzü	-11.0847
▁tanıdığı	-11.0848
▁Cinsel	-11.085
NC	-11.085
Le	-11.0852
▁Petrol	-11.0854
▁bağırsak	-11.0854
▁denli	-11.0857
▁vermişti	-11.0857
▁ediniz	-11.0858
▁kömür	-11.0859
KE	-11.0859
▁tamamlama	-11.086
▁Anlam	-11.0862
▁hele	-11.0863
▁Terim	-11.0863
▁Mağaza	-11.0864
▁Chi	-11.0866
▁ürünlerinin	-11.087
▁kılan	-11.087
▁gülü	-11.087
▁fo	-11.0871
▁farkına	-11.0873
▁Paylaş	-11.0873
▁tablosu	-11.0874
▁Uyg	-11.0876
▁ajan	-11.0877
uştur	-11.0878
▁anlatır	-11.0879
▁Öneri	-11.088
▁hic	-11.088
▁anlık	-11.0881
▁sitelerinde	-11.0884
▁Kamera	-11.0884
▁kullanılabil	-11.0886
▁kocası	-11.0886
▁Nüfus	-11.0887
▁sicil	-11.0887
▁Mikro	-11.0887
▁çocuğunuz	-11.0891
▁mühendis	-11.0891
▁sorusuna	-11.0892
▁görüp	-11.0893
yecektir	-11.0893
▁Kahraman	-11.0896
▁iktidarın	-11.0899
);	-11.0904
▁ihtiyacımız	-11.0906
▁kullanımına	-11.0907
lamıştır	-11.0907
▁herhalde	-11.0908
ğında	-11.0909
▁vermekteyiz	-11.091
▁oylama	-11.091
▁duruş	-11.0911
▁işlevi	-11.0911
DK	-11.0911
▁oluşturmaktadır	-11.0912
▁özelliklere	-11.0913
▁çalışmasını	-11.0914
▁Ulus	-11.0915
▁bırakan	-11.0918
So	-11.0921
muza	-11.0922
ANI	-11.0922
▁inç	-11.0924
▁SGK	-11.0926
▁bela	-11.0928
▁Amasya	-11.0928
▁âlem	-11.0931
▁söyledikleri	-11.0932
▁Berk	-11.0932
▁Gündem	-11.0932
▁arıyor	-11.0933
▁eserlerin	-11.0934
▁belirlediği	-11.0939
▁hazine	-11.094
▁etnik	-11.0941
▁Hatip	-11.0941
way	-11.0941
▁editör	-11.0941
▁gebe	-11.0942
▁ödenmesi	-11.0942
▁kendim	-11.0943
▁ÖZEL	-11.0943
▁uygulamasını	-11.0944
▁deyim	-11.0945
▁ayarları	-11.0946
medim	-11.0947
▁atın	-11.0948
▁mektubu	-11.0948
▁fiyata	-11.0949
▁Şirketi	-11.0949
ph	-11.095
▁Abi	-11.095
▁kardeşlerimiz	-11.0951
▁İh	-11.0951
▁vermiyor	-11.0952
▁Düş	-11.0952
▁Poli	-11.0955
▁Del	-11.0957
▁vücutta	-11.0957
sav	-11.0958
▁Danışma	-11.0959
▁sınıfta	-11.0959
▁yürüttüğü	-11.096
2008	-11.096
▁altyapısı	-11.0961
▁sürme	-11.0961
▁Başta	-11.0963
▁yakalama	-11.0964
▁verim	-11.0964
▁fotoğrafçı	-11.0964
▁City	-11.0966
ojen	-11.0967
▁akış	-11.0967
▁Kararname	-11.0968
▁Kilo	-11.097
▁kenara	-11.0972
▁tedavisinde	-11.0972
▁altından	-11.0973
▁gelmiyor	-11.0974
▁çocuklarımız	-11.0976
▁peri	-11.0977
gah	-11.0977
▁gazı	-11.0977
▁sağlayacağı	-11.0979
▁adresini	-11.0985
▁Hint	-11.0986
▁benzin	-11.0989
▁etik	-11.0989
yorlar	-11.0989
.02	-11.0991
▁kalitede	-11.0992
▁Yel	-11.0993
▁19.	-11.0995
▁oturup	-11.0995
▁formül	-11.0995
wer	-11.0995
▁Sorumlu	-11.0995
▁ker	-11.0996
▁CD	-11.0996
▁sağlayıcı	-11.0996
▁Taksim	-11.0996
▁Hadi	-11.0998
▁önerisi	-11.1001
▁hususunda	-11.1001
istanbul	-11.1001
▁düşünmek	-11.1002
▁golü	-11.1003
▁geliri	-11.1003
cular	-11.1004
▁sıfat	-11.1005
ülür	-11.1005
▁modu	-11.1005
▁Binali	-11.1008
▁eskiden	-11.1011
▁promosyon	-11.1012
çak	-11.1013
▁Çeşme	-11.1013
▁sezonunda	-11.1013
▁birebir	-11.1014
▁koşullarda	-11.1016
▁gördüğümüz	-11.1016
▁ayırt	-11.1017
sınlar	-11.1017
▁Sertifika	-11.1018
▁iddialı	-11.1018
▁başlangıcı	-11.1019
▁durdurma	-11.102
▁buyurdu	-11.1021
▁beslen	-11.1021
▁İddia	-11.1021
▁güzellikleri	-11.1022
▁nasip	-11.1023
viz	-11.1024
etli	-11.1024
leşti	-11.1027
▁dönüşü	-11.1027
▁grubunda	-11.1027
▁uzunluğu	-11.1029
▁arasındadır	-11.1029
▁BE	-11.103
ebilirler	-11.103
▁avantajlı	-11.1031
2010	-11.1031
▁Şef	-11.1032
▁Biyo	-11.1032
▁Akademik	-11.1032
▁unsurlar	-11.1033
sağ	-11.1034
▁Akademisi	-11.1034
TSO	-11.1035
▁çalışmalarda	-11.1035
▁mekanik	-11.1037
▁bölümüne	-11.1038
▁engellemek	-11.1038
▁Of	-11.1038
▁sağlığını	-11.104
▁İstatistik	-11.1042
▁Ticari	-11.1045
▁odak	-11.1045
vit	-11.1046
rid	-11.1047
▁beyni	-11.1051
▁geçim	-11.1052
▁değerlendirmek	-11.1052
▁tekstil	-11.1052
▁Sizlere	-11.1053
▁kütle	-11.1053
▁İlköğretim	-11.1053
▁Filmin	-11.1054
▁klinik	-11.1056
▁pist	-11.1058
▁işlerin	-11.1058
▁ES	-11.1059
jan	-11.1062
▁hepimizin	-11.1062
▁tedbirler	-11.1062
▁umudu	-11.1063
▁tır	-11.1063
▁destekleyen	-11.1063
▁gönlü	-11.1063
▁kandır	-11.1065
▁geleni	-11.1066
▁Devletleri	-11.1067
▁Fon	-11.1069
▁Patent	-11.1069
oy	-11.1069
▁Türklerin	-11.107
▁Seni	-11.107
▁malı	-11.1071
▁TSK	-11.1072
▁tedbirleri	-11.1075
cre	-11.1077
.1.	-11.1077
▁diyebilirim	-11.1077
▁Bakırköy	-11.1077
▁Kaliteli	-11.108
▁zayıflama	-11.108
MP	-11.1081
▁kö	-11.1081
evler	-11.1082
▁görüntüleme	-11.1083
▁Yukarıdaki	-11.1083
▁Puan	-11.1083
-25	-11.1084
▁ailelerin	-11.1086
▁büyümesi	-11.109
▁adama	-11.109
▁Ayakkabı	-11.1092
▁ani	-11.1096
▁zorunluluğu	-11.1096
▁Yerli	-11.1097
▁Dede	-11.1097
▁tırnak	-11.1098
layacağı	-11.1102
▁Modelleri	-11.1103
▁minibüs	-11.1104
101	-11.1106
▁verimliliği	-11.1107
▁alanındaki	-11.111
▁çıplak	-11.1112
▁denetimi	-11.1113
▁yapının	-11.1113
▁Umut	-11.1116
ömür	-11.1117
▁ا	-11.1119
▁konuşmasını	-11.1119
▁yükü	-11.112
▁çıkacağı	-11.112
▁kendinden	-11.1121
▁Üniversitemiz	-11.1121
▁Yaptığı	-11.1122
▁ilinde	-11.1123
▁Sanatlar	-11.1124
▁Stok	-11.1124
yurdu	-11.1126
▁Adres	-11.1127
▁Kurumları	-11.1128
▁yatay	-11.1128
▁Köprüsü	-11.113
▁Nar	-11.1131
▁Başkent	-11.1131
▁you	-11.1131
▁oranının	-11.1132
▁Beyoğlu	-11.1135
▁Bugüne	-11.1136
▁büyüklüğünde	-11.1136
▁yarattı	-11.1137
▁Yolları	-11.1138
latma	-11.1143
▁alıyoruz	-11.1144
▁Dir	-11.1145
2009	-11.1145
▁yönden	-11.1145
ladık	-11.1146
▁besleme	-11.1147
▁izlediği	-11.1149
▁çekilme	-11.1149
▁donat	-11.1149
▁ilacı	-11.115
▁muhtaç	-11.1151
▁1995	-11.1153
▁kitabında	-11.1155
▁Evli	-11.1155
▁tecrübesi	-11.1155
▁Boğaz	-11.1157
▁bulundurul	-11.1157
▁Şart	-11.1157
▁Kürdistan	-11.1157
▁fiyatlarını	-11.1159
▁yakalan	-11.1159
▁seçilmiş	-11.116
▁seslendir	-11.1161
▁düzenleyen	-11.1163
▁Ortaokulu	-11.1164
▁Hizmetler	-11.1167
▁izler	-11.1167
▁Fil	-11.1169
▁gözde	-11.1169
▁%50	-11.117
▁ingilizce	-11.1172
▁Ataşehir	-11.1174
▁ortalaması	-11.1174
▁grupların	-11.1175
umuzu	-11.1181
▁Adası	-11.1182
ABD	-11.1182
▁dışından	-11.1183
▁oyuncuların	-11.1183
▁Şüphesiz	-11.1183
▁kararın	-11.1185
▁klavye	-11.1187
▁Şırnak	-11.119
▁bayanım	-11.1191
hl	-11.1192
por	-11.1193
▁sırtı	-11.1193
tuğ	-11.1194
▁geçip	-11.1196
▁kullanılmıştır	-11.1197
bon	-11.1197
▁kirliliği	-11.1198
▁levha	-11.1202
▁Açılış	-11.1202
▁peşin	-11.1206
mızla	-11.1207
▁mesajlar	-11.1207
▁ayrım	-11.1207
▁Edinilen	-11.1208
▁Pendik	-11.121
▁Özkan	-11.121
▁binalar	-11.1211
▁Akın	-11.1212
▁belirlenmiş	-11.1212
▁yüzyılın	-11.1213
▁Koz	-11.1214
▁tuttuğu	-11.1216
▁istihbarat	-11.1217
▁Dolandırıcı	-11.1217
▁ışığında	-11.1217
▁77	-11.1217
▁hesabından	-11.1217
▁Pil	-11.1218
▁basıncı	-11.1218
▁değişti	-11.1223
▁açıyor	-11.1224
▁Cas	-11.1224
▁Büyü	-11.1225
▁poşet	-11.1226
▁aldıktan	-11.1227
▁hatası	-11.1227
▁sunumu	-11.1228
▁Teklif	-11.123
▁Finans	-11.1231
▁çirkin	-11.1231
tiv	-11.1232
▁nce	-11.1234
▁müste	-11.1234
▁kuzeyinde	-11.1236
▁Fre	-11.1237
▁şükür	-11.1237
▁Uşak	-11.1238
▁gerektiğine	-11.1238
▁balıkçı	-11.124
▁varken	-11.124
▁kurulduğu	-11.124
▁yaşından	-11.1242
▁gündemi	-11.1245
▁döv	-11.1245
▁Alınan	-11.1248
▁karşınıza	-11.125
ics	-11.1254
▁gerçekleştirdik	-11.1255
▁mantıklı	-11.1257
▁avantajı	-11.1258
▁Başbakanlık	-11.1259
EB	-11.1259
▁dekorasyonu	-11.1259
▁korkunç	-11.126
gini	-11.1261
▁hamam	-11.1261
▁Emekli	-11.1262
▁Harita	-11.1262
▁bilerek	-11.1264
▁Siyasi	-11.1271
▁soruların	-11.1272
▁aileler	-11.1272
▁Koşul	-11.1274
▁Kuruluş	-11.1275
▁maddesine	-11.1276
▁Hıristiyan	-11.1276
▁Sahne	-11.128
▁Organize	-11.128
▁desteğini	-11.1283
▁nefis	-11.1283
▁emeklilik	-11.1284
▁adımları	-11.1284
▁bölgeleri	-11.1285
Benim	-11.1286
▁Milliyetçi	-11.1286
▁dikkatini	-11.1286
▁Fan	-11.1286
▁Papa	-11.1286
▁bag	-11.1287
▁Yatak	-11.1287
▁irtibat	-11.1288
▁yıka	-11.1289
▁muamele	-11.1292
▁İleri	-11.1292
hid	-11.1293
▁ruhsal	-11.1296
▁notu	-11.1297
▁Tutu	-11.1301
▁seçenekler	-11.1301
▁etmenin	-11.1302
▁hacim	-11.1302
▁Erken	-11.1305
▁Mem	-11.1305
▁emlak	-11.1306
▁dakikalar	-11.1306
▁Tanım	-11.1308
▁giyin	-11.1308
▁edebilme	-11.1308
▁saatler	-11.1309
▁Eylem	-11.1312
▁kurt	-11.1312
▁yerlerinde	-11.1313
▁Fiyatı	-11.1313
ledim	-11.1314
uma	-11.1316
▁eğitmen	-11.1316
▁getiri	-11.1316
▁Yetki	-11.1316
▁etiketi	-11.1316
▁Eser	-11.1317
nom	-11.1317
▁anlaşması	-11.132
▁Afyon	-11.132
▁sonlandır	-11.132
▁İzmit	-11.1322
▁ödün	-11.1325
▁kriter	-11.1328
▁Akif	-11.1329
▁kullanıcılara	-11.1329
▁Cihan	-11.133
▁Ucuz	-11.1331
▁yaptılar	-11.1333
▁üyeler	-11.1334
▁verdiğiniz	-11.1338
amamış	-11.1338
▁kontenjan	-11.134
Çocuk	-11.1342
▁yaptırma	-11.1342
batı	-11.1342
▁gelecektir	-11.1345
▁Meyve	-11.1346
▁yapıyorlar	-11.1347
▁Tipi	-11.1347
▁piyasası	-11.1349
▁programa	-11.135
▁önündeki	-11.1351
▁oluşturdu	-11.1351
▁kurtulma	-11.1351
koz	-11.1353
▁havale	-11.1354
▁yayınladı	-11.1358
▁bozuk	-11.1359
▁Yen	-11.1359
▁dekor	-11.1361
Kendi	-11.1362
▁makul	-11.1363
▁vermedi	-11.1363
▁çalışmayı	-11.1363
▁(4	-11.1365
▁yatan	-11.1367
Ankara	-11.1367
göl	-11.1367
▁Gayrimenkul	-11.1367
▁Tık	-11.1369
▁yıldönümü	-11.137
▁kaynat	-11.137
▁tabela	-11.137
▁hatırlatan	-11.1372
▁Wal	-11.1374
▁birisidir	-11.1378
▁Mag	-11.1379
▁elinizde	-11.1379
hh	-11.1379
▁Yaka	-11.138
▁Müze	-11.1382
▁Firmaları	-11.1382
▁burnu	-11.1382
▁Bosna	-11.1383
Co	-11.1383
▁kullanıl	-11.1386
▁çalışarak	-11.1389
▁okumaya	-11.1389
▁sektöre	-11.1391
▁fındık	-11.1392
▁OKU	-11.1394
▁Ebû	-11.1395
▁dokusu	-11.1395
onomi	-11.1396
▁ja	-11.1396
▁değiliz	-11.1396
▁ilmi	-11.1397
▁71	-11.1398
▁belirsiz	-11.1398
▁aradığınız	-11.14
▁orda	-11.1401
▁söyleyebiliriz	-11.1401
▁kaçma	-11.1401
yanlar	-11.1401
▁odasında	-11.1403
▁Polonya	-11.1404
▁Vodafone	-11.1404
▁Tanımlar	-11.1405
▁yönetiminin	-11.1406
▁atmış	-11.1406
▁aramızda	-11.1406
yd	-11.1406
▁köfte	-11.1407
Daha	-11.141
▁Tasarımı	-11.1411
▁alanın	-11.1411
▁yanınızda	-11.1413
▁Umarım	-11.1413
▁örgütün	-11.1413
▁satım	-11.1415
▁muhakkak	-11.1416
▁başlayacağı	-11.1416
▁tavrı	-11.1418
▁Flor	-11.1418
▁bırakır	-11.1418
▁öldürme	-11.1419
▁buçuk	-11.142
▁Mezun	-11.142
haber	-11.142
▁önlenmesi	-11.1422
▁Washington	-11.1422
▁birbirlerini	-11.1422
diğine	-11.1423
▁alay	-11.1424
▁İnönü	-11.1426
-14	-11.143
jen	-11.1431
▁kombin	-11.1435
▁gemisi	-11.1435
▁Yön	-11.1436
▁ortamlarda	-11.1439
▁düşünerek	-11.1439
▁tarafına	-11.144
▁5-	-11.144
▁harç	-11.144
▁kanalında	-11.1441
▁baskısı	-11.1442
▁Nihat	-11.1442
▁iddiası	-11.1443
▁nedenlerle	-11.1445
▁tahminleri	-11.1446
▁olmayacaktır	-11.1446
▁süreyle	-11.1447
▁bulup	-11.1448
▁peş	-11.145
▁benzet	-11.1452
▁AT	-11.1453
▁kullanılmış	-11.1456
▁Elif	-11.1456
▁tabaka	-11.1458
▁havaalanı	-11.1459
▁Almanca	-11.1459
▁alındığında	-11.146
▁Wil	-11.146
spir	-11.1461
▁sevgisi	-11.1461
oid	-11.1462
▁sorar	-11.1463
▁rahatlığı	-11.1466
▁kulağı	-11.1467
▁çizil	-11.1469
▁Açıklaması	-11.1469
▁belirtiliyor	-11.1469
▁Güçlü	-11.147
▁Donald	-11.1471
▁tutarak	-11.1471
▁oturt	-11.1471
▁gelmesini	-11.1473
▁teşebbüs	-11.1474
bs	-11.1475
▁vazgeçme	-11.1478
▁nerde	-11.1478
▁söylemişti	-11.1479
▁Kaynakları	-11.148
▁zar	-11.148
▁danışman	-11.148
kâ	-11.1481
şik	-11.1481
EZ	-11.1483
▁tünel	-11.1484
▁Birlikte	-11.1485
▁Sahibi	-11.1486
▁bitiş	-11.1488
▁dönüyor	-11.1488
▁Tesisleri	-11.1489
▁Fırın	-11.1489
▁yüzlü	-11.1489
sonu	-11.149
▁MEB	-11.1491
▁göstermiş	-11.1491
İD	-11.1492
▁garantisi	-11.1492
▁dr	-11.1493
▁VI	-11.1494
▁müsait	-11.1495
▁bittiği	-11.1496
bük	-11.1497
▁anlatmaya	-11.1497
▁soyun	-11.1498
▁refah	-11.1499
▁küfür	-11.1501
▁sağlayabilir	-11.1502
▁akciğer	-11.1502
▁Kimya	-11.1502
▁partinin	-11.1502
▁otelleri	-11.1502
▁Kulüp	-11.1503
▁galeri	-11.1503
Ek	-11.1504
▁Günümüz	-11.1505
▁helal	-11.1507
▁Dere	-11.1508
lıyız	-11.1508
Ro	-11.1509
formasyon	-11.151
▁konsol	-11.151
▁ortaklığı	-11.1512
▁amaçlar	-11.1513
▁numarasının	-11.1514
▁Buradan	-11.1515
▁taraftarı	-11.1515
tüm	-11.1518
▁vol	-11.1519
rent	-11.1519
mazsa	-11.1521
▁Aksaray	-11.1522
▁butonuna	-11.1523
▁çarpıcı	-11.1524
▁yazımız	-11.1529
▁huzuru	-11.153
mad	-11.1531
▁yenilik	-11.1532
▁Fakülte	-11.1532
▁harcı	-11.1534
▁saklama	-11.1535
▁ilişkili	-11.1536
ûr	-11.1536
▁bahsedil	-11.1537
▁amaçları	-11.1538
▁ayrıcalık	-11.1538
▁zehir	-11.1539
▁arındır	-11.1539
▁bölgesine	-11.1539
hut	-11.154
▁esmer	-11.1542
ğim	-11.1542
▁şarap	-11.1542
▁çocuğa	-11.1545
etti	-11.1545
▁Şampiyon	-11.1546
▁operasyonda	-11.1548
▁Ltd	-11.1548
▁acele	-11.155
▁ısıt	-11.1551
leyeceği	-11.1553
kut	-11.1554
sha	-11.1557
▁İşlemleri	-11.1559
▁istemediği	-11.156
▁One	-11.156
▁meraklı	-11.1561
▁aktarma	-11.1561
▁sepet	-11.1562
▁Latin	-11.1565
dağı	-11.1568
Büyük	-11.157
ülen	-11.1571
▁görüntülü	-11.1573
▁yoğunluk	-11.1574
▁şarkılar	-11.1575
▁yakınında	-11.1575
▁Liste	-11.1579
▁Listesi	-11.1579
▁mülkiyet	-11.158
kendi	-11.1582
▁grupta	-11.1583
▁Yeniden	-11.1585
▁Post	-11.1586
▁olursanız	-11.1587
▁seçkin	-11.159
▁Türkistan	-11.1593
▁kaz	-11.1593
▁Konferans	-11.1594
▁destekler	-11.1596
▁görecek	-11.1597
▁kapsamı	-11.1598
▁pano	-11.1598
Devlet	-11.1599
▁ilçede	-11.16
▁arkasından	-11.1604
▁Fas	-11.1604
▁istiyordum	-11.1605
▁aksiyon	-11.1606
▁davetli	-11.1607
pat	-11.1607
olitik	-11.1607
▁inşaatı	-11.1608
▁memnuniyetini	-11.1608
▁heves	-11.1609
▁Albayrak	-11.161
nos	-11.1611
▁Fizik	-11.1612
RAN	-11.1612
▁tarihini	-11.1613
▁bilişim	-11.1614
▁istemi	-11.1617
▁zanlı	-11.1617
▁üretiminde	-11.1618
▁Temsilcisi	-11.1619
▁Taşıma	-11.1621
▁1994	-11.1621
▁diyabet	-11.1622
▁Makam	-11.1623
has	-11.1624
▁islam	-11.1624
▁ulaşabilir	-11.1626
oğulları	-11.1626
▁işine	-11.1627
▁kuyu	-11.1629
▁Portekiz	-11.1632
▁Menderes	-11.1632
▁çıktık	-11.1633
▁unu	-11.1634
▁tersine	-11.1634
▁üyelerimiz	-11.1636
▁Geleneksel	-11.1638
Yaz	-11.1638
▁dip	-11.1639
▁biç	-11.1639
▁Koyu	-11.1642
▁edileceği	-11.1643
unuza	-11.1643
▁belirledi	-11.1643
▁Afganistan	-11.1644
ux	-11.1646
koç	-11.1646
▁CEO	-11.1647
▁yapıları	-11.1648
/11	-11.1648
▁kazası	-11.1651
▁Ot	-11.1653
LL	-11.1653
▁programını	-11.1653
▁Hazırlık	-11.1653
▁Demirel	-11.1654
▁Kafa	-11.1654
▁anlaşılır	-11.1658
▁1997	-11.1659
mân	-11.1663
▁sonbahar	-11.1663
▁olağan	-11.1666
▁endüstri	-11.1667
▁partiler	-11.1669
▁ayağa	-11.1672
▁Boğaziçi	-11.1672
▁tev	-11.1672
▁biliniyor	-11.1673
ves	-11.1673
▁canı	-11.1674
▁Ajans	-11.1676
▁yoğur	-11.1676
▁bankacılık	-11.1676
▁götürme	-11.1677
▁Düşün	-11.1677
▁Madrid	-11.1679
▁otuz	-11.168
▁İlhan	-11.1683
▁çamur	-11.1685
▁damga	-11.1685
Bölüm	-11.1687
▁toplantıya	-11.1687
▁öngörül	-11.1687
▁sürdürül	-11.1688
eğer	-11.1689
▁Rabbimiz	-11.1689
▁Uçak	-11.1689
▁Kira	-11.1691
▁operasyonlar	-11.1693
mor	-11.1693
▁tarafın	-11.1693
▁Çankırı	-11.1694
▁Sinop	-11.1702
▁tehlikesi	-11.1703
▁lik	-11.1705
▁çalıştım	-11.1705
▁öneriler	-11.1706
▁talimatı	-11.1706
▁Meydan	-11.1707
INDA	-11.1708
▁büyüdü	-11.1709
▁kılavuz	-11.1711
▁Bilimsel	-11.1714
▁þ	-11.1717
▁Fethiye	-11.1717
▁Planlama	-11.1717
Yap	-11.1717
▁iktidarı	-11.1718
▁Kullanımı	-11.1719
▁riskini	-11.172
▁özenle	-11.172
▁fren	-11.1722
▁beklemek	-11.1725
▁yazmaya	-11.1725
▁uyguladığı	-11.1725
▁dolgu	-11.1726
▁dolaşım	-11.1726
▁sahiplerinin	-11.1727
lanırken	-11.1727
▁Bölgesinde	-11.1731
▁iradesi	-11.1732
▁Detayları	-11.1733
▁uçağı	-11.1734
▁plaka	-11.1734
▁bulamadı	-11.1735
▁İçerik	-11.1735
▁milletimiz	-11.1735
▁sunma	-11.1736
▁unsuru	-11.1737
▁bölme	-11.1739
▁ayırma	-11.1739
▁yaralanan	-11.1741
▁Panel	-11.1743
▁adresleri	-11.1744
tter	-11.1745
▁tencere	-11.1748
shop	-11.1748
maktadırlar	-11.1749
bahis	-11.1752
▁1.1	-11.1754
▁Filistinli	-11.1754
▁incelenmesi	-11.1755
▁yapılırken	-11.1756
▁sizlerde	-11.1756
Â	-11.1757
▁ayarlama	-11.1757
▁sark	-11.1758
▁SORU	-11.176
▁kullanıyorum	-11.176
▁kıy	-11.176
▁Gre	-11.176
▁TÜBİTAK	-11.176
▁şaşırt	-11.1761
▁yakınlarında	-11.1763
his	-11.1765
▁turizmi	-11.1766
▁durumdan	-11.1767
Devamı	-11.1767
nızdaki	-11.1768
▁havası	-11.1769
▁Ersoy	-11.1769
▁fırsatları	-11.177
▁fonksiyonu	-11.1773
▁projede	-11.1776
▁İşbirliği	-11.1776
▁geleceğin	-11.1777
içi	-11.1777
▁köylü	-11.1778
▁azgın	-11.1778
▁edebilmek	-11.1778
▁Anahtar	-11.1779
▁subay	-11.1779
▁farkındalık	-11.178
▁Gid	-11.178
▁kızları	-11.1781
▁kısıtlama	-11.1781
▁İL	-11.1782
▁iddiasıyla	-11.1783
▁Şişli	-11.1783
▁vaat	-11.1784
▁önemine	-11.1786
▁dağılımı	-11.1787
▁fıkrasında	-11.1787
▁çalıştığını	-11.1787
▁olabil	-11.1788
▁kararının	-11.1788
▁Yozgat	-11.1792
▁Dayanak	-11.1792
▁çekilmiş	-11.1792
▁vaz	-11.1797
▁İlkokulu	-11.1797
lenmesine	-11.1798
▁çocuklarının	-11.1798
▁bakır	-11.1799
▁otomotiv	-11.1801
▁çilingir	-11.1801
▁nöbet	-11.1801
▁öğrendik	-11.1802
▁Ph	-11.1804
▁ferah	-11.1805
▁Görüş	-11.1807
▁TÜRKİYE	-11.1808
labilir	-11.1809
TİK	-11.1809
▁tim	-11.1811
▁Birim	-11.1812
▁suçundan	-11.1814
▁Sanatçı	-11.1814
Kon	-11.1815
▁hesaba	-11.1818
▁vatandaşın	-11.1819
▁kronik	-11.182
▁Ayı	-11.1821
▁Yarış	-11.1822
king	-11.1822
▁Vol	-11.1824
▁gününü	-11.1826
▁kadarıyla	-11.1827
▁Ürünler	-11.1827
▁şubesi	-11.1829
▁katman	-11.1829
▁plak	-11.1832
unca	-11.1832
▁Sene	-11.1833
▁tanınmış	-11.1834
miyordu	-11.1835
▁zararı	-11.1835
▁Yurtdışı	-11.1837
▁allah	-11.184
▁ucunda	-11.184
▁kapsamındaki	-11.184
▁koalisyon	-11.1843
▁Kod	-11.1844
hel	-11.1846
▁Tekin	-11.1846
▁zordur	-11.1847
Ser	-11.1848
bro	-11.1848
▁tartışmalar	-11.1848
▁Real	-11.1849
▁Danışmanlık	-11.1849
▁iyisi	-11.1849
▁dönmesi	-11.1851
▁taraflı	-11.1852
▁Kılavuzu	-11.1854
ağan	-11.1855
-7	-11.1856
▁Bakımı	-11.1856
müyor	-11.1858
▁yürürlükte	-11.1859
▁filan	-11.1859
▁Logo	-11.186
▁%1	-11.1861
▁sözde	-11.1863
▁Konusu	-11.1865
▁teşkilatı	-11.1865
▁isteriz	-11.1868
▁Show	-11.1868
▁yapılabil	-11.1868
▁bulaşık	-11.1868
mışlar	-11.1869
▁2)	-11.187
.05	-11.187
▁sunulması	-11.1871
▁vatandaşları	-11.1872
▁turistik	-11.1872
Kay	-11.1873
▁TEM	-11.1879
▁üreticisi	-11.1879
▁kesimi	-11.1879
▁Aslı	-11.1879
▁desteğiyle	-11.1879
▁sirke	-11.188
▁kaşık	-11.1881
▁element	-11.1882
▁sayısız	-11.1883
▁benze	-11.1886
▁sıkıntısı	-11.1887
▁Tercih	-11.1887
▁yüze	-11.1889
▁kartları	-11.189
▁şef	-11.1891
▁adamlar	-11.1892
▁ameliyatı	-11.1893
▁internetten	-11.1893
▁Benzer	-11.1894
▁Gazze	-11.1897
▁kendiliğinden	-11.1897
-9	-11.1897
ladığını	-11.1897
▁Emek	-11.1899
▁genişliği	-11.1899
▁konulara	-11.19
dö	-11.19
▁sonuçta	-11.19
Mi	-11.1902
▁metni	-11.1902
▁taraflar	-11.1902
▁süsleme	-11.1909
▁Değiş	-11.191
lanmak	-11.1912
▁Kenan	-11.1913
The	-11.1915
SAL	-11.1917
▁açıktır	-11.1919
▁aşma	-11.1919
ward	-11.1921
▁dokunma	-11.1921
▁Ayhan	-11.1921
▁bakımlı	-11.1922
▁min	-11.1923
ctor	-11.1924
▁geçebilirsiniz	-11.1924
▁yükümlü	-11.1925
▁World	-11.1926
▁gerçekleştirme	-11.1926
▁sorumludur	-11.1927
▁82	-11.1927
▁oluşma	-11.1928
▁dünyasına	-11.1928
Gör	-11.1929
▁tap	-11.1929
▁gösterecek	-11.1933
▁Davutoğlu	-11.1933
▁hatalı	-11.1934
▁kaldırmak	-11.1935
BE	-11.1935
sî	-11.1936
▁çocukluk	-11.1937
▁uzunluğunda	-11.194
▁AŞ	-11.1941
▁batarya	-11.1942
▁ahiret	-11.1942
▁kaldığını	-11.1944
mî	-11.1944
▁Nas	-11.1944
▁ANA	-11.1944
PU	-11.1945
▁yerlerden	-11.1947
▁kelimeleri	-11.1947
▁çevresindeki	-11.1947
▁antrenör	-11.1948
▁teyze	-11.1948
▁becer	-11.195
▁derecesi	-11.195
▁olmamız	-11.1952
▁gitmeye	-11.1952
▁Adım	-11.1954
▁Tatar	-11.1954
▁akın	-11.1955
▁yararlanma	-11.1955
▁Müslümanların	-11.1956
▁yükselme	-11.1959
▁Hakk	-11.1961
▁öğretmenlerin	-11.1962
▁içecekler	-11.1962
vis	-11.1963
▁yaşını	-11.1964
istler	-11.1965
▁Key	-11.1968
LAMA	-11.1968
▁Henüz	-11.1968
▁yaralanma	-11.197
▁edeceğim	-11.197
▁slogan	-11.1972
▁değişiyor	-11.1973
▁düşmanı	-11.1975
▁ocağı	-11.1976
▁Plus	-11.1977
ören	-11.1977
nızla	-11.1977
▁Konferansı	-11.1978
▁güçlük	-11.1978
▁sokma	-11.198
▁kalmıştır	-11.1981
▁Transfer	-11.1981
▁ifadeleri	-11.1982
▁Iş	-11.1984
▁geceleri	-11.1984
▁sorumlusu	-11.1984
▁ekmeği	-11.1984
rup	-11.1986
▁fırında	-11.1988
▁masası	-11.1988
▁bahçesi	-11.1989
▁İr	-11.199
▁koyar	-11.199
ustu	-11.1993
▁dereceye	-11.1994
▁gerçekleştiği	-11.1994
▁(10	-11.1994
▁faaliyeti	-11.1996
▁konuşmak	-11.1996
▁satışları	-11.1998
▁Nokta	-11.2
tus	-11.2
leştiren	-11.2
larımla	-11.2001
▁ayni	-11.2002
▁tuhaf	-11.2003
ion	-11.2004
▁versiyon	-11.2004
▁çözmek	-11.2005
ruz	-11.2006
▁hücreleri	-11.2006
▁çabası	-11.2006
▁Hizmeti	-11.2007
▁oldular	-11.2008
▁doyur	-11.201
▁1996	-11.2012
▁Hikmet	-11.2013
work	-11.2013
▁Otomatik	-11.2014
▁koç	-11.2015
medik	-11.2015
▁azdır	-11.2016
▁kırılma	-11.2017
▁kırma	-11.2018
▁yükseltme	-11.2019
▁imha	-11.2021
▁Bizi	-11.2021
▁Asıl	-11.2021
▁siparişi	-11.2023
▁Marşı	-11.2023
▁Edebiyatı	-11.2023
▁barışı	-11.2024
DAN	-11.2029
▁belirtilme	-11.2032
▁Yapım	-11.2033
▁Temiz	-11.2033
▁uğrat	-11.2033
▁temelinde	-11.2034
▁Strateji	-11.2036
▁kırıklığı	-11.2037
▁konudaki	-11.2039
▁karşılaştı	-11.204
▁avcı	-11.204
acağına	-11.2041
▁birbiri	-11.2041
mediğini	-11.2044
▁dram	-11.2046
▁Kurs	-11.2046
pre	-11.2047
▁tesadüf	-11.2048
▁kalmayı	-11.2051
ıştırma	-11.2053
▁uydur	-11.2053
▁Pre	-11.2053
▁sorusunu	-11.2053
▁sunulmaktadır	-11.2055
▁SMS	-11.2057
▁gününe	-11.2057
▁hayatım	-11.2059
▁cihazların	-11.206
▁koleksiyonu	-11.206
▁Nor	-11.2061
▁konuların	-11.2062
▁kurduk	-11.2062
▁hissediyor	-11.2063
▁stand	-11.2064
▁indi	-11.2064
-17	-11.2066
▁pul	-11.207
▁çekildi	-11.2071
▁Önümüzdeki	-11.2071
▁Asker	-11.2071
▁zekâ	-11.2072
▁Gez	-11.2072
▁tarihin	-11.2073
▁objektif	-11.2075
▁boyama	-11.2076
▁zinciri	-11.2076
▁AC	-11.208
▁Cennet	-11.2081
▁ilimiz	-11.2086
▁programın	-11.2087
ıyordum	-11.2087
▁anlattığı	-11.2087
▁mısır	-11.2088
▁mutsuz	-11.2089
▁gelmedi	-11.2089
▁ekranda	-11.209
▁ortaokul	-11.209
▁takılan	-11.2091
▁adresinde	-11.2091
▁bellek	-11.2093
▁Takip	-11.2094
▁garantili	-11.2095
vu	-11.2097
▁şehre	-11.2101
▁yapacağım	-11.2101
▁görevine	-11.2101
▁:))	-11.2103
▁becerileri	-11.2104
dio	-11.2106
DR	-11.2111
▁başvurular	-11.2111
▁Lirası	-11.2111
▁2,5	-11.2111
diyor	-11.2112
▁azalması	-11.2112
▁arayış	-11.2115
▁aranan	-11.2116
▁geçirdik	-11.2117
▁herşeyi	-11.2118
▁Gerekli	-11.2118
kapı	-11.2119
▁alanların	-11.2121
tv	-11.2121
▁Amacı	-11.2123
▁sahiplerine	-11.2124
▁Nevşehir	-11.2124
▁görünüş	-11.2124
▁İp	-11.2125
-8	-11.2126
▁112	-11.2127
▁Bingöl	-11.2127
İlk	-11.2127
YP	-11.2128
Tur	-11.2128
▁eserin	-11.2129
▁statü	-11.2129
▁q	-11.213
▁İzin	-11.213
▁Suyu	-11.2131
▁MS	-11.2131
▁KARA	-11.2132
▁sayfamızda	-11.2134
▁Ag	-11.2136
▁büro	-11.2138
▁edinme	-11.2139
rey	-11.214
▁yapıda	-11.214
▁giderleri	-11.214
▁mısınız	-11.2141
▁Yüzyıl	-11.2142
çağ	-11.2143
▁arttırmak	-11.2145
▁atıl	-11.2146
lanmıştı	-11.2146
▁Oldukça	-11.2147
ous	-11.2148
▁dövme	-11.2148
▁stüdyo	-11.215
YET	-11.215
▁konulan	-11.2152
▁konusudur	-11.2156
▁edilmez	-11.2157
▁69	-11.2157
▁götürül	-11.216
▁söylüyorum	-11.2162
▁ötesi	-11.2163
▁Kırıkkale	-11.2163
▁ümmet	-11.2163
▁içimde	-11.2164
▁mücadelede	-11.2166
▁Medine	-11.2166
▁kaynakların	-11.2166
▁örgütlenme	-11.2167
▁şiiri	-11.2167
▁wi	-11.2168
▁Meksika	-11.2169
▁geçirilmesi	-11.2169
▁Üstün	-11.217
▁tasarrufu	-11.2171
▁siyasetçi	-11.2172
▁bölünme	-11.2172
▁Yazılı	-11.2175
▁Yücel	-11.2175
Der	-11.2175
▁anma	-11.2176
▁kişiliği	-11.2177
▁inanıyorsanız	-11.2177
▁nedenleri	-11.2177
▁Sonuçta	-11.2179
▁kullanabileceği	-11.2179
Kim	-11.2181
▁açarak	-11.2182
▁oluyoruz	-11.2182
▁Kanser	-11.2183
▁şampiyonluk	-11.2183
LERİN	-11.2187
▁konsept	-11.2188
Bİ	-11.2189
▁Şer	-11.2189
▁Derece	-11.219
▁Üretici	-11.219
▁sıva	-11.219
▁ölçekli	-11.2194
▁dengeli	-11.2194
▁İhsan	-11.2194
▁ilgilendiren	-11.2196
▁başkent	-11.2196
▁içerme	-11.2197
▁saygın	-11.2198
▁efekt	-11.2199
▁alüminyum	-11.2199
▁kullanmanız	-11.2199
▁Grafik	-11.22
▁okunması	-11.2202
▁şov	-11.2202
▁Başkanlık	-11.2209
▁telefonla	-11.2209
▁Bilgileri	-11.2209
▁kılavuzu	-11.2211
▁animasyon	-11.2213
▁sunuluyor	-11.2213
▁baya	-11.2216
▁Bilet	-11.2221
ılabilecek	-11.2221
▁antalya	-11.2222
▁şoför	-11.2224
▁Satılık	-11.2228
▁burç	-11.2228
▁sakinleri	-11.2228
▁ray	-11.2228
oğlan	-11.2229
▁Tıkanıklığı	-11.2229
▁kimler	-11.2231
▁tüketme	-11.2233
▁anlatma	-11.2234
▁Babası	-11.2234
▁Tip	-11.2234
▁şahıslar	-11.2234
▁(5)	-11.2235
▁fragmanı	-11.2235
▁onaylı	-11.2236
▁teröristler	-11.2237
▁oldugunu	-11.2238
▁aşağıya	-11.2238
▁hukuku	-11.224
▁Auto	-11.2241
▁korur	-11.2242
▁olabilmek	-11.2243
▁toplamı	-11.2243
ahi	-11.2245
▁Prens	-11.2245
▁Kötü	-11.2249
▁renkte	-11.2249
▁1992	-11.2251
Ni	-11.2252
▁etkilenme	-11.2252
▁çoktan	-11.2252
▁olmadığına	-11.2253
▁Stadı	-11.2253
▁suda	-11.2255
▁güldü	-11.2255
▁Kalesi	-11.2256
▁ligde	-11.2258
▁etse	-11.2259
▁azaltmak	-11.226
▁aradan	-11.226
▁geçtiğini	-11.2261
▁Haz	-11.2261
▁giydir	-11.2261
▁Hor	-11.2261
▁ISO	-11.2263
▁danış	-11.2263
▁uğrama	-11.2264
▁bulunabilir	-11.2265
lendiğini	-11.2267
▁yerleşme	-11.2268
▁Deprem	-11.2269
▁Erkan	-11.2269
yseniz	-11.227
▁maliyetleri	-11.2271
▁ülkelere	-11.2271
▁başladılar	-11.2272
▁numaranın	-11.2272
▁döndüğü	-11.2274
▁çerez	-11.2275
▁ml	-11.2276
▁içerikleri	-11.2276
▁Sitemiz	-11.2277
▁Süre	-11.2278
▁kullanılmaya	-11.2279
▁Öğr	-11.2279
▁çalışmada	-11.2279
▁merakla	-11.2281
▁ertelen	-11.2282
YD	-11.2282
▁Saati	-11.2282
▁Deli	-11.2287
▁Tıbbi	-11.2289
dom	-11.229
▁duydukları	-11.2291
▁Şimşek	-11.2292
▁göstermeye	-11.2294
▁hissedil	-11.2294
tul	-11.2295
sür	-11.2297
▁Günde	-11.2298
▁tedarikçi	-11.2298
▁geliştirdiği	-11.23
▁kredisi	-11.2301
▁bebekler	-11.2302
izmin	-11.2305
▁Darbe	-11.2305
▁maçını	-11.2307
▁sözlük	-11.2308
▁diyordu	-11.2309
▁çıkarken	-11.2311
▁boyutları	-11.2311
▁işsiz	-11.2312
▁mil	-11.2313
▁yapılmasına	-11.2313
▁törenle	-11.2314
http	-11.2316
amadık	-11.2316
hy	-11.2317
▁üstelik	-11.2319
▁tasarlanan	-11.2319
▁KOBİ	-11.2319
▁kuruluşun	-11.2322
▁nezdinde	-11.2322
▁uygulamayı	-11.2322
▁harcan	-11.2323
▁kurtarmak	-11.2323
▁YÖK	-11.2324
▁fabrikası	-11.2324
▁birleşme	-11.2324
▁oynanacak	-11.2326
▁Güneydoğu	-11.2326
▁alçak	-11.2326
▁Sami	-11.2328
▁koyarak	-11.2328
▁Siirt	-11.2329
▁mensup	-11.233
▁Kel	-11.2331
▁boşanma	-11.2335
BI	-11.2335
▁yanındaki	-11.2335
▁cisim	-11.2336
▁almasını	-11.2336
▁eksiklik	-11.2336
▁davanın	-11.2338
▁erit	-11.234
▁Mark	-11.2342
▁şanslı	-11.2344
▁baktım	-11.2345
▁yapmıştı	-11.2346
▁yılbaşı	-11.2347
▁mahallesi	-11.2349
ılamaz	-11.235
▁gergin	-11.235
▁edilmeye	-11.235
cus	-11.235
▁Mete	-11.2353
▁doğduğu	-11.2357
BS	-11.2358
▁Yak	-11.2358
▁Balkan	-11.236
▁kâ	-11.236
▁gelebilecek	-11.236
▁masaya	-11.2361
oksi	-11.2362
▁bulacak	-11.2362
▁mani	-11.2364
▁kimseyi	-11.2365
▁eşyalar	-11.2367
▁girmeye	-11.2368
▁köşesinde	-11.237
▁şartıyla	-11.237
▁Bağlantı	-11.2373
▁üstlendiği	-11.2375
▁doğrultuda	-11.2375
▁anahtarı	-11.2377
▁çocuklarda	-11.2377
▁İkili	-11.2379
▁orjinal	-11.2379
▁reaksiyon	-11.2379
▁pişman	-11.2379
▁üretilmiş	-11.2381
itch	-11.2382
▁şikâyet	-11.2382
▁rezerv	-11.2383
▁tansiyon	-11.2383
▁tıkan	-11.2385
▁çalıştık	-11.2385
▁yuvarla	-11.2385
▁İnceleme	-11.2386
▁parmağı	-11.2386
▁Bitcoin	-11.2389
▁baraj	-11.2389
ılış	-11.2391
▁çırp	-11.2391
▁paneli	-11.2391
▁koruyan	-11.2392
▁jüri	-11.2392
▁Arşiv	-11.2392
▁1970	-11.2394
▁TU	-11.2396
Ho	-11.2397
▁Uzay	-11.2397
▁kırk	-11.2399
▁erişimi	-11.2401
▁Boyut	-11.2402
▁testleri	-11.2404
▁derim	-11.2404
ymış	-11.2405
ılacağını	-11.2407
▁oluştu	-11.2408
▁melek	-11.2408
▁füze	-11.2409
▁alışkanlık	-11.241
▁Acı	-11.241
▁çıkmaz	-11.2412
▁Şan	-11.2412
▁parlamento	-11.2412
başka	-11.2414
skop	-11.2414
▁yurttaş	-11.2416
▁Şerif	-11.2417
bâ	-11.2417
▁insanlığın	-11.2422
▁bankaların	-11.2422
▁maya	-11.2422
▁1993	-11.2425
▁Vadisi	-11.2427
▁önü	-11.2427
▁komite	-11.2427
/12	-11.2427
▁mülakat	-11.2429
▁atılması	-11.2432
▁hareketle	-11.2432
▁Plaj	-11.2433
SİAD	-11.2434
▁YENİ	-11.244
▁İşin	-11.244
▁iştah	-11.2442
▁dayanarak	-11.2443
▁itaat	-11.2444
tip	-11.2445
şey	-11.2446
▁gittikçe	-11.2447
▁doldurma	-11.2448
▁Fikir	-11.2448
▁Birimi	-11.2449
▁balon	-11.245
▁Ço	-11.245
▁Çocukların	-11.2451
▁konfor	-11.2451
ranıyorsanız	-11.2452
sizliği	-11.2453
400	-11.2453
▁İmalat	-11.2453
▁Geçici	-11.2455
▁Diyet	-11.2457
▁Çiftçi	-11.246
NG	-11.2461
▁patron	-11.2462
qui	-11.2464
▁Nerede	-11.2465
▁uluslar	-11.2466
uyordu	-11.2466
▁umarım	-11.2467
▁verdiler	-11.2467
tarak	-11.2468
▁söylenen	-11.2469
▁bağışıklık	-11.247
▁Havaalanı	-11.247
▁sorunlara	-11.2472
▁Fabrika	-11.2473
dý	-11.2475
▁Evren	-11.2475
▁sakınca	-11.2475
▁heyecanlı	-11.2476
▁Akademi	-11.2476
VE	-11.2477
▁hedefleyen	-11.2478
▁ıslak	-11.2479
▁play	-11.2481
▁Demek	-11.2481
MER	-11.2481
▁bilgisini	-11.2483
laştırılması	-11.2484
▁arkasına	-11.2485
▁Demokrat	-11.2486
▁getirmeye	-11.2487
▁arkadaşımız	-11.2487
▁dakikalık	-11.2488
lerarası	-11.2488
tili	-11.249
▁çalma	-11.2493
lanacaktır	-11.2493
oku	-11.2495
▁78	-11.2495
▁malum	-11.2495
▁öyküsü	-11.2495
▁Festival	-11.2499
▁WhatsApp	-11.25
▁sunacak	-11.2503
▁yetenekli	-11.2503
▁sabun	-11.2503
▁kalkan	-11.2505
▁erkeği	-11.2506
▁eğilimi	-11.2506
▁76	-11.2507
▁öğün	-11.2509
LARIN	-11.251
ref	-11.251
▁Ödül	-11.2511
▁Sonuçları	-11.2512
▁boğul	-11.2512
▁diyelim	-11.2513
▁kentte	-11.2513
▁mg	-11.2514
ılmıyor	-11.2515
mızdaki	-11.2516
▁başarıya	-11.2517
▁74	-11.2517
rist	-11.2517
▁dönemlerinde	-11.2517
▁videolar	-11.2517
▁KAY	-11.2519
▁yapıların	-11.2519
▁İTÜ	-11.2521
▁halkına	-11.2521
▁çalışmış	-11.2524
▁telif	-11.2526
▁Çankaya	-11.2528
Bizim	-11.2528
▁tonu	-11.2529
▁filo	-11.253
▁balığı	-11.253
▁hissettiği	-11.253
yeceğim	-11.2531
▁Fonu	-11.2532
▁programının	-11.2533
▁1960	-11.2533
▁değiştirilmesi	-11.2538
▁liradan	-11.2541
▁Bonus	-11.2542
▁farklılıklar	-11.2542
▁GE	-11.2543
▁Beykoz	-11.2543
▁yazıp	-11.2543
▁duvarı	-11.2544
▁düşkün	-11.2545
▁miktarını	-11.2545
▁You	-11.2546
trik	-11.2546
▁cihazın	-11.2547
mektedirler	-11.2547
▁Olimpiyat	-11.2548
▁Paul	-11.255
▁deyince	-11.2552
amazsınız	-11.2554
▁sonuçlarına	-11.2554
▁hücum	-11.2555
ella	-11.2555
back	-11.2556
▁sokul	-11.2556
▁indirimli	-11.2559
▁gözünü	-11.2559
▁Gebze	-11.2562
▁bazlı	-11.2562
▁BİLGİ	-11.2564
▁benzersiz	-11.2564
özü	-11.2566
▁takma	-11.2566
▁hizmetine	-11.2567
▁global	-11.2569
▁bır	-11.2571
▁çevreye	-11.2573
▁kapılarını	-11.2575
▁açmış	-11.2575
▁verecektir	-11.2575
▁uygulamanın	-11.2576
▁ilâh	-11.2576
▁Herkesin	-11.2577
▁çalışmalarımız	-11.2578
▁sürer	-11.258
▁kestir	-11.2581
▁trafiği	-11.2582
▁sunmaya	-11.2582
▁çağın	-11.2582
▁Çıkar	-11.2582
▁maça	-11.2583
▁aylarda	-11.2584
▁fır	-11.2585
▁destekli	-11.2586
▁Atık	-11.2587
▁Ercan	-11.2588
▁Doku	-11.2588
▁mermer	-11.2588
▁Kahvaltı	-11.2589
▁Pakistan	-11.2589
▁CO	-11.2591
▁Porno	-11.2593
ona	-11.2596
İF	-11.2597
▁kadınlarda	-11.2598
▁kursları	-11.2598
▁bulunmuş	-11.2602
▁izlenim	-11.2602
▁romantik	-11.2604
▁düşündüm	-11.2604
▁ödemek	-11.2606
ydım	-11.2606
▁Plastik	-11.261
▁Pet	-11.2611
▁devamını	-11.2613
▁veritabanı	-11.2613
▁Vize	-11.2614
TH	-11.2615
▁İk	-11.2616
▁1-0	-11.2616
Yıl	-11.2617
▁gelirse	-11.2617
▁kısalt	-11.262
▁yaşayabil	-11.2621
▁Sonunda	-11.2622
▁Anlat	-11.2623
▁Tuz	-11.2623
▁ehli	-11.2623
▁gösterebilir	-11.2625
▁Vo	-11.2626
▁elle	-11.2626
▁ARA	-11.2627
▁İslami	-11.2628
▁ofisi	-11.2631
▁bulunarak	-11.2632
▁hadi	-11.2633
▁varlıklar	-11.2634
▁karıştırın	-11.2635
▁formunu	-11.2636
▁Zirvesi	-11.2636
▁Görsel	-11.2639
▁makamında	-11.2639
▁olabilmektedir	-11.264
▁bıraktıysa	-11.264
▁faaliyetlerine	-11.264
▁Marmaris	-11.2641
▁Dilek	-11.2642
▁laik	-11.2643
▁neyi	-11.2643
gim	-11.2645
▁geçtikçe	-11.2646
▁mübarek	-11.2648
▁Bilindiği	-11.2648
MAK	-11.2649
▁İcra	-11.265
▁Robert	-11.2652
▁hapse	-11.2652
▁Uzak	-11.2652
eceğine	-11.2653
▁gördükleri	-11.2653
▁dersin	-11.2654
▁Soma	-11.2654
▁travma	-11.2655
▁miydi	-11.2656
tory	-11.2657
▁üyelerine	-11.2657
▁kılıf	-11.2658
▁ilişkiye	-11.2659
▁rakipleri	-11.266
▁hâlinde	-11.2665
▁seramik	-11.2665
▁Bilgisi	-11.2666
▁Yarı	-11.2667
▁durağı	-11.2669
▁öğrencilerinin	-11.267
▁materyaller	-11.267
▁listesine	-11.2671
▁Cemil	-11.2672
▁atak	-11.2673
hab	-11.2673
▁fen	-11.2673
▁Boyu	-11.2675
▁Vücut	-11.2675
▁yanma	-11.2676
▁saatlerde	-11.2678
▁Otomotiv	-11.2679
▁mevduat	-11.2679
▁yenilgi	-11.2679
▁merkezde	-11.268
▁giyen	-11.268
▁Endüstriyel	-11.2682
▁koordinasyon	-11.2682
▁tribün	-11.2682
ıştır	-11.2683
▁yapmaz	-11.2683
▁izah	-11.2684
▁Burhan	-11.2688
▁gerçekleşir	-11.2689
▁ehliyet	-11.269
▁Sürücü	-11.2695
▁Yar	-11.2695
▁işlemlerinde	-11.2696
▁tozu	-11.2696
▁7/24	-11.2696
▁Ödülleri	-11.2696
▁Tro	-11.2699
▁Set	-11.2701
lock	-11.2701
▁ağaçları	-11.2702
▁tıkanıklığı	-11.2703
▁sırf	-11.2705
▁olacağına	-11.2706
html	-11.2706
▁Müdürlüğüne	-11.2707
▁Kemer	-11.2709
izleyebilirsiniz	-11.271
ilemez	-11.2712
▁dolandırdığın	-11.2714
▁harekat	-11.2714
▁bürün	-11.2714
▁titre	-11.2715
▁olduğumuzu	-11.2717
▁padişah	-11.2717
▁Sigara	-11.2717
▁Trakya	-11.2717
▁Bireysel	-11.2719
▁çalışanı	-11.272
▁Michael	-11.272
▁Bisiklet	-11.2721
▁yakaladı	-11.2722
▁hataları	-11.2723
zâ	-11.2723
▁tersi	-11.2723
▁tabanca	-11.2727
▁ruhunu	-11.273
▁Andre	-11.2731
▁çıkabilir	-11.2732
▁çekip	-11.2732
TAR	-11.2733
▁mum	-11.2733
▁Onay	-11.2733
▁lens	-11.2739
▁Yeter	-11.2742
▁yayımlandı	-11.2743
▁73	-11.2744
▁eklenmiş	-11.2745
▁hesabına	-11.2749
▁katılarak	-11.2751
▁seçeneğini	-11.2753
▁etmekten	-11.2753
▁listede	-11.2754
▁durumdur	-11.2754
▁dediğim	-11.2755
▁filminin	-11.2755
▁Uyku	-11.2755
HAN	-11.2756
▁mola	-11.2757
▁başvuruda	-11.2758
▁Spe	-11.2758
▁beklentisi	-11.2758
mazlar	-11.276
▁Mert	-11.2761
layınız	-11.2762
▁Eğlence	-11.2762
▁biriktir	-11.2764
▁Seviye	-11.2765
▁öğrendim	-11.2767
▁çekilmesi	-11.2767
▁sayısına	-11.2769
▁ikramiye	-11.2769
▁uğruna	-11.2769
▁kalmaya	-11.277
▁dolaylı	-11.277
▁kapsam	-11.277
▁süreleri	-11.277
▁inceledi	-11.2771
▁vadi	-11.2771
▁Alper	-11.2773
▁müzisyen	-11.2773
▁KHK	-11.2773
▁tümör	-11.2773
▁alıntı	-11.2774
No	-11.2781
▁Leyla	-11.2781
▁teorik	-11.2782
▁yalıtım	-11.2782
▁sütun	-11.2782
▁kullandığınız	-11.2782
▁Win	-11.2789
▁savunan	-11.2794
▁şimdilik	-11.2794
lıyım	-11.2795
▁iptali	-11.2795
▁hisseder	-11.2796
▁Gold	-11.2796
▁destan	-11.2797
▁Hesabı	-11.2797
▁rehberlik	-11.2797
▁konuşmacı	-11.2798
▁felsefesi	-11.2799
▁görüşmek	-11.2799
▁hastası	-11.28
▁oluruz	-11.2802
▁Buraya	-11.2803
▁direnci	-11.2806
▁tav	-11.2807
▁dikiş	-11.2809
▁geliştirilmiş	-11.2809
▁olanlara	-11.2812
▁senden	-11.2813
▁hazırladık	-11.2814
▁iniş	-11.2814
▁05066	-11.2815
▁Tekstil	-11.2815
27231	-11.2815
▁DERS	-11.2817
▁efendi	-11.2817
▁Belli	-11.2818
▁töreninde	-11.2819
▁KAP	-11.2819
▁kablosuz	-11.2823
▁Pencere	-11.2825
▁parfüm	-11.2825
▁sakla	-11.2827
▁Satın	-11.2827
▁rehberi	-11.2828
▁odasına	-11.2828
▁beşinci	-11.2828
▁Ulaşım	-11.2829
▁sektörüne	-11.283
▁Mis	-11.283
▁BİL	-11.2831
ary	-11.2831
▁Görü	-11.2832
▁olunur	-11.2832
▁İdlib	-11.2832
▁dilimi	-11.2833
▁çiçeği	-11.2835
▁kah	-11.2835
▁hijyen	-11.2836
▁olayda	-11.2837
▁özetle	-11.2839
▁belirler	-11.284
▁törenine	-11.2841
▁İşler	-11.2841
▁Aylık	-11.2841
▁bendi	-11.2841
lisiniz	-11.2843
[...]
