<unk>	0
<s>	0
</s>	0
.	-3.31618
,	-3.5259
▁ve	-4.21111
▁	-4.58077
▁bir	-4.61574
’	-5.00821
n	-5.08598
'	-5.19004
i	-5.20193
a	-5.29514
lar	-5.30224
ler	-5.33132
k	-5.344
▁bu	-5.46959
da	-5.48698
e	-5.51216
m	-5.51449
de	-5.52954
▁için	-5.53242
leri	-5.60319
▁de	-5.60329
▁ile	-5.60449
ları	-5.60546
▁da	-5.70369
ı	-5.73721
in	-5.74465
li	-5.76061
nin	-5.76858
si	-5.8394
s	-5.90804
ya	-5.91284
)	-5.92146
ın	-5.92228
-	-5.92266
t	-5.98605
▁olarak	-5.99594
▁(	-6.03223
la	-6.0595
nın	-6.0665
lı	-6.09078
▁Bu	-6.10153
na	-6.1282
le	-6.14762
ye	-6.15301
ne	-6.1607
▁çok	-6.17591
▁olan	-6.18656
:	-6.18828
l	-6.21445
sı	-6.26294
z	-6.27124
an	-6.28298
u	-6.28781
ma	-6.30208
▁en	-6.30392
y	-6.34067
▁daha	-6.37996
r	-6.39412
▁“	-6.40336
dan	-6.41051
den	-6.43387
lerin	-6.43532
...	-6.45602
ta	-6.45815
ni	-6.46526
▁gibi	-6.4835
ların	-6.48911
te	-6.49607
p	-6.51247
lik	-6.55371
”	-6.59164
di	-6.60464
d	-6.6168
en	-6.6237
;	-6.65156
▁kadar	-6.66886
▁her	-6.68156
ki	-6.6846
dir	-6.68895
?	-6.73911
▁"	-6.74825
▁A	-6.76825
me	-6.77267
▁sonra	-6.78213
▁S	-6.78683
nda	-6.79002
un	-6.79124
lık	-6.84309
▁ise	-6.84451
▁o	-6.84826
dır	-6.86205
▁yer	-6.87434
larını	-6.87713
nde	-6.88053
▁Türkiye	-6.88063
▁ne	-6.88316
lerini	-6.88942
▁-	-6.89403
lere	-6.93108
"	-6.93665
lara	-6.9391
▁var	-6.94404
▁veya	-6.95519
yi	-6.95811
▁ya	-6.97681
h	-6.99382
nı	-7.00452
sa	-7.01568
▁1	-7.0176
ü	-7.02416
S	-7.03155
lu	-7.03627
ca	-7.03888
im	-7.04117
f	-7.04767
/	-7.0493
yı	-7.05062
er	-7.05483
▁ki	-7.05962
▁zaman	-7.05986
▁göre	-7.05997
o	-7.06867
c	-7.07446
▁büyük	-7.07534
▁yeni	-7.08297
ş	-7.08727
▁tarafından	-7.0894
▁2	-7.10549
ti	-7.13313
▁iyi	-7.14421
ir	-7.15479
g	-7.15931
▁O	-7.17921
▁3	-7.17973
▁olduğu	-7.18265
▁T	-7.20278
al	-7.20725
▁ilk	-7.21132
b	-7.2122
▁K	-7.2183
tan	-7.21866
K	-7.22284
ini	-7.22834
B	-7.2292
mak	-7.23387
larda	-7.23852
larının	-7.23996
se	-7.2405
▁B	-7.24152
▁Bir	-7.24357
re	-7.24621
ar	-7.25762
M	-7.26221
ır	-7.27411
▁iş	-7.287
▁şekilde	-7.29291
▁tüm	-7.2948
lerinin	-7.30058
tı	-7.303
A	-7.30314
▁ilgili	-7.30338
D	-7.30959
lerde	-7.30963
▁ama	-7.31231
yle	-7.32237
ra	-7.3365
at	-7.33859
yla	-7.34617
▁iki	-7.35184
ce	-7.35494
!	-7.36039
lerine	-7.36231
T	-7.36751
▁son	-7.37201
▁E	-7.3751
larına	-7.3786
▁karşı	-7.38071
ri	-7.38097
▁devam	-7.3832
ine	-7.38906
▁C	-7.39268
▁olduğunu	-7.39428
nun	-7.40655
dı	-7.4112
ını	-7.41799
▁gün	-7.41972
arak	-7.42567
P	-7.42865
▁önce	-7.43023
▁19	-7.43109
▁yıl	-7.43897
▁Türk	-7.45608
ten	-7.46113
C	-7.46271
ci	-7.46819
v	-7.47095
▁M	-7.47118
ç	-7.4724
el	-7.47476
▁değil	-7.4759
▁içinde	-7.47758
mış	-7.47885
um	-7.47987
▁arasında	-7.48171
▁4	-7.48724
▁önemli	-7.48731
▁P	-7.49269
inde	-7.4934
▁fazla	-7.49976
▁alan	-7.5011
il	-7.50285
ur	-7.51047
ndan	-7.51498
▁hem	-7.51845
mi	-7.52151
G	-7.52908
▁kendi	-7.53359
larında	-7.53822
acak	-7.53961
▁sahip	-7.5428
▁diğer	-7.55118
lan	-7.55154
▁su	-7.55527
cı	-7.5556
▁birlikte	-7.56493
lama	-7.56616
tir	-7.57334
du	-7.57367
▁5	-7.57388
miz	-7.58173
▁İstanbul	-7.58921
O	-7.59838
▁D	-7.59849
▁güzel	-7.59877
ken	-7.60384
sine	-7.60926
▁diye	-7.6109
▁aynı	-7.61832
sini	-7.62017
lerden	-7.62469
▁10	-7.62805
▁G	-7.63195
man	-7.6324
miş	-7.63388
bi	-7.64238
▁hizmet	-7.6456
nden	-7.64807
lerinde	-7.64877
▁eden	-7.64892
daki	-7.65081
E	-7.65209
İ	-7.65321
▁mi	-7.65369
sını	-7.65985
ması	-7.66121
▁yapılan	-7.6619
mek	-7.66276
▁az	-7.66617
▁oldu	-7.67052
▁özel	-7.6706
ka	-7.67313
su	-7.67856
lardan	-7.68426
ğ	-7.68497
F	-7.6854
ün	-7.68722
tır	-7.69451
▁e	-7.70557
lü	-7.70716
▁gelen	-7.70753
▁bin	-7.71992
▁farklı	-7.72109
▁an	-7.72356
▁F	-7.72764
▁Başkanı	-7.73873
çi	-7.73966
liği	-7.75076
▁a	-7.75139
▁tek	-7.76233
▁bulunan	-7.76234
▁olmak	-7.76851
▁yok	-7.77018
▁doğru	-7.77848
niz	-7.78004
▁sadece	-7.78048
lığı	-7.78237
lerinden	-7.78535
▁dedi	-7.78671
▁ay	-7.78844
ıyor	-7.79102
▁bile	-7.79572
▁at	-7.79886
Y	-7.79906
ul	-7.80251
larla	-7.80521
▁al	-7.80544
▁ben	-7.8056
sel	-7.80693
▁İ	-7.80717
dur	-7.81273
▁şey	-7.81628
lerle	-7.81843
ip	-7.82167
▁bilgi	-7.82307
sinde	-7.82347
luk	-7.82582
▁6	-7.82595
▁olması	-7.82869
ına	-7.82955
ge	-7.83027
▁uygun	-7.83144
ak	-7.83583
▁göz	-7.83693
▁ev	-7.8378
ik	-7.83883
ecek	-7.84187
▁kullan	-7.85166
I	-7.85468
deki	-7.85925
▁nasıl	-7.86529
iz	-7.86569
▁eğitim	-7.87128
▁yüksek	-7.87153
ım	-7.87308
▁başka	-7.87412
mız	-7.8786
▁el	-7.87902
▁üzere	-7.88085
ba	-7.88494
inin	-7.88623
it	-7.88765
siz	-7.88793
▁yol	-7.8964
ha	-7.90092
ında	-7.90284
tik	-7.90549
sına	-7.90802
H	-7.90953
▁s	-7.91064
2	-7.91144
▁karar	-7.91455
▁Y	-7.91631
▁Genel	-7.92222
▁açık	-7.92414
erek	-7.92453
▁para	-7.92721
▁‘	-7.92754
larından	-7.93057
▁olur	-7.93691
L	-7.93925
▁H	-7.94063
▁yılında	-7.94392
▁üzerine	-7.94588
▁saat	-7.94662
▁De	-7.94877
▁kişi	-7.95024
▁7	-7.9526
▁Ak	-7.96204
iyor	-7.96381
▁biri	-7.96393
maya	-7.96995
▁üzerinde	-7.97511
sin	-7.97568
1	-7.97602
mesi	-7.97672
▁insan	-7.98095
ö	-7.98234
sinin	-7.98528
▁etti	-7.98554
x	-7.98626
▁çıkar	-7.99457
abilir	-7.9958
▁iç	-7.99727
▁süre	-7.99847
va	-8.00098
be	-8.00165
▁bütün	-8.00626
▁I	-8.01074
leme	-8.0111
▁:	-8.01161
▁in	-8.01304
▁i	-8.01394
▁k	-8.01413
▁ifade	-8.0211
▁b	-8.02112
▁En	-8.02675
▁hakkında	-8.02995
▁uzun	-8.03073
▁m	-8.03183
ol	-8.03254
U	-8.03315
▁söz	-8.03505
sız	-8.03931
za	-8.04168
▁Ç	-8.0462
▁Ve	-8.04896
5	-8.05032
nu	-8.05706
â	-8.05915
▁ek	-8.06047
▁çalışma	-8.06264
▁Allah	-8.06565
▁destek	-8.06576
î	-8.0658
▁Sa	-8.06589
ve	-8.06735
▁Ne	-8.06797
▁15	-8.069
yan	-8.07048
▁yakın	-8.07253
sal	-8.07744
▁ara	-8.07868
▁kabul	-8.08203
kan	-8.08594
maktadır	-8.08784
▁Her	-8.08891
▁yaz	-8.08958
▁U	-8.0896
on	-8.09283
zi	-8.09409
ıp	-8.09478
▁ortaya	-8.09796
ke	-8.10213
uz	-8.10462
▁olacak	-8.10549
▁yap	-8.10717
iş	-8.10737
▁neden	-8.1112
▁yapı	-8.11125
▁içerisinde	-8.11157
com	-8.11289
sında	-8.11325
▁8	-8.11754
▁kat	-8.11795
lo	-8.11915
▁hiç	-8.12522
▁yüzde	-8.1256
oğlu	-8.13067
▁#	-8.13107
N	-8.13372
▁bazı	-8.13634
ay	-8.13783
▁edilen	-8.1401
▁yazı	-8.1403
ro	-8.1415
mektedir	-8.14178
R	-8.14246
len	-8.14246
muş	-8.14358
et	-8.14547
3	-8.14573
▁Er	-8.1518
▁sıra	-8.15425
▁hazır	-8.1543
ıl	-8.15548
▁şu	-8.15628
00	-8.15687
▁hava	-8.15854
▁geri	-8.15984
ının	-8.16441
çı	-8.16475
▁20	-8.16488
▁Ma	-8.16518
▁Me	-8.16673
▁etme	-8.16783
▁konusunda	-8.16833
min	-8.17015
▁geç	-8.17206
vi	-8.17543
▁yapan	-8.18005
▁n	-8.18084
▁Al	-8.1833
diği	-8.19094
ter	-8.19159
▁Ben	-8.19201
▁ediyor	-8.19384
▁dikkat	-8.19474
or	-8.19622
V	-8.19721
gi	-8.19925
▁aç	-8.19987
▁/	-8.20146
tu	-8.20174
▁f	-8.2035
▁Ya	-8.20429
▁Ancak	-8.21191
▁konu	-8.21527
▁Yeni	-8.21609
çe	-8.21614
▁kız	-8.21682
st	-8.21814
▁–	-8.22088
▁tam	-8.22155
▁yerine	-8.22321
▁Re	-8.22676
▁Se	-8.23065
unu	-8.23093
▁12	-8.23125
▁9	-8.23392
sının	-8.23702
▁İl	-8.23905
nız	-8.24169
▁ancak	-8.24271
▁etmek	-8.2445
▁Üniversitesi	-8.24488
▁mu	-8.24547
▁ardından	-8.24594
▁günü	-8.24633
ek	-8.24746
▁Eğitim	-8.24923
ül	-8.24927
yu	-8.2592
▁g	-8.25985
▁görev	-8.26397
▁il	-8.26934
ılan	-8.27095
us	-8.27218
▁Avrupa	-8.27529
▁%	-8.27746
▁mı	-8.27863
▁kadın	-8.2793
▁yaptığı	-8.27974
4	-8.28043
▁do	-8.28167
▁bak	-8.28314
▁vardır	-8.28427
▁2018	-8.28445
▁bağlı	-8.28631
▁Dr	-8.28652
ebilir	-8.28684
▁ön	-8.28758
▁böyle	-8.2893
dığı	-8.29037
▁p	-8.29287
▁geldi	-8.29298
▁hafta	-8.29362
▁yayın	-8.29451
▁baş	-8.29457
▁'	-8.29704
is	-8.2982
ga	-8.29958
▁proje	-8.29963
▁ülke	-8.30393
▁re	-8.30509
▁olma	-8.30974
▁birçok	-8.31186
ağı	-8.31358
▁benim	-8.31384
(	-8.3167
▁genç	-8.31833
ad	-8.32058
▁altında	-8.32237
fa	-8.32467
dim	-8.32529
▁tercih	-8.32625
▁kez	-8.32664
▁kısa	-8.32853
▁üst	-8.3307
▁kar	-8.33237
▁site	-8.33352
▁olabilir	-8.33353
▁durum	-8.33358
ý	-8.3351
ut	-8.33644
Ş	-8.34273
▁na	-8.34511
▁size	-8.3453
▁Ankara	-8.34552
▁hedef	-8.34907
▁olup	-8.34929
▁artık	-8.34993
▁hareket	-8.35396
han	-8.35513
▁eski	-8.35863
ey	-8.35899
▁milyon	-8.36158
▁gelir	-8.36243
▁yine	-8.363
sun	-8.3671
▁çalışan	-8.36714
▁geçen	-8.36728
▁hemen	-8.36828
▁ak	-8.36842
iye	-8.36877
▁ABD	-8.37276
▁konusu	-8.37586
▁dünya	-8.37749
ça	-8.37762
os	-8.37884
do	-8.38344
▁kal	-8.38426
▁gerçek	-8.38927
▁aile	-8.38989
es	-8.39099
▁sosyal	-8.393
to	-8.39394
▁ait	-8.3941
▁N	-8.39484
▁Ama	-8.39808
▁olsun	-8.40057
▁18	-8.40077
▁yanı	-8.40086
▁üç	-8.40469
▁uygulama	-8.40503
▁gece	-8.40666
▁Di	-8.40735
▁zamanda	-8.40898
Ç	-8.41076
▁soru	-8.4113
▁...	-8.41138
▁oyun	-8.41204
▁küçük	-8.41493
▁söyledi	-8.416
▁TL	-8.41632
▁İş	-8.41813
▁r	-8.41835
▁Ay	-8.42282
▁|	-8.42395
ici	-8.42495
▁1.	-8.42549
ıcı	-8.42578
▁ayrı	-8.42715
▁gereken	-8.43102
▁Belediye	-8.43143
▁hiçbir	-8.43252
ber	-8.43322
▁yapmak	-8.43332
ev	-8.43641
▁Ş	-8.43932
meye	-8.4397
▁Dünya	-8.44035
▁çocuk	-8.44104
▁Kara	-8.4417
▁Su	-8.44271
▁etki	-8.44854
cu	-8.44905
▁film	-8.45016
▁bunu	-8.45034
▁ma	-8.45087
▁tarihi	-8.45311
▁üzerinden	-8.45315
▁ana	-8.45398
▁biz	-8.45449
▁göster	-8.45503
▁veren	-8.45521
	-8.45601
▁ince	-8.45681
▁pek	-8.45838
▁Ayrıca	-8.4595
▁gerek	-8.46128
▁haber	-8.46136
▁ürün	-8.46278
ran	-8.46303
▁tür	-8.46507
▁zor	-8.46631
▁kolay	-8.46635
▁bırak	-8.46639
mı	-8.46685
▁Kurulu	-8.46814
▁R	-8.46823
.”	-8.46903
▁oldukça	-8.46995
j	-8.47217
▁ziyaret	-8.47381
sın	-8.47447
▁V	-8.47531
▁Ev	-8.47581
▁yapma	-8.47757
▁Son	-8.47775
]	-8.4778
▁temel	-8.4823
▁bi	-8.48291
ılması	-8.48296
ık	-8.48328
lay	-8.48348
Ü	-8.4836
▁yan	-8.4837
▁L	-8.48391
▁genel	-8.48545
▁izle	-8.48622
ch	-8.48972
▁Ka	-8.49129
▁14	-8.49207
▁Biz	-8.49263
▁çalış	-8.49693
▁ilişkin	-8.49801
▁sahibi	-8.49806
san	-8.49823
▁te	-8.50148
▁kontrol	-8.50484
▁c	-8.50659
ız	-8.50823
▁kaç	-8.50851
▁devlet	-8.50922
▁seçim	-8.51028
ür	-8.51159
▁Ha	-8.51214
luğu	-8.51262
ıldı	-8.51303
▁yönelik	-8.51492
▁alma	-8.51633
▁mücadele	-8.51742
▁mü	-8.52106
mıştır	-8.52139
▁tekrar	-8.52197
larıyla	-8.52274
ko	-8.52421
▁nedeniyle	-8.52582
▁kitap	-8.52648
▁d	-8.52723
am	-8.52752
▁elde	-8.52774
▁Öz	-8.52879
şe	-8.52882
layan	-8.53175
▁30	-8.5327
7	-8.53562
▁et	-8.53607
nizi	-8.53618
ver	-8.53626
▁kur	-8.53644
▁takip	-8.53777
▁Daha	-8.53784
▁ka	-8.53932
▁eder	-8.53938
maz	-8.54082
▁kapsamında	-8.54207
▁biraz	-8.54212
bu	-8.54296
dik	-8.54304
▁başladı	-8.54354
­	-8.54398
▁özellikle	-8.54453
bo	-8.5451
as	-8.54638
▁değer	-8.54722
mez	-8.54793
kar	-8.54886
leriyle	-8.54967
lük	-8.55073
▁onu	-8.55282
▁t	-8.5549
▁ders	-8.55497
▁An	-8.55525
."	-8.55552
▁derece	-8.55672
sanız	-8.5573
ck	-8.55731
▁Kur	-8.55743
miştir	-8.55782
▁tak	-8.55819
▁ikinci	-8.56032
▁hak	-8.56192
▁parça	-8.56199
▁oluyor	-8.56227
nce	-8.5625
Ö	-8.5637
▁kan	-8.5656
▁oda	-8.56586
▁ulaş	-8.56617
let	-8.56646
▁okul	-8.56651
▁adam	-8.56965
▁herhangi	-8.5707
▁edin	-8.57257
iyet	-8.57273
▁anlat	-8.57429
▁16	-8.5744
▁Bakanlığı	-8.57505
inden	-8.57513
▁2.	-8.57737
▁13	-8.57756
▁almak	-8.57804
▁bana	-8.57994
hi	-8.5813
ret	-8.58194
▁ver	-8.5825
▁dışında	-8.5828
▁internet	-8.58333
imi	-8.58513
▁burada	-8.58618
▁2017	-8.58784
▁program	-8.58891
▁adı	-8.58964
ılmış	-8.59005
▁dolayı	-8.59038
▁ta	-8.59204
▁verdi	-8.59331
▁El	-8.59456
abilirsiniz	-8.59458
▁ba	-8.59555
▁Ta	-8.59578
der	-8.59662
▁bas	-8.59717
▁plan	-8.59805
▁hasta	-8.59841
ladı	-8.59849
▁telefon	-8.59877
▁din	-8.60006
▁kap	-8.60049
ilmesi	-8.6016
▁gönder	-8.60167
ist	-8.60186
yet	-8.60188
▁bugün	-8.60286
▁güç	-8.60333
▁yardımcı	-8.60547
▁olmayan	-8.60554
▁çeşitli	-8.60745
▁Müdürlüğü	-8.60779
up	-8.60913
lanan	-8.60927
▁Be	-8.60932
▁er	-8.60965
ze	-8.61157
dım	-8.6117
▁çıkan	-8.61316
w	-8.61387
▁bunun	-8.61411
▁fotoğraf	-8.61527
▁şehir	-8.61822
ünü	-8.61989
▁araç	-8.62173
▁olsa	-8.62254
▁W	-8.62638
ış	-8.62747
▁gerekli	-8.62889
▁dil	-8.63105
Bu	-8.63144
ör	-8.6318
▁11	-8.63289
▁yeniden	-8.63355
ing	-8.63714
▁ettiği	-8.6377
▁halinde	-8.63785
▁onun	-8.63969
▁sene	-8.64005
▁Belediyesi	-8.64059
▁Başkan	-8.64184
▁ortak	-8.64206
6	-8.64314
▁sağlık	-8.64448
fi	-8.64499
▁sistem	-8.64545
▁Çünkü	-8.64685
8	-8.64876
ucu	-8.64911
▁Ba	-8.65082
▁beraber	-8.65104
▁kazan	-8.65193
tur	-8.65219
▁değildir	-8.65398
▁ses	-8.65561
0	-8.65567
▁Erdoğan	-8.65717
▁sık	-8.65769
▁yani	-8.65788
▁takım	-8.65885
▁fiyat	-8.65927
ydi	-8.65944
▁çevre	-8.65993
lanma	-8.6603
▁müşteri	-8.66124
▁alın	-8.66161
▁Bunun	-8.66215
▁İlk	-8.66286
mayı	-8.66751
▁di	-8.66803
▁imza	-8.66939
yo	-8.67017
met	-8.67045
van	-8.67251
ilen	-8.67305
ed	-8.67312
▁giriş	-8.67703
▁yorum	-8.67778
▁siz	-8.67853
▁hızlı	-8.67954
▁z	-8.68074
▁Ar	-8.68157
▁Parti	-8.68159
▁yaş	-8.68284
▁sağ	-8.6829
▁ödeme	-8.68418
tar	-8.68495
▁fark	-8.68519
▁bizim	-8.68708
▁aldı	-8.68999
ılır	-8.69075
▁mümkün	-8.69089
▁talep	-8.69107
▁yanında	-8.6938
▁rağmen	-8.69402
▁adet	-8.69528
▁17	-8.6956
ru	-8.69702
▁durumda	-8.6997
▁va	-8.70074
tr	-8.70126
▁La	-8.70189
per	-8.70206
▁teknik	-8.70349
dür	-8.70368
leşme	-8.70462
spor	-8.70467
▁başvuru	-8.70527
▁konuşma	-8.70558
iyle	-8.70583
▁Te	-8.70629
10	-8.70802
▁renk	-8.71062
▁ilgi	-8.71178
ren	-8.7128
þ	-8.7132
lat	-8.7132
▁dakika	-8.7139
▁geçir	-8.71427
),	-8.71497
▁sürekli	-8.71641
▁sayfa	-8.71687
▁Merkezi	-8.71963
▁yemek	-8.72082
▁faaliyet	-8.72111
▁Mü	-8.72113
üm	-8.72142
▁top	-8.72318
▁iddia	-8.72545
ot	-8.72682
ilir	-8.72706
▁seç	-8.72738
imiz	-8.73029
▁sayesinde	-8.7332
▁adım	-8.73322
▁0	-8.73391
▁Mi	-8.73551
ah	-8.73686
▁sa	-8.73739
▁Ali	-8.73782
ktan	-8.7383
dü	-8.73905
▁dile	-8.73917
▁gir	-8.73932
diğini	-8.74062
▁hizmeti	-8.74112
▁yüz	-8.74143
▁boyunca	-8.74171
▁gerçekleştir	-8.74216
▁yaptı	-8.74248
pa	-8.74275
▁Eğer	-8.74414
▁enerji	-8.74521
▁yaşam	-8.74607
▁24	-8.74759
▁2016	-8.74836
▁yardım	-8.74842
men	-8.74862
AN	-8.7487
▁türlü	-8.74885
▁hep	-8.74897
▁Li	-8.7498
▁yatırım	-8.75089
▁as	-8.75184
siniz	-8.75232
▁sayılı	-8.7529
lenen	-8.76076
▁getir	-8.76338
▁Ke	-8.76358
▁geniş	-8.76416
▁kaldır	-8.76445
mu	-8.76581
▁Ra	-8.76613
▁hangi	-8.76643
▁Ko	-8.76731
▁şeklinde	-8.76807
▁y	-8.76839
▁erkek	-8.76898
tim	-8.76961
▁gerekir	-8.77007
▁marka	-8.77094
▁sistemi	-8.77126
▁25	-8.77333
▁açıklama	-8.77351
▁çıktı	-8.77383
ton	-8.77387
tü	-8.77409
no	-8.77571
▁kötü	-8.77762
▁verilen	-8.77784
▁dönem	-8.77944
mo	-8.78006
ebilirsiniz	-8.78019
▁yaklaşık	-8.78142
▁anda	-8.78161
dığını	-8.78182
siyle	-8.78225
▁sonucu	-8.78489
▁alt	-8.78512
▁ke	-8.78526
yen	-8.78768
▁bulun	-8.7881
▁kon	-8.78875
▁tarihinde	-8.78998
▁bize	-8.7904
▁sorun	-8.79082
▁paylaş	-8.79099
▁ederek	-8.79157
▁Kar	-8.79179
yim	-8.79226
▁ona	-8.79408
▁öğren	-8.79524
▁tarih	-8.79549
nızı	-8.79646
ndaki	-8.79722
▁verme	-8.7974
▁konuştu	-8.80126
▁görüntü	-8.80258
▁hale	-8.80307
lenmesi	-8.80674
▁teknoloji	-8.80754
▁parti	-8.81033
▁bul	-8.81202
bir	-8.81334
▁Kasım	-8.81349
▁madde	-8.81351
▁beni	-8.8141
▁Milli	-8.81436
▁saç	-8.81463
50	-8.81482
▁grup	-8.8159
▁uzman	-8.81639
▁Do	-8.81689
▁ar	-8.81764
▁Z	-8.81923
▁bulunduğu	-8.8204
▁sat	-8.82088
▁Na	-8.82114
▁savaş	-8.82286
▁hesap	-8.82361
9	-8.82395
▁insanlar	-8.82425
bet	-8.82445
net	-8.82466
İN	-8.82466
▁kır	-8.82488
pe	-8.82545
▁kapı	-8.82617
▁sev	-8.82631
EN	-8.82821
▁Anadolu	-8.82892
▁Baş	-8.83045
lanması	-8.83084
sinden	-8.83137
▁tespit	-8.83144
▁nedenle	-8.83209
▁Özel	-8.83388
go	-8.83445
▁fa	-8.83573
▁olacaktır	-8.83632
▁Devlet	-8.83669
▁spor	-8.83685
▁tasarım	-8.83758
leyen	-8.83806
lak	-8.84005
▁hayat	-8.84033
▁rahat	-8.8411
▁l	-8.84129
▁Mo	-8.84149
ınız	-8.84159
▁kaynak	-8.84252
▁ihtiyaç	-8.84378
▁kes	-8.84705
▁sizin	-8.84725
▁inan	-8.84732
▁Mehmet	-8.84866
▁indir	-8.8496
▁çek	-8.84967
▁Spor	-8.85033
▁şimdi	-8.85104
▁ele	-8.85104
▁nokta	-8.85118
nün	-8.85374
▁yoğun	-8.85418
lerimiz	-8.85466
▁kurum	-8.85487
▁yağ	-8.855
yor	-8.85542
▁konuda	-8.85558
▁kalan	-8.8556
▁zarar	-8.85682
▁yapılacak	-8.85687
▁sen	-8.85723
he	-8.85727
▁Çok	-8.85785
rken	-8.85806
ER	-8.85866
yum	-8.85884
▁ye	-8.8591
▁canlı	-8.85921
▁araştırma	-8.85925
ap	-8.85937
▁İzmir	-8.86154
▁*	-8.86166
gu	-8.86178
▁bölge	-8.86252
▁me	-8.86264
▁işlem	-8.86339
hane	-8.8637
▁görme	-8.86541
▁Temmuz	-8.86618
▁maç	-8.86814
▁öğrenci	-8.86826
▁adına	-8.86865
▁sayısı	-8.86932
▁cevap	-8.87008
una	-8.87082
▁öğretmen	-8.87154
ük	-8.8717
▁toplam	-8.87346
▁100	-8.8744
▁verdiği	-8.87458
▁u	-8.87466
▁servis	-8.87558
▁örnek	-8.87659
20	-8.87659
▁olay	-8.87716
▁üniversite	-8.8776
▁mal	-8.87766
nca	-8.87913
▁lira	-8.87921
▁gider	-8.87921
ydı	-8.8796
▁Kendi	-8.87978
▁gör	-8.88041
▁tedavi	-8.88092
▁Ara	-8.88187
ıyla	-8.88221
▁sayı	-8.88234
▁Eylül	-8.88255
muz	-8.88351
av	-8.88404
fe	-8.88443
▁Tüm	-8.88561
▁düzen	-8.88567
▁toplum	-8.88603
ası	-8.88613
▁edilmesi	-8.88677
kı	-8.88697
▁şöyle	-8.887
▁yarat	-8.88775
▁anne	-8.89033
▁sonuç	-8.89037
▁geliyor	-8.89093
▁kayıt	-8.89147
lendir	-8.89169
▁görüş	-8.89361
▁satış	-8.8949
▁kredi	-8.89571
▁oluştur	-8.89642
▁iste	-8.89699
▁taraf	-8.89864
ıyoruz	-8.89869
▁üretim	-8.89943
▁düzenlenen	-8.90017
▁veri	-8.90149
▁işçi	-8.90242
▁dosya	-8.90247
▁sırasında	-8.90309
▁video	-8.90318
can	-8.90501
id	-8.90601
▁başarı	-8.90665
▁Le	-8.9072
▁model	-8.90723
▁izin	-8.90829
suz	-8.9086
▁isteyen	-8.90862
▁kim	-8.91033
şa	-8.91045
▁ç	-8.91092
▁üye	-8.91151
▁Si	-8.91161
▁belli	-8.9117
▁açısından	-8.91236
▁kullanılan	-8.91268
son	-8.91519
▁be	-8.91713
ll	-8.91774
▁As	-8.91815
eceği	-8.91933
acağı	-8.91963
▁ilişki	-8.9203
▁çık	-8.9214
larımız	-8.92143
▁ha	-8.92194
sıyla	-8.92231
dık	-8.92297
▁güven	-8.92418
▁otel	-8.92443
▁oy	-8.9246
sınız	-8.92509
▁tanı	-8.92509
▁kimse	-8.92539
▁No	-8.92622
▁varsa	-8.92626
▁güçlü	-8.92703
▁AK	-8.92712
asyon	-8.92784
▁dış	-8.92974
▁çözüm	-8.9298
▁kararı	-8.9299
▁Cumhurbaşkanı	-8.93011
▁sonunda	-8.93028
▁orta	-8.93071
▁dahil	-8.93227
▁itibaren	-8.93273
▁2015	-8.93347
▁yönetim	-8.93381
▁gerekiyor	-8.93385
▁Bey	-8.93454
▁sizi	-8.93848
gen	-8.9397
unun	-8.94031
▁bayan	-8.94043
▁iz	-8.9409
▁bölüm	-8.94203
▁ayrıca	-8.94283
▁kalma	-8.9441
▁Ekim	-8.94414
lüğü	-8.94734
ından	-8.94763
▁önem	-8.94815
▁kay	-8.9483
▁başarılı	-8.9485
mizi	-8.94936
▁oyuncu	-8.95065
▁firma	-8.95128
▁sitesi	-8.95162
oz	-8.95306
▁aldığı	-8.95396
iniz	-8.95398
tal	-8.95512
▁Mustafa	-8.95521
▁teslim	-8.9557
▁vardı	-8.95579
▁merkezi	-8.95684
▁düşünce	-8.95697
if	-8.95725
▁belir	-8.95737
▁kişinin	-8.96023
unda	-8.96122
co	-8.96146
▁Ol	-8.96155
▁banka	-8.96198
mıştı	-8.96205
landı	-8.96216
az	-8.96354
▁Fa	-8.96417
▁say	-8.96437
▁öyle	-8.96451
▁ekran	-8.96496
▁teşekkür	-8.96502
▁bağ	-8.96526
▁Gün	-8.96583
▁ceza	-8.96595
▁işaret	-8.96682
▁mutlu	-8.96724
▁edecek	-8.96755
▁ilçe	-8.96874
▁web	-8.96953
tığı	-8.96986
▁Ni	-8.97032
▁So	-8.97067
▁dön	-8.97338
▁çalışmaları	-8.97412
▁tut	-8.97422
▁gelecek	-8.97449
▁ciddi	-8.9755
▁[	-8.97661
▁yeterli	-8.97664
▁Mart	-8.97674
acaktır	-8.9778
▁bulundu	-8.97781
nıza	-8.97782
▁se	-8.97834
▁Bakanı	-8.9785
▁doğal	-8.9791
tor	-8.97999
sen	-8.98009
▁3.	-8.98051
dem	-8.98175
▁aday	-8.98205
▁der	-8.98247
▁Kal	-8.98287
madan	-8.98408
▁Ö	-8.98465
▁Ek	-8.98679
▁engel	-8.98713
ama	-8.98726
▁sanat	-8.98738
▁amacıyla	-8.98823
▁puan	-8.98838
AR	-8.99095
▁saldırı	-8.99111
▁yılı	-8.99123
▁işi	-8.99155
▁yana	-8.99192
▁Haziran	-8.99234
▁süreci	-8.99238
▁olmadığı	-8.99397
▁içi	-8.99618
▁yıllık	-8.99727
30	-8.99741
▁Yönetim	-8.99793
▁50	-8.99796
▁2014	-8.99799
▁polis	-8.99804
▁Ro	-8.99864
▁yara	-8.99871
▁arka	-8.99899
abilecek	-8.99975
▁Büyük	-8.9998
▁hakkı	-9.00001
▁Prof	-9.00069
▁gel	-9.00161
▁güvenlik	-9.00268
▁Bil	-9.00325
▁Yap	-9.00357
▁büyü	-9.00454
▁meydana	-9.00461
▁sınav	-9.00496
▁kullanım	-9.00499
▁bakım	-9.00583
▁can	-9.00621
▁istiyorum	-9.00657
rim	-9.00686
▁Ü	-9.00702
IN	-9.00746
▁sınıf	-9.00768
Z	-9.00889
▁edildi	-9.00914
▁ağır	-9.01159
▁geliştir	-9.0129
▁ücret	-9.01356
▁edilir	-9.0145
▁To	-9.015
▁Po	-9.01533
▁dizi	-9.01546
▁Bilgi	-9.0157
▁taş	-9.01643
aj	-9.01662
iyoruz	-9.01671
miyor	-9.01709
▁ter	-9.01748
▁h	-9.01805
▁yolu	-9.01881
▁koy	-9.01968
▁arkadaş	-9.02016
kten	-9.02038
mda	-9.02141
▁Mayıs	-9.02159
op	-9.02204
▁arama	-9.02253
▁oluşan	-9.02322
▁yerde	-9.02346
lenme	-9.02452
nü	-9.02457
▁oyna	-9.02463
▁şarkı	-9.02497
▁baskı	-9.02574
▁ister	-9.02591
▁21	-9.02602
▁Sosyal	-9.03004
liğini	-9.03007
sü	-9.03142
12	-9.03152
▁tamamen	-9.03197
▁Bo	-9.03236
eği	-9.0343
▁bulunmaktadır	-9.03451
masını	-9.03483
lığa	-9.035
▁dava	-9.03604
▁kamu	-9.03641
▁durumu	-9.03689
▁Ho	-9.03746
ho	-9.03756
EK	-9.03763
▁Orta	-9.0377
▁kas	-9.0383
meyen	-9.03956
uş	-9.03963
▁arasındaki	-9.03979
▁sohbet	-9.04039
mize	-9.04106
▁kendini	-9.04111
▁diyor	-9.04126
▁Sağlık	-9.04243
▁ko	-9.04581
ilmiş	-9.04693
▁ekonomik	-9.04785
▁Tek	-9.04794
▁katkı	-9.04837
▁değerlendirme	-9.04918
▁yanlış	-9.04997
▁alıyor	-9.05057
lâ	-9.05167
tör	-9.05191
▁mevcut	-9.05192
▁dolu	-9.0522
laşma	-9.05445
▁oku	-9.05484
▁yüzden	-9.05496
▁alanında	-9.05497
ndeki	-9.05572
ımız	-9.05579
▁giy	-9.05742
▁dayan	-9.05764
▁Da	-9.05773
▁suç	-9.05984
▁düzenleme	-9.06038
▁San	-9.06099
▁yapılması	-9.06141
ecektir	-9.06179
▁sar	-9.0619
tay	-9.06244
▁İnsan	-9.06319
po	-9.06349
▁yasa	-9.06358
dar	-9.06427
▁Mar	-9.06503
▁kaliteli	-9.06519
şi	-9.06567
û	-9.06614
▁çal	-9.06643
▁çünkü	-9.06687
▁iletişim	-9.06692
▁Büyükşehir	-9.06711
▁önünde	-9.06776
▁sizlere	-9.06803
▁ol	-9.06872
▁aktar	-9.07088
▁kara	-9.07134
▁Türkçe	-9.07135
rak	-9.0717
▁temiz	-9.0717
üp	-9.07176
▁dönemde	-9.07262
▁Özellikle	-9.07268
▁Bugün	-9.07312
üs	-9.07317
pi	-9.07411
ger	-9.07443
▁so	-9.07482
sta	-9.07548
▁yabancı	-9.07559
▁esas	-9.07575
mer	-9.07596
▁Vi	-9.07635
▁hata	-9.07793
▁mesaj	-9.07835
mizin	-9.07867
ılma	-9.07869
▁bilgiler	-9.07906
▁çalışmalar	-9.07918
▁Hi	-9.07997
ic	-9.08085
AK	-9.08105
liğe	-9.08111
▁fakat	-9.08164
▁toplantı	-9.08377
▁Gül	-9.08424
ste	-9.08425
▁ileri	-9.08463
▁yoktur	-9.08511
▁kullanıcı	-9.08527
▁Atatürk	-9.08659
▁satın	-9.08668
▁bahis	-9.08686
▁akşam	-9.08787
▁kapat	-9.08822
W	-9.08825
▁haline	-9.08833
teki	-9.0888
▁numara	-9.09091
ket	-9.09159
tür	-9.09232
ku	-9.09235
laş	-9.0934
▁on	-9.09358
mızı	-9.09407
▁Müdürü	-9.09412
▁başlayan	-9.09513
ağa	-9.09565
▁basın	-9.09698
▁dolar	-9.09705
▁oluş	-9.09723
▁hayvan	-9.09894
▁fiyatları	-9.09949
tma	-9.10092
▁işletme	-9.10184
▁günlük	-9.10217
lek	-9.10227
lim	-9.10313
▁birkaç	-9.10336
▁Şimdi	-9.1041
▁23	-9.10442
▁Pe	-9.10476
▁ayında	-9.10533
▁programı	-9.10594
nızda	-9.10665
lardır	-9.1081
▁hoş	-9.10832
▁İşte	-9.10857
е	-9.10898
▁san	-9.10924
▁arada	-9.1098
▁İlçe	-9.10992
▁CHP	-9.11009
▁22	-9.11055
▁Kültür	-9.11121
▁ga	-9.1121
▁resmi	-9.11218
▁Cumhuriyet	-9.1123
▁tavsiye	-9.11237
▁sonrası	-9.11244
▁bina	-9.11265
las	-9.11338
▁zaten	-9.11365
makta	-9.11366
▁alınan	-9.11438
▁Ocak	-9.11519
▁Nisan	-9.11562
▁kent	-9.11649
▁bil	-9.11749
▁Ahmet	-9.11795
▁Burada	-9.11816
▁olun	-9.11952
▁toprak	-9.11997
lanmış	-9.12016
▁kilo	-9.1208
▁tanım	-9.1208
em	-9.12129
▁değiştir	-9.12179
▁Lo	-9.122
▁Yer	-9.12208
▁çoğu	-9.12298
▁ağ	-9.12332
▁sebep	-9.12439
▁hayal	-9.12479
▁sıkıntı	-9.12624
▁ürünleri	-9.12626
▁önceki	-9.12631
▁bilgisayar	-9.12635
▁dur	-9.12739
mıyor	-9.12817
▁Antalya	-9.12935
taş	-9.12974
tiği	-9.12999
▁art	-9.13143
▁fi	-9.1315
▁Fakat	-9.1324
▁amacı	-9.13251
diğiniz	-9.13276
▁vermek	-9.13312
▁uzak	-9.13373
▁eşya	-9.13439
taki	-9.13474
lanır	-9.13552
mekte	-9.13562
▁milyar	-9.1363
▁aslında	-9.13649
▁İslam	-9.13666
dikleri	-9.13697
▁insanların	-9.13713
▁olursa	-9.13897
ok	-9.13915
▁defa	-9.13941
▁Halk	-9.1414
▁alanı	-9.14146
▁Yani	-9.14225
▁hatta	-9.14317
ab	-9.14365
▁pazar	-9.14402
▁dört	-9.1441
nize	-9.14429
▁ayar	-9.1445
▁yere	-9.14507
▁gerçekten	-9.14565
dum	-9.14566
▁Başbakan	-9.1464
cak	-9.14666
ebilecek	-9.14716
▁eş	-9.14763
▁araya	-9.1491
▁Merkez	-9.14948
▁yurt	-9.14958
▁kol	-9.14962
▁öz	-9.14976
▁müzik	-9.14984
▁durumunda	-9.1505
▁istiyor	-9.15065
▁aş	-9.15099
▁yapar	-9.15136
▁geçmiş	-9.15332
▁ateş	-9.15421
uyor	-9.15434
▁mekan	-9.1545
▁sabah	-9.15466
▁tur	-9.15512
▁Mu	-9.15557
mişti	-9.15575
▁yaşayan	-9.15747
▁sergi	-9.15798
▁hizmetleri	-9.15892
▁Ca	-9.16039
▁medya	-9.16061
▁zorunda	-9.16223
seniz	-9.16276
▁başına	-9.16342
▁dünyanın	-9.16348
cılık	-9.16358
▁altına	-9.16372
ban	-9.1643
ımı	-9.16455
▁Başkanlığı	-9.16497
▁Ze	-9.16578
▁Birliği	-9.16647
▁adlı	-9.16665
▁çift	-9.16835
sunuz	-9.16859
▁belediye	-9.16945
▁belirt	-9.17008
▁kişiler	-9.17091
tım	-9.17178
▁bilgileri	-9.1721
▁yapılır	-9.17217
▁beş	-9.17224
▁kuru	-9.17226
ıyorum	-9.17251
amaz	-9.17485
▁şeyler	-9.17678
Ha	-9.17771
cü	-9.17821
▁zengin	-9.17904
▁ihtiyacı	-9.17911
▁merak	-9.18015
▁özelliği	-9.18023
▁tabi	-9.18074
▁sezon	-9.18139
leştir	-9.1815
▁oranı	-9.18277
▁Osmanlı	-9.18293
müş	-9.1831
▁Sen	-9.18393
▁buna	-9.18399
▁2013	-9.18421
▁Diğer	-9.18539
▁başında	-9.18556
▁Pa	-9.18559
▁liste	-9.18605
gün	-9.18629
diğimiz	-9.18655
▁deniz	-9.18767
▁boş	-9.18775
malıdır	-9.18822
▁yazar	-9.1889
OR	-9.19044
▁ücretsiz	-9.19097
▁Rusya	-9.19113
lem	-9.19156
tık	-9.19168
har	-9.19172
▁düşük	-9.19247
▁edil	-9.19342
▁har	-9.19425
▁sol	-9.19428
▁Har	-9.1944
lendi	-9.19553
▁İki	-9.19578
▁Suriye	-9.19656
▁He	-9.19666
lerdir	-9.19676
▁Can	-9.19709
ME	-9.19728
▁Amerika	-9.19763
▁is	-9.19796
landır	-9.19902
000	-9.19905
▁gez	-9.19911
lerinizi	-9.1992
▁Çocuk	-9.20013
▁dair	-9.20027
▁merkez	-9.20081
▁uluslararası	-9.2011
▁işlemi	-9.2015
ildi	-9.20237
▁kurulu	-9.20242
▁halk	-9.20299
▁etkili	-9.20371
izm	-9.2041
▁Aynı	-9.20433
▁Yıl	-9.20445
▁den	-9.20461
▁resim	-9.20479
▁ser	-9.2049
alım	-9.20583
▁tatil	-9.20696
▁bilim	-9.207
▁Ye	-9.20726
▁değiş	-9.20737
duğu	-9.20769
▁yay	-9.20801
▁yazılı	-9.20817
▁av	-9.20845
larınızı	-9.20848
▁Ge	-9.20856
▁Va	-9.20862
▁ilan	-9.209
▁bulunuyor	-9.20938
▁yeri	-9.20965
▁oyunu	-9.20988
▁Film	-9.2105
kü	-9.21072
▁ad	-9.21087
▁kullanımı	-9.21209
ırken	-9.21214
▁escort	-9.21259
▁normal	-9.21344
▁Aralık	-9.21365
ünün	-9.21414
▁öneri	-9.21458
▁net	-9.2149
▁hal	-9.21547
evi	-9.21568
▁onay	-9.21572
X	-9.21641
▁birinci	-9.21758
▁Şa	-9.21813
▁olmuş	-9.21844
▁VE	-9.21928
▁ediyorum	-9.21972
uk	-9.22086
▁yaka	-9.22199
▁saha	-9.22227
▁Bi	-9.22294
esi	-9.22303
mizde	-9.22411
sek	-9.22481
Ya	-9.22491
▁yaşında	-9.22538
je	-9.22566
▁Söz	-9.22595
▁sağlamak	-9.22674
▁Es	-9.22682
▁yararlan	-9.22685
rı	-9.22737
▁benzer	-9.22884
▁Bar	-9.23048
▁mutlaka	-9.23068
▁Çin	-9.23085
▁acı	-9.23144
▁fe	-9.23157
mızda	-9.23202
▁[...]	-9.23235
11	-9.23328
▁Şu	-9.23386
▁yaptır	-9.2339
▁hukuk	-9.23415
▁bit	-9.23425
▁yapıyor	-9.23448
lığın	-9.23554
hat	-9.23598
▁alır	-9.23615
▁isim	-9.23645
sak	-9.23679
▁kart	-9.23683
▁la	-9.23688
▁40	-9.23691
▁malzeme	-9.23714
▁derin	-9.23763
düğü	-9.23847
▁alanda	-9.23881
▁pi	-9.23896
ster	-9.23912
ilme	-9.2397
Ğ	-9.24091
ks	-9.24157
▁Sanat	-9.24251
zer	-9.24346
ıldığı	-9.24438
meyi	-9.24458
▁Derneği	-9.24463
▁siyasi	-9.24711
▁sefer	-9.24737
▁sıcak	-9.24749
▁sayıda	-9.24781
▁İç	-9.24863
▁şirket	-9.24953
▁saygı	-9.25044
AY	-9.25205
▁Yüksek	-9.2521
▁verir	-9.25268
▁inceleme	-9.25321
▁Teknik	-9.25378
▁Siz	-9.25384
▁olmadığını	-9.25412
▁Ağustos	-9.25476
▁kalk	-9.25489
▁taşıma	-9.25492
▁sözleşme	-9.25493
▁kafa	-9.25546
▁Fakültesi	-9.25634
kin	-9.25645
▁kaza	-9.25674
▁sağlar	-9.25724
kal	-9.25763
▁sonrasında	-9.25771
▁beri	-9.25966
▁olmaz	-9.26008
▁hayatını	-9.26035
▁yük	-9.26041
gan	-9.26145
▁masa	-9.26195
▁araba	-9.26227
▁not	-9.26239
▁görüşme	-9.2626
gel	-9.2631
▁sınır	-9.26352
▁X	-9.26359
▁sağlan	-9.26391
lığını	-9.26394
▁davet	-9.26457
▁kullanma	-9.2651
▁duvar	-9.26732
sh	-9.26756
▁terör	-9.26801
mesini	-9.26925
▁28	-9.26949
▁değerli	-9.2702
liğin	-9.27056
▁Kim	-9.2709
▁edilme	-9.27118
▁yerinde	-9.27126
▁Or	-9.27161
а	-9.27191
▁çarp	-9.27226
▁bekle	-9.27251
▁hi	-9.27328
▁beyaz	-9.27479
▁he	-9.27504
leş	-9.2751
masına	-9.2755
th	-9.27586
köy	-9.27589
▁kı	-9.27611
▁sahne	-9.27665
eri	-9.27668
▁bildir	-9.2772
İL	-9.27749
arı	-9.27751
▁gerektiğini	-9.27773
▁Kemal	-9.27855
▁desteği	-9.27947
▁halde	-9.27954
▁elektrik	-9.27968
ji	-9.27973
▁kendisine	-9.27991
▁Bursa	-9.27999
▁Almanya	-9.28046
▁gerekmektedir	-9.28054
lendirme	-9.28154
▁bizi	-9.28199
▁sun	-9.28226
▁Konu	-9.2824
▁Araştırma	-9.28279
yım	-9.28327
▁Ana	-9.28359
▁yaşan	-9.28364
▁mo	-9.28405
lıyor	-9.28427
▁kısmı	-9.28522
▁Sayın	-9.28533
▁arası	-9.28539
▁Deniz	-9.2858
ner	-9.28778
▁çıkma	-9.2883
syon	-9.28879
▁dönüş	-9.28888
▁ünlü	-9.28929
▁ca	-9.28993
UR	-9.29045
om	-9.29132
▁2012	-9.29209
ES	-9.29235
▁tahmin	-9.29292
▁Gör	-9.29294
▁hayatı	-9.29303
▁yaşanan	-9.29304
▁işlemleri	-9.29317
sından	-9.29335
yız	-9.29341
malı	-9.29341
▁Eski	-9.29452
▁süresi	-9.2946
▁gücü	-9.29475
▁alacak	-9.29506
▁ismi	-9.29517
▁İyi	-9.29638
▁duygu	-9.29683
▁herkes	-9.29733
▁yandan	-9.2981
▁hala	-9.29845
▁düşün	-9.29845
▁eşi	-9.29947
ücü	-9.29967
aş	-9.29967
ng	-9.3007
▁birisi	-9.30112
▁Der	-9.3014
▁uygulan	-9.30185
▁belirten	-9.3022
▁kalite	-9.30356
▁doldur	-9.30379
▁si	-9.30405
▁bağlantı	-9.30436
▁diş	-9.30453
▁Doğu	-9.30508
ral	-9.30542
▁4.	-9.30668
▁ürünler	-9.30709
▁Sonra	-9.30725
▁gösteren	-9.30766
▁eylem	-9.30771
▁söyle	-9.30777
▁günde	-9.30801
▁Hava	-9.30809
ladığı	-9.30818
kat	-9.30836
AT	-9.30844
▁sal	-9.30866
▁asker	-9.30902
▁aklı	-9.30915
▁aylık	-9.30936
İM	-9.30977
▁belge	-9.31147
_	-9.31187
▁gol	-9.31295
▁uğra	-9.31399
▁İs	-9.31452
▁sağlıklı	-9.31501
tin	-9.31549
▁Uluslararası	-9.31605
▁dik	-9.31619
▁fayda	-9.31693
▁kanun	-9.31742
▁gösteri	-9.31805
▁reklam	-9.31851
zel	-9.31869
lamak	-9.31904
▁yönetimi	-9.31965
▁veriyor	-9.31981
gü	-9.3206
▁test	-9.32121
▁Madde	-9.32125
▁paket	-9.32231
▁silah	-9.32354
▁sor	-9.32483
din	-9.32545
▁sok	-9.32562
▁çiz	-9.32596
zar	-9.32603
▁bunlar	-9.32631
▁yaşama	-9.32654
▁rapor	-9.32737
▁yada	-9.32784
▁ayı	-9.32864
▁özellikleri	-9.32875
▁27	-9.32919
▁döneminde	-9.3296
▁grubu	-9.3298
▁yat	-9.33017
▁)	-9.33033
▁ce	-9.33202
▁belki	-9.33228
2018	-9.33335
leyici	-9.3336
▁Bazı	-9.33415
▁onlar	-9.33451
▁sür	-9.33632
▁karşısında	-9.33643
▁adres	-9.33711
ılarak	-9.33717
lenmiş	-9.33805
dıkları	-9.33837
ince	-9.33839
▁baba	-9.3388
▁dışı	-9.33895
▁ticaret	-9.33916
▁artır	-9.34216
▁ci	-9.343
cık	-9.34337
▁onların	-9.34465
▁tesis	-9.34472
▁Fi	-9.34478
öl	-9.34562
▁ayak	-9.34565
AL	-9.3459
▁Mer	-9.34605
▁aracı	-9.34627
▁pa	-9.34663
▁zevk	-9.347
▁gitme	-9.34786
▁tepki	-9.34794
yon	-9.34798
▁Ku	-9.34827
MA	-9.34897
▁aşağıdaki	-9.34906
▁kızı	-9.34938
▁yaparak	-9.3499
▁sevgi	-9.35074
▁yapacak	-9.35082
▁artış	-9.35117
▁Çalışma	-9.35221
▁koruma	-9.35239
▁içine	-9.3527
▁Şubat	-9.35484
▁im	-9.3551
gı	-9.35513
▁anlaşma	-9.35551
▁başta	-9.35632
▁tane	-9.35635
ılmıştır	-9.35656
▁yarı	-9.35723
▁dağ	-9.35747
▁istediğiniz	-9.35795
▁aşk	-9.35796
▁Bölge	-9.35918
▁yazılım	-9.35926
▁üret	-9.35997
▁Demir	-9.36039
▁26	-9.36068
▁onları	-9.36123
▁sağlayan	-9.36179
▁gerçekleştiril	-9.3622
ınca	-9.36271
▁sırada	-9.36275
▁Ticaret	-9.36347
▁görmek	-9.36536
▁Müslüman	-9.36556
▁kesim	-9.36741
üyor	-9.36779
▁hediye	-9.3678
▁başlar	-9.36849
▁koru	-9.36849
gin	-9.3688
▁amaç	-9.3692
▁alarak	-9.37008
▁eve	-9.37163
▁heyecan	-9.37204
tme	-9.37258
ğa	-9.37264
▁kaldı	-9.37283
▁am	-9.37306
▁fırsat	-9.37308
▁köy	-9.37312
▁sunul	-9.37358
▁gaz	-9.37368
eti	-9.3745
▁operasyon	-9.37535
iyorum	-9.37549
▁ortalama	-9.37549
▁kul	-9.37573
▁geçti	-9.37678
▁yak	-9.3774
▁yıllarda	-9.37747
▁piyasa	-9.37815
▁yetkili	-9.37851
▁pro	-9.3798
▁29	-9.3798
▁şeyi	-9.38045
ss	-9.38079
▁eğer	-9.38114
ET	-9.38259
▁Kadın	-9.38317
▁yapmış	-9.38367
▁doğa	-9.38489
abı	-9.3856
rek	-9.38697
▁İn	-9.38716
▁üyeleri	-9.38763
layarak	-9.38784
60	-9.38815
▁fikir	-9.38851
▁Kanun	-9.38945
▁lisans	-9.3904
nci	-9.39044
inci	-9.39063
▁çe	-9.39107
LE	-9.39298
▁alışveriş	-9.39301
▁Sanayi	-9.39424
▁yavaş	-9.39445
▁lazım	-9.39521
ley	-9.39525
▁J	-9.39564
dil	-9.39615
var	-9.39633
elim	-9.39672
▁hisse	-9.3968
▁sorumlu	-9.39702
lam	-9.39707
▁Ce	-9.39749
▁yapılma	-9.39841
▁sektör	-9.39855
▁Pi	-9.39866
▁oran	-9.39884
▁bitki	-9.39902
▁Göz	-9.39906
▁ölüm	-9.39958
▁anlaşıl	-9.39972
▁Du	-9.4005
▁&	-9.40068
▁modelleri	-9.40089
▁Konya	-9.40119
▁etmiş	-9.4014
▁etmesi	-9.40152
▁güneş	-9.40187
▁kullanarak	-9.40193
hir	-9.40225
▁es	-9.40236
▁ilçesinde	-9.4029
lin	-9.40304
▁yapıldı	-9.40392
▁metre	-9.40493
▁At	-9.40508
▁çay	-9.40583
‘	-9.40649
▁Aydın	-9.40656
▁Tur	-9.40682
yar	-9.4075
▁Kat	-9.40829
▁kültür	-9.40831
Ä	-9.40908
▁kanal	-9.40913
ON	-9.40942
▁ş	-9.40956
▁Milletvekili	-9.41015
▁ada	-9.41027
▁Proje	-9.41049
▁uç	-9.41118
▁içer	-9.41195
▁etmeye	-9.41378
▁Ser	-9.41437
muştur	-9.41459
▁davranış	-9.41464
▁risk	-9.41527
▁́	-9.41572
▁dünyada	-9.4167
▁tamam	-9.41705
▁değerlendir	-9.41805
25	-9.41808
▁darbe	-9.41956
▁Uygulama	-9.41986
▁faiz	-9.41996
▁sorunu	-9.42012
▁tecrübe	-9.42055
▁sanayi	-9.42204
▁ediyoruz	-9.42245
▁çaba	-9.42276
▁çocuklar	-9.4234
▁mahalle	-9.42346
▁profesyonel	-9.42399
▁olmuştur	-9.42415
fet	-9.42453
▁em	-9.42488
▁güncel	-9.42529
▁işte	-9.42585
▁okuma	-9.42601
manız	-9.4261
LER	-9.42631
abiliyor	-9.42754
▁bebek	-9.42786
+	-9.42805
lerimizi	-9.42912
▁hayata	-9.4296
ser	-9.42975
inizi	-9.42999
▁vergi	-9.43082
▁belirtilen	-9.43086
▁bar	-9.43113
▁oğlu	-9.43173
▁öner	-9.43219
RA	-9.4322
▁edilmiş	-9.43417
▁Ter	-9.43462
▁ra	-9.43512
▁mahkeme	-9.43534
tti	-9.43543
▁ekipleri	-9.43556
▁ödül	-9.43566
▁kuş	-9.43572
▁meslek	-9.4361
▁karşılaş	-9.43616
▁Ders	-9.43774
40	-9.43888
mıza	-9.43888
▁denge	-9.43944
▁lider	-9.44085
▁daire	-9.44133
yiz	-9.4416
▁man	-9.44173
▁sonucunda	-9.44173
▁gelme	-9.44237
▁Ga	-9.44302
▁arttır	-9.44309
▁bol	-9.44324
▁Mahallesi	-9.44344
▁sahiptir	-9.44465
▁transfer	-9.44541
▁etmektedir	-9.44563
mde	-9.44576
15	-9.44711
▁üçüncü	-9.44743
▁bo	-9.44781
▁:)	-9.44788
-1	-9.44884
▁etkisi	-9.44906
▁of	-9.44958
cılar	-9.44999
▁v	-9.45027
mp	-9.45034
▁belirtti	-9.45066
▁Gi	-9.45101
▁Ön	-9.45159
▁hesabı	-9.45201
▁31	-9.45204
AM	-9.45251
ledi	-9.45287
▁kurul	-9.45488
▁asla	-9.45575
▁borç	-9.45633
▁kesin	-9.45662
EM	-9.45673
▁korku	-9.45728
rt	-9.45731
▁Gazete	-9.45737
▁şa	-9.45737
ker	-9.45753
▁taşı	-9.45761
tepe	-9.45795
19	-9.45852
▁Man	-9.45854
▁geldiği	-9.45883
üz	-9.45908
▁bölümü	-9.45927
▁açıklamada	-9.46116
▁İngilizce	-9.4614
▁Ham	-9.46152
▁ekonomi	-9.46169
▁hafif	-9.46188
▁bahçe	-9.4629
▁tartışma	-9.46339
▁Yardımcısı	-9.4635
irken	-9.46488
▁beğen	-9.46501
▁isimli	-9.46513
▁kıl	-9.46546
müz	-9.46602
süz	-9.46613
▁azalt	-9.46662
▁millet	-9.46666
▁altı	-9.4672
▁yargı	-9.46727
▁Kıbrıs	-9.46733
▁ederim	-9.46782
▁Bur	-9.46935
▁Yapı	-9.47031
▁inşa	-9.47091
▁vb	-9.47112
aba	-9.47118
▁kesinlikle	-9.47154
▁orada	-9.47199
▁Bak	-9.47297
18	-9.47305
ciler	-9.47358
nd	-9.47385
▁doktor	-9.47387
▁katıldı	-9.4741
▁ekibi	-9.47411
▁Öğrenci	-9.47433
▁kamera	-9.47439
▁Bunlar	-9.47472
▁=	-9.47476
▁ho	-9.47485
▁İçin	-9.4752
fer	-9.47539
acağız	-9.47604
▁İran	-9.47644
▁Hz	-9.47644
Ka	-9.47696
ğı	-9.47737
başı	-9.47753
▁henüz	-9.47784
üne	-9.47801
meden	-9.47814
▁gören	-9.47855
▁pe	-9.47861
▁Güzel	-9.47895
▁ayır	-9.47897
ova	-9.47905
lenir	-9.48054
ılıyor	-9.48057
▁insanın	-9.48068
▁kadınlar	-9.48144
▁sonuçları	-9.48145
▁yıldır	-9.48152
▁Taş	-9.48154
▁kitabı	-9.48254
üş	-9.4826
tif	-9.4835
▁iktidar	-9.48353
%	-9.48409
▁dün	-9.48466
▁personel	-9.48538
so	-9.4864
ry	-9.48641
▁önüne	-9.48642
mesine	-9.48685
▁park	-9.48707
▁makine	-9.48713
ılacak	-9.48773
▁sonu	-9.48798
▁Benim	-9.48847
▁emin	-9.48855
acağını	-9.48903
▁Lig	-9.4891
YA	-9.48919
mis	-9.48954
▁Aile	-9.48967
▁Teknoloji	-9.4903
hu	-9.49042
laştır	-9.49043
▁vi	-9.49113
▁nedir	-9.49154
liyor	-9.49155
▁tutul	-9.49214
▁bağımsız	-9.49214
▁Haber	-9.49276
▁ge	-9.49345
▁modern	-9.49385
▁yapımı	-9.49442
▁kurtul	-9.4947
▁Bölüm	-9.49483
▁+	-9.49491
▁to	-9.4956
▁seviye	-9.4956
▁ö	-9.49583
gun	-9.49636
▁müdahale	-9.49663
▁girdi	-9.49681
sti	-9.49767
abil	-9.49792
▁yaşa	-9.49837
▁düz	-9.49855
▁Ürün	-9.49863
vet	-9.49895
▁kelime	-9.49916
tra	-9.49928
▁eğitimi	-9.49936
▁gizli	-9.49937
landığı	-9.49948
▁anlamda	-9.50077
▁içerik	-9.50097
▁işe	-9.50142
iç	-9.50225
▁uygulaması	-9.50265
ans	-9.50373
▁kendine	-9.50408
▁giren	-9.50411
▁Hizmet	-9.50413
▁yılda	-9.50436
res	-9.50437
mızın	-9.50534
TE	-9.50571
mon	-9.50655
ği	-9.50685
▁yürü	-9.50693
Lİ	-9.50759
▁ortam	-9.50793
▁yöntem	-9.50796
▁sürede	-9.50817
▁Ülke	-9.50822
▁tasar	-9.50852
▁kazandır	-9.50896
▁seks	-9.50897
▁2011	-9.50906
▁Kap	-9.50931
ilecek	-9.51005
J	-9.51006
▁sonraki	-9.51172
▁mah	-9.51182
▁AB	-9.51186
oloji	-9.51225
▁basit	-9.51249
▁şeker	-9.51281
▁isteme	-9.51282
▁ton	-9.51312
siyon	-9.5138
▁şart	-9.51388
eceğini	-9.51394
▁kullandı	-9.5147
▁bundan	-9.51485
01	-9.51509
Sa	-9.51588
▁boya	-9.51604
▁yetiştir	-9.51768
▁sokak	-9.51782
altı	-9.51812
▁cam	-9.51831
▁?	-9.51846
▁indirim	-9.51907
▁Co	-9.51967
Bir	-9.51972
▁kişisel	-9.52011
▁kadro	-9.52089
tro	-9.52115
▁yoksa	-9.52165
İK	-9.52194
▁yıldız	-9.52417
▁Sayfa	-9.52434
UN	-9.52572
bar	-9.52633
▁günlerde	-9.52646
▁teklif	-9.52651
▁>	-9.52651
ıt	-9.52739
▁öne	-9.52789
mayın	-9.52849
▁belirterek	-9.52944
ven	-9.52976
▁harika	-9.52998
▁yerel	-9.53046
▁Bunu	-9.53051
▁olacağı	-9.53097
likle	-9.5314
▁motor	-9.53244
▁bakan	-9.53244
▁demek	-9.53247
▁alıp	-9.5325
ð	-9.53263
▁yaşadığı	-9.53329
ıyordu	-9.53346
▁büyüme	-9.53352
▁analiz	-9.5336
▁onlara	-9.53386
▁sert	-9.53493
yin	-9.53497
EL	-9.53503
▁kardeş	-9.53521
▁götür	-9.53554
▁projesi	-9.53562
±	-9.536
▁Cumhuriyeti	-9.53645
▁Tu	-9.53655
04	-9.53703
dağ	-9.53751
yse	-9.53799
▁Kon	-9.53866
▁doğum	-9.53924
mayan	-9.53933
▁öğretim	-9.53973
eceğiz	-9.54041
▁sevgili	-9.54042
larımızı	-9.54064
▁bölgesinde	-9.54102
Ba	-9.54116
▁söylen	-9.54125
▁yaygın	-9.54133
▁Sev	-9.54168
▁talebi	-9.54169
emez	-9.54233
▁Hak	-9.54237
▁yapmaya	-9.54269
gar	-9.54275
umu	-9.54306
leştirme	-9.54313
bil	-9.5432
Ben	-9.54361
▁getirdi	-9.54392
DE	-9.54403
▁tamamlan	-9.54427
▁üretimi	-9.54498
▁po	-9.54538
lt	-9.54549
uru	-9.54707
▁Genç	-9.54715
▁Kürt	-9.54774
▁anlam	-9.54787
▁kendisini	-9.54817
▁co	-9.54921
▁kira	-9.54963
yorum	-9.54968
larınız	-9.55026
▁atan	-9.55089
▁j	-9.55103
▁hat	-9.55124
▁sağlığı	-9.5513
▁asıl	-9.5522
▁süt	-9.55256
▁başvur	-9.55324
stan	-9.5535
▁bey	-9.55373
▁sistemleri	-9.55394
▁yüksel	-9.55395
16	-9.55421
▁60	-9.5544
▁Pro	-9.55534
▁yapısı	-9.55547
lerimizin	-9.55568
manın	-9.55614
▁çıkart	-9.55635
▁otur	-9.55671
▁kaynağı	-9.55672
▁askeri	-9.557
▁rol	-9.55705
baş	-9.55707
▁siyaset	-9.55777
▁geçiş	-9.55778
▁Üniversite	-9.55797
layın	-9.55912
cilik	-9.55927
ron	-9.55954
▁hücre	-9.55974
▁beden	-9.55984
▁idare	-9.56014
▁dışarı	-9.56014
▁Uzun	-9.56026
lendiği	-9.56031
▁başlat	-9.56035
▁milli	-9.56085
▁otomobil	-9.56115
▁bunların	-9.56124
▁adresi	-9.56191
▁alınması	-9.562
▁dua	-9.56207
LERİ	-9.56236
▁bilme	-9.56326
unuz	-9.56361
▁kendisi	-9.56405
▁giden	-9.56406
LAR	-9.56413
isi	-9.5648
▁Kan	-9.56503
▁ölçü	-9.56574
eş	-9.56593
yacak	-9.566
rin	-9.56603
rem	-9.56636
▁Fenerbahçe	-9.56772
▁gerektiği	-9.56779
kon	-9.56807
nuz	-9.56823
▁cinsel	-9.56825
▁Sadece	-9.5687
lardı	-9.56877
nik	-9.56917
▁dinle	-9.5702
▁(1)	-9.57082
İZ	-9.57085
ara	-9.57152
leyerek	-9.57268
▁yaşındaki	-9.57314
▁gözü	-9.57352
▁çocukların	-9.57394
▁meyve	-9.57405
▁olmasını	-9.57417
▁çizgi	-9.57501
medi	-9.57517
▁Şirket	-9.57542
sam	-9.5755
ân	-9.57554
▁konut	-9.57627
▁sona	-9.57638
▁değişiklik	-9.57663
▁kampanya	-9.57685
=	-9.57724
▁edip	-9.57809
hal	-9.5782
▁dahi	-9.57878
▁km	-9.57903
▁şiddet	-9.57936
▁şekil	-9.57957
▁bilinen	-9.57986
▁sipariş	-9.58013
▁inşaat	-9.58033
▁yanıt	-9.58086
nizin	-9.58089
aç	-9.58102
▁Top	-9.58133
▁siteleri	-9.58142
▁suyu	-9.58161
▁geleceği	-9.58164
▁öncesi	-9.5817
▁modeli	-9.58184
▁yaklaş	-9.58252
▁bazen	-9.5826
▁senin	-9.58282
▁sanatçı	-9.58326
▁Güvenlik	-9.58372
▁uçak	-9.58404
▁kişilerin	-9.58439
▁sigorta	-9.5848
▁fiyatı	-9.5848
▁serbest	-9.58544
▁Tarihi	-9.58635
▁Ber	-9.58651
▁Adana	-9.58669
çu	-9.5875
▁düşman	-9.58756
nç	-9.58764
▁ışık	-9.58887
▁kapalı	-9.5889
▁çeken	-9.58899
▁çağrı	-9.58903
▁turizm	-9.58922
://	-9.59017
abilmek	-9.59163
▁deneyim	-9.59218
▁Bay	-9.59234
▁eşit	-9.59245
▁uyu	-9.59245
zı	-9.59294
▁evde	-9.59296
▁sana	-9.59326
▁hüküm	-9.5935
▁isten	-9.59353
▁erken	-9.59375
▁çalışması	-9.59415
▁karakter	-9.59547
▁vur	-9.59547
indeki	-9.59566
eli	-9.59617
▁yola	-9.59618
▁katıl	-9.59619
▁genellikle	-9.59621
▁Buna	-9.59668
▁Ki	-9.59701
diğim	-9.59747
dığımız	-9.59794
umuz	-9.59808
▁öde	-9.59813
70	-9.59817
▁sik	-9.59883
▁TV	-9.5991
▁eli	-9.59974
▁arkadaşı	-9.60021
▁Osman	-9.60051
mar	-9.60074
▁başı	-9.6009
▁Var	-9.60116
▁ku	-9.60124
▁Merhaba	-9.60154
▁ekip	-9.60194
▁ülkede	-9.6025
▁tutar	-9.60252
şı	-9.6028
▁sebebi	-9.60281
▁Sarı	-9.60372
▁Nur	-9.6039
▁gemi	-9.60476
▁On	-9.60572
kur	-9.60595
▁Böylece	-9.60639
▁Hem	-9.60689
▁filmi	-9.60717
▁istedi	-9.60732
▁Beşiktaş	-9.60732
▁karıştır	-9.60783
▁yönetici	-9.60792
şan	-9.60809
▁çiçek	-9.60815
▁İngiltere	-9.60843
ilerek	-9.60869
▁politika	-9.60894
AB	-9.60901
▁algı	-9.6093
▁altın	-9.60932
▁değeri	-9.60989
▁yasak	-9.61034
▁olmasına	-9.61172
▁hakları	-9.61305
▁mükemmel	-9.61373
▁yön	-9.61389
▁Batı	-9.61424
bay	-9.61435
▁Et	-9.61472
▁yetki	-9.61529
▁denetim	-9.61649
▁gü	-9.61652
▁Küçük	-9.61701
▁gıda	-9.61915
▁vurgu	-9.61936
▁temsil	-9.62015
23	-9.62035
▁tip	-9.62043
▁AKP	-9.62091
▁gelin	-9.62122
▁olumsuz	-9.62184
bek	-9.62244
14	-9.62263
şehir	-9.6237
▁Yine	-9.62399
▁almış	-9.62429
▁Google	-9.62474
alı	-9.62534
▁bunları	-9.62535
▁Yüz	-9.62538
▁biçimde	-9.62566
rat	-9.62593
abileceği	-9.626
▁yeşil	-9.62638
▁Örneğin	-9.62715
landırma	-9.62736
▁Tar	-9.62736
▁Site	-9.62757
nizde	-9.62804
▁yıllar	-9.62838
▁Kanunu	-9.6284
SA	-9.62852
mal	-9.62867
▁Program	-9.6287
sem	-9.62933
▁tarafı	-9.62935
acağım	-9.6296
▁üyesi	-9.62985
▁2010	-9.63077
▁performans	-9.63086
▁oldukları	-9.63115
▁kalın	-9.63135
▁geliş	-9.63146
▁süreç	-9.6325
▁babası	-9.63256
ben	-9.63259
▁In	-9.63266
▁üretici	-9.63297
:00	-9.63299
▁Yılmaz	-9.63307
▁değişim	-9.63431
▁taşın	-9.63586
▁garanti	-9.63588
▁doğrultusunda	-9.63594
▁getiren	-9.63609
▁yayım	-9.63667
▁güvenliği	-9.63785
▁Oyun	-9.63892
▁bütçe	-9.63941
ışı	-9.63973
larımızın	-9.63976
▁hepsi	-9.64053
▁•	-9.6413
▁İsrail	-9.64131
▁yapılmış	-9.64288
▁Ri	-9.6433
▁hikaye	-9.64332
▁işbirliği	-9.64353
▁lise	-9.64463
▁öden	-9.64489
iyeti	-9.64501
▁duy	-9.64504
▁Yaz	-9.64537
ğe	-9.64581
▁Öğretmen	-9.64597
str	-9.64616
şim	-9.64621
▁olduğuna	-9.64688
art	-9.6475
▁nedeni	-9.64765
▁avantaj	-9.64886
▁organ	-9.64895
`	-9.64911
▁giderek	-9.64913
oğu	-9.64914
bey	-9.64943
▁and	-9.64948
▁sak	-9.64973
▁önemlidir	-9.6498
▁buldu	-9.64981
▁ülkenin	-9.64983
AZ	-9.65046
▁öğrenciler	-9.65061
▁The	-9.65091
yip	-9.65143
▁şehit	-9.65245
▁olumlu	-9.65295
▁online	-9.65296
	-9.65319
▁bal	-9.65319
▁yüzü	-9.65327
▁sp	-9.65328
▁mak	-9.65344
▁dost	-9.65361
▁Ja	-9.6546
▁servisi	-9.65482
▁rakam	-9.6549
▁ede	-9.65505
▁tarım	-9.65505
▁Otel	-9.65542
▁yönünde	-9.6557
layıcı	-9.65598
ow	-9.65607
▁yılın	-9.65672
▁Okul	-9.65734
▁	-9.65769
set	-9.65783
▁kuvvet	-9.65784
IM	-9.65792
▁Alt	-9.65969
▁otobüs	-9.65973
Ma	-9.66048
ksiyon	-9.66055
lma	-9.66057
▁arkadaşlar	-9.66057
▁etkin	-9.66095
▁kurtar	-9.66134
▁ettir	-9.66179
layıp	-9.66182
▁diyerek	-9.66183
▁savunma	-9.66203
▁Sultan	-9.66316
▁içeriği	-9.6635
ildiği	-9.66488
▁içeren	-9.66501
ize	-9.66552
▁mezun	-9.66555
▁seyahat	-9.66559
▁Meclis	-9.66613
âh	-9.66631
istan	-9.66642
▁çıkıyor	-9.66662
▁bilir	-9.66684
▁yükle	-9.66715
for	-9.66762
▁hazırlık	-9.66769
AS	-9.66842
▁Oda	-9.66857
▁verildi	-9.66887
▁İkinci	-9.6692
▁girme	-9.66956
dikten	-9.6696
▁örgüt	-9.6696
▁firması	-9.66963
▁sap	-9.67061
▁yalnız	-9.67063
sil	-9.67084
bel	-9.67096
▁gül	-9.67101
▁üzerindeki	-9.67133
ard	-9.6714
▁hız	-9.67171
dıktan	-9.67193
sto	-9.67258
▁Hal	-9.67261
▁5.	-9.67263
raf	-9.67289
▁katılım	-9.67304
LA	-9.67346
▁roman	-9.67362
▁problem	-9.67406
▁Ed	-9.6743
▁kişilik	-9.67436
▁kalp	-9.6744
▁sivil	-9.67497
vo	-9.67522
▁pay	-9.67545
zu	-9.67596
▁gazete	-9.67656
▁çerçevesinde	-9.67725
kta	-9.67732
▁Per	-9.67734
ullah	-9.678
▁ihale	-9.67803
▁kav	-9.67818
daş	-9.67838
▁ez	-9.67879
▁Bütün	-9.67904
▁kış	-9.67916
▁paylaşım	-9.67975
▁vakit	-9.68026
▁Tarih	-9.68034
cek	-9.68038
ff	-9.68062
▁w	-9.68068
▁yatak	-9.68122
▁misafir	-9.68126
lanıyor	-9.68142
▁pat	-9.68164
▁televizyon	-9.68202
▁verecek	-9.68219
likleri	-9.68222
ft	-9.68269
▁geçerli	-9.68271
▁belirli	-9.6832
AP	-9.68342
▁ortadan	-9.68362
▁Rus	-9.68533
▁gidiyor	-9.68592
▁söylüyor	-9.68662
▁rahatsız	-9.68714
▁Bilim	-9.68717
▁Anne	-9.68718
▁cami	-9.68746
yarak	-9.68781
▁açıkladı	-9.68783
dığınız	-9.68806
▁tatlı	-9.68807
▁Recep	-9.68842
▁hoca	-9.68843
TA	-9.68871
▁üstün	-9.68898
80	-9.68931
▁bakış	-9.68944
▁cm	-9.68946
ebiliyor	-9.68973
▁şiir	-9.69013
▁değişik	-9.69044
▁Açık	-9.69084
▁olmaya	-9.69089
leriniz	-9.69181
▁güvenli	-9.69188
▁çıkış	-9.69192
▁doğrudan	-9.69212
▁Fransa	-9.69254
liler	-9.69379
▁500	-9.69388
üstü	-9.69393
▁Dış	-9.69399
▁devre	-9.69423
▁yolcu	-9.69444
▁Bağ	-9.69488
▁barış	-9.69517
zan	-9.69552
▁Tam	-9.69556
▁Çevre	-9.69576
▁sinema	-9.69585
▁Galatasaray	-9.69589
Tİ	-9.69626
▁ilaç	-9.69708
▁Fo	-9.69726
larım	-9.6975
▁Gür	-9.69754
AŞ	-9.69846
▁düş	-9.69881
▁lo	-9.69886
▁okun	-9.69937
sunu	-9.69947
▁Alman	-9.6997
▁aşırı	-9.69978
EV	-9.6998
▁dal	-9.70004
ilmiştir	-9.70061
▁yerini	-9.70061
▁cihaz	-9.70075
▁köşe	-9.70134
▁Bizim	-9.70177
▁Peki	-9.70185
▁kullanılır	-9.70201
▁Ver	-9.70231
ly	-9.70275
▁aktif	-9.70301
▁men	-9.70312
▁Kısa	-9.70312
▁ulaşım	-9.70332
▁Za	-9.70371
▁hali	-9.70375
▁adını	-9.70376
▁anlama	-9.70398
▁kartı	-9.70398
▁kırmızı	-9.70504
▁ısı	-9.70522
ite	-9.70558
▁sarı	-9.70593
▁Millet	-9.70622
yken	-9.70626
▁cümle	-9.70642
lediği	-9.7067
hil	-9.70671
▁türü	-9.70692
▁tuz	-9.70823
▁mobil	-9.70858
▁iptal	-9.7086
▁bende	-9.70906
▁öğrencilerin	-9.70938
▁görsel	-9.70999
▁yasal	-9.71009
lıklar	-9.71121
ation	-9.71137
▁düzenli	-9.71141
▁St	-9.71158
ılabilir	-9.71203
ris	-9.71284
lardaki	-9.71303
▁uyarı	-9.71312
▁şikayet	-9.71349
ant	-9.71388
▁yaklaşım	-9.71433
nızın	-9.71441
▁bulma	-9.71444
▁imkanı	-9.71516
meli	-9.71534
top	-9.71542
▁Fatih	-9.71639
13	-9.71681
▁örgütü	-9.71696
sk	-9.71713
▁çalışıyor	-9.71766
atı	-9.71798
▁kod	-9.71816
▁başar	-9.7183
▁tarihli	-9.71846
diklerini	-9.71857
ent	-9.71897
▁tanıt	-9.71926
abileceğiniz	-9.71951
▁uğraş	-9.71954
▁geçme	-9.71966
▁ıs	-9.7199
▁Kız	-9.72053
▁Din	-9.72076
▁Zaman	-9.72106
▁lütfen	-9.72121
▁gelişme	-9.72204
▁yalnızca	-9.72254
▁anı	-9.72292
▁futbol	-9.72312
riz	-9.7233
İR	-9.72387
▁kitle	-9.72432
bat	-9.72449
▁Onlar	-9.72471
▁husus	-9.72487
▁bölgede	-9.72554
imizin	-9.72599
▁»	-9.72616
sizlik	-9.7266
▁Altın	-9.72682
▁topla	-9.72696
bin	-9.72704
▁Pazar	-9.72742
▁olduğumuz	-9.72752
duk	-9.72767
05	-9.728
inize	-9.72879
▁Tah	-9.7289
▁diyen	-9.72904
Türkiye	-9.72913
▁Baba	-9.72928
▁kıs	-9.72933
90	-9.72959
▁doğu	-9.73016
DA	-9.73024
▁gitti	-9.73048
24	-9.73054
kte	-9.7308
▁yüzey	-9.73082
kâr	-9.7317
▁ofis	-9.73174
▁imkan	-9.73178
▁kir	-9.73187
▁Ata	-9.73209
melidir	-9.73212
▁hastane	-9.73269
▁kurulan	-9.73294
▁Kır	-9.73305
▁almaktadır	-9.73316
▁kullandığı	-9.73319
▁görevi	-9.73356
▁vatandaş	-9.73381
iği	-9.73417
▁kendilerine	-9.73428
▁ucuz	-9.73432
▁Para	-9.7351
lanmıştır	-9.73573
▁memnun	-9.73585
▁kimi	-9.73643
▁standart	-9.73681
▁boyut	-9.73728
liğine	-9.7374
▁boy	-9.73761
▁maçı	-9.7378
▁Hasan	-9.73829
▁Dev	-9.73876
▁Yıldırım	-9.73934
▁ticari	-9.73941
▁takımı	-9.73948
▁İnternet	-9.73974
▁uyar	-9.73994
▁hastalık	-9.74129
▁başkanı	-9.74167
▁90	-9.74231
▁düşünüyorum	-9.74259
▁seçil	-9.74293
▁soğuk	-9.74384
yıp	-9.74416
▁gezi	-9.74457
▁otomatik	-9.74478
▁Kitap	-9.74509
▁Ceza	-9.74518
▁seri	-9.74521
▁Murat	-9.74529
▁Hafta	-9.74551
▁yaparken	-9.74577
▁Web	-9.74597
ep	-9.74635
lanacak	-9.74667
▁maddesi	-9.74668
▁sizler	-9.74671
resi	-9.74748
▁Samsun	-9.74782
▁fabrika	-9.74788
▁yönet	-9.74839
▁soruşturma	-9.74845
▁Bankası	-9.74879
uzu	-9.749
▁or	-9.7491
▁pozisyon	-9.74938
▁gelmesi	-9.74957
▁Günü	-9.74968
q	-9.74978
▁Bal	-9.75003
▁Jo	-9.75044
▁Av	-9.75095
▁düşünme	-9.75107
▁boz	-9.7514
CI	-9.75144
▁tehlike	-9.75158
car	-9.75168
▁çöz	-9.75172
▁şer	-9.75258
▁başlıyor	-9.753
RE	-9.75303
▁ağaç	-9.75308
▁Hastanesi	-9.75358
▁uyum	-9.75377
▁Kay	-9.754
ilebilir	-9.75427
▁the	-9.75458
▁Kamu	-9.75499
▁Bölümü	-9.75578
▁has	-9.75579
▁güvenilir	-9.75625
▁Odası	-9.75638
▁emekli	-9.75686
▁usta	-9.75712
▁Irak	-9.7576
▁bulunma	-9.75782
▁istediği	-9.75855
ex	-9.75912
▁neler	-9.75922
ac	-9.75941
▁sorumluluk	-9.75983
▁Kurumu	-9.76022
▁tel	-9.76025
▁vücut	-9.76048
maları	-9.76073
▁dağıt	-9.76084
▁verilmesi	-9.76158
▁kombi	-9.76174
▁ok	-9.76181
▁bölümünde	-9.76189
▁Güney	-9.76193
▁Tayyip	-9.76286
▁haz	-9.76313
▁kavram	-9.7643
gın	-9.76441
▁aşama	-9.76483
17	-9.76484
liğinde	-9.76647
▁mağaza	-9.7665
SK	-9.76723
Ge	-9.76738
layacak	-9.76873
▁görül	-9.76879
▁Artık	-9.76924
▁nerede	-9.76926
▁aşağı	-9.76939
▁ağrı	-9.76948
▁zemin	-9.76966
ment	-9.77051
ray	-9.77057
▁erkekler	-9.77065
ez	-9.77073
paşa	-9.77095
▁Bel	-9.77136
▁''	-9.77137
▁kullanılma	-9.77142
▁koş	-9.77143
▁ruh	-9.77207
▁Süper	-9.77238
▁kısım	-9.77245
▁Programı	-9.77291
▁olmadan	-9.77296
▁futbolcu	-9.77299
▁dili	-9.77359
▁getiril	-9.77421
▁Bakan	-9.77588
▁Böyle	-9.77592
▁gereği	-9.77615
▁hatırlat	-9.77656
ja	-9.77666
▁Sistemi	-9.77672
▁batı	-9.77753
▁detaylı	-9.77811
▁özen	-9.77815
>	-9.77836
▁Önce	-9.77842
▁akıllı	-9.77913
LARI	-9.77947
▁Han	-9.77968
▁odası	-9.77986
▁bekliyor	-9.78094
▁seni	-9.78114
▁anlamına	-9.78142
▁yarış	-9.78184
▁yönel	-9.78218
tel	-9.78228
yecek	-9.78264
▁bulunur	-9.78331
▁Partisi	-9.78351
▁katılan	-9.78374
yr	-9.7838
▁yedi	-9.78381
▁trafik	-9.78401
▁sorunlar	-9.78415
▁yangın	-9.78449
▁dikkate	-9.78537
▁edebilirsiniz	-9.78586
▁kategori	-9.78622
▁Eş	-9.78717
▁çıktığı	-9.78721
▁Saat	-9.7876
▁ip	-9.78761
▁dedim	-9.78801
wa	-9.78868
▁bağlan	-9.78869
▁Kuzey	-9.78873
▁içindeki	-9.78875
▁Ab	-9.78876
ünde	-9.78892
▁İbrahim	-9.78894
▁öğret	-9.78903
▁maliyet	-9.78912
▁za	-9.78921
▁Ti	-9.78926
lamış	-9.78987
▁alındı	-9.78996
▁uyku	-9.79006
▁Güneş	-9.79019
▁Yazı	-9.7908
▁Fer	-9.79086
▁kut	-9.79094
▁Oku	-9.79142
▁soy	-9.79156
▁kor	-9.79175
▁35	-9.7919
▁taşıyan	-9.79219
▁80	-9.7928
▁gerçekleş	-9.79295
▁kere	-9.79429
üt	-9.7947
▁bayram	-9.79546
sp	-9.79568
ih	-9.7958
yat	-9.79586
▁şekli	-9.79655
▁bitir	-9.79665
▁sorunları	-9.79677
▁herkesin	-9.79752
dığım	-9.79774
▁kullanmak	-9.79809
▁önceden	-9.7984
▁telefonu	-9.79883
▁dönemi	-9.79944
▁Tarım	-9.7996
▁biliyor	-9.80068
▁Hakkında	-9.80123
▁gelmiş	-9.80134
▁ger	-9.80163
kları	-9.8017
▁söyleyen	-9.80223
▁beceri	-9.80284
▁hazırlanan	-9.80289
▁savun	-9.80305
▁amaçlı	-9.80344
▁şirketi	-9.80358
▁sürdür	-9.80383
likte	-9.80469
lerimize	-9.80506
▁tarz	-9.8053
ov	-9.80559
▁toplu	-9.80561
▁sermaye	-9.80576
oto	-9.80591
yacağı	-9.8066
iyordu	-9.80668
sidir	-9.80763
her	-9.80806
NA	-9.80811
▁ürünü	-9.80864
▁Yol	-9.80874
▁bırakma	-9.80891
▁For	-9.80911
▁olmalı	-9.80931
▁idi	-9.80985
▁halı	-9.81007
▁Üye	-9.8102
▁şık	-9.81031
iyo	-9.81056
▁demir	-9.81066
lidir	-9.81084
▁Şube	-9.81086
▁sunuyor	-9.81098
bri	-9.81144
▁olacağını	-9.81149
▁almaya	-9.81193
▁tarihleri	-9.81267
▁Grup	-9.81306
▁Turizm	-9.81322
▁Sınıf	-9.81328
▁belirti	-9.81375
▁çalıştır	-9.81391
07	-9.81394
mik	-9.81439
▁cezası	-9.81476
▁rengi	-9.81485
▁süs	-9.81535
▁üzeri	-9.81538
▁miktar	-9.81574
▁takdirde	-9.81582
▁tık	-9.81595
İT	-9.81634
▁olanak	-9.81645
usu	-9.81722
▁verilme	-9.81732
▁kahve	-9.81743
▁gördüğü	-9.81864
▁Karşı	-9.81898
sar	-9.81917
▁Enerji	-9.8194
yü	-9.81957
▁kaydetti	-9.8199
▁Geç	-9.82024
▁yaptıkları	-9.82059
▁Am	-9.82071
▁yen	-9.82078
yordu	-9.82091
▁işin	-9.821
▁makam	-9.82148
lis	-9.82152
▁don	-9.82158
▁oyunları	-9.82207
▁70	-9.82243
▁düşünül	-9.82251
▁Dur	-9.82336
▁iade	-9.82356
▁Vali	-9.82356
▁olmayı	-9.82399
▁insanları	-9.82455
▁ekle	-9.82466
▁Şen	-9.82519
▁farkında	-9.82538
af	-9.82551
▁dönüştür	-9.82569
▁Kol	-9.82578
▁yansıt	-9.82606
▁kapan	-9.82619
▁noktada	-9.82639
kul	-9.82666
ram	-9.82735
▁ulaşabilirsiniz	-9.82886
▁yarışma	-9.82895
▁binlerce	-9.82911
dal	-9.82945
▁zamanlarda	-9.82946
▁gazeteci	-9.82957
▁değiştirme	-9.82957
▁DE	-9.82965
▁konum	-9.82978
06	-9.83028
▁deneme	-9.83066
anlar	-9.83113
ebilmek	-9.83152
▁Tıp	-9.83186
▁olduğundan	-9.83193
▁Em	-9.83196
▁alım	-9.83208
▁Adı	-9.83222
▁tablo	-9.8323
▁ilave	-9.83373
larındaki	-9.83413
▁edebilir	-9.8342
▁ze	-9.83446
yolu	-9.83495
ham	-9.83514
▁parçası	-9.83525
▁ameliyat	-9.836
▁du	-9.83643
▁ata	-9.83677
▁seçme	-9.83698
▁yarar	-9.83709
▁dalga	-9.83712
ile	-9.83717
▁Kurum	-9.83756
▁yerli	-9.83758
▁İşletme	-9.83794
▁getirme	-9.83821
▁ilke	-9.83894
▁mar	-9.83908
▁Anayasa	-9.83915
kaya	-9.83927
▁vermeye	-9.83957
▁toplumsal	-9.84053
uç	-9.84111
▁hattı	-9.84119
▁öte	-9.84121
2017	-9.8413
▁anlayışı	-9.84143
▁ailesi	-9.84147
dıklarını	-9.84177
▁elektronik	-9.84184
▁Fe	-9.84198
▁edildiği	-9.84212
▁ilanı	-9.84233
▁II	-9.84319
▁sağlama	-9.8436
▁www	-9.84369
▁alternatif	-9.84398
lamaya	-9.84412
kim	-9.84473
▁öldür	-9.84474
▁siyah	-9.84505
▁Malatya	-9.8454
▁işler	-9.84589
▁kurs	-9.8461
▁Tasarım	-9.84615
▁yaşat	-9.84618
▁Emniyet	-9.84623
▁kendilerini	-9.84711
?”	-9.84735
▁öncelikle	-9.84748
▁faaliyetleri	-9.84763
▁sektöründe	-9.84801
▁halkın	-9.84857
▁Yapılan	-9.84905
▁it	-9.84912
▁itibariyle	-9.84926
▁sonuna	-9.8493
▁Nasıl	-9.8494
▁Erkek	-9.84948
▁Onun	-9.84969
▁demektir	-9.8501
▁karşılaşma	-9.85013
▁200	-9.85017
▁yapacağı	-9.85147
pan	-9.85192
acağınız	-9.85256
▁geçer	-9.85281
▁olduğunuz	-9.85287
▁olanlar	-9.853
▁nüfus	-9.85348
OL	-9.85352
▁tören	-9.85408
yerek	-9.85492
▁konuş	-9.85492
▁şampiyon	-9.85543
şık	-9.85547
▁beslenme	-9.85558
▁ürünlerin	-9.85572
▁tas	-9.85577
yol	-9.85586
kil	-9.85679
▁çekme	-9.85691
ESİ	-9.85713
▁Yayın	-9.85869
leniyor	-9.85934
▁hızla	-9.85984
▁buluş	-9.86029
▁gen	-9.86098
▁Hazır	-9.86099
▁belgesi	-9.86106
▁Şehir	-9.86127
02	-9.86131
▁iken	-9.86209
layabilirsiniz	-9.8623
▁dünyaya	-9.86262
▁ediliyor	-9.86269
lılar	-9.86273
▁şah	-9.8634
öğretim	-9.86371
laması	-9.86433
▁durumlarda	-9.86449
IR	-9.86455
cik	-9.86493
▁yalan	-9.865
▁kaçır	-9.8656
▁dolayısıyla	-9.86595
▁tarif	-9.86608
▁deney	-9.86612
▁mer	-9.86617
fo	-9.86618
▁alış	-9.86633
dy	-9.86638
▁Alan	-9.86642
▁AL	-9.86662
les	-9.86666
▁no	-9.8668
▁yöntemi	-9.86685
ýn	-9.8674
val	-9.86758
▁taban	-9.86772
▁cilt	-9.86783
miyorum	-9.86784
▁görülen	-9.86851
▁Öğretim	-9.86879
▁Ad	-9.86934
*	-9.86936
▁huzur	-9.86963
▁kök	-9.86974
21	-9.87027
▁çekti	-9.87038
▁tüketici	-9.87053
▁kişiye	-9.87075
ılıp	-9.87113
▁6.	-9.87129
ebileceği	-9.87143
tre	-9.87154
▁saf	-9.87196
türk	-9.87216
▁numarası	-9.87226
olojik	-9.87238
▁danış	-9.87252
ct	-9.87265
▁istek	-9.87266
▁Hasta	-9.87277
▁edilmiştir	-9.87306
▁koca	-9.87317
▁kalem	-9.87327
▁2009	-9.87336
-2	-9.87386
▁tanıtım	-9.87418
▁verilir	-9.87472
▁kü	-9.87479
▁benzeri	-9.87502
▁Ege	-9.87535
▁cok	-9.87565
▁Kom	-9.87589
lerce	-9.87608
▁dolaş	-9.87623
▁neredeyse	-9.8763
▁mühendis	-9.87681
▁makale	-9.87692
▁Hatta	-9.87717
▁Şi	-9.87748
▁tehdit	-9.87781
▁etkinlik	-9.87826
▁yumurta	-9.87929
▁genelinde	-9.8794
▁balık	-9.87983
▁akıl	-9.88013
▁Yeşil	-9.88016
▁Grubu	-9.88037
acaksınız	-9.88057
▁Evet	-9.88075
▁Firma	-9.88093
▁anla	-9.88134
tion	-9.88147
▁görün	-9.88201
Sİ	-9.8821
org	-9.88233
rma	-9.88242
▁kab	-9.88303
▁Boz	-9.88358
eme	-9.88367
▁orman	-9.88405
name	-9.88414
▁yo	-9.8842
▁noktası	-9.88432
▁Dil	-9.88451
lığına	-9.88461
▁PKK	-9.88482
45	-9.88557
ınızı	-9.88561
▁farkı	-9.8861
▁yatır	-9.8861
▁karşılık	-9.88633
▁seçenekleri	-9.88663
▁faydalan	-9.88729
▁ettiğini	-9.88765
OS	-9.88933
Biz	-9.88994
▁cep	-9.89036
▁miktarı	-9.89055
lerim	-9.89091
▁Ulu	-9.89113
▁Yıldız	-9.89124
lari	-9.89141
işi	-9.8922
▁başladığı	-9.8922
lerdeki	-9.89229
▁vatandaşlar	-9.89251
▁par	-9.89258
▁yapıldığı	-9.89273
▁bünyesinde	-9.89279
▁Peygamber	-9.89286
▁ortamda	-9.89392
▁Hizmetleri	-9.89398
▁konser	-9.89446
▁düzey	-9.89478
▁Kurul	-9.8948
▁çevir	-9.89654
▁mutfak	-9.89667
imizde	-9.89683
▁Sonuç	-9.89792
öz	-9.89805
▁çocuğun	-9.89845
▁açma	-9.89856
▁çalıştığı	-9.89874
▁yi	-9.89879
▁Cuma	-9.89953
▁popüler	-9.9
▁kavuş	-9.90003
eğin	-9.90018
▁Amaç	-9.90036
lenmiştir	-9.90036
▁gittiği	-9.90042
▁sonuçlar	-9.90049
▁olmalıdır	-9.901
▁attı	-9.90108
▁çekil	-9.90149
▁birbiri	-9.90176
bb	-9.90332
US	-9.90356
sunda	-9.90406
▁açı	-9.9045
▁birbirinden	-9.90495
▁Doç	-9.90547
▁şube	-9.90565
▁ihracat	-9.90656
uncu	-9.90716
erken	-9.90719
▁şartları	-9.9072
▁kuruluş	-9.90827
▁Cem	-9.90843
▁İnce	-9.90871
UM	-9.90951
lıkları	-9.90953
▁Paşa	-9.91011
▁Kent	-9.91081
▁eksik	-9.91118
mayacak	-9.91119
▁kullanılması	-9.91129
▁Kişi	-9.91138
abilen	-9.9114
▁Hayat	-9.91233
▁arzu	-9.91253
▁Aslında	-9.91261
▁Mersin	-9.91264
▁kalitesi	-9.91265
▁Herkes	-9.91288
▁boyu	-9.9129
ıdır	-9.91352
▁gerektir	-9.91421
▁öğrenme	-9.91446
▁MADDE	-9.91452
▁zorunlu	-9.91461
▁alanları	-9.91473
▁açılan	-9.91481
okul	-9.91491
|	-9.91509
▁Çelik	-9.91574
▁evi	-9.91575
▁Hu	-9.91585
yer	-9.91666
AD	-9.9169
ımızın	-9.91831
▁hakim	-9.91833
▁kenar	-9.91836
▁çekim	-9.91891
▁yapabilir	-9.91898
▁aşağıda	-9.91904
▁yapabilirsiniz	-9.91936
leyebilirsiniz	-9.91945
▁firmalar	-9.91985
BA	-9.92034
▁geliştirme	-9.92044
▁final	-9.92089
▁nakliyat	-9.9209
lerindeki	-9.92097
▁eriş	-9.92103
▁st	-9.92127
99	-9.92158
▁çocuğu	-9.92184
▁arı	-9.92193
▁eser	-9.92264
▁istiyoruz	-9.92307
▁sıkı	-9.9234
▁tüket	-9.92343
vr	-9.92384
▁Facebook	-9.92406
▁tipi	-9.92523
▁dini	-9.92537
▁hükümet	-9.92563
▁kurumsal	-9.92569
▁dönüşüm	-9.92608
fil	-9.9261
enler	-9.92629
▁vazgeç	-9.9265
▁ülkemizde	-9.92669
▁Euro	-9.92677
▁depo	-9.92678
▁kalbi	-9.92754
don	-9.92761
ED	-9.92765
idir	-9.92807
▁içeri	-9.92839
▁x	-9.92926
lor	-9.9294
mus	-9.92969
▁tat	-9.92969
▁ayet	-9.92971
▁ederken	-9.92973
▁Je	-9.93053
dro	-9.93086
▁Car	-9.93145
о	-9.93172
▁Beyaz	-9.93195
03	-9.93236
▁süren	-9.93248
▁ilgilen	-9.93253
▁fatura	-9.93255
▁2008	-9.93277
▁renkli	-9.93309
▁Mal	-9.9333
mdan	-9.93334
▁Çek	-9.93346
fak	-9.9335
▁sakin	-9.93356
NE	-9.93369
▁sürü	-9.9337
sat	-9.93433
▁maaş	-9.93448
▁salon	-9.93455
▁Ömer	-9.93474
▁uygulamaları	-9.93515
▁fonksiyon	-9.93546
▁sabit	-9.93586
▁Ramazan	-9.93615
▁verimli	-9.93654
bra	-9.93672
▁vs	-9.93722
▁Un	-9.93725
▁dev	-9.93752
▁davran	-9.93775
▁tedavisi	-9.9382
▁nefes	-9.93845
▁seçeneği	-9.93853
▁blog	-9.93886
▁şifre	-9.93944
ika	-9.93967
Ne	-9.94008
▁değerlendiril	-9.94139
yoloji	-9.94148
lon	-9.94179
imizi	-9.94182
▁Banka	-9.94186
▁Yönetimi	-9.94215
▁vize	-9.94321
▁tedbir	-9.94324
▁gösterir	-9.9437
▁ölü	-9.94383
madı	-9.94385
▁link	-9.94412
▁Ada	-9.94477
▁turist	-9.94484
▁sürücü	-9.94491
tt	-9.94517
▁Hüseyin	-9.94606
▁araştır	-9.94628
lığında	-9.94704
▁deri	-9.94705
▁istiyorsanız	-9.94706
lacak	-9.94722
▁kiralama	-9.94731
▁Hat	-9.94812
▁kullanan	-9.9483
09	-9.9483
▁sevk	-9.94851
digi	-9.94882
▁Escort	-9.94888
lah	-9.94889
▁seçenek	-9.9492
LI	-9.94926
▁tarzı	-9.94928
75	-9.94934
▁Kor	-9.94937
▁işleri	-9.94977
▁ayr	-9.94979
85	-9.95049
til	-9.95056
&	-9.95062
mb	-9.95128
▁gösterme	-9.95155
▁Gerek	-9.95184
▁olmaktadır	-9.95201
▁sağlam	-9.95227
▁temizlik	-9.95273
▁gösteriyor	-9.95282
ysa	-9.95362
▁tanesi	-9.95367
rah	-9.95374
▁Dolayısıyla	-9.95422
▁İz	-9.95427
▁Üst	-9.95439
▁gözaltına	-9.95481
kleri	-9.9551
▁Fransız	-9.95519
▁git	-9.95527
▁yazma	-9.95549
▁kilometre	-9.95554
08	-9.95566
▁bakımından	-9.95569
▁sitesinde	-9.9567
▁mesafe	-9.95713
▁Seç	-9.95716
▁kamp	-9.95734
kol	-9.9579
▁af	-9.95818
▁devletin	-9.95855
we	-9.95868
▁düşen	-9.95889
▁New	-9.95891
üsü	-9.959
▁vermiş	-9.9591
düğünü	-9.95923
ümü	-9.95948
▁bilimsel	-9.95959
▁İletişim	-9.96246
AV	-9.96251
▁başkan	-9.96309
zen	-9.96325
▁Hoca	-9.96336
▁45	-9.96388
▁aykırı	-9.96465
sit	-9.96503
46	-9.96515
▁kimlik	-9.96598
yoruz	-9.96602
tis	-9.96635
▁Uzman	-9.96646
De	-9.96647
▁lig	-9.96681
eğe	-9.96683
▁gözlem	-9.96686
▁yetiş	-9.96698
ydu	-9.96767
say	-9.9677
mizden	-9.96809
muştu	-9.96826
▁kıyafet	-9.96838
▁kesil	-9.9684
▁temin	-9.96845
sindeki	-9.96849
▁tasarımı	-9.96977
▁varlık	-9.97012
22	-9.97042
▁bilinç	-9.97042
▁ör	-9.97075
mil	-9.97147
▁aran	-9.97148
LAN	-9.97157
arım	-9.97159
▁vermektedir	-9.97175
che	-9.97186
▁sürece	-9.97221
uldu	-9.9725
▁muhteşem	-9.9728
▁un	-9.97345
tığını	-9.97382
▁Dışişleri	-9.974
▁raporu	-9.97417
▁adayı	-9.97493
▁terk	-9.97502
▁arz	-9.97511
▁Tak	-9.9752
▁oranında	-9.97525
▁unsur	-9.97556
49	-9.97564
▁yolda	-9.976
▁yetenek	-9.97605
200	-9.97648
▁adalet	-9.97681
▁sağlıyor	-9.97698
▁dokun	-9.97742
lıdır	-9.97783
▁MHP	-9.9781
[	-9.97811
35	-9.97908
▁Soru	-9.97942
▁diz	-9.97956
eceğiniz	-9.97975
cil	-9.98001
▁Ağ	-9.98041
▁oto	-9.98051
▁Van	-9.98088
▁kad	-9.98091
▁etiket	-9.98096
▁iyice	-9.98253
▁kaybı	-9.98265
▁yolunda	-9.98272
▁Gençlik	-9.9832
▁gelip	-9.98322
allah	-9.98347
▁Lisans	-9.98364
▁yerlerde	-9.9838
tek	-9.98462
▁verileri	-9.98463
ürü	-9.98465
▁çatışma	-9.98487
▁Veri	-9.98506
▁yükselt	-9.98541
▁koşulları	-9.98582
▁hasar	-9.98636
▁İngiliz	-9.98647
▁Go	-9.9868
▁İşleri	-9.98703
▁anlattı	-9.98706
▁sunan	-9.9873
leyecek	-9.98739
abilmesi	-9.98757
▁etmeyi	-9.98763
▁hâl	-9.98807
▁tamir	-9.98824
▁demokrasi	-9.98844
▁bekleme	-9.98844
gal	-9.98875
▁anahtar	-9.98878
▁kaldığı	-9.98902
▁hatır	-9.98917
▁Not	-9.98917
▁edilecek	-9.99014
▁Muhammed	-9.99043
▁panel	-9.99053
▁ülkeler	-9.99074
▁Gök	-9.99104
▁çeşit	-9.99114
▁diy	-9.99128
▁taraftar	-9.9917
▁teşvik	-9.99234
▁arazi	-9.99259
▁bahsed	-9.99281
▁bilgisi	-9.99289
ud	-9.99326
▁yarın	-9.99356
▁toz	-9.99376
▁arkasında	-9.99431
▁kültürel	-9.99458
▁engelli	-9.99503
▁acil	-9.99527
larımıza	-9.9953
▁Ligi	-9.99547
▁yaşlı	-9.99548
▁Kayseri	-9.99556
bur	-9.99568
▁Windows	-9.99574
▁buraya	-9.99584
▁insanı	-9.99646
▁sorular	-9.99672
▁Gece	-9.99702
ia	-9.99703
▁çatı	-9.99737
▁sever	-9.9974
▁görünüm	-9.99778
▁Gerçek	-9.99788
▁dök	-9.99845
lanarak	-9.99848
▁gösterdi	-9.99888
▁hapis	-9.99929
▁çocukları	-9.99987
▁Müşteri	-9.99993
▁ro	-10.0001
▁istihdam	-10.0006
/1	-10.0008
▁yayınlanan	-10.0009
▁Kocaeli	-10.0011
ime	-10.0015
lenecek	-10.0017
▁ağzı	-10.0019
TO	-10.0022
▁Kas	-10.0023
▁güzellik	-10.0024
▁Sayı	-10.0026
▁hac	-10.0031
▁alabilirsiniz	-10.0038
cuk	-10.0041
▁Temel	-10.0043
▁Asya	-10.0044
▁aralarında	-10.0045
▁Giriş	-10.0046
▁dijital	-10.0047
57	-10.0049
▁FETÖ	-10.0053
▁kablo	-10.0055
▁Gaziantep	-10.0057
▁tah	-10.0059
▁rekabet	-10.0061
▁Kaya	-10.0061
▁yılından	-10.0068
▁toplumun	-10.0068
▁sözü	-10.0069
mediği	-10.0069
ST	-10.0071
kent	-10.0073
▁Elektrik	-10.0074
▁eğ	-10.0075
▁Kalite	-10.0076
▁pişir	-10.0078
▁Kullan	-10.0081
▁ücreti	-10.0081
▁girişim	-10.0082
fre	-10.0087
▁özellik	-10.0089
imize	-10.0091
likler	-10.0094
▁Süleyman	-10.0095
maması	-10.0101
▁Kredi	-10.0102
▁zayıf	-10.0107
ld	-10.0112
mden	-10.0113
▁kum	-10.0113
▁işlev	-10.0115
▁hastalığı	-10.0116
posta	-10.0118
▁tutan	-10.0118
▁Karar	-10.0124
▁karşıya	-10.0125
▁yemeği	-10.0128
▁Bölgesi	-10.0135
▁sağlayacak	-10.0136
▁kanıt	-10.014
▁Sigorta	-10.0142
▁kalmış	-10.0149
▁ihti	-10.0154
▁koltuk	-10.0154
rit	-10.0165
▁duyduğu	-10.0166
▁esnasında	-10.0169
▁uyumlu	-10.0171
▁Gazi	-10.0172
▁temas	-10.0173
▁çıkmış	-10.0177
▁işlemler	-10.0179
▁Gel	-10.018
▁önlem	-10.0181
▁Belki	-10.0181
▁baz	-10.0182
▁uyan	-10.0183
▁yedek	-10.0185
▁yürüt	-10.019
▁doku	-10.019
kor	-10.0194
mur	-10.0196
▁Araç	-10.0197
▁ilginç	-10.0198
▁Sun	-10.0199
▁anlamı	-10.0202
▁harcama	-10.0202
Me	-10.0203
▁şehri	-10.0204
▁makinesi	-10.0207
▁besin	-10.0208
▁niyet	-10.021
▁sinir	-10.0216
amayan	-10.0216
▁şans	-10.0217
▁Kaynak	-10.0218
▁kaybetme	-10.0219
▁Bilgisayar	-10.0222
▁ulusal	-10.0225
ağın	-10.0226
▁atma	-10.0233
▁kahraman	-10.0235
▁Ulusal	-10.0235
▁olabil	-10.0236
▁kork	-10.0238
▁Etiketler	-10.0238
rar	-10.0239
▁Olay	-10.0239
▁Çağ	-10.0241
▁Destek	-10.0242
▁bağış	-10.0243
▁bence	-10.0243
▁unut	-10.0246
▁hekim	-10.0249
▁konuşan	-10.0249
▁kargo	-10.025
▁Tan	-10.0253
kın	-10.0261
▁sebebiyle	-10.0261
yın	-10.0264
▁İşlem	-10.0264
▁Çık	-10.0265
▁Rabbi	-10.0265
▁belirlenen	-10.0271
▁yönde	-10.0272
▁inci	-10.0275
▁Karadeniz	-10.0276
▁Futbol	-10.0276
▁çerçeve	-10.028
▁katı	-10.0281
▁bugüne	-10.0282
▁kayıp	-10.0284
▁vatan	-10.0284
▁erişim	-10.0286
▁bel	-10.0287
▁zamanı	-10.0287
▁harf	-10.0288
▁değişikliği	-10.0289
▁konularda	-10.029
▁dar	-10.0296
▁rüya	-10.0297
64	-10.0298
▁çağır	-10.0303
▁kullanıcılar	-10.0304
log	-10.0306
Te	-10.0306
▁konular	-10.0312
▁çalışmalarını	-10.0313
95	-10.0314
ktif	-10.0315
▁yüzyıl	-10.0318
▁Pan	-10.0318
▁Az	-10.032
▁olmaması	-10.0322
diler	-10.0326
▁platform	-10.0329
üncü	-10.033
▁Resmi	-10.0332
▁Projesi	-10.0332
▁hanım	-10.0332
gerçekleştirilen	-10.0333
▁32	-10.0337
▁imkân	-10.0337
▁ilerle	-10.0343
▁yoluyla	-10.0343
lemek	-10.0344
▁Görev	-10.0349
▁kadının	-10.035
▁Yaş	-10.0355
▁karış	-10.0357
▁öncesinde	-10.0359
mat	-10.036
▁düşür	-10.0364
amıyor	-10.0365
▁kanser	-10.0367
müştür	-10.0369
▁ziyaretçi	-10.0374
▁Ac	-10.0375
▁geçtiğimiz	-10.0375
▁açtı	-10.0376
▁üstünde	-10.0376
ece	-10.0381
▁kolayca	-10.0382
▁itiraz	-10.0383
▁değin	-10.0384
▁isteği	-10.0384
▁ir	-10.0386
▁seven	-10.04
▁1-	-10.0403
En	-10.0405
▁7.	-10.0406
▁rehber	-10.0406
▁le	-10.0406
▁alınma	-10.0409
▁aşı	-10.041
luğunu	-10.041
▁Lisesi	-10.0411
▁bulmak	-10.0414
▁Apple	-10.0416
▁güney	-10.0419
▁namaz	-10.042
▁izleme	-10.0421
▁evden	-10.0422
▁Mes	-10.0429
KA	-10.043
tıcı	-10.0432
asyonu	-10.0435
▁elbise	-10.0438
▁bomba	-10.044
▁Par	-10.0446
▁gelişim	-10.0448
▁kulak	-10.0449
meleri	-10.045
▁annesi	-10.0454
▁altyapı	-10.0458
▁elinde	-10.0459
▁Koca	-10.0463
sý	-10.0465
▁açıdan	-10.0466
▁adeta	-10.0467
▁alması	-10.0468
▁aldım	-10.0471
▁fıkra	-10.0479
▁bilgiye	-10.048
▁ideal	-10.0486
bank	-10.0486
▁olmadı	-10.0492
ığı	-10.0493
▁Kulübü	-10.0493
iliyor	-10.0493
▁vereceği	-10.0495
▁Telefon	-10.0498
▁yaşamak	-10.0502
▁Bundan	-10.0505
▁kadınların	-10.0506
▁biridir	-10.0506
sul	-10.0509
▁Tabi	-10.0513
▁günün	-10.0513
▁cihazı	-10.0514
▁bonus	-10.0529
▁programları	-10.0537
gra	-10.0539
sızlık	-10.0541
▁Ses	-10.0542
▁geçici	-10.0549
▁Arap	-10.0553
ön	-10.0557
tasyon	-10.0564
▁Çe	-10.0567
▁Orman	-10.0571
▁pencere	-10.0572
emi	-10.0573
▁bulunması	-10.0577
▁gitmek	-10.0577
▁ili	-10.0584
ılmasına	-10.0584
▁;	-10.0589
atör	-10.059
▁köpek	-10.059
▁ilişkileri	-10.0592
▁tamamı	-10.0594
▁Fiyat	-10.0596
▁Havalimanı	-10.061
▁sporcu	-10.0612
▁eleman	-10.0612
▁düşünüyor	-10.0612
▁birbirine	-10.0614
▁for	-10.0616
▁görür	-10.0616
▁Kapı	-10.0618
▁alınarak	-10.0627
Kİ	-10.0629
pp	-10.0631
▁strateji	-10.0631
EY	-10.0633
iyer	-10.0634
▁Akdeniz	-10.0642
96	-10.0644
▁organizasyon	-10.0645
larca	-10.0646
▁form	-10.0646
abilme	-10.065
▁mevsim	-10.0651
▁hu	-10.0653
▁Wi	-10.0654
▁göç	-10.0659
▁katılımcı	-10.0659
▁tanıma	-10.0662
▁endişe	-10.0667
▁dönme	-10.067
▁maddi	-10.0671
▁Doğru	-10.0675
▁Sözleşme	-10.0675
▁Meclisi	-10.0678
▁alet	-10.068
-0	-10.068
wi	-10.0681
osu	-10.0685
▁bah	-10.0687
▁Koç	-10.069
▁Seçim	-10.0691
▁işle	-10.0694
▁kaybetti	-10.0707
▁sanki	-10.071
▁sözleri	-10.0712
▁kontrolü	-10.0714
▁selam	-10.0717
▁yeme	-10.0718
▁girdiği	-10.072
ümüz	-10.0724
▁kutu	-10.0724
▁umut	-10.0736
ğu	-10.0737
▁düğün	-10.0737
suna	-10.0738
43	-10.074
▁okur	-10.0743
▁kural	-10.0746
▁Açıklama	-10.0748
▁hay	-10.0751
▁Mısır	-10.0753
▁isterseniz	-10.0756
▁koku	-10.0757
▁Sar	-10.0758
▁Aşk	-10.0758
▁olası	-10.0759
▁çıkacak	-10.0762
▁ayrılma	-10.0764
▁sayede	-10.0764
▁Vakfı	-10.0766
▁Dar	-10.0768
▁Ermeni	-10.0772
▁beklenti	-10.0772
▁olduklarını	-10.0777
▁yanına	-10.0783
▁Bina	-10.0785
duğunu	-10.0786
28	-10.0788
▁porno	-10.0788
▁bildiği	-10.0792
▁çekici	-10.0792
arken	-10.0796
32	-10.0798
▁Çift	-10.0802
lenerek	-10.0804
▁Yara	-10.0804
81	-10.0804
▁çıkması	-10.0809
▁fikri	-10.0813
▁Bahçe	-10.082
ırım	-10.0825
cağı	-10.0828
▁günümüzde	-10.0832
▁ettik	-10.0833
▁8.	-10.0834
bak	-10.0834
▁ten	-10.0839
▁bölgesi	-10.0841
▁Amerikan	-10.0843
▁eğlence	-10.0845
▁banyo	-10.0846
▁Savaşı	-10.0847
▁soruları	-10.0848
▁fon	-10.0852
▁belirtildi	-10.0854
▁meclis	-10.0855
▁metin	-10.0859
▁Başvuru	-10.0861
lıkla	-10.0862
ting	-10.087
▁mali	-10.087
▁İste	-10.0871
▁küresel	-10.0871
▁olaylar	-10.0873
▁üz	-10.0875
▁işleme	-10.0878
land	-10.0881
▁Oto	-10.0882
AH	-10.0882
▁arkadaşları	-10.0885
▁â	-10.0888
▁sıvı	-10.089
▁donanım	-10.0891
▁uçuş	-10.0893
▁yık	-10.0894
▁dakikada	-10.0895
▁Tesis	-10.0899
▁kalır	-10.0902
▁ters	-10.0903
26	-10.0906
▁Bayan	-10.0908
meyecek	-10.0909
ıldığını	-10.091
▁Kral	-10.0911
▁elbette	-10.0912
▁Mahkemesi	-10.092
▁tiyatro	-10.0922
▁anlatan	-10.0925
▁üretil	-10.0927
▁birden	-10.0928
▁kurma	-10.0929
▁Akademi	-10.0929
ılmaktadır	-10.0931
▁Ci	-10.0932
▁seviyesi	-10.0933
TL	-10.0937
▁firmamız	-10.0941
veya	-10.0952
▁İnşaat	-10.0952
▁hızı	-10.0957
▁Tü	-10.0957
▁Meslek	-10.0958
▁Yatırım	-10.096
▁ifadelerini	-10.0962
▁alınır	-10.0964
▁görüşü	-10.0966
▁tabii	-10.0971
▁Vergi	-10.0974
ulur	-10.0977
▁herkese	-10.0978
▁etmiştir	-10.0981
▁05	-10.0981
yalım	-10.0984
▁Park	-10.0987
▁veriler	-10.099
▁arıza	-10.0991
ettin	-10.0992
▁mezar	-10.0992
▁kriz	-10.0997
tıkları	-10.0998
▁başlayacak	-10.1003
▁Trabzon	-10.1003
▁Sınav	-10.1004
▁civarında	-10.1004
ıyorlar	-10.1005
▁düzeyde	-10.1008
ice	-10.1009
59	-10.1011
An	-10.1011
▁memur	-10.1012
▁yürüyüş	-10.1014
▁ayakkabı	-10.102
▁Boy	-10.1024
▁vererek	-10.1025
▁nem	-10.1026
cel	-10.1033
▁Android	-10.1043
▁yerden	-10.1046
▁verilecek	-10.1046
▁gelişimi	-10.1048
MAN	-10.1049
▁insanlara	-10.105
of	-10.105
Türk	-10.1051
gör	-10.1052
▁Dön	-10.1056
▁01	-10.1056
▁isti	-10.106
▁Yurt	-10.1064
laştırma	-10.1066
meniz	-10.1066
▁bedeli	-10.1068
▁Polis	-10.1069
▁kale	-10.1073
▁kuruluşu	-10.1078
▁edilmektedir	-10.1079
LİK	-10.1079
▁keyifli	-10.1085
▁yüzünden	-10.1086
ib	-10.1087
▁komisyon	-10.1092
▁dir	-10.1093
▁çalışır	-10.1101
▁işgal	-10.1103
▁böylece	-10.1105
▁|--	-10.1108
67	-10.111
▁Eskişehir	-10.1112
▁duyu	-10.1117
UL	-10.1121
▁Çay	-10.1121
▁Gu	-10.1122
▁Trump	-10.1123
▁Yasa	-10.1133
▁sesi	-10.1134
▁bulabilirsiniz	-10.1135
▁Doğan	-10.1137
▁nesil	-10.1141
▁tasarruf	-10.1141
▁ulaştır	-10.1144
▁başlama	-10.1148
▁beyan	-10.1148
▁malzemeleri	-10.1157
▁kıyı	-10.1158
▁Etki	-10.116
▁Bakım	-10.1161
çü	-10.1162
▁faydalı	-10.1166
▁getirmek	-10.1167
▁yönetmen	-10.1169
Ta	-10.1169
▁Zi	-10.117
ble	-10.1174
▁yar	-10.1176
▁avukat	-10.1177
▁şunları	-10.1178
▁merkezinde	-10.118
▁görülme	-10.118
▁kağıt	-10.1183
▁moda	-10.1184
▁biçim	-10.1188
▁önde	-10.119
▁sunum	-10.1191
▁fer	-10.1194
▁barındır	-10.1195
0.000	-10.1201
▁Yılı	-10.1201
▁bazıları	-10.1202
▁fiziksel	-10.1209
eceksiniz	-10.1209
gre	-10.121
ef	-10.121
93	-10.1213
▁birer	-10.1215
bul	-10.1215
▁kayna	-10.1217
▁ufak	-10.1218
kara	-10.122
▁açılış	-10.1221
▁aracılığıyla	-10.1221
▁36	-10.1225
▁ondan	-10.1228
▁öğrencileri	-10.1228
▁yarım	-10.1231
luğa	-10.1232
▁300	-10.1234
▁konuk	-10.1238
66	-10.1245
▁Ordu	-10.1246
▁firmaları	-10.1247
oo	-10.1251
▁ettim	-10.1255
▁sunucu	-10.1257
68	-10.1259
madığı	-10.1267
▁Diyarbakır	-10.1267
▁kaybol	-10.1267
▁kumaş	-10.1269
▁yaşı	-10.1269
▁yapın	-10.1272
▁yoktu	-10.1273
▁Birinci	-10.1274
▁Ex	-10.1275
▁şansı	-10.1277
▁pazarlama	-10.1278
▁salonu	-10.1278
▁kurdu	-10.1279
▁halka	-10.128
▁bilen	-10.1287
▁sunulan	-10.1288
ışma	-10.1289
▁Men	-10.1289
▁ışığı	-10.1292
lanabilir	-10.1296
▁Neden	-10.1299
97	-10.1301
▁Sey	-10.1301
▁Kav	-10.1303
▁halkı	-10.1309
▁değerleri	-10.1309
▁dediği	-10.1309
31	-10.131
▁Rum	-10.1311
▁kaynakları	-10.1311
94	-10.1314
▁listesi	-10.132
▁süreçte	-10.1325
▁cephe	-10.1326
ig	-10.1335
▁etkinliği	-10.1335
▁benze	-10.1337
gazi	-10.1338
öv	-10.1338
▁çanta	-10.135
▁alanlar	-10.135
▁Süre	-10.1354
▁Kes	-10.1356
▁esnaf	-10.1357
▁Bas	-10.1357
▁farklılık	-10.1359
▁Bayramı	-10.136
▁güçlendir	-10.136
ât	-10.1361
cılığı	-10.1363
▁kazanan	-10.1364
▁pas	-10.1364
▁mesele	-10.1367
▁özellikler	-10.1367
▁pan	-10.1367
▁seçimi	-10.1371
▁meydan	-10.1371
Dİ	-10.1372
şu	-10.1372
▁edilebilir	-10.1373
▁Is	-10.138
▁·	-10.1383
▁mikro	-10.1385
▁alanlarda	-10.1391
▁mutluluk	-10.1391
▁kalıcı	-10.1392
63	-10.1394
dığında	-10.1395
▁ölçüde	-10.1396
▁komşu	-10.14
▁Daire	-10.1402
▁duyma	-10.1402
▁gidip	-10.1403
▁ulaşma	-10.1413
iyorsunuz	-10.1416
malısınız	-10.1417
77	-10.1422
▁sınırları	-10.1428
▁maruz	-10.1428
▁2007	-10.143
▁yaşıyor	-10.143
▁tar	-10.1431
▁pratik	-10.1432
lý	-10.1432
▁günler	-10.1433
▁birinin	-10.1433
eç	-10.1435
▁hayran	-10.1438
▁gündeme	-10.1441
▁bilet	-10.1441
▁gelişmiş	-10.1443
▁bulundur	-10.1443
TÜ	-10.1443
maktayız	-10.1444
▁belirleme	-10.1447
▁şartlar	-10.1451
fik	-10.1453
▁buradan	-10.1454
▁Ör	-10.1455
▁şehrin	-10.1455
▁harca	-10.1458
▁üstüne	-10.1459
▁gönül	-10.1464
78	-10.1466
▁durma	-10.1467
▁gelişmeler	-10.1468
▁kazanma	-10.1468
92	-10.1469
▁fiyatlar	-10.1469
yal	-10.147
▁İsmail	-10.1471
▁aralık	-10.1474
ayım	-10.1474
mü	-10.1475
▁eleştiri	-10.1476
ana	-10.1477
dük	-10.1479
▁Sağ	-10.1481
▁kaya	-10.1482
▁Şahin	-10.1482
▁birini	-10.1483
▁adamı	-10.1485
▁Yu	-10.1491
▁genelde	-10.1491
▁mevcuttur	-10.1493
ort	-10.1499
ıyorsunuz	-10.1502
▁bez	-10.1506
▁görevli	-10.1508
▁Toplum	-10.1508
▁geleneksel	-10.1509
72	-10.1516
ebilen	-10.1516
▁suretiyle	-10.1516
▁yazdı	-10.1519
▁geçirme	-10.1523
▁Toplam	-10.1524
▁koşul	-10.1525
pol	-10.1525
▁hayatta	-10.1526
▁kazandı	-10.1528
▁yakından	-10.1531
▁falan	-10.1534
▁kolaylaştır	-10.1534
amadı	-10.1538
88	-10.1539
▁deprem	-10.1541
▁Hareket	-10.1542
yn	-10.1542
ight	-10.1544
▁gurur	-10.1546
▁döviz	-10.1547
▁lezzet	-10.1547
▁Komisyonu	-10.1549
▁Ekonomi	-10.1551
▁Roma	-10.1551
▁ac	-10.1553
▁Çanakkale	-10.1553
▁edebiyat	-10.1554
ılmaz	-10.1555
▁ilişkiler	-10.1556
▁hatırla	-10.1557
dî	-10.1566
▁hayırlı	-10.1569
▁Öyle	-10.157
üşü	-10.1574
▁mevzuat	-10.1579
▁yağmur	-10.1581
▁metal	-10.1587
▁hayır	-10.1589
▁gördük	-10.1598
▁(1	-10.1602
gül	-10.1602
ina	-10.1606
▁Sivas	-10.1609
▁klima	-10.1609
▁Yan	-10.1609
▁kitabın	-10.1616
▁kurumlar	-10.1616
▁sevin	-10.1617
▁göm	-10.162
Al	-10.1622
▁forma	-10.1623
vir	-10.1625
▁Pat	-10.1627
▁örtü	-10.1627
gram	-10.1631
2016	-10.1634
▁başlangıç	-10.1634
▁özet	-10.1636
▁kahvaltı	-10.1638
▁olduğum	-10.1641
▁Model	-10.1645
▁Kut	-10.1647
▁sigara	-10.1651
▁Kazan	-10.1652
▁sınırlı	-10.1656
83	-10.166
TR	-10.1663
▁Satış	-10.1664
kale	-10.1665
ülü	-10.1668
27	-10.167
▁kimyasal	-10.1671
▁mavi	-10.1671
▁Üç	-10.1672
▁Yönetmeliği	-10.1674
terapi	-10.1676
82	-10.1677
▁Nakliyat	-10.1678
65	-10.1681
▁Güven	-10.1682
▁böl	-10.1683
▁Bor	-10.1684
▁Hay	-10.1684
▁HA	-10.1685
▁Gıda	-10.1685
www	-10.1686
▁Mah	-10.1688
▁sunduğu	-10.1695
▁Plan	-10.1698
▁Kale	-10.1705
lıyoruz	-10.1708
▁tutma	-10.1709
İS	-10.1713
ilmektedir	-10.1714
▁Geçen	-10.172
▁mümkündür	-10.1721
▁Öte	-10.1725
rü	-10.173
▁Fotoğraf	-10.173
▁dekorasyon	-10.1731
▁katılma	-10.1733
▁araçlar	-10.1738
▁hizmetler	-10.1749
▁duyuru	-10.175
lerimi	-10.1751
sındaki	-10.1754
▁başla	-10.176
leyin	-10.1761
▁hakkını	-10.1765
▁isteyenler	-10.1768
▁Makine	-10.177
▁prim	-10.1774
▁gerçekleşen	-10.178
▁duru	-10.1782
▁komp	-10.1783
▁terörist	-10.1789
▁yönlendir	-10.1789
abilmektedir	-10.1792
▁milletvekili	-10.1792
lanmaktadır	-10.1796
▁unutma	-10.1796
▁Hukuk	-10.1797
▁Fen	-10.1797
▁alıcı	-10.1798
▁fırın	-10.1799
▁çalıştı	-10.18
▁icin	-10.1801
suzluk	-10.1805
▁uygulay	-10.1807
▁Far	-10.1808
▁ahlak	-10.182
▁manzara	-10.1821
▁Medi	-10.1822
▁rakip	-10.1826
▁edeceği	-10.183
▁2000	-10.1832
▁sey	-10.1835
▁Toplantı	-10.1835
▁önemi	-10.1836
▁öldürül	-10.1837
▁noktasında	-10.1838
▁yapmanız	-10.1839
▁uzat	-10.1842
▁yapması	-10.1843
▁sunar	-10.1843
▁abi	-10.1843
diğinde	-10.1844
▁ülkemiz	-10.1847
▁izni	-10.185
89	-10.1853
mun	-10.1854
▁varlığı	-10.1854
▁ederiz	-10.1861
ttiği	-10.1866
▁Köyü	-10.1867
▁projeleri	-10.1868
▁tamamladı	-10.1869
▁kuzey	-10.187
▁yitir	-10.187
▁zirve	-10.1871
ا	-10.1878
▁saniye	-10.1884
▁eğlenceli	-10.1884
▁Muha	-10.1888
▁dergi	-10.1889
est	-10.1891
par	-10.1891
▁getirdiği	-10.19
▁duruma	-10.19
▁kaydı	-10.1903
EC	-10.1903
▁Öncelikle	-10.1903
▁Ger	-10.1903
▁Tem	-10.1904
71	-10.1905
▁araçları	-10.1909
▁Afrika	-10.1909
86	-10.1909
rd	-10.1921
şar	-10.1925
▁olduk	-10.1926
▁irade	-10.1929
▁sır	-10.1931
larınızın	-10.1932
▁İm	-10.1932
▁dü	-10.1933
leşen	-10.1935
▁mm	-10.1935
▁bedel	-10.1937
74	-10.1937
▁birleştir	-10.1942
▁klasik	-10.1942
▁fuar	-10.1943
▁yılları	-10.1949
▁nda	-10.1951
▁köprü	-10.1952
▁yiyecek	-10.1956
▁Eğitimi	-10.1959
▁ah	-10.1963
Her	-10.1971
ımın	-10.1971
▁hepimiz	-10.1972
imde	-10.1974
Allah	-10.1974
▁yapılabil	-10.1975
▁Köy	-10.1976
▁fırsatı	-10.1979
▁krem	-10.1983
▁Ju	-10.1987
▁radyo	-10.1987
ife	-10.199
51	-10.1992
▁rahmet	-10.1992
▁kapasite	-10.1998
▁sizleri	-10.1999
▁Zaten	-10.2004
▁aracın	-10.2006
ebilme	-10.2006
▁satışı	-10.2007
▁Sal	-10.2012
▁döndü	-10.2012
▁uygulamalar	-10.2014
▁seksi	-10.2014
▁yaptığımız	-10.2023
malar	-10.2024
ılmasını	-10.2029
▁isimler	-10.203
hr	-10.203
▁ilçesi	-10.203
ril	-10.204
▁temsilcileri	-10.2042
▁Lu	-10.2045
▁Servis	-10.2048
▁http	-10.205
inizin	-10.2051
DI	-10.2053
▁zam	-10.2058
▁çök	-10.2064
76	-10.2065
▁kendimi	-10.2068
▁numaralı	-10.2071
GE	-10.2074
▁özgü	-10.2075
liğinin	-10.2075
▁Üyesi	-10.2076
▁Müzik	-10.2079
▁kür	-10.2082
▁Malzeme	-10.2084
▁bayanlar	-10.2084
melisiniz	-10.2086
▁metrekare	-10.2087
▁söyleme	-10.209
▁evre	-10.2091
▁İtalya	-10.2094
▁sürecinde	-10.2094
▁İçeri	-10.2094
▁kamuoyu	-10.21
rik	-10.2101
▁Yazar	-10.2102
▁gerekse	-10.2104
▁değişiklikler	-10.2104
▁olunca	-10.2106
▁ortamı	-10.2112
▁sorgu	-10.2118
▁dizisi	-10.2119
▁formu	-10.2121
larımı	-10.2125
▁sertifika	-10.2126
▁Bunların	-10.2126
tmek	-10.2128
▁üstü	-10.2129
▁olmasa	-10.2131
▁Okulu	-10.2132
▁silin	-10.2132
▁keşfe	-10.2134
▁tarihinden	-10.2137
▁anında	-10.2137
▁beyin	-10.2138
▁icra	-10.2139
▁Naz	-10.214
memiş	-10.2141
▁parmak	-10.2141
▁kurban	-10.2143
lenebilir	-10.2143
▁güncelleme	-10.2143
▁önümüzdeki	-10.2144
şen	-10.215
▁zan	-10.2156
▁İslâm	-10.2156
▁alacağı	-10.216
▁Bodrum	-10.216
▁maden	-10.216
fon	-10.2162
▁kardeşi	-10.2167
▁çalışmak	-10.2176
▁denir	-10.2181
▁Aday	-10.2182
▁kedi	-10.2184
▁mesleği	-10.2192
▁çelik	-10.2196
▁filmin	-10.2197
▁düzenlediği	-10.2205
ski	-10.2206
▁peygamber	-10.2206
▁ülkelerin	-10.2209
▁başlığı	-10.2209
▁süredir	-10.2214
lerdi	-10.2218
▁2019	-10.2222
▁kazanç	-10.2222
ebe	-10.2225
▁sordu	-10.2231
▁zamanında	-10.2234
▁kadrosu	-10.2234
▁şeyin	-10.2239
▁yukarı	-10.2241
▁planı	-10.2243
▁nakliye	-10.2244
▁bireysel	-10.2249
▁töreni	-10.2252
▁çekiyor	-10.2254
▁kimsenin	-10.2254
▁petrol	-10.2255
ÖR	-10.2257
▁olayı	-10.2257
aklı	-10.2258
▁yazdığı	-10.226
69	-10.2261
▁Op	-10.2263
▁pu	-10.2263
▁şüphe	-10.2264
irler	-10.2265
▁KO	-10.2266
▁eleştir	-10.2268
▁altını	-10.2273
▁ürünün	-10.2274
▁gayret	-10.2275
84	-10.2275
sıdır	-10.2276
▁Kaza	-10.2276
▁yatırımcı	-10.2277
rif	-10.2278
29	-10.2278
▁yaptık	-10.2282
▁yapmayı	-10.2287
▁gizle	-10.229
▁Kanunun	-10.2293
üzü	-10.2293
▁iman	-10.2294
▁Ağır	-10.2296
fes	-10.2297
▁Haz	-10.2299
▁yağış	-10.23
▁albüm	-10.23
▁sektörü	-10.2302
▁gücünü	-10.2304
َ	-10.2305
▁Yaşam	-10.2309
▁açıklaması	-10.2312
▁mağdur	-10.2318
▁isimleri	-10.2327
▁hariç	-10.2328
RO	-10.2331
▁günden	-10.2332
▁Başka	-10.2342
▁Müdür	-10.2348
aret	-10.2349
▁(2)	-10.235
▁tanış	-10.2359
▁aktivite	-10.2367
▁oyunlar	-10.2374
61	-10.2379
▁Değer	-10.2385
▁okudu	-10.2386
39	-10.2387
▁özgür	-10.2387
İş	-10.239
▁talimat	-10.239
▁gördü	-10.2391
▁sitemiz	-10.2392
▁33	-10.2392
▁İŞ	-10.2395
▁Kullanıcı	-10.2399
▁güne	-10.2401
▁kazı	-10.2401
▁bes	-10.2403
-3	-10.2403
laşım	-10.2404
müyor	-10.2405
▁oynan	-10.2407
▁dayalı	-10.2411
ÜN	-10.2412
ebilmesi	-10.2417
▁istifa	-10.2418
▁gösterdiği	-10.2419
▁görünüyor	-10.2422
▁ölümü	-10.2422
Do	-10.2423
87	-10.2428
▁02	-10.2431
44	-10.2431
▁yapım	-10.2436
-20	-10.2439
▁haberleri	-10.2445
▁miktarda	-10.2445
hit	-10.2445
▁çevresinde	-10.2446
▁stres	-10.2448
36	-10.2452
▁sırt	-10.2453
▁yaptım	-10.2456
▁pre	-10.2457
▁Aç	-10.2459
▁Kontrol	-10.2471
▁tepe	-10.2475
ütü	-10.2475
IK	-10.2476
ses	-10.2482
▁Sakarya	-10.2482
▁arayan	-10.2482
▁katıldığı	-10.2482
▁Sabah	-10.2486
▁düşündü	-10.2494
▁çeviri	-10.2495
▁dökül	-10.2495
▁evli	-10.2496
Se	-10.2497
▁tescil	-10.2498
▁abone	-10.2498
▁denk	-10.2499
ırlar	-10.2503
▁Tra	-10.2505
lerinize	-10.2505
▁kısmında	-10.2508
▁Filistin	-10.2513
Cumhurbaşkanlığı	-10.2516
yacaktır	-10.2516
▁yaratıcı	-10.2516
▁yapılmaktadır	-10.2521
▁nesne	-10.2524
▁mobilya	-10.2533
▁geldiğini	-10.2534
33	-10.2535
▁geçtiği	-10.2535
▁verici	-10.2537
34	-10.254
▁derecede	-10.2541
▁Festivali	-10.2543
▁sağlanması	-10.2545
inizde	-10.2545
▁mimari	-10.2545
▁ap	-10.2547
▁(19	-10.2547
▁sunmaktadır	-10.2548
▁Con	-10.2551
▁tra	-10.2552
soy	-10.2553
port	-10.2554
73	-10.2559
▁keyif	-10.2567
▁aydın	-10.2572
▁korumak	-10.2577
▁sıfır	-10.2578
▁meme	-10.2579
▁Dönem	-10.258
ılım	-10.2588
▁Oysa	-10.2591
▁ölç	-10.2594
▁saatlerinde	-10.2596
▁enflasyon	-10.2598
▁kavga	-10.2599
mail	-10.2601
▁Tut	-10.2604
▁Doktor	-10.2606
▁duyur	-10.2612
▁fil	-10.2619
▁Tanrı	-10.2619
▁Arı	-10.2623
▁müze	-10.2624
▁Gö	-10.2624
▁koyma	-10.2625
ımızı	-10.2629
▁yöntemleri	-10.2629
▁yerler	-10.2637
▁istanbul	-10.2641
▁eri	-10.2643
▁restoran	-10.2648
Ar	-10.2651
▁09	-10.2657
▁atık	-10.2658
▁dönemin	-10.2664
▁şiş	-10.2664
▁tarifi	-10.2666
▁hamile	-10.2666
▁yıllardır	-10.2668
▁şahıs	-10.2668
▁Çocuklar	-10.2669
▁kültürü	-10.2677
▁alındığı	-10.2678
-5	-10.268
▁artan	-10.268
▁Yunanistan	-10.2683
▁bildirim	-10.2686
dis	-10.2686
▁Sür	-10.2686
olog	-10.2688
▁hadis	-10.2692
abiliriz	-10.2693
▁yerleştir	-10.2694
▁uygulanan	-10.2698
▁Servisi	-10.2703
▁ayağı	-10.2706
▁birliği	-10.2707
▁düştü	-10.2708
▁acaba	-10.2709
▁iPhone	-10.2709
▁zorluk	-10.2709
▁inanç	-10.271
▁kısıt	-10.2712
▁oldum	-10.2715
▁kilit	-10.2715
▁kopya	-10.2716
▁Marka	-10.2716
▁vücudun	-10.2722
?"	-10.2723
▁Abdullah	-10.2724
OK	-10.2728
IS	-10.2728
▁KA	-10.2729
▁Yo	-10.2731
▁olmaları	-10.2732
pınar	-10.2741
▁Caddesi	-10.2742
key	-10.2742
▁34	-10.2747
▁sebeple	-10.2749
▁girişimci	-10.2757
ýný	-10.2757
▁anlayış	-10.2757
▁alınacak	-10.2757
HA	-10.2759
fir	-10.276
▁kulüp	-10.2761
▁TBMM	-10.2763
▁Sektör	-10.2769
▁toplantısı	-10.2782
▁aşkın	-10.2785
▁borcu	-10.2787
▁Adam	-10.2787
▁sizlerle	-10.2789
▁görüyor	-10.279
▁Dünyanın	-10.2793
kül	-10.2795
▁kullanılabilir	-10.2798
▁sure	-10.28
▁vah	-10.2802
▁etmeniz	-10.2803
örü	-10.2805
lüğünü	-10.2809
▁günah	-10.2811
▁bay	-10.2817
▁Port	-10.2817
37	-10.282
▁yetersiz	-10.282
▁Yunan	-10.2821
ünüz	-10.2823
@	-10.2827
▁haberi	-10.2828
▁Düzen	-10.2828
▁ru	-10.283
▁ayda	-10.283
▁kasa	-10.2834
▁dernek	-10.2837
▁Federasyonu	-10.2838
▁gittik	-10.2841
taj	-10.2842
▁kaplama	-10.2843
şik	-10.2845
▁bakın	-10.2845
kça	-10.2846
teri	-10.2846
▁hükümleri	-10.2851
.[	-10.2854
▁emniyet	-10.2854
▁Geliş	-10.2855
▁bozuk	-10.2855
▁ordu	-10.2859
▁takımın	-10.286
▁Şehit	-10.2861
▁Digiturk	-10.2862
yüz	-10.2868
▁amaçla	-10.2868
▁150	-10.2871
79	-10.2871
▁maddesinin	-10.2876
▁uy	-10.2876
▁girer	-10.2876
▁Saç	-10.2877
▁iklim	-10.2877
CE	-10.2878
▁yapıp	-10.2882
▁eseri	-10.2883
2015	-10.2887
▁tez	-10.2891
▁kriter	-10.2892
▁değildi	-10.2895
eceğim	-10.2897
▁Resim	-10.2899
▁muayene	-10.2901
▁Adalet	-10.2902
▁Tiyatro	-10.2908
▁edilerek	-10.2909
▁11.	-10.2911
▁ihlal	-10.2911
▁olabilirsiniz	-10.2915
▁öngörül	-10.2917
▁Alevi	-10.2922
▁gidil	-10.2924
▁Taraf	-10.2927
▁işyeri	-10.2928
fat	-10.293
▁gayet	-10.2931
baba	-10.2933
▁saati	-10.2934
SI	-10.2938
▁Hemen	-10.2939
ood	-10.2941
amadığı	-10.2947
▁Sistem	-10.2947
▁boru	-10.2949
▁göğüs	-10.2952
▁evlilik	-10.2952
▁dedektiflik	-10.2953
▁55	-10.2953
▁Pas	-10.2956
dılar	-10.2957
▁İle	-10.2957
dra	-10.2959
▁yılının	-10.2962
meyeceği	-10.2966
▁sessiz	-10.2969
ub	-10.2969
kış	-10.2972
▁festival	-10.2972
▁şüpheli	-10.2976
▁müdür	-10.2978
larken	-10.298
yordum	-10.298
maktan	-10.2981
▁başlıklı	-10.2983
▁yapılıyor	-10.2984
▁Hakan	-10.2984
▁Tabii	-10.2987
ras	-10.2989
▁Dol	-10.2995
▁gelmektedir	-10.2996
▁maçında	-10.2999
!”	-10.3
▁açıkça	-10.3006
▁Günümüzde	-10.3009
▁ağız	-10.3009
▁forum	-10.301
▁detay	-10.3012
▁Personel	-10.3012
dere	-10.3013
▁geldik	-10.3014
▁payı	-10.3017
▁hatun	-10.302
▁yukarıda	-10.302
▁Öl	-10.3022
▁ayrıntı	-10.3025
sey	-10.3028
▁oluşturan	-10.3032
▁kodu	-10.3035
bal	-10.3035
▁geçiyor	-10.3035
▁değiştiril	-10.3037
▁sebze	-10.3039
▁yükleme	-10.304
62	-10.3042
▁yürütül	-10.3047
▁detaylar	-10.3048
▁cildi	-10.3054
▁taze	-10.3056
▁if	-10.3056
▁Tor	-10.3057
▁artması	-10.3057
▁konaklama	-10.3059
luyor	-10.3067
▁kuralları	-10.307
▁onunla	-10.307
▁teori	-10.3074
ligi	-10.3074
▁ulaşmak	-10.3076
mit	-10.308
bü	-10.3083
▁halen	-10.3084
iğe	-10.3084
▁bisiklet	-10.3085
ımıza	-10.3086
▁Yusuf	-10.3091
▁döv	-10.3092
▁hayatın	-10.3094
▁gelince	-10.3097
▁Mutfak	-10.3098
▁dikkatli	-10.3099
▁fizik	-10.3101
▁öncü	-10.3101
Devam	-10.3102
▁Mas	-10.3103
▁perde	-10.3105
SS	-10.3105
ros	-10.3106
zon	-10.3108
layabilir	-10.3115
▁plak	-10.3115
▁birimleri	-10.3119
▁2006	-10.3119
▁Bayram	-10.3125
▁Maliye	-10.3129
▁beklen	-10.3131
▁Marmara	-10.3131
▁ekmek	-10.3133
▁sel	-10.3133
ÜR	-10.3136
Re	-10.3137
▁dayanıklı	-10.3137
▁Savaş	-10.3139
#	-10.3139
▁birbirleri	-10.3141
▁vesile	-10.3144
zik	-10.3146
▁yolculuk	-10.3152
ruk	-10.3153
▁Cumartesi	-10.3155
▁delil	-10.3158
▁adli	-10.3159
▁Sü	-10.3159
▁itibar	-10.3163
▁ülkelerde	-10.3164
▁zincir	-10.3165
▁namazı	-10.3166
▁Asker	-10.3168
mir	-10.317
▁söylemek	-10.3171
▁ri	-10.3172
▁çıkarma	-10.3175
▁tadı	-10.3178
▁uzan	-10.3181
ity	-10.3182
▁Kullanım	-10.3184
2014	-10.3191
▁Doğal	-10.3191
▁olu	-10.3191
▁ulaştı	-10.3194
yurdu	-10.3195
▁koşullar	-10.3196
▁oluşur	-10.3197
▁gözet	-10.3206
▁usul	-10.3211
▁Bana	-10.3212
▁sorumluluğu	-10.3214
▁evinde	-10.3216
İŞ	-10.3218
▁öğle	-10.3218
▁ardı	-10.322
▁çevril	-10.322
▁korunması	-10.3221
▁milletin	-10.3225
▁üretilen	-10.3228
▁kaçak	-10.3231
▁Geri	-10.3235
Sen	-10.3235
▁kendinizi	-10.3236
zo	-10.3237
▁sürül	-10.3239
▁Kayıt	-10.3241
▁girişimi	-10.3242
▁profil	-10.3244
▁Video	-10.3245
▁süper	-10.3248
▁Ah	-10.325
▁MA	-10.325
iyorlar	-10.3253
55	-10.3257
▁çap	-10.3263
▁kral	-10.3265
▁temizliği	-10.3267
▁iletişime	-10.3268
▁göstermektedir	-10.3273
▁Rektör	-10.3275
mıştım	-10.3279
▁Hiç	-10.328
▁cins	-10.328
▁merhaba	-10.3282
stik	-10.3283
▁sahil	-10.3285
▁devri	-10.3289
▁şirketin	-10.3296
▁Paris	-10.3301
▁kurulum	-10.3301
▁Farklı	-10.3302
▁dilim	-10.3307
▁konferans	-10.331
▁teknolojisi	-10.3316
uğu	-10.3318
▁gerekçe	-10.3323
▁Sevgili	-10.3324
▁özgürlük	-10.3324
▁tema	-10.3325
▁Cam	-10.3327
▁ruhu	-10.3328
▁Mobil	-10.3332
▁coğrafya	-10.3334
91	-10.3337
▁Kore	-10.3337
▁koydu	-10.334
ASI	-10.3341
▁Kurt	-10.3343
▁Denizli	-10.3345
▁herşey	-10.3346
hâ	-10.3349
▁yas	-10.3349
▁ettikleri	-10.3356
uştur	-10.3359
▁riski	-10.336
▁48	-10.336
▁harita	-10.3363
▁Dalı	-10.3367
▁kısmını	-10.3368
▁markası	-10.3371
▁alımı	-10.3377
▁Kitabı	-10.3377
▁sanırım	-10.3378
ografi	-10.3387
▁tehlikeli	-10.3389
▁yıla	-10.3392
▁sınıfı	-10.3394
▁mail	-10.3394
BB	-10.3395
▁anti	-10.3395
▁sınavı	-10.34
▁Dağ	-10.3403
▁personeli	-10.3405
▁Yabancı	-10.3406
mut	-10.3406
▁göstermek	-10.3406
▁Tel	-10.3407
▁bulunduğunu	-10.3407
▁belgeleri	-10.3407
▁konuşul	-10.3415
▁beklenen	-10.3416
▁oluşturma	-10.3416
▁Ey	-10.3419
▁Barış	-10.3424
▁görüşmeler	-10.3425
▁hav	-10.3426
▁çözül	-10.3428
▁Takımı	-10.3434
▁Tür	-10.3435
▁odaklan	-10.3438
-19	-10.344
▁yolunu	-10.3451
▁saatleri	-10.3452
▁vermesi	-10.3452
▁Göster	-10.3452
▁$	-10.3457
liyoruz	-10.3459
▁evin	-10.346
▁Kıy	-10.3462
▁sıcaklık	-10.3464
▁maddeler	-10.3467
▁yıkama	-10.347
▁çözümü	-10.3471
▁ibadet	-10.3471
▁zorla	-10.3472
▁gök	-10.3473
nuzu	-10.3476
trik	-10.3481
▁gerçeği	-10.3481
▁düzenlen	-10.3482
▁zamanlar	-10.3486
▁deneyimi	-10.3486
▁bahar	-10.3488
▁mana	-10.3489
sir	-10.349
▁kullanıcıların	-10.349
53	-10.3491
maktır	-10.3491
▁yaprak	-10.3494
mıyorum	-10.35
▁serisi	-10.3502
▁bağımlı	-10.3502
▁disiplin	-10.3502
▁Gir	-10.3509
▁üyelik	-10.3518
▁Kad	-10.352
amayacak	-10.3521
acağımız	-10.3522
▁doğan	-10.3524
▁ik	-10.3526
▁yerleşim	-10.3528
▁olmuştu	-10.353
▁gördüm	-10.3531
▁bat	-10.3543
▁bilinci	-10.3548
▁uzay	-10.356
▁çalışmaya	-10.3561
▁damar	-10.3561
unuzu	-10.3565
▁havuz	-10.3568
meyin	-10.3569
▁anlaş	-10.3571
▁rahatlıkla	-10.3572
▁aylarında	-10.3574
▁hastalıkları	-10.3576
▁birlik	-10.3578
▁yaşadı	-10.3582
▁Edebiyat	-10.3583
▁Şanlıurfa	-10.3583
▁idari	-10.3584
fen	-10.3585
▁yazık	-10.3586
kür	-10.3586
▁Art	-10.3587
▁çağ	-10.359
▁taraftan	-10.3591
memesi	-10.3592
▁vücudu	-10.3596
▁dinleme	-10.3601
▁Twitter	-10.3603
▁bulan	-10.3604
tiğini	-10.3608
▁performansı	-10.3608
▁aldık	-10.3608
vel	-10.361
▁teşekkürler	-10.3611
lığının	-10.3611
▁sendika	-10.3612
▁yöre	-10.3612
▁nite	-10.3614
▁Gar	-10.3624
▁yeti	-10.3625
ted	-10.3627
▁Nu	-10.3631
▁çıkardı	-10.3631
▁yavru	-10.3636
shi	-10.3641
▁Yemek	-10.3645
▁maçta	-10.3645
▁Bin	-10.3646
▁Çalış	-10.3647
▁etmekte	-10.3651
▁yakalan	-10.3651
▁memnuniyeti	-10.3653
▁lideri	-10.3655
▁Birçok	-10.3657
▁tuş	-10.3659
lıyorum	-10.3662
▁ikili	-10.3664
▁Mac	-10.3664
▁Dün	-10.3664
▁Yüce	-10.3665
▁Erzurum	-10.3673
▁Ru	-10.3676
pon	-10.3676
çek	-10.3678
▁kimliği	-10.3678
▁grafik	-10.3678
stra	-10.3679
▁görülür	-10.3679
▁Sel	-10.3681
kiralama	-10.3681
▁alkol	-10.3683
98	-10.3686
▁Pazartesi	-10.3692
▁beğeni	-10.3695
▁makyaj	-10.3695
▁tl	-10.3699
burg	-10.37
▁bozul	-10.3703
▁İmam	-10.3707
▁tutum	-10.3709
▁İlgili	-10.3711
sunun	-10.3713
▁Doğum	-10.3713
▁Sizler	-10.3717
likten	-10.3721
▁görüyoruz	-10.3726
▁şeyleri	-10.3726
▁Online	-10.3727
TK	-10.3729
▁göl	-10.3731
▁Emre	-10.3734
emeyen	-10.3741
▁maalesef	-10.3741
▁Hollanda	-10.3741
▁Yakın	-10.3742
▁harekete	-10.3747
▁olamaz	-10.3747
TM	-10.3747
▁Kupası	-10.3748
▁azından	-10.3749
TÜRK	-10.3751
▁krizi	-10.3752
▁oturma	-10.3753
▁düşünür	-10.3757
▁muhafaza	-10.3759
▁uygulanması	-10.376
LU	-10.3763
leyip	-10.3763
▁kurmak	-10.3763
▁düşündüğü	-10.3765
▁demokratik	-10.3765
“	-10.3768
ekli	-10.3769
▁müziği	-10.3769
▁HDP	-10.3771
▁Belir	-10.3772
▁kanalı	-10.3775
▁cenaze	-10.3776
▁söylediği	-10.3782
▁mes	-10.3784
▁kop	-10.3785
▁ırk	-10.3786
leyebilir	-10.3793
▁sisteminin	-10.3794
geç	-10.3796
▁Bununla	-10.3796
sün	-10.38
muzun	-10.3801
▁konumu	-10.3802
IZ	-10.3803
▁politikası	-10.3807
▁korun	-10.3809
▁sezonun	-10.381
▁Ardından	-10.3812
▁Salonu	-10.3812
▁bilgilendirme	-10.3813
▁Kılıçdaroğlu	-10.3814
▁olgun	-10.382
▁Diş	-10.382
▁tren	-10.3821
▁Özgür	-10.3825
▁kurulması	-10.3826
▁sorunların	-10.3826
▁süreli	-10.3827
fl	-10.3828
▁birşey	-10.3829
▁gelerek	-10.383
▁olmaktan	-10.3838
▁açtığı	-10.3841
▁Üretim	-10.385
▁Forum	-10.3851
▁tab	-10.3853
▁bekleniyor	-10.3853
▁çat	-10.3854
▁sunmak	-10.3855
▁düşme	-10.3855
▁bildirdi	-10.3856
lenmektedir	-10.3857
gur	-10.3858
ds	-10.3859
▁Fran	-10.3859
▁fiil	-10.386
▁defter	-10.3861
▁Çarşamba	-10.3862
▁Net	-10.3865
▁kullanıyor	-10.3865
▁buyur	-10.3866
▁yıka	-10.3866
▁hap	-10.3867
▁gerçekleştirdi	-10.3868
▁AR	-10.387
part	-10.3871
▁masraf	-10.3873
▁köyü	-10.3875
▁Kaç	-10.3879
form	-10.3884
▁başlamış	-10.3884
▁sevdiği	-10.3887
YD	-10.3888
▁Sin	-10.389
▁satışa	-10.389
UK	-10.3891
▁bıraktı	-10.3891
▁Hayır	-10.3892
▁bölümde	-10.3892
▁büyüsü	-10.3893
▁oyunun	-10.3894
▁boyutu	-10.3896
ladım	-10.3898
▁Enstitüsü	-10.39
▁merkezine	-10.3901
▁topu	-10.3905
▁izlemek	-10.3908
▁Eve	-10.3909
ebil	-10.3912
▁Dağı	-10.3912
▁Devleti	-10.3915
▁Toplu	-10.3916
▁Takım	-10.3918
OP	-10.3925
▁kuruluşları	-10.393
▁ic	-10.3932
▁örneği	-10.3935
▁haklı	-10.3937
▁hü	-10.3938
ehri	-10.3954
▁olabilecek	-10.3956
▁parlak	-10.3957
ilip	-10.3959
▁Mücadele	-10.396
hisar	-10.3962
▁takdir	-10.3962
sur	-10.3964
▁edebil	-10.3965
▁haksız	-10.3969
▁bizlere	-10.3974
▁başladım	-10.3975
▁arasına	-10.3976
▁Sıra	-10.3979
▁İh	-10.398
▁günleri	-10.3981
▁Zira	-10.3983
▁ekonomisi	-10.3984
▁semt	-10.3985
▁çapında	-10.3985
▁evine	-10.3993
▁Kadınlar	-10.3998
SE	-10.3999
▁anlar	-10.4002
▁planlama	-10.4008
▁etkinlikler	-10.4009
▁Cha	-10.401
▁tutarı	-10.402
İLİ	-10.4022
▁ahşap	-10.4024
▁Günlük	-10.4026
▁firmaların	-10.4034
▁edeceğiz	-10.4035
▁gündemi	-10.404
▁bulunmak	-10.4042
▁Sorumlu	-10.4043
▁direk	-10.4047
▁şirketleri	-10.4047
▁Yardım	-10.4048
▁sektörün	-10.4049
▁Soy	-10.405
▁sek	-10.4052
38	-10.4058
▁değişme	-10.4059
▁alabilir	-10.4061
▁yüzlerce	-10.4061
▁emek	-10.4062
▁ilerleme	-10.4063
▁hamur	-10.4065
DİR	-10.4071
ýþ	-10.4072
irsiniz	-10.4073
▁tutku	-10.4074
▁pil	-10.4076
IL	-10.4077
▁ömrü	-10.4077
▁İnsanlar	-10.408
▁Politika	-10.4081
▁Ağa	-10.4081
▁ömür	-10.4083
▁Basın	-10.4086
lıktan	-10.4086
▁ünite	-10.4087
▁bakımı	-10.4089
▁Terör	-10.409
▁ekipman	-10.4091
▁arkadaşım	-10.4093
▁etrafında	-10.4095
▁vakti	-10.4096
▁konuları	-10.4098
▁sanal	-10.4099
▁sınırı	-10.4101
▁Rah	-10.4102
▁Geçtiğimiz	-10.4102
mekteyiz	-10.4104
▁uyarınca	-10.4106
▁Kanal	-10.4109
▁kâ	-10.411
▁diploma	-10.4112
▁Emin	-10.4114
▁yapıyoruz	-10.4114
▁dans	-10.4116
▁çözümler	-10.4119
▁kayıtlı	-10.412
▁Jandarma	-10.412
▁açıldı	-10.4121
:)	-10.4122
▁engelleme	-10.4126
▁gönderme	-10.4128
▁akademik	-10.4128
tum	-10.4128
▁Test	-10.413
▁yönü	-10.4131
▁olduğunda	-10.4134
▁Hanım	-10.4135
▁yeter	-10.414
▁sil	-10.414
yacağını	-10.4141
47	-10.4141
▁masaj	-10.4146
▁BM	-10.4146
▁Roman	-10.4148
▁Balıkesir	-10.4148
muyor	-10.4151
▁adamın	-10.416
ciliği	-10.4164
ço	-10.4165
▁yolları	-10.4171
▁Ala	-10.4171
▁isterim	-10.4175
nizden	-10.4175
▁Dairesi	-10.4177
▁rüzgar	-10.418
▁yor	-10.4183
demir	-10.4184
▁Yorum	-10.4187
▁muh	-10.4187
▁onur	-10.4187
▁alana	-10.4189
bed	-10.4192
istik	-10.4203
▁Manisa	-10.4204
▁sahipliği	-10.4205
▁sorunun	-10.4209
▁Bebek	-10.421
▁düzenlenecek	-10.4213
▁Düş	-10.4217
▁Numara	-10.4218
▁ithalat	-10.4219
▁etkileri	-10.4223
▁gelmiştir	-10.4227
▁hassas	-10.4228
▁başlan	-10.423
▁bilin	-10.423
▁yorumlar	-10.423
▁ettiğiniz	-10.4231
▁dersi	-10.4232
▁komut	-10.4233
▁boğ	-10.4241
▁geçirdi	-10.4243
eyim	-10.4255
▁attığı	-10.4256
▁Yaşa	-10.4257
▁burs	-10.4258
▁yöneticileri	-10.4258
▁yumuşak	-10.4258
▁eşliğinde	-10.4267
▁ço	-10.4268
bol	-10.4269
▁manevi	-10.4271
▁sab	-10.4272
▁durumun	-10.4273
▁yazarı	-10.4274
▁söyler	-10.4276
▁ulus	-10.4278
▁istikrar	-10.4281
▁çare	-10.4286
▁savcı	-10.4287
▁Savunma	-10.4288
▁edici	-10.429
▁08	-10.4293
▁birimi	-10.4295
▁ismini	-10.4298
TV	-10.4299
▁yürürlüğe	-10.4299
▁herkesi	-10.4299
▁belgeler	-10.4301
▁söylem	-10.4302
▁65	-10.4312
▁Metin	-10.4312
▁karşılama	-10.4313
▁değişimi	-10.4314
mızdan	-10.4315
▁sağladığı	-10.4315
▁oluşturduğu	-10.4316
Kar	-10.4317
hur	-10.4317
▁cihazlar	-10.4319
▁sız	-10.4319
▁toplama	-10.4321
▁bulur	-10.4322
▁aleyhi	-10.4325
▁vefat	-10.4328
▁”	-10.4328
dö	-10.433
▁kaba	-10.4332
▁istedim	-10.4334
▁döner	-10.4337
nder	-10.4337
▁kaçın	-10.4341
▁yaşamını	-10.4348
▁öğrencilere	-10.4349
▁kararlı	-10.4353
▁geldiğinde	-10.4353
▁kullanıldığı	-10.4354
▁rezervasyon	-10.4355
▁HD	-10.4357
▁duyarlı	-10.4358
ang	-10.436
▁Gra	-10.4361
▁Başarı	-10.4368
▁75	-10.4369
▁tok	-10.4371
şir	-10.4371
▁Tamam	-10.4373
▁oynama	-10.4375
▁Sistemleri	-10.4375
Baş	-10.4376
▁içme	-10.4378
muzda	-10.438
▁kişiyi	-10.4385
▁egemen	-10.4385
▁ih	-10.4386
▁işletim	-10.4388
▁yükümlü	-10.4388
▁yağı	-10.4388
▁tarafında	-10.439
▁gar	-10.439
▁katkıda	-10.4396
▁Yaklaşık	-10.4396
▁bölün	-10.4396
▁Hangi	-10.4397
▁teklifi	-10.4397
▁felsefe	-10.4398
▁Sağlığı	-10.4401
▁400	-10.4402
▁montaj	-10.441
▁hikâye	-10.4411
▁mesleki	-10.4414
▁eğilim	-10.4414
▁Yukarıda	-10.4415
larınıza	-10.4415
▁adıyla	-10.4416
▁şef	-10.4418
diniz	-10.4426
▁protokol	-10.4426
▁Mev	-10.4427
▁cinayet	-10.4428
▁Ele	-10.4434
leşmiş	-10.4434
▁oranda	-10.4434
bre	-10.4435
▁biçimi	-10.4436
▁suyun	-10.4438
▁zararlı	-10.4438
▁karşımıza	-10.4438
▁Hotel	-10.4441
▁Bolu	-10.4443
▁2005	-10.4445
▁38	-10.4447
▁Kızıl	-10.4454
▁görmüş	-10.4454
▁Bayrak	-10.4455
▁ettiler	-10.4455
▁kalıp	-10.4456
▁evet	-10.4457
▁ilanları	-10.4461
▁Oyunu	-10.4461
▁tu	-10.4465
▁sabır	-10.4465
▁Maç	-10.4467
nizle	-10.4471
▁sürpriz	-10.4473
▁Mus	-10.4476
▁sunma	-10.4481
▁bacak	-10.4484
▁dağıtım	-10.4486
▁arşiv	-10.4486
por	-10.4488
▁Konseyi	-10.4491
MI	-10.4494
▁ihtiyaçlarını	-10.4494
amayacağı	-10.4494
▁düşüş	-10.4494
▁Dizi	-10.4504
▁uyma	-10.4506
▁başlık	-10.4508
▁Fet	-10.451
▁sakın	-10.4511
▁üretme	-10.4512
▁Yağ	-10.4512
▁hükmü	-10.4513
▁Üstelik	-10.4513
48	-10.4513
▁etken	-10.4516
▁kesme	-10.4516
▁kurtarma	-10.4519
▁olmanın	-10.4525
▁vatandaşların	-10.4531
▁oranları	-10.4537
▁yarısı	-10.4537
ılamaz	-10.4538
▁Hali	-10.4542
▁cennet	-10.4543
▁bakar	-10.4548
▁sex	-10.455
▁kaş	-10.4552
▁yaratma	-10.4552
LIK	-10.4553
Kur	-10.456
ates	-10.4561
▁mimar	-10.4562
▁diren	-10.4562
vat	-10.4564
malıyız	-10.4568
▁sahte	-10.4568
▁giyim	-10.457
▁KUR	-10.4571
▁miras	-10.4571
▁eğlen	-10.4572
▁Motor	-10.4574
iyat	-10.4576
▁diyet	-10.4578
▁çekin	-10.4579
▁şunu	-10.458
▁Suudi	-10.4585
▁soğu	-10.4585
▁Kul	-10.4586
▁gerçekleşti	-10.4588
gon	-10.4588
▁haftada	-10.4589
uyoruz	-10.4589
▁Sil	-10.4594
sever	-10.4594
▁kendileri	-10.4597
▁buluşma	-10.4599
▁psikolojik	-10.4604
▁Kapsam	-10.4609
▁ayrıntılı	-10.461
▁Orhan	-10.461
▁tazminat	-10.4613
▁izleyici	-10.4614
▁oyuncular	-10.4618
list	-10.462
▁Konut	-10.4623
▁dışındaki	-10.4624
▁hepsini	-10.4624
▁kullanılarak	-10.4625
▁öğrenmek	-10.4625
▁getiriyor	-10.4627
▁Selçuk	-10.4639
▁Haberleri	-10.4642
ebilmektedir	-10.4645
Gün	-10.4647
▁mekanizma	-10.4647
▁anayasa	-10.4647
▁temizleme	-10.4652
▁Mühendisliği	-10.4652
▁istenen	-10.4657
▁dışına	-10.4658
DER	-10.466
▁oluşturmak	-10.4662
▁Bakanlık	-10.4662
▁sitemizde	-10.4663
▁hazırlama	-10.4664
medim	-10.4665
▁öğrenim	-10.4669
▁yardımı	-10.4669
▁başkenti	-10.4671
▁ÖZ	-10.4677
▁asit	-10.4677
gaz	-10.4679
▁Ziyaret	-10.4679
▁bunlara	-10.4679
sch	-10.4681
▁konulu	-10.4687
▁Temiz	-10.4689
▁yapılabilir	-10.4689
▁Göl	-10.4695
▁Sch	-10.4698
▁maddeleri	-10.47
▁Perşembe	-10.4701
▁Hayvan	-10.4703
nüz	-10.4714
▁maliyeti	-10.4715
▁Işık	-10.4717
▁alanına	-10.4719
üre	-10.472
▁Arkadaş	-10.4721
gh	-10.4721
yecektir	-10.4721
▁lüks	-10.4721
▁Masa	-10.4722
▁mantık	-10.4727
▁bilmiyorum	-10.4727
▁merkezleri	-10.4734
matik	-10.4734
▁gelişen	-10.4735
▁çöp	-10.4738
▁ayakta	-10.4738
yelim	-10.4739
▁egzersiz	-10.4741
▁alanlarında	-10.4746
▁derken	-10.4748
▁sayısının	-10.4748
▁kapısı	-10.4749
▁kapsamlı	-10.475
▁blok	-10.475
DP	-10.4757
▁hareketi	-10.4757
▁Yok	-10.4759
▁gidecek	-10.476
▁hareketli	-10.476
▁Beş	-10.4762
▁ekleme	-10.4762
▁Selam	-10.4765
▁araştırmalar	-10.4769
▁hissetme	-10.4771
▁per	-10.4771
▁duruyor	-10.4773
▁bilmiyor	-10.4774
▁bizler	-10.4777
▁market	-10.478
▁açılması	-10.4782
▁İndir	-10.4782
▁cadde	-10.4786
▁azalma	-10.479
▁çalışmalarına	-10.4791
▁yayımlanan	-10.4791
▁Kış	-10.4793
▁çeşitleri	-10.4796
CA	-10.4797
▁Hayatı	-10.4797
cal	-10.4799
▁250	-10.48
▁Kalkınma	-10.4801
▁işveren	-10.4803
İST	-10.4807
▁sin	-10.4816
ilmelidir	-10.4816
▁pasta	-10.4818
sor	-10.4819
tığımız	-10.4821
landığını	-10.4822
▁Borsa	-10.4822
▁aksesuar	-10.4824
2)	-10.4824
▁adaylar	-10.4825
▁dönemlerde	-10.4827
▁York	-10.4829
▁anlatım	-10.4832
▁kongre	-10.4832
doğan	-10.4833
ata	-10.4835
▁konuyu	-10.484
▁genişlet	-10.4845
▁şirketler	-10.4846
▁gününde	-10.4846
▁senaryo	-10.485
▁Uğur	-10.485
▁Sol	-10.485
▁yaptığınız	-10.4853
▁sözlü	-10.4853
▁Cevap	-10.4857
▁buluştur	-10.4858
+1	-10.486
▁bilgilere	-10.4865
hra	-10.4865
▁yuvarla	-10.4869
▁çoğal	-10.487
▁emri	-10.487
▁İsti	-10.4874
▁bitti	-10.4875
▁istemiyor	-10.4875
▁görünce	-10.4877
▁Cihaz	-10.4881
▁TC	-10.4882
▁alakalı	-10.4883
▁hitap	-10.4884
LEN	-10.4884
1)	-10.4886
cisi	-10.4887
▁We	-10.489
▁muhalefet	-10.4894
zyon	-10.4898
▁sonsuz	-10.4898
▁tahsil	-10.4898
Si	-10.4898
▁kanat	-10.4898
▁malzemeler	-10.4899
▁ölçüm	-10.49
▁bileti	-10.4901
▁teşkilat	-10.4901
▁mev	-10.4903
▁verilmiştir	-10.4903
▁Yardımcı	-10.4905
ulduğu	-10.4907
▁vizyon	-10.4908
▁Birleşik	-10.4911
▁yapılmıştır	-10.4911
▁evrak	-10.4916
▁kiralık	-10.4918
▁geride	-10.4918
▁yoğur	-10.492
▁etmez	-10.4922
▁aşamasında	-10.4922
▁Ofis	-10.4925
▁sü	-10.4926
▁Com	-10.4927
▁artışı	-10.4932
▁yürütülen	-10.4933
âb	-10.4933
▁Müzesi	-10.4934
chi	-10.4935
▁alırken	-10.4937
lemiş	-10.4937
▁Mimar	-10.4938
▁almıştır	-10.494
▁ağırlık	-10.4941
▁bölümünü	-10.4942
▁materyal	-10.4947
▁arasından	-10.4947
▁Şampiyon	-10.495
▁ajans	-10.4952
▁port	-10.4953
▁hazırladığı	-10.4954
adet	-10.4954
▁hastalıklar	-10.4956
▁öp	-10.4964
▁şartı	-10.497
SAN	-10.4973
▁atama	-10.4974
▁Mahkeme	-10.4979
▁başvurusu	-10.498
▁kare	-10.4982
▁canlandır	-10.4984
▁kaygı	-10.4987
▁kurumların	-10.4987
▁getirir	-10.4991
▁Dav	-10.4991
▁bakma	-10.4994
▁Örnek	-10.4996
▁resimleri	-10.4999
▁tablet	-10.5004
▁enfeksiyon	-10.5006
▁tanık	-10.5007
mâ	-10.5008
▁yaşadıkları	-10.5008
▁mesajı	-10.5009
rul	-10.5012
▁ihtimali	-10.5013
▁karanlık	-10.5013
▁tutuklu	-10.5014
▁gram	-10.5014
-6	-10.5016
miştim	-10.5019
tuğu	-10.5021
▁satır	-10.5022
tic	-10.5023
▁Ste	-10.5026
42	-10.5027
▁kalıyor	-10.5028
▁çiftçi	-10.5028
DEN	-10.5031
▁Kab	-10.5033
▁Ortak	-10.5035
izasyon	-10.5036
▁ER	-10.5037
▁öğrenildi	-10.504
▁yöntemler	-10.504
▁karakteri	-10.5042
UT	-10.5042
▁bilgilerin	-10.5044
▁Pek	-10.5045
▁şirketlerin	-10.5047
▁ruhsat	-10.505
▁kemik	-10.505
▁Â	-10.5054
▁getirilmesi	-10.5055
▁rekor	-10.5056
▁laf	-10.5056
▁olmuyor	-10.5058
▁kaybeden	-10.506
▁yönetme	-10.5061
▁bı	-10.5063
▁hayatına	-10.5064
▁uyuşturucu	-10.5068
VA	-10.5076
▁Düz	-10.5079
eğer	-10.5084
▁tıkla	-10.5085
▁sıcaklığı	-10.5088
▁sembol	-10.5089
▁devir	-10.509
▁verdim	-10.5091
▁istatistik	-10.5097
▁organize	-10.5098
▁37	-10.51
▁direkt	-10.5102
▁Medya	-10.5102
6)	-10.5103
▁ham	-10.5103
önü	-10.5104
▁fo	-10.5106
oyun	-10.5109
▁unutmayın	-10.5109
-10	-10.5113
▁bekleyen	-10.5114
▁tohum	-10.5117
▁kolaylıkla	-10.5118
▁Sizin	-10.512
▁stok	-10.5121
▁Salı	-10.5125
▁bizimle	-10.5127
▁aksine	-10.5132
▁TÜ	-10.5132
▁Kuruluş	-10.5132
▁zehir	-10.5136
irse	-10.5138
▁yapılacağı	-10.5139
»	-10.5139
▁gerilim	-10.5142
▁tüketimi	-10.5144
▁poli	-10.5147
▁pahalı	-10.515
/2	-10.5152
▁seviyorum	-10.5153
▁Yönetmelik	-10.5156
▁Size	-10.5159
▁emeği	-10.5161
▁BÖLÜM	-10.5163
▁kör	-10.5171
▁toplantısında	-10.5171
▁kurallar	-10.5171
lerinizin	-10.5171
▁onarım	-10.5176
▁gruplar	-10.5178
▁patlama	-10.5178
▁bölgeye	-10.5179
▁kalacak	-10.5192
▁başladık	-10.5193
▁çözme	-10.5194
▁sürüyor	-10.5197
ıldığında	-10.5201
▁kutlama	-10.5203
▁kamyon	-10.5204
▁yetkilileri	-10.5205
▁sim	-10.5209
▁kadını	-10.521
ÜL	-10.5215
▁görülmektedir	-10.5218
▁plastik	-10.5219
▁ordusu	-10.5221
▁Sohbet	-10.5222
▁hayvanlar	-10.5224
▁kavramı	-10.5227
▁beraberinde	-10.5228
vas	-10.523
mekten	-10.5231
▁Tebliğ	-10.5234
▁Danışma	-10.5234
ılmaya	-10.5236
▁Tay	-10.5239
▁Tanım	-10.5241
ði	-10.5244
▁galibiyet	-10.5244
çılık	-10.5246
▁karşılığı	-10.5247
▁Sak	-10.5249
▁Cami	-10.5249
▁03	-10.5249
▁sistemin	-10.5251
▁aksa	-10.5251
▁macera	-10.5252
▁sayfasında	-10.5252
▁peynir	-10.5253
▁kalabalık	-10.5255
▁görevini	-10.5258
▁doktora	-10.5262
▁ab	-10.5262
▁sıralama	-10.5263
▁devrim	-10.5263
▁tesisat	-10.5265
▁go	-10.5268
▁ortasında	-10.527
▁çoğunluğu	-10.5273
ülmesi	-10.5274
▁Mesela	-10.5283
▁faktör	-10.5284
▁tasarlanmış	-10.5287
▁sanık	-10.5292
▁desen	-10.5299
▁teker	-10.5303
▁anlamında	-10.5304
▁yaralandı	-10.5306
▁Mat	-10.5308
kullanılmaktadır	-10.5309
EP	-10.531
▁başlamıştır	-10.5315
▁kafe	-10.5316
▁İspanya	-10.5317
▁Rize	-10.5321
▁yorgun	-10.5324
▁yaptığını	-10.5324
▁kısaca	-10.533
▁kalması	-10.5331
▁değişken	-10.5335
▁Sorun	-10.5336
İstanbul	-10.5336
▁Q	-10.5338
▁oturum	-10.5339
▁altındaki	-10.5342
▁koyun	-10.5343
▁finansal	-10.5343
▁kullanır	-10.5348
mekle	-10.5348
▁simge	-10.5348
▁taksi	-10.5349
▁ÜNİVERSİTESİ	-10.535
▁büro	-10.535
▁Görüntü	-10.5351
▁Londra	-10.5353
▁Hep	-10.5357
▁anlatıyor	-10.5358
▁erkeği	-10.5359
▁bitme	-10.5363
ong	-10.5365
▁albümü	-10.5366
▁İzle	-10.5369
▁oluşturur	-10.537
▁açan	-10.5373
▁nitelik	-10.5374
▁destekleme	-10.5375
▁Seri	-10.5378
▁liman	-10.5382
ebiliriz	-10.5384
▁kapasitesi	-10.5384
▁Hü	-10.5386
▁İlişkin	-10.5386
▁koleksiyon	-10.5398
▁sevme	-10.5399
press	-10.5403
▁bildirildi	-10.5404
▁sizden	-10.5407
▁eşlik	-10.5408
▁Tab	-10.5411
▁ayrıldı	-10.5412
▁stil	-10.5412
▁Kartal	-10.542
▁teknolojik	-10.542
▁Kuş	-10.5422
▁sektörde	-10.5422
Q	-10.5422
gil	-10.5424
▁İlçesi	-10.5425
▁tedarik	-10.5428
ALI	-10.5429
▁plana	-10.5433
▁öğrencisi	-10.5435
▁denilen	-10.5437
▁Çiçek	-10.5437
▁efsane	-10.5437
▁bizzat	-10.5437
▁Kuru	-10.5442
▁Ruh	-10.5446
▁kategorisinde	-10.5454
▁hakem	-10.5456
SO	-10.5456
▁öğe	-10.5457
▁kişilere	-10.546
▁seyret	-10.546
▁Mali	-10.5467
▁gözden	-10.5468
▁İnan	-10.5468
ört	-10.547
▁yolculuğu	-10.5473
▁hayatında	-10.5476
▁yılına	-10.5479
▁derdi	-10.548
▁detayları	-10.5481
▁Yalnız	-10.5481
▁gr	-10.5481
ATI	-10.5483
▁efendi	-10.5486
▁dostu	-10.5486
▁koruyucu	-10.5487
▁tev	-10.5487
▁belirlenmesi	-10.549
▁bayrak	-10.5492
▁AD	-10.5493
▁anlamlı	-10.5497
ılmak	-10.5498
▁Evden	-10.5499
▁odaklı	-10.5502
▁benimle	-10.5508
▁Tedavi	-10.5511
IŞ	-10.5515
▁Fil	-10.5516
▁devreye	-10.5519
Er	-10.552
▁şeye	-10.5524
▁Bah	-10.5524
▁ila	-10.5525
▁kulübü	-10.5526
▁raf	-10.553
▁Kum	-10.5532
▁İşçi	-10.5534
AA	-10.5534
▁düzgün	-10.5539
▁vali	-10.5542
▁Ürünleri	-10.5543
▁Bazen	-10.5544
▁ağacı	-10.5544
▁karşılıklı	-10.5547
▁sığın	-10.5549
▁duyar	-10.555
▁mini	-10.5551
▁kuruluşlar	-10.5552
▁Kilis	-10.5556
▁oynanan	-10.5556
Ko	-10.5556
▁cesaret	-10.5557
▁olmayacak	-10.5557
▁beyler	-10.5559
▁verebilir	-10.5559
▁Ker	-10.556
▁verildiği	-10.5564
dikçe	-10.5566
▁Ünlü	-10.5566
duğumuz	-10.5572
larımızda	-10.5575
▁Kategori	-10.5577
▁ortada	-10.5577
▁bildiri	-10.5581
▁seviyede	-10.5583
▁Uyg	-10.5587
▁mektup	-10.5594
▁seyirci	-10.5595
▁şair	-10.5596
▁tarihine	-10.56
▁örneğin	-10.56
▁42	-10.5603
▁binası	-10.5608
▁eşsiz	-10.561
▁Fre	-10.5613
▁takibi	-10.5616
▁redded	-10.5617
▁Tatil	-10.5618
▁Arabistan	-10.562
▁oynadığı	-10.562
▁sağladı	-10.5623
▁çak	-10.5624
▁zorundadır	-10.5625
▁zeka	-10.5627
UZ	-10.563
ceği	-10.5632
▁sizlerin	-10.5633
eddin	-10.5634
▁inancı	-10.5635
▁güvence	-10.5635
▁kurulmuş	-10.5638
ılacaktır	-10.5644
nızdan	-10.5645
▁(2	-10.5647
▁Hastane	-10.5648
▁Star	-10.5651
▁YIL	-10.5651
ELİ	-10.5651
uyorum	-10.5654
▁diyorum	-10.5657
▁asgari	-10.5658
▁Esas	-10.566
▁potansiyel	-10.566
▁Tim	-10.5661
ğında	-10.5669
▁Gümüş	-10.5671
▁yaşamın	-10.5671
uşu	-10.5671
▁bilgilerini	-10.5671
▁cihazları	-10.5672
▁dinamik	-10.5678
yazı	-10.5679
▁ederler	-10.5681
▁sağlamaktadır	-10.5681
▁boyun	-10.5682
leştirilmesi	-10.5686
▁Kerim	-10.5686
▁yakıt	-10.5691
▁estetik	-10.5692
100	-10.5693
▁taşıyor	-10.5694
▁verilmiş	-10.5695
ebileceğiniz	-10.5699
▁değişen	-10.5702
▁taksit	-10.5705
▁çıkıp	-10.5707
▁teşkil	-10.5711
duğunuz	-10.5711
▁protein	-10.5712
▁ısrar	-10.5712
▁Güncel	-10.5712
54	-10.5718
▁slogan	-10.5719
▁Uzmanı	-10.5721
ılacağı	-10.5722
▁düzenlendi	-10.5725
▁sorgulama	-10.5728
▁yapmaktadır	-10.573
▁protesto	-10.5731
▁İhale	-10.5731
▁Arka	-10.5732
▁Koruma	-10.5734
▁virüs	-10.5736
▁ocak	-10.5736
▁Yahudi	-10.5737
▁Hükümet	-10.5742
▁etmiyor	-10.5742
▁geçirmek	-10.5745
atif	-10.5747
umuzu	-10.5751
▁kalmak	-10.5757
–	-10.5757
mişlerdir	-10.5761
▁44	-10.5761
▁paralel	-10.5761
▁ilişkisi	-10.5761
▁set	-10.5765
▁arttı	-10.5766
▁tutun	-10.5766
▁gazetesi	-10.5766
▁atölye	-10.5771
▁Dergisi	-10.5772
▁sorunsuz	-10.5772
▁aydınlatma	-10.5778
▁geçmesi	-10.5779
▁hangisi	-10.578
▁paylaşmak	-10.5781
work	-10.5782
▁ülkeye	-10.5787
▁çocuklara	-10.5788
▁Komutanlığı	-10.5789
▁üzül	-10.5791
▁doğur	-10.5792
▁hukuki	-10.5795
▁DA	-10.5796
▁teminat	-10.5797
▁52	-10.5799
▁biliyoruz	-10.5805
▁bireyler	-10.5806
▁şaşır	-10.5807
▁kazanmak	-10.5808
▁bebeği	-10.5808
▁beton	-10.581
▁vatandaşı	-10.5811
▁biliyorum	-10.5811
▁tv	-10.5812
metre	-10.5813
▁gereksinim	-10.5813
▁zorlan	-10.5814
▁annem	-10.5819
▁benden	-10.5821
▁Efendi	-10.5823
▁rahatsızlık	-10.5824
▁cevabı	-10.5828
▁bulut	-10.5828
▁açıklandı	-10.5829
mel	-10.5832
törü	-10.5833
▁etkinlikleri	-10.5834
▁anlamak	-10.5835
görü	-10.5835
▁tekne	-10.5837
▁koyu	-10.5839
▁Belge	-10.584
▁hocam	-10.584
▁sistemini	-10.5845
Cİ	-10.5846
▁Kuvvetleri	-10.5847
▁Kadıköy	-10.5848
▁2004	-10.5854
uklu	-10.5857
▁Sır	-10.5859
▁siyasal	-10.5859
▁çalıştık	-10.5864
▁Has	-10.5864
▁kendisinin	-10.5866
▁bedava	-10.5866
▁deplasman	-10.5869
▁mat	-10.5869
▁gönüllü	-10.5871
▁verdikleri	-10.5873
▁Hacı	-10.5874
▁sök	-10.5875
ERİ	-10.5878
▁boşal	-10.5878
▁zafer	-10.5882
▁1000	-10.5882
▁içerir	-10.5882
▁logo	-10.5886
▁hakkındaki	-10.5888
▁makina	-10.5891
▁Çoğu	-10.5891
▁dünyasında	-10.5894
▁Ayşe	-10.5895
▁merdiven	-10.5895
▁Lise	-10.5896
▁saldır	-10.5897
▁geçirdiği	-10.5902
▁uza	-10.5905
:30	-10.5906
ÜZ	-10.5907
▁Konferans	-10.5913
▁milletvekilleri	-10.5913
▁vazgeçilmez	-10.5913
▁sağlayabil	-10.5917
YK	-10.5918
masından	-10.592
▁Avcı	-10.5922
▁tavan	-10.5922
▁temsilci	-10.5925
med	-10.5925
▁Mor	-10.5926
▁mekân	-10.5929
▁bayi	-10.5929
▁ülkemizin	-10.593
▁piyasaya	-10.5933
▁okuyucu	-10.5935
▁uygula	-10.5936
▁anket	-10.5936
▁değ	-10.5936
sion	-10.5938
▁sistemine	-10.594
▁saatte	-10.5942
sav	-10.5946
▁olmanız	-10.5947
tuğ	-10.5948
roid	-10.595
ANI	-10.5952
▁referans	-10.5952
▁tutmak	-10.5955
▁motoru	-10.5958
▁hissi	-10.5959
▁medyada	-10.5962
▁medyum	-10.5964
▁Gazetesi	-10.5969
▁tanışma	-10.5969
▁Ortadoğu	-10.5969
▁vatandaşlarımız	-10.5972
56	-10.5972
▁düşer	-10.5972
▁alınmış	-10.5974
▁kurgu	-10.5978
▁ağırlığı	-10.5981
▁Şah	-10.5981
▁doğdu	-10.5981
▁randevu	-10.5983
meliyiz	-10.5992
▁Renk	-10.5992
▁Şarkı	-10.5992
-4	-10.5993
lanmaya	-10.5998
▁itibarıyla	-10.6004
▁2002	-10.6005
eceğimiz	-10.6008
▁olayın	-10.601
que	-10.6012
▁gündüz	-10.6012
ılmalıdır	-10.6019
▁47	-10.6024
▁çabuk	-10.6029
▁içerisine	-10.603
▁ilaçlar	-10.6031
▁Play	-10.6031
▁Samsung	-10.6032
▁Hindistan	-10.6035
▁Canlı	-10.6042
▁@	-10.6049
▁uzaklaş	-10.605
abileceğini	-10.6052
▁insana	-10.6053
▁Yayınları	-10.6054
▁olmakla	-10.6056
▁ölçek	-10.6057
▁istediğini	-10.6059
▁verilmektedir	-10.6063
▁yerleştiril	-10.6066
▁yerlere	-10.6068
▁Ülkemizde	-10.6068
ction	-10.6069
▁Yönetici	-10.6069
▁kaşığı	-10.607
▁mensupları	-10.6071
▁alama	-10.6072
▁tartış	-10.6077
▁peşin	-10.6078
▁çektiği	-10.6083
52	-10.6084
▁işini	-10.6084
▁emir	-10.6085
▁Sinema	-10.6085
▁kılavuz	-10.6087
ktedir	-10.6089
vaz	-10.6095
▁Sitesi	-10.6098
▁tatmin	-10.6098
▁metro	-10.61
para	-10.6104
▁baktı	-10.6107
▁ora	-10.6116
▁hırsız	-10.6121
▁uygulamaya	-10.6125
▁format	-10.6128
hem	-10.6128
▁bulduğu	-10.6136
▁çekmek	-10.6136
▁disk	-10.6145
KAN	-10.6148
yacağız	-10.6149
▁mevki	-10.6153
▁yaralı	-10.6153
mektir	-10.6158
▁Oyunları	-10.6162
ırsa	-10.6165
▁mod	-10.6165
▁sözleşmesi	-10.6167
▁sektörünün	-10.6168
▁kül	-10.6173
ladığımız	-10.6173
▁Acil	-10.6174
▁Sınavı	-10.6174
▁orijinal	-10.6177
▁gecesi	-10.6179
▁hazırlanmış	-10.6184
▁Sokak	-10.6186
▁yazısı	-10.6186
▁seyred	-10.6194
▁yarattığı	-10.6194
▁Af	-10.6194
▁uygulanır	-10.6194
▁leke	-10.6195
▁yıllarında	-10.6195
▁girmiş	-10.6197
▁kg	-10.6199
▁Ur	-10.6203
▁değilim	-10.6205
▁takvim	-10.6205
▁kapak	-10.6205
▁ortamında	-10.6206
▁bozulma	-10.6208
▁tef	-10.6212
▁almayı	-10.6214
▁biber	-10.6222
▁Dan	-10.623
▁geriye	-10.6233
▁Hiçbir	-10.6238
▁Trabzonspor	-10.6239
2013	-10.6244
▁Usta	-10.6246
▁İlişkiler	-10.6247
ART	-10.6247
▁rastlan	-10.625
▁Mekan	-10.625
▁Kaymakam	-10.6251
▁Fuarı	-10.6251
▁Ayrı	-10.6254
▁çıkarak	-10.6254
▁06	-10.626
▁şarj	-10.6262
▁istediğim	-10.6263
gir	-10.6269
▁bunlardan	-10.6271
▁yeterince	-10.6271
▁başarısız	-10.6276
Dr	-10.6276
▁sön	-10.6278
▁yapılarak	-10.6279
▁temsilcisi	-10.6281
▁akım	-10.6281
ULU	-10.6281
▁tuttu	-10.6282
▁Sayılı	-10.6285
book	-10.629
▁şimdiden	-10.6291
amp	-10.6292
▁Cor	-10.6292
▁tebrik	-10.6297
ARI	-10.6299
▁foto	-10.63
koç	-10.6301
▁bekliyoruz	-10.6304
▁olgu	-10.6304
mışlardır	-10.6305
▁Japonya	-10.6307
7)	-10.6308
▁edecektir	-10.6308
▁görünme	-10.6309
▁geliştirmek	-10.631
▁kasaba	-10.6312
▁modül	-10.6314
lendirilmesi	-10.6316
▁kelimeler	-10.6316
▁yem	-10.6317
▁Gider	-10.6319
▁Abdül	-10.632
▁Kart	-10.6322
▁Giresun	-10.6325
söz	-10.6329
▁kapsamda	-10.6329
▁medeniyet	-10.633
üğü	-10.6332
▁kılın	-10.6335
▁Örgütü	-10.6338
▁haftalık	-10.6341
pro	-10.6343
▁Valisi	-10.6344
▁olayları	-10.6346
▁makinası	-10.6348
▁konuya	-10.635
▁Balık	-10.6356
▁yüce	-10.6359
▁dükkan	-10.6361
▁kokusu	-10.6361
▁Microsoft	-10.6364
▁testi	-10.6365
▁sinyal	-10.6367
▁Instagram	-10.6368
larınızda	-10.6368
▁Bülent	-10.6373
vur	-10.6374
▁kayded	-10.6374
▁öykü	-10.6375
sizliği	-10.6377
▁çalışıyoruz	-10.6379
58	-10.6382
▁Tez	-10.6383
▁sekiz	-10.6388
▁yeteneği	-10.6392
▁duygusal	-10.6395
▁kıy	-10.6395
▁Elektronik	-10.6396
▁seminer	-10.6399
▁durumunu	-10.6404
▁olurdu	-10.6408
▁hafıza	-10.6409
▁katliam	-10.641
▁vurgulayan	-10.6411
▁Azerbaycan	-10.6412
500	-10.6414
▁işlemlerini	-10.6415
▁problemi	-10.6416
▁okuyan	-10.6416
▁çıkarmak	-10.6417
▁Büyü	-10.642
▁edebilme	-10.6421
TI	-10.6422
▁düğme	-10.6425
vâ	-10.6426
▁sikiş	-10.6428
▁elinden	-10.6429
▁ihtimal	-10.6429
▁Qu	-10.643
▁Gelir	-10.6431
▁uydu	-10.6436
He	-10.6439
▁inşallah	-10.6441
▁trend	-10.6445
▁kanseri	-10.6447
▁geliştirilmesi	-10.6456
▁Büyükelçi	-10.6456
göz	-10.6458
▁yapabilme	-10.6458
▁kusur	-10.646
▁Lütfen	-10.6461
▁Hakları	-10.6461
▁(3)	-10.6465
▁yaşar	-10.6465
abildiği	-10.647
▁Radyo	-10.6471
▁oraya	-10.6473
▁imalat	-10.6474
▁ihraç	-10.6482
▁direktör	-10.6483
▁misiniz	-10.6484
▁Vatandaş	-10.6484
▁beklet	-10.6486
▁tanrı	-10.6486
▁damla	-10.6488
▁turu	-10.6489
▁geçerek	-10.6491
▁okumak	-10.6492
dor	-10.6494
▁Biraz	-10.6496
▁okulu	-10.6497
▁Edirne	-10.6498
▁plaj	-10.6505
▁araçların	-10.6511
▁hormon	-10.6513
▁ikamet	-10.6513
▁Alp	-10.6514
▁Pri	-10.6514
▁Yaka	-10.6515
▁ettiğimiz	-10.6515
▁bağır	-10.6516
▁olsaydı	-10.6517
▁başarılar	-10.6519
▁haş	-10.652
▁eline	-10.652
▁Reklam	-10.6521
▁çorba	-10.6523
▁seviyesinde	-10.6523
▁hükümeti	-10.6523
▁bizleri	-10.6524
▁Mini	-10.6525
▁Alanya	-10.6528
▁filtre	-10.6529
▁Devamını	-10.6531
▁ittifak	-10.6531
fra	-10.6531
▁Oğuz	-10.6533
▁aldıkları	-10.6535
▁Meydanı	-10.6535
▁yuva	-10.6539
▁atmosfer	-10.654
▁ker	-10.6541
▁vadeli	-10.6542
▁özgürlüğü	-10.6545
▁limit	-10.6552
▁olabileceği	-10.6555
ther	-10.6557
▁Bilimleri	-10.656
tüğü	-10.6561
▁ihmal	-10.6562
▁yetişkin	-10.6564
▁daima	-10.6565
▁heykel	-10.6567
▁Ödül	-10.6568
▁kö	-10.6575
yeceğini	-10.6575
▁ambalaj	-10.6577
▁Orada	-10.6577
tom	-10.6579
▁yoksul	-10.658
rent	-10.6586
▁39	-10.6587
▁tutuklan	-10.6587
▁41	-10.6589
▁İçişleri	-10.659
▁kelimesi	-10.6592
▁Şeker	-10.6592
▁Sinan	-10.6594
▁Kişisel	-10.6596
▁vekil	-10.66
▁tuvalet	-10.66
▁Beni	-10.6608
▁rica	-10.6612
▁hikayesi	-10.6613
▁davası	-10.6614
Bil	-10.6617
▁sıfat	-10.6618
▁Saray	-10.6623
şit	-10.6626
▁bakalım	-10.6627
▁izleyen	-10.6627
Yeni	-10.6628
▁Düşün	-10.6628
▁Etkinlik	-10.6632
▁Camii	-10.6634
▁Piyasa	-10.6639
▁geçmek	-10.6639
dışı	-10.664
leyeceği	-10.664
▁posta	-10.664
▁karşısına	-10.6646
▁ag	-10.6648
▁Emlak	-10.6654
▁İtalyan	-10.6654
▁irtibat	-10.6657
▁53	-10.6658
▁robot	-10.6664
▁gerekirse	-10.6665
▁indirme	-10.6672
▁kurduğu	-10.6674
▁mezunu	-10.6678
▁Değerlendirme	-10.6679
▁sakat	-10.6679
▁başlaması	-10.668
▁Çetin	-10.6683
▁Yolu	-10.6683
▁tezgah	-10.6684
▁karşılığında	-10.6686
▁kütüphane	-10.6689
▁yaptırım	-10.6689
▁Gezi	-10.6696
▁2003	-10.6702
▁Kongresi	-10.6706
▁isyan	-10.671
▁akraba	-10.6711
▁inanılmaz	-10.6712
▁gidiş	-10.6713
▁tavır	-10.6715
▁duyurdu	-10.6715
▁Şubesi	-10.6716
▁Yavuz	-10.6716
▁maddesinde	-10.6719
▁skor	-10.672
▁bulunul	-10.6721
IT	-10.6722
▁vicdan	-10.6722
▁bilinme	-10.6724
sco	-10.6727
▁girmek	-10.6728
▁Yeter	-10.6729
Mİ	-10.6733
▁olmazsa	-10.6736
▁rakibi	-10.6737
▁lezzetli	-10.6742
▁Selim	-10.6742
▁Çözüm	-10.6744
▁sığ	-10.6747
▁Onu	-10.6752
▁keyfi	-10.6753
▁rota	-10.6754
▁titiz	-10.6754
▁Bitki	-10.6754
ness	-10.6758
▁kaydeden	-10.6758
sâ	-10.6759
▁120	-10.676
▁üreten	-10.6762
▁kaynaklanan	-10.6762
▁zorlu	-10.6765
▁bakteri	-10.6766
▁sürdü	-10.6766
laşması	-10.6767
▁yazıyor	-10.6769
▁gölge	-10.6769
▁Geçmiş	-10.677
▁başlattı	-10.6772
▁neticesinde	-10.6775
▁sah	-10.6778
▁Bulun	-10.6779
▁saray	-10.6781
Dünya	-10.6792
▁Zor	-10.6794
▁gereklidir	-10.6796
▁diliyorum	-10.6799
larımızla	-10.68
▁istenilen	-10.6801
▁dilekçe	-10.6803
▁bölgelerde	-10.6814
▁kampanyası	-10.6815
▁esnek	-10.6817
▁Demokrat	-10.6818
▁müte	-10.6819
▁peşinde	-10.6821
▁Mutlu	-10.6822
▁okula	-10.6823
▁geçmişte	-10.6825
▁meselesi	-10.6825
Son	-10.6829
▁ihtiyacınız	-10.683
▁seyir	-10.6835
laşmış	-10.6836
▁Hızlı	-10.6841
▁yararlı	-10.6842
sür	-10.6844
▁babam	-10.6846
▁tarihte	-10.6849
▁rolü	-10.685
▁samimi	-10.6852
▁kıyasla	-10.6859
▁baştan	-10.6859
▁mor	-10.6861
▁gelişmeleri	-10.6861
▁göt	-10.6866
▁olağanüstü	-10.6869
▁görebilirsiniz	-10.6871
nivers	-10.6878
▁kuruluşların	-10.6878
kov	-10.6879
▁Hatay	-10.6881
▁arkadaşlık	-10.6884
▁tarihlerinde	-10.6884
bağ	-10.6886
▁Kılıç	-10.6888
▁bugünkü	-10.6888
▁Ekonomik	-10.6888
lerimizden	-10.6889
▁ağrısı	-10.689
▁projenin	-10.689
▁Parkı	-10.6891
adam	-10.6891
▁gelişmesi	-10.6897
▁sesli	-10.6898
▁tıklayın	-10.69
▁Ateş	-10.6904
▁açıklamalarda	-10.6908
▁öldü	-10.6909
▁girmesi	-10.6916
▁utan	-10.6917
maksızın	-10.6918
▁çıkmak	-10.6919
▁kullanmaya	-10.692
▁Gerçekten	-10.6924
▁sigortalı	-10.6924
▁paylaştı	-10.6926
lanıp	-10.6932
▁hassasiyet	-10.6937
▁Tekirdağ	-10.6938
düm	-10.6941
▁bıçak	-10.6942
▁sayfası	-10.6943
▁bor	-10.6945
▁Halil	-10.6947
üldü	-10.6956
TAN	-10.6956
▁Yerel	-10.6957
▁gövde	-10.6963
▁oradan	-10.6964
▁Ajansı	-10.6965
yâ	-10.6968
▁akla	-10.6969
▁kaydedil	-10.6969
▁Öztürk	-10.6971
▁Ücretsiz	-10.6972
▁tarihten	-10.6975
ağan	-10.6976
▁vurguladı	-10.6976
▁bölgenin	-10.6978
▁aittir	-10.698
▁boğaz	-10.6983
▁olurken	-10.6985
dıkça	-10.6987
jo	-10.6993
▁Aslan	-10.6993
▁ithal	-10.6994
▁omuz	-10.6995
▁oluşumu	-10.6995
▁Bet	-10.6996
▁kabar	-10.6998
özü	-10.7
▁karşılaştır	-10.7001
▁katlı	-10.7004
41	-10.7008
▁özgün	-10.7009
lerimizde	-10.7011
▁düzenledi	-10.7013
▁adayların	-10.7013
▁yoluna	-10.7013
▁tarafta	-10.7013
▁depolama	-10.7015
▁cerrahi	-10.7016
▁halkının	-10.7019
▁partner	-10.7025
▁yazan	-10.7032
▁İdaresi	-10.7034
seydi	-10.7039
▁dâhil	-10.7041
▁adlandır	-10.7043
▁kapsamı	-10.7043
▁şuan	-10.7044
▁Oyuncu	-10.7046
▁gecikme	-10.7047
▁mecbur	-10.7049
▁oluşturulan	-10.7053
▁Ağrı	-10.7061
▁sade	-10.7061
▁Şekil	-10.7063
▁Yazılım	-10.7065
▁platformu	-10.7067
▁iftar	-10.707
▁Modern	-10.7074
▁uzmanı	-10.7076
▁özür	-10.7077
▁girecek	-10.7078
▁verdiğini	-10.7079
yorsunuz	-10.708
▁antik	-10.7083
▁sizinle	-10.7085
▁casino	-10.7088
▁düşünen	-10.7092
laşan	-10.7093
▁eğit	-10.7095
▁sisteme	-10.7097
lerimizle	-10.71
▁sürükle	-10.7102
▁yürek	-10.7103
▁tank	-10.7111
▁Emir	-10.7112
▁Emekli	-10.7115
▁silahlı	-10.7115
▁kaynaklı	-10.7116
▁Tanıtım	-10.7117
▁düzeltme	-10.7119
▁Belgesi	-10.7119
▁Suriyeli	-10.712
▁milletimiz	-10.7124
▁gittim	-10.7126
▁imar	-10.7129
haf	-10.7129
▁satılık	-10.7131
▁açılışı	-10.7131
emedi	-10.7136
▁Denetim	-10.7137
▁Nedir	-10.7137
▁yardımıyla	-10.7144
▁konularında	-10.7145
▁hakaret	-10.7149
▁ertele	-10.715
▁tıp	-10.7152
YO	-10.7156
▁Ziraat	-10.7157
▁istedikleri	-10.7166
▁Tablo	-10.7168
▁bulunmakta	-10.7173
▁kendime	-10.7173
ladığınız	-10.7177
▁örgü	-10.7177
▁madalya	-10.7178
▁finans	-10.7179
▁600	-10.718
▁getirilen	-10.7181
lanmasını	-10.7182
▁Kongre	-10.7183
▁yıkıl	-10.7183
ref	-10.7185
▁yapılacaktır	-10.7186
▁gönderilen	-10.7194
.1.	-10.7194
▁dudak	-10.7197
▁etmişti	-10.72
▁bastır	-10.7201
lerinizde	-10.7205
▁operasyonu	-10.7205
▁şahit	-10.7212
▁Matematik	-10.7214
▁Kazakistan	-10.7223
▁gide	-10.723
▁öğrencilerimiz	-10.7232
▁düştüğü	-10.7232
▁Sıcak	-10.7234
▁Şer	-10.7234
▁Yüksel	-10.724
▁topluluk	-10.7242
▁uzaklaştır	-10.7246
▁Doğa	-10.7249
▁kalitesini	-10.7251
▁açar	-10.7252
▁tahta	-10.7256
▁duran	-10.7256
▁belirgin	-10.7257
▁ödülü	-10.726
▁oluşması	-10.7264
▁kova	-10.7265
▁Yük	-10.7266
▁Sık	-10.7266
▁Kurumsal	-10.7268
▁programında	-10.7269
▁Türkmen	-10.7272
▁kalkınma	-10.7273
▁antrenman	-10.7281
▁Şampiyonası	-10.7286
▁kaldırılması	-10.7288
▁veriyoruz	-10.729
▁matematik	-10.7293
▁durdur	-10.7294
▁havalimanı	-10.7299
Muh	-10.7303
▁Aşağıdaki	-10.7304
▁gri	-10.7306
▁savaşı	-10.731
ılabilecek	-10.7312
oğulları	-10.7313
▁Aziz	-10.7313
▁dedektif	-10.7314
▁hakikat	-10.7318
▁gitmiş	-10.7319
▁bağlantısı	-10.732
ticaret	-10.7325
▁54	-10.7329
▁Hastalıkları	-10.733
▁eksikliği	-10.7331
▁kek	-10.7338
▁John	-10.7346
▁gor	-10.7347
▁07	-10.7348
▁girip	-10.7349
▁müracaat	-10.735
ojen	-10.735
▁saklı	-10.735
▁toplamda	-10.7351
▁Gal	-10.7351
▁Bunlardan	-10.7356
▁sunuyoruz	-10.7361
▁Anti	-10.7362
▁aldığını	-10.7364
▁karın	-10.7366
▁niye	-10.7367
▁yürüme	-10.7368
▁Hakkı	-10.7369
▁musunuz	-10.737
▁mesela	-10.737
▁pozitif	-10.7372
▁Adnan	-10.7372
▁çikolata	-10.7374
▁Toprak	-10.7374
▁Dal	-10.7374
▁Uygun	-10.7375
▁ısıt	-10.7376
▁olacağız	-10.7379
▁akışı	-10.7382
amıyorum	-10.7383
▁hükümetin	-10.7386
▁müsabaka	-10.7386
▁karışık	-10.7391
müştü	-10.7393
▁dahilinde	-10.7395
▁burun	-10.7396
▁başardı	-10.7396
▁Kaymakamı	-10.7408
▁maksimum	-10.7408
▁zeytin	-10.7412
▁Def	-10.742
saydı	-10.742
▁pazarı	-10.7422
▁başından	-10.7423
▁tüy	-10.7423
▁özelliklerini	-10.7423
▁fakülte	-10.7425
▁yürütme	-10.7428
▁stratejik	-10.743
yapı	-10.7433
▁opsiyon	-10.7434
▁alışkanlık	-10.744
▁oyuncak	-10.7442
▁boşalt	-10.7445
▁Elbette	-10.7447
▁konsept	-10.7449
şer	-10.7451
Rİ	-10.7451
▁İster	-10.7451
▁Adres	-10.7454
▁bağlama	-10.7458
▁Araba	-10.7458
▁baktığı	-10.7462
▁Kurban	-10.7464
▁Kudüs	-10.7466
▁kademe	-10.7469
▁Büro	-10.747
▁Kadir	-10.747
amadım	-10.7471
▁bag	-10.7473
▁komutan	-10.7475
▁Post	-10.748
▁https	-10.7481
▁gösterilen	-10.7481
▁öfke	-10.7482
▁kilise	-10.7485
▁Başkanımız	-10.7486
▁Mardin	-10.7487
▁evvel	-10.7489
Ey	-10.7492
▁tamamlama	-10.7499
▁56	-10.7502
▁yakalama	-10.7504
-15	-10.7509
▁Toplantısı	-10.7514
▁günümüz	-10.7514
general	-10.7515
▁oluşmaktadır	-10.7516
▁tahsis	-10.7522
▁Değiş	-10.7524
▁getirildi	-10.7528
▁peri	-10.7529
▁endüstri	-10.7529
▁Hedef	-10.7529
▁Hepsi	-10.753
▁akış	-10.753
▁Arslan	-10.7531
▁ilahi	-10.7531
▁Kardeş	-10.7533
▁Ukrayna	-10.7534
▁hesaplama	-10.7536
▁IP	-10.7538
▁pop	-10.7538
▁heyet	-10.7542
▁yapay	-10.7543
▁Gaz	-10.7544
▁Dost	-10.7545
▁yaptığım	-10.755
▁Sınır	-10.755
▁hızlandır	-10.7551
▁sundu	-10.7555
▁oluşturdu	-10.7555
▁çamaşır	-10.7558
▁bilgilendir	-10.756
▁dert	-10.7561
▁buluyor	-10.7566
▁Karaman	-10.7567
▁Süt	-10.7568
▁şeyden	-10.7572
▁kutsal	-10.7573
▁EĞİTİM	-10.7573
▁niteliği	-10.7577
▁abla	-10.7578
▁hastalığın	-10.758
▁Muğla	-10.7581
toloji	-10.7582
rus	-10.7588
▁aldığınız	-10.759
▁feda	-10.759
emeyeceği	-10.759
▁kariyer	-10.7592
▁arkadaşlarımız	-10.7592
▁tabir	-10.7592
▁yapama	-10.7595
▁turnuva	-10.7601
▁Alınır	-10.7604
▁sayılır	-10.7605
▁taahhüt	-10.7609
▁tartışıl	-10.761
▁vermeden	-10.7611
Siz	-10.7613
▁fırça	-10.7616
▁Kampanya	-10.7616
▁vitamin	-10.7618
▁Bö	-10.7618
▁dördüncü	-10.7618
▁sınırsız	-10.7619
NET	-10.7622
▁tıklayınız	-10.7624
▁Paylaş	-10.7633
▁güzelliği	-10.7633
▁duruşma	-10.7635
▁Bilimler	-10.7635
▁çevirme	-10.7636
▁koşu	-10.7637
▁sütü	-10.7641
▁balkon	-10.7642
▁Japon	-10.7643
▁santral	-10.7644
▁Mavi	-10.7645
▁pompa	-10.7647
▁tüketim	-10.7648
▁Siyah	-10.7649
▁muhtar	-10.7653
▁dolarlık	-10.7657
▁bayrağı	-10.7658
ladıkları	-10.7658
▁aşık	-10.7668
▁vermeyi	-10.7668
▁Güvenliği	-10.7673
pas	-10.7674
▁canım	-10.7681
yurt	-10.7683
▁Dönemi	-10.7683
▁Uç	-10.7684
çok	-10.7685
▁ilim	-10.7685
▁belirlendi	-10.7687
▁Dili	-10.7688
▁Toto	-10.7688
▁seçilen	-10.7689
▁uğur	-10.7692
▁Normal	-10.7694
▁Raporu	-10.77
▁58	-10.7705
▁gelmek	-10.7705
▁ölme	-10.7709
▁uzaklıkta	-10.7713
▁Zafer	-10.7715
ümüzü	-10.7716
doğu	-10.7717
▁ötürü	-10.7718
▁Bahar	-10.772
▁Diyanet	-10.7722
▁Yoksa	-10.7723
baz	-10.7726
▁kritik	-10.7726
▁Yaşar	-10.7728
▁beklentileri	-10.7729
▁Katılım	-10.7731
▁görünen	-10.7731
▁Hekim	-10.7732
▁âyet	-10.7734
▁Adıyaman	-10.7735
▁kimseye	-10.7735
▁hissediyor	-10.7737
▁ispat	-10.7738
▁nişan	-10.7738
▁Kırmızı	-10.7739
▁İlaç	-10.7739
▁gümrük	-10.7745
▁Metal	-10.7747
▁borsa	-10.7749
▁cemaat	-10.7751
▁imam	-10.7752
▁süresince	-10.7754
▁keyfini	-10.7754
▁elektro	-10.7759
▁Herhangi	-10.776
▁sofra	-10.7761
▁his	-10.7762
▁referandum	-10.7762
▁olursunuz	-10.7766
▁adresine	-10.7768
▁Konuşma	-10.7771
▁Trafik	-10.7772
pazar	-10.7775
▁ekledi	-10.7775
▁izliyor	-10.7778
▁ilerleyen	-10.7781
RU	-10.7782
▁Kargo	-10.7784
▁Önemli	-10.7787
▁ankara	-10.7789
▁hastaneye	-10.7789
▁türkçe	-10.7794
▁Çam	-10.7795
▁beklediği	-10.7797
▁olmasından	-10.7798
▁sıradan	-10.7799
▁çin	-10.7799
▁denen	-10.7799
▁konuyla	-10.7801
▁oynayan	-10.7804
▁varlığını	-10.7806
▁Akşam	-10.7808
▁gelecekte	-10.7811
▁layık	-10.7812
▁bizden	-10.7815
▁korunma	-10.7815
▁dolgu	-10.7817
▁Strateji	-10.7817
▁gerekçesiyle	-10.7818
▁kupa	-10.7822
onomi	-10.7822
▁uçağı	-10.7823
▁sözcük	-10.7825
▁görevlendiril	-10.7826
EŞ	-10.7826
▁yükseliş	-10.7828
▁Düğün	-10.7829
▁yüzünü	-10.7829
▁çekilme	-10.7833
▁vergisi	-10.7837
▁problemleri	-10.7839
▁bırakın	-10.7841
▁şok	-10.7842
liyim	-10.7844
▁Güç	-10.7844
▁Durum	-10.7848
▁evlenme	-10.7849
TC	-10.785
▁ibaret	-10.785
HAL	-10.7855
Mo	-10.7863
İH	-10.7866
yüzü	-10.7869
▁Rapor	-10.7869
▁Paket	-10.7871
▁eyalet	-10.7873
▁çeker	-10.7877
▁aldığım	-10.7883
▁puanı	-10.7884
▁Gelin	-10.7885
▁önlemek	-10.7886
▁duruşu	-10.7891
▁noktaya	-10.7893
▁entegre	-10.7894
▁gönderdi	-10.7903
▁sandalye	-10.7904
▁dünyayı	-10.7904
▁karbon	-10.7906
▁Suç	-10.7909
▁önder	-10.7912
▁kullanılacak	-10.7913
leşti	-10.792
▁kardeşim	-10.7925
▁pilot	-10.7928
▁giriyor	-10.7931
▁doğalgaz	-10.7933
Nİ	-10.7934
▁limon	-10.7936
gor	-10.7937
▁BİR	-10.7939
▁yaratan	-10.7939
▁Göre	-10.794
▁yapıldığını	-10.7941
▁saklan	-10.7946
▁kalori	-10.7947
▁burcu	-10.7948
ometri	-10.7951
▁Arkadaşlar	-10.7951
▁oyuncusu	-10.7952
▁euro	-10.7954
▁Onur	-10.7955
ülasyon	-10.7955
▁nereye	-10.7957
▁onlarca	-10.7958
ümüzde	-10.7959
▁duyuyor	-10.7962
▁Salih	-10.7964
▁Bakanlar	-10.7965
▁konfor	-10.7973
▁bekliyorum	-10.7985
▁menü	-10.7986
▁tamamını	-10.7987
▁denize	-10.7989
▁duygusu	-10.7989
▁emanet	-10.799
ding	-10.7991
▁şaşırt	-10.7995
▁üyeliği	-10.7996
▁meşru	-10.7998
▁yaşandığı	-10.7998
▁BİLGİ	-10.7999
low	-10.8001
▁yetkisi	-10.8002
▁aracılığı	-10.8004
▁somut	-10.8005
Çocuğu	-10.8005
▁Rüyada	-10.8009
▁ilham	-10.8014
▁sürdürüyor	-10.8015
▁düzeyi	-10.8016
park	-10.8026
▁Gökçe	-10.8027
▁boşluk	-10.8027
▁Kamp	-10.8029
▁Turkcell	-10.8032
▁sünnet	-10.8032
▁aşamada	-10.8036
▁tüketil	-10.8037
▁yüzme	-10.8038
▁dönemine	-10.8038
▁ikna	-10.8039
▁gürültü	-10.804
▁tarayıcı	-10.804
▁Eser	-10.804
▁Duvar	-10.8044
▁Haberler	-10.8044
▁litre	-10.8047
▁rejimi	-10.805
▁ederse	-10.8051
▁karmaşık	-10.8052
▁firmanın	-10.8052
▁nefret	-10.8054
ebileceğini	-10.8056
▁görülüyor	-10.8056
emediği	-10.8059
▁Parça	-10.8061
▁Yürü	-10.8062
▁tekniği	-10.8063
▁niteliğinde	-10.8063
▁Ödeme	-10.8067
▁günümüze	-10.8069
▁%100	-10.8071
▁çağın	-10.8072
▁vuruş	-10.8077
▁çıkışı	-10.8077
▁arayıp	-10.8078
▁milyonlarca	-10.8079
▁Standart	-10.8079
▁açısı	-10.808
▁sorma	-10.8094
▁etkileşim	-10.8095
▁oturan	-10.8095
astro	-10.8097
▁beslen	-10.8097
▁görüntüsü	-10.8101
▁salata	-10.8102
▁kolu	-10.8104
***	-10.8104
▁inanıyorum	-10.8104
▁yalıtım	-10.8113
▁sevdikleri	-10.8113
▁yaşta	-10.8116
2012	-10.8119
▁yönetmelik	-10.8121
▁olmasıdır	-10.8121
▁Ücret	-10.8122
▁vitamini	-10.8124
hid	-10.8127
▁uyandır	-10.8128
▁çağdaş	-10.8129
▁açmak	-10.813
▁uydur	-10.8131
▁aldığımız	-10.8133
▁ortağı	-10.8135
▁giderken	-10.814
▁deneyimli	-10.8141
▁sürüm	-10.8142
▁satıcı	-10.8143
▁sürme	-10.8151
▁yazmak	-10.8154
▁Boğaz	-10.8156
▁meşhur	-10.8156
▁geçiren	-10.8158
▁Ödülü	-10.8158
▁koltuğu	-10.816
▁bakmak	-10.8161
larımızdan	-10.8163
▁ziyade	-10.8164
▁katılımıyla	-10.8164
gah	-10.8164
▁belgesel	-10.8166
Teşekkür	-10.8166
▁ayrılan	-10.8167
▁Kombi	-10.8168
▁Hukuku	-10.8169
▁Yetiş	-10.8172
▁Ebu	-10.8177
▁Klima	-10.8179
▁kuvvetli	-10.8182
▁Çar	-10.8183
▁atılan	-10.8185
▁politik	-10.8186
▁metni	-10.819
▁dinlenme	-10.819
▁arsa	-10.8194
▁eserler	-10.8196
▁Değerli	-10.8196
▁etkileyen	-10.8197
▁şifa	-10.8198
▁değerini	-10.8199
LO	-10.82
▁sahası	-10.8203
▁Hazine	-10.8203
▁ekim	-10.8204
▁şeref	-10.8205
▁Gönder	-10.8207
8)	-10.8208
▁suçlu	-10.8209
▁başkanlığı	-10.821
▁Sermaye	-10.821
▁İdare	-10.8213
▁Geliştirme	-10.8216
▁Mahmut	-10.8216
▁bilmek	-10.8217
▁örgütleri	-10.8217
▁bebeğin	-10.8221
▁Turan	-10.8221
▁bardak	-10.8226
▁minik	-10.8227
▁bilgisayarınız	-10.8227
▁Eğ	-10.8231
▁mülkiyet	-10.8231
▁anlatmak	-10.8237
▁Doku	-10.8237
▁onlardan	-10.8241
▁görevlileri	-10.8241
▁yapacağız	-10.8242
-12	-10.8242
▁telefondan	-10.8242
▁kesinti	-10.8243
▁tesisleri	-10.8243
▁göçmen	-10.8243
▁Balkan	-10.8247
▁görüldü	-10.825
▁tabaka	-10.825
▁görünümü	-10.8257
▁tarife	-10.8257
▁Hâ	-10.826
▁Sevgi	-10.8261
▁önemini	-10.8262
▁yapıyorum	-10.8266
▁yüklü	-10.8268
IC	-10.827
▁çizim	-10.8273
▁dönüşü	-10.8275
▁tıbbi	-10.8275
▁verip	-10.8283
▁Elazığ	-10.8285
▁nitelikte	-10.8286
Po	-10.8288
▁Cemal	-10.8289
▁istemez	-10.8289
▁yapacağınız	-10.8289
▁Nitekim	-10.8292
▁ilaçlama	-10.8295
▁belde	-10.8299
mizdeki	-10.8302
▁kopar	-10.8304
▁Dikkat	-10.8304
▁Boya	-10.8304
▁Alanı	-10.8307
▁ağırlıklı	-10.8311
▁trans	-10.8312
▁ekstra	-10.8313
▁edeceğini	-10.8315
Pro	-10.832
RI	-10.832
▁kentin	-10.8323
▁gümüş	-10.8325
severler	-10.8325
▁başlangıcı	-10.8326
▁Fabrika	-10.8326
▁insanlık	-10.8327
▁rev	-10.8328
▁Sendika	-10.8329
▁geliştirilen	-10.8332
▁damga	-10.8334
▁kullanılabil	-10.8337
▁köylü	-10.8338
/3	-10.8339
▁gidebil	-10.834
▁sürdürülebilir	-10.8344
▁Dersin	-10.8344
▁artar	-10.8347
▁şiirleri	-10.8348
ook	-10.8348
▁Direktörü	-10.835
▁Adli	-10.8352
▁Peygamberimiz	-10.8354
▁Dava	-10.8354
▁konsol	-10.8355
▁cinsiyet	-10.8357
▁tap	-10.8357
▁hamle	-10.8357
▁ikram	-10.8361
▁istekleri	-10.8361
liğimiz	-10.8362
▁çocuklarımız	-10.8365
▁gerektiren	-10.8366
▁potansiyeli	-10.8367
berg	-10.8371
▁yemin	-10.8373
▁getirerek	-10.8374
▁Üsküdar	-10.8374
▁Rehberi	-10.8376
▁teşhis	-10.8376
▁rastla	-10.8377
▁Sekreteri	-10.838
▁mutluluğu	-10.838
▁gönderildi	-10.8381
▁sözlerine	-10.8382
▁gayrimenkul	-10.839
▁devrimci	-10.8391
▁Avusturya	-10.8392
▁soğan	-10.8393
▁formül	-10.8394
▁organik	-10.8394
▁mağlup	-10.8394
▁programına	-10.8395
▁etkileme	-10.8403
▁coşku	-10.8405
▁şiddetli	-10.8406
▁dürüst	-10.8409
leştirilmiş	-10.8412
▁direniş	-10.8414
▁Holding	-10.8417
▁danışmanlık	-10.8417
▁Dernek	-10.8418
hut	-10.8418
▁gösterge	-10.8422
▁müzakere	-10.8423
▁sürümü	-10.8425
stat	-10.8426
▁hile	-10.8426
▁ediyordu	-10.8427
▁kapsam	-10.8427
▁başlıkları	-10.843
▁Fırat	-10.8431
▁partisi	-10.8432
▁basınç	-10.8433
▁müdürlüğü	-10.8434
▁Baskı	-10.8434
▁uzaktan	-10.8438
▁Evren	-10.8439
▁edilmelidir	-10.8441
▁ulaşan	-10.8442
▁Çalışan	-10.8446
▁kutusu	-10.8449
▁post	-10.845
▁gergin	-10.8452
▁boyunda	-10.8454
▁Pazarlama	-10.8454
▁Dijital	-10.8455
▁Olan	-10.8457
▁muhabir	-10.8457
▁dünyadaki	-10.8458
▁hacmi	-10.8458
▁kursu	-10.846
▁Fizik	-10.8462
▁personelin	-10.8465
▁hayli	-10.8467
▁yenileme	-10.8467
▁sürdürdü	-10.8469
▁NATO	-10.8474
▁açığı	-10.8476
▁durumuna	-10.8476
▁kaybettiği	-10.8484
▁Söyle	-10.8485
▁merkezli	-10.8485
▁Memur	-10.849
▁tadını	-10.8491
▁geçecek	-10.8492
▁Mühendis	-10.8492
▁yayınlandı	-10.8493
▁Şiir	-10.8493
▁2001	-10.8494
▁oluşuyor	-10.8503
▁eserleri	-10.8507
▁Gelen	-10.8507
▁yükselen	-10.851
NG	-10.852
▁kurumun	-10.8521
$	-10.8522
▁adresinden	-10.8524
▁müslüman	-10.8525
▁doğrusu	-10.8525
▁tencere	-10.8527
▁uzanan	-10.8529
▁sürdüren	-10.8529
▁toplanan	-10.8541
▁Kür	-10.8544
▁Savcı	-10.8548
▁verdiğimiz	-10.8553
▁yaptırmak	-10.8556
▁Kanada	-10.856
▁heyeti	-10.8561
▁süreçleri	-10.8564
▁Faaliyet	-10.8564
▁dizayn	-10.8567
▁döndür	-10.8572
▁Özet	-10.8572
▁Eşya	-10.8581
▁gönlü	-10.8583
▁çim	-10.8584
▁okuduğu	-10.8584
öğrenebilirsiniz	-10.8585
▁Hürriyet	-10.8589
▁kanama	-10.859
ıştırma	-10.8591
▁Yrd	-10.8593
▁titre	-10.8594
▁pasaport	-10.8595
hip	-10.8599
▁Dair	-10.8599
▁dönen	-10.86
ekilde	-10.8602
ling	-10.8602
▁Yapımı	-10.8607
▁2-3	-10.8608
hel	-10.861
▁Sayısı	-10.8612
**	-10.8613
▁Bahçeli	-10.8615
▁TRT	-10.8622
ildiğinde	-10.8624
▁Hac	-10.8626
▁Mesaj	-10.8627
▁memleket	-10.8627
▁yaşandı	-10.8628
▁şoför	-10.863
▁Değişiklik	-10.8631
▁Tepe	-10.8631
▁yazılmış	-10.8633
▁taşımacılık	-10.864
▁yirmi	-10.8641
▁nice	-10.8644
▁sevdiğim	-10.865
▁sevilen	-10.8654
▁Kira	-10.8656
▁tebliğ	-10.8659
▁Yön	-10.8659
▁biten	-10.8661
▁politikaları	-10.8661
▁Zeytin	-10.8666
▁versiyonu	-10.8667
▁Mesleki	-10.8668
▁sayısını	-10.867
▁dönük	-10.8675
▁edildiğini	-10.8677
beyaz	-10.8677
▁trafiği	-10.8682
▁chat	-10.8682
▁edilecektir	-10.8689
▁muhasebe	-10.8689
▁mutfağı	-10.8689
▁çalışırken	-10.8689
▁Özellikleri	-10.8691
▁okulun	-10.8693
▁onlarla	-10.8696
▁tavuk	-10.8697
▁kapağı	-10.8698
▁görevlisi	-10.8701
▁atış	-10.8702
▁olabileceğini	-10.8703
▁duş	-10.8705
▁Cengiz	-10.8705
▁gideceği	-10.8706
▁tıklayarak	-10.8707
▁Çal	-10.8708
▁oluşturulması	-10.871
▁başarıyla	-10.8711
▁hayatım	-10.8713
▁Tören	-10.8714
▁ideoloji	-10.8718
▁Uzak	-10.8721
▁doğra	-10.8721
▁melek	-10.8722
▁Banyo	-10.8723
▁kendinize	-10.8723
İYE	-10.8724
▁tarla	-10.8728
▁açılma	-10.8728
▁kurucu	-10.8729
▁belirlenmiş	-10.8736
▁yükseldi	-10.8737
▁razı	-10.8738
ysanız	-10.874
▁KKTC	-10.8741
▁yapış	-10.8741
▁Ekran	-10.8744
▁Che	-10.8744
▁konumunda	-10.8745
▁organizasyonu	-10.8746
▁sarf	-10.8756
▁artırmak	-10.8757
▁KARA	-10.8759
▁Gre	-10.8766
▁bulunmadığı	-10.8768
▁sıklıkla	-10.8768
▁iğne	-10.8769
▁domates	-10.8773
▁yapabileceği	-10.8774
▁III	-10.8775
oğraf	-10.8778
▁etek	-10.8781
▁yönetiminde	-10.8782
▁bakıldığında	-10.8782
▁Yarışma	-10.8783
▁topar	-10.8784
▁Devamı	-10.8784
▁memnuniyet	-10.8784
▁görüldüğü	-10.8789
▁Boş	-10.879
▁belirlenir	-10.8791
▁kom	-10.8795
▁gereğince	-10.8795
▁Ölüm	-10.8796
▁kına	-10.8799
▁İhracat	-10.88
▁Genellikle	-10.8801
lüğe	-10.8803
▁toprağı	-10.8805
▁otopark	-10.8805
▁sisteminde	-10.8806
▁gec	-10.8807
▁işlemci	-10.8816
skop	-10.8816
▁gelenek	-10.8818
▁garip	-10.8821
▁Sürekli	-10.8824
▁hidro	-10.8824
laştı	-10.8827
lenmek	-10.883
▁birbirlerine	-10.8834
▁değerlendirilme	-10.8836
▁standartları	-10.8842
▁taşınmaz	-10.8843
▁sag	-10.8844
▁çeyrek	-10.8844
▁belirtmek	-10.8851
▁ceviz	-10.8853
Ara	-10.8856
▁olayların	-10.8856
▁gelmez	-10.8857
▁IŞİD	-10.8859
▁yapabilecek	-10.886
▁mesai	-10.8862
▁satan	-10.8867
▁Onların	-10.8869
▁terim	-10.887
▁hic	-10.8888
▁sağlayacaktır	-10.8892
▁patates	-10.8892
▁patron	-10.8899
▁akademisyen	-10.89
landırılması	-10.89
▁katil	-10.8902
▁Prens	-10.8906
ÜK	-10.8906
▁Mahalle	-10.8908
▁müdürü	-10.8909
▁gerçekleşecek	-10.8912
▁izmir	-10.8914
▁lastik	-10.8917
▁maske	-10.8919
▁Planı	-10.8922
▁bardağı	-10.8923
▁askerlik	-10.8925
▁intihar	-10.8925
▁gelebilir	-10.8929
▁vaka	-10.893
▁hâkim	-10.8934
▁sıkış	-10.8934
▁haberine	-10.8935
▁sürdürül	-10.8937
letme	-10.8937
▁faktörler	-10.8942
▁Pay	-10.8945
▁Kanununun	-10.8948
TER	-10.8948
▁gereksiz	-10.8949
▁Musa	-10.8949
▁kurabiye	-10.8953
▁almanız	-10.8955
▁ihracatı	-10.8958
▁yoğunluğu	-10.896
▁belirsiz	-10.8961
▁Tüketici	-10.8962
▁Kodu	-10.8964
▁yenilikçi	-10.8964
▁hastanede	-10.8965
▁Finans	-10.8967
▁Otobüs	-10.8973
amayacağını	-10.8975
▁karısı	-10.8979
▁Inter	-10.898
▁şişe	-10.8986
▁yansıma	-10.8987
▁mantar	-10.8988
▁dünyasının	-10.8988
▁etkisini	-10.899
▁hissettir	-10.899
▁bölgedeki	-10.8994
batı	-10.9
▁katılmak	-10.9002
row	-10.9003
▁modu	-10.9004
▁fragman	-10.9005
▁alaka	-10.9007
▁bölgesel	-10.9008
▁röportaj	-10.9013
kap	-10.9014
▁zira	-10.9015
▁Bekir	-10.9016
▁Açma	-10.9017
▁çırp	-10.902
▁soyun	-10.9022
▁Mikro	-10.9024
▁edebileceği	-10.9025
▁Hesap	-10.9026
▁olabiliyor	-10.9031
▁suçlama	-10.9032
▁Fiyatları	-10.9032
▁ettiklerini	-10.9034
▁meta	-10.9041
▁arkadaşlarım	-10.9043
▁beyni	-10.9047
▁çoğunlukla	-10.9048
▁isterse	-10.905
▁1,5	-10.9059
▁Bol	-10.906
OĞLU	-10.9063
▁tüzel	-10.9063
▁sandık	-10.9065
▁buluştu	-10.9068
▁kurucusu	-10.9069
lıyım	-10.907
▁müjde	-10.9076
▁Brezilya	-10.9078
▁mülteci	-10.9078
▁gezegen	-10.9083
▁görünür	-10.9083
▁İSTANBUL	-10.9085
▁Vekili	-10.9091
▁fakir	-10.9092
▁ayının	-10.9093
▁emre	-10.9094
▁ekleyin	-10.9094
▁taşıt	-10.9096
▁Bilişim	-10.9098
▁İsveç	-10.91
▁teslimat	-10.9105
▁kanaat	-10.9107
▁yaptıklarını	-10.9112
▁Aracı	-10.9113
▁Tanı	-10.9114
ılış	-10.9115
▁başlamak	-10.9123
▁yatağı	-10.9124
▁doküman	-10.9124
▁eksiksiz	-10.9125
▁resmen	-10.9126
▁Yangın	-10.9129
▁yönlü	-10.9132
▁degil	-10.9133
▁Arapça	-10.9134
▁edilemez	-10.9146
▁nükleer	-10.915
▁durdurul	-10.9152
▁Erdem	-10.9152
▁yapılmasını	-10.9152
▁anlamıyla	-10.9154
▁okuyun	-10.9159
▁ibaresi	-10.9163
▁çiğ	-10.9165
▁oldugu	-10.9167
▁düzeyinde	-10.9169
LÜ	-10.917
▁başkanlık	-10.9171
▁sağlamış	-10.9176
▁Gümrük	-10.9176
▁Bizans	-10.918
▁haricinde	-10.9181
▁esir	-10.9183
▁istismar	-10.9194
▁çadır	-10.9196
▁Ahşap	-10.9196
emeyecek	-10.9198
▁Hikaye	-10.9199
▁eksiklik	-10.9201
▁Durumu	-10.9201
▁oluşturuyor	-10.9202
▁yönlendirme	-10.9204
▁Televizyon	-10.9205
▁ilçesine	-10.9208
2011	-10.9213
▁cumhuriyet	-10.9216
▁köyünde	-10.922
▁Kahve	-10.9221
▁İbn	-10.9221
▁reform	-10.9222
efendi	-10.9223
EZ	-10.9229
▁Amacı	-10.9232
▁tarama	-10.9234
▁KPSS	-10.9236
▁tanımlama	-10.9236
▁ölen	-10.9237
▁Firmamız	-10.9241
▁Selçuklu	-10.9242
▁Olma	-10.9243
ünüzü	-10.9244
▁seviyor	-10.9245
▁Öğr	-10.9245
▁ihbar	-10.9246
▁girerek	-10.9249
▁tahliye	-10.9249
▁Yetkili	-10.9265
▁otorite	-10.9265
▁Olarak	-10.9266
▁yapıştır	-10.9266
▁asansör	-10.9269
evî	-10.9271
▁aldat	-10.9275
▁psiko	-10.9275
▁yüzyılda	-10.9276
▁döküm	-10.9277
▁Anlat	-10.928
▁Muharrem	-10.928
▁baraj	-10.9281
▁bulunmayan	-10.9286
▁Üçüncü	-10.9288
▁Seks	-10.9291
▁Zirve	-10.9293
▁stand	-10.9294
▁UEFA	-10.9298
▁Sitemizde	-10.9299
▁müthiş	-10.9316
▁kentinde	-10.9317
▁emlak	-10.9321
▁kaleci	-10.9323
▁Basketbol	-10.9324
▁durak	-10.9325
off	-10.9326
▁Avustralya	-10.9327
▁Birleşmiş	-10.9327
▁Valiliği	-10.9336
▁Çatı	-10.9346
▁grev	-10.935
▁ışın	-10.935
▁Bro	-10.935
▁nerde	-10.9352
▁villa	-10.9355
▁koyduğu	-10.9355
▁götürül	-10.9364
▁hâlâ	-10.9368
▁işkence	-10.9371
▁kendimizi	-10.9373
gür	-10.9378
yseniz	-10.9378
▁bıraktığı	-10.9378
▁felaket	-10.938
▁Talep	-10.9381
▁savaşın	-10.9383
▁imkansız	-10.9384
▁Kırım	-10.9388
▁1999	-10.939
▁kıymet	-10.9391
▁öldürme	-10.9392
▁yazılan	-10.9393
▁Analiz	-10.9394
▁bitirdi	-10.9396
▁şüphesiz	-10.9399
▁Saf	-10.9401
▁kendisinden	-10.9403
▁göstergesi	-10.9405
▁Vakıf	-10.9409
▁Mühendislik	-10.941
▁duyulan	-10.9412
▁Sergi	-10.9412
▁rejim	-10.9414
▁yüreği	-10.9418
▁oruç	-10.942
▁Lider	-10.9421
▁VI	-10.9422
▁gelmeye	-10.9422
▁şehrinde	-10.9427
▁açığa	-10.9432
▁sponsor	-10.9434
▁olmamak	-10.9438
▁TEM	-10.9439
▁nolu	-10.9439
▁öncelikli	-10.9441
▁çekerek	-10.9445
▁Konser	-10.9445
▁mahkum	-10.9446
▁bozma	-10.9446
▁koyup	-10.9448
hor	-10.9448
▁ifadesini	-10.945
▁görüştü	-10.9451
nizdeki	-10.9454
▁mineral	-10.9457
▁kupon	-10.946
▁Efendimiz	-10.9463
▁nitelikli	-10.9469
▁Yalçın	-10.947
▁araştırmacı	-10.9474
▁Kiralama	-10.9475
▁mesafede	-10.9475
▁üzüntü	-10.9477
▁bölgelerinde	-10.9479
▁artıyor	-10.9482
▁İnşallah	-10.9484
▁kağıdı	-10.9486
▁haftasında	-10.9491
▁etrafı	-10.9492
▁gerçekleştirmek	-10.9493
▁birikimi	-10.9497
▁tamamlanması	-10.9501
▁Dört	-10.9501
▁başlayarak	-10.9501
▁taşır	-10.9502
▁ÖN	-10.9505
▁Polat	-10.9505
▁kolon	-10.9505
▁Yunus	-10.951
▁oynamak	-10.951
▁yurtdışında	-10.9516
▁Ekip	-10.9525
▁duydu	-10.9526
▁Taşıma	-10.953
▁nimet	-10.9534
▁muhabbet	-10.9536
Kon	-10.9536
▁milliyetçi	-10.954
▁Turgut	-10.9541
▁Kolay	-10.9546
▁kemer	-10.9546
▁vurdu	-10.9549
▁kaldırıldı	-10.955
▁yarışı	-10.9552
▁kapsayan	-10.9554
▁başrol	-10.9557
▁Galaxy	-10.9563
▁Profesyonel	-10.9563
▁lif	-10.9563
▁hijyen	-10.9568
▁MÜ	-10.9569
▁bilmeyen	-10.957
▁tecavüz	-10.9572
▁Yanı	-10.9583
▁başlandı	-10.9585
▁Sezon	-10.9585
▁Fuar	-10.9586
▁vol	-10.9588
▁nelerdir	-10.959
▁yaşamış	-10.9591
▁Kimse	-10.9592
▁metod	-10.9593
▁Psikoloji	-10.9595
▁1.5	-10.9603
▁Konak	-10.9603
▁bulabil	-10.9604
▁kurulmuştur	-10.9606
▁duyan	-10.9606
▁bayıl	-10.9612
▁1980	-10.9614
▁vermekte	-10.9614
▁neyse	-10.9615
▁Komutanı	-10.9623
▁fantezi	-10.9625
▁nöbet	-10.9625
▁Cilt	-10.9627
kapı	-10.9632
▁halkımız	-10.9632
▁tarihsel	-10.9633
▁Afrin	-10.9633
ÖZ	-10.9635
▁pişman	-10.9638
▁Çak	-10.9639
▁bırakıp	-10.964
▁kurşun	-10.9641
▁başlatılan	-10.9645
▁küme	-10.9646
▁vurul	-10.9654
LARIN	-10.9655
▁meş	-10.9657
▁tıpkı	-10.9659
▁rahatlat	-10.966
▁haberdar	-10.9661
▁Korku	-10.9662
▁Kök	-10.9665
SEL	-10.9669
▁rivayet	-10.968
▁Şeyh	-10.9684
▁kazandığı	-10.969
▁Anabilim	-10.9692
▁çürü	-10.9694
▁yenilikler	-10.9695
▁Formu	-10.9696
▁KDV	-10.9696
▁İmparatorluğu	-10.9699
▁videosu	-10.9704
/19	-10.9705
YAR	-10.9706
▁Nerede	-10.9706
▁sıkça	-10.9707
▁amca	-10.9708
▁Gizli	-10.9709
▁etkisiyle	-10.9716
▁Operasyon	-10.9718
▁Tatlı	-10.9728
▁çekilen	-10.9733
▁toptan	-10.9733
▁memuru	-10.9734
▁bulundukları	-10.9737
▁dayanışma	-10.9739
▁Col	-10.9739
▁konuşuyor	-10.974
▁Kapalı	-10.9747
▁kenarında	-10.9747
▁suyunu	-10.9751
▁GENEL	-10.9752
▁Mobilya	-10.9757
lenip	-10.9759
▁gebelik	-10.9759
▁yurtdışı	-10.976
!!!	-10.9764
▁ulaştığı	-10.9764
lerarası	-10.9766
▁istasyon	-10.977
▁GÜN	-10.9771
tigi	-10.9773
▁planlanan	-10.9774
▁gündür	-10.9775
▁tanıştı	-10.9776
▁Makina	-10.9776
▁İsviçre	-10.9777
▁köle	-10.9778
▁yerleştirme	-10.9782
▁başlıca	-10.9782
▁USB	-10.9792
▁tüp	-10.9792
▁salgı	-10.9792
▁çağrısı	-10.9794
meksizin	-10.9796
▁netice	-10.9796
▁başlamıştı	-10.9797
▁yarısında	-10.9797
▁huzuru	-10.9801
▁Dosya	-10.9809
▁Eyüp	-10.981
▁lamba	-10.9811
▁Mevcut	-10.9812
▁ilimiz	-10.9814
▁Üzerine	-10.9822
▁Hız	-10.9825
▁Garanti	-10.9827
▁kazanır	-10.9827
▁olacaksınız	-10.9831
▁ekibimiz	-10.9838
▁çıkarılan	-10.9838
▁fazlasıyla	-10.9838
▁kumanda	-10.9839
▁tırman	-10.984
▁yahut	-10.985
▁edebilecek	-10.9851
▁kalça	-10.9851
▁Şehri	-10.9856
▁boyutlu	-10.9856
▁Kiralık	-10.9859
▁katılacak	-10.9864
▁konforlu	-10.9866
VER	-10.9868
▁yapımcı	-10.987
▁ısınma	-10.987
▁zarf	-10.9875
▁artarak	-10.9883
▁Gönül	-10.9888
▁KAY	-10.9888
▁Belçika	-10.989
▁sec	-10.9891
▁Usul	-10.9892
▁oturdu	-10.9896
▁oynuyor	-10.9902
▁Hav	-10.9903
▁menfaat	-10.9904
▁arıyorum	-10.9904
▁saptan	-10.9906
▁çeşidi	-10.9906
▁bağlamda	-10.9906
▁gelmişti	-10.991
▁Antik	-10.9912
▁Geniş	-10.9916
▁yumuşa	-10.9919
▁vakıf	-10.9923
▁düşmesi	-10.9934
▁düşünün	-10.9935
▁kapatma	-10.9942
▁mükellef	-10.9944
▁kuruldu	-10.9947
▁alev	-10.995
▁mülk	-10.9952
▁geçerlidir	-10.9959
▁getirmiş	-10.9967
▁idrar	-10.9968
▁laboratuvar	-10.9973
▁istisna	-10.9982
yeceğim	-10.9984
▁Kıs	-10.9986
▁kaldık	-10.9986
▁izledi	-10.9991
▁Çeşitli	-10.9992
▁Adet	-10.9997
▁diyebiliriz	-10.9997
▁açılır	-11
▁1990	-11.0006
▁Gelişim	-11.0007
▁kullanışlı	-11.0007
▁almıştı	-11.0008
▁çığ	-11.0009
▁Kablo	-11.0013
▁Piyasası	-11.0014
▁kalmadı	-11.0015
▁motosiklet	-11.0018
▁ürettiği	-11.0019
▁basketbol	-11.002
▁Fatma	-11.002
▁gönderdiği	-11.0027
▁Berlin	-11.0028
İSİ	-11.0029
▁180	-11.0029
▁Kahramanmaraş	-11.0037
▁karşılaştığı	-11.004
▁soğutma	-11.0048
▁müşterilerine	-11.0049
▁istediklerini	-11.0051
▁olmayacağı	-11.0055
▁kıymetli	-11.0058
▁asır	-11.0062
▁İYİ	-11.0062
▁kusursuz	-11.0062
▁elemanları	-11.0063
▁ekleyip	-11.0064
▁dokunma	-11.007
▁böcek	-11.007
▁tanınan	-11.0076
▁dolap	-11.0076
▁Yüksekokulu	-11.0081
▁Chi	-11.0083
▁yaşayabil	-11.0085
▁Körfez	-11.0085
▁ebeveyn	-11.0085
▁kesintisiz	-11.0086
▁nüfusun	-11.0089
▁Yarışması	-11.009
▁havuzu	-11.009
▁yapmıştır	-11.0092
▁Muhasebe	-11.0092
▁Şey	-11.0095
▁açıklamasında	-11.01
▁türkü	-11.0101
▁800	-11.0101
▁başkanları	-11.0105
▁Akıllı	-11.0107
▁bireylerin	-11.011
▁tayin	-11.0114
bâ	-11.0117
▁Blog	-11.012
▁tetik	-11.0123
▁Sekreter	-11.0124
▁ötesinde	-11.0127
▁gübre	-11.0129
LAMA	-11.013
▁baktığımızda	-11.0132
▁kitapta	-11.0133
▁frekans	-11.0135
▁doğumlu	-11.0138
▁arttığı	-11.0138
▁piş	-11.0148
▁Tuğ	-11.0152
▁Faruk	-11.016
▁veriliyor	-11.0161
▁vermiştir	-11.0162
▁evlat	-11.0164
▁Yönetmen	-11.0164
▁kucak	-11.0167
▁Mekke	-11.0167
▁Akça	-11.0171
▁iyileştirme	-11.0171
▁Ayak	-11.0172
bahçe	-11.0174
▁itiraf	-11.0179
▁kaydedildi	-11.0181
LERİN	-11.0182
▁getirecek	-11.0186
▁Bes	-11.0187
▁amel	-11.019
▁satılan	-11.0198
▁hazırlanıyor	-11.0198
TAŞ	-11.0212
▁geleceğe	-11.0213
▁elimde	-11.0217
▁cuma	-11.0218
▁Saha	-11.023
▁Mira	-11.0237
▁Kursu	-11.0239
TUR	-11.0239
▁Komitesi	-11.024
▁paylaştığı	-11.0242
▁nihayet	-11.0242
ÇE	-11.0243
▁apartman	-11.0245
▁istediğimiz	-11.0245
▁psikoloji	-11.0258
▁etsin	-11.0258
▁şekillendir	-11.0269
▁imalatı	-11.0275
▁sırasıyla	-11.0282
▁Güler	-11.0285
RS	-11.0286
▁Karşıyaka	-11.0286
▁Sivil	-11.0286
MET	-11.0295
▁Belediyespor	-11.0296
DAN	-11.0297
▁eksen	-11.0298
▁çılgın	-11.0298
▁dokuz	-11.0302
▁büyüyen	-11.0302
öğü	-11.0304
▁Fazla	-11.0305
▁açıp	-11.0307
İnsan	-11.0307
▁Bank	-11.0309
▁taciz	-11.0309
▁bulunmamaktadır	-11.031
▁Olağan	-11.031
▁Muhtar	-11.0311
nfeksiyon	-11.0312
▁kırsal	-11.0313
▁piyasası	-11.0316
▁ANA	-11.0319
▁yapılmalıdır	-11.032
▁Hakkari	-11.0321
▁Kütahya	-11.0323
▁epey	-11.0323
▁hesabınız	-11.0325
▁tercüme	-11.0328
▁branş	-11.0335
▁kırık	-11.0348
▁Saygı	-11.0348
▁küp	-11.035
▁çektir	-11.0358
▁Bütçe	-11.036
▁aktarma	-11.0361
▁Silahlı	-11.0365
ATA	-11.0377
cor	-11.0378
▁söyleyerek	-11.0378
▁ilkokul	-11.038
▁adlandırılan	-11.0381
▁dokusu	-11.0381
▁Başakşehir	-11.0382
▁kabiliyet	-11.0385
▁arayarak	-11.0388
▁Otomobil	-11.0392
▁torba	-11.0392
▁staj	-11.0393
▁başkanlığında	-11.0399
▁Kafkas	-11.0402
▁pembe	-11.0405
▁İstiklal	-11.0407
▁hükme	-11.0409
▁konak	-11.041
▁ülkelerinde	-11.0411
▁muhtemelen	-11.0412
▁Pir	-11.0414
▁Şef	-11.0414
▁BİRİNCİ	-11.0414
▁Demokrasi	-11.0424
▁minimum	-11.0427
▁Cep	-11.0428
TİK	-11.0428
▁istemiyorum	-11.0429
▁seçti	-11.0432
▁yakalandı	-11.0433
▁(4)	-11.044
▁durdu	-11.0446
▁Ümit	-11.045
▁seti	-11.045
▁Levent	-11.0452
▁diyoruz	-11.0454
SAL	-11.046
▁aynen	-11.0465
▁kavuştur	-11.0466
▁Cerrahi	-11.0467
▁gülümse	-11.0467
▁düzenlenmesi	-11.0468
▁kuruş	-11.0468
▁Engin	-11.047
▁fare	-11.0478
▁Komisyon	-11.0484
▁Milyon	-11.0487
▁Yargıtay	-11.0488
▁bilinmektedir	-11.049
▁aydınlat	-11.0498
▁uygulanma	-11.0499
▁telefonunuz	-11.05
▁cumhurbaşkanı	-11.0504
▁katında	-11.0504
▁Önceki	-11.0505
gov	-11.0505
▁Ünal	-11.0507
▁finansman	-11.0508
▁Sarayı	-11.0508
▁Özdemir	-11.051
laştığı	-11.051
▁sevinirim	-11.0514
▁sayılan	-11.0517
▁1-2	-11.0518
▁dergisi	-11.0519
▁çekirdek	-11.0519
▁tapu	-11.0524
.11.2018	-11.0524
▁burda	-11.0537
▁birtakım	-11.0542
▁nakit	-11.0544
▁tüken	-11.0547
▁muhalif	-11.0549
▁İpek	-11.055
▁Bulgaristan	-11.0552
▁ilçemiz	-11.0553
▁türkiye	-11.0568
▁Demirtaş	-11.057
▁beste	-11.0571
▁Sovyet	-11.0572
▁oynadı	-11.0577
▁huzurlu	-11.0577
▁Müsteşar	-11.058
▁kalkış	-11.0582
▁kaçınılmaz	-11.0583
▁Serdar	-11.0584
▁kabin	-11.0584
▁oksijen	-11.0585
▁yepyeni	-11.0585
▁fiş	-11.0586
▁İmar	-11.0588
▁Değişim	-11.0591
▁kuyu	-11.0593
▁kültürünü	-11.0593
▁alkış	-11.0594
▁Temizlik	-11.0601
büs	-11.0601
▁Böylelikle	-11.0611
▁gelsin	-11.0612
▁hazırlanması	-11.0612
▁taşıdığı	-11.0612
▁Yükseköğretim	-11.0616
▁pantolon	-11.0617
▁Kastamonu	-11.062
▁sağlanır	-11.0621
▁Gemi	-11.0621
▁açıklanan	-11.0624
▁usulü	-11.0625
▁karışımı	-11.0625
▁Teşkilatı	-11.0625
▁cari	-11.0627
YET	-11.0628
▁bozukluğu	-11.0628
▁etraf	-11.0628
▁sözcüğü	-11.063
▁göreceksiniz	-11.0636
▁artırma	-11.0637
▁BAŞ	-11.0637
▁köpeği	-11.0638
▁emekçi	-11.0641
▁silme	-11.0644
Değişik	-11.0645
▁zorunludur	-11.0645
▁bilinir	-11.0647
▁kıvam	-11.065
▁ayırma	-11.0656
▁yaşantı	-11.0663
▁askı	-11.0663
▁Borç	-11.0668
▁Metro	-11.0673
ound	-11.0676
▁ÖSYM	-11.0681
▁Kütüphane	-11.0686
▁çalışıyorum	-11.0688
▁Hayvancılık	-11.0691
▁çıkmaktadır	-11.0694
▁yukarıdaki	-11.0699
▁durur	-11.07
▁tutuyor	-11.0701
▁karayolu	-11.0706
▁Batman	-11.0709
▁ajan	-11.0711
▁küçül	-11.0712
▁seçimlerde	-11.0714
İHA	-11.0718
▁Kurtuluş	-11.0722
▁videoyu	-11.0722
▁bilinmeyen	-11.0722
▁buğday	-11.0725
▁Birkaç	-11.0727
▁Sonrasında	-11.0728
▁dilediğiniz	-11.0733
▁pamuk	-11.0734
▁olmaksızın	-11.0734
▁belirttiği	-11.0734
▁Telekom	-11.0737
▁solunum	-11.074
▁Ahmed	-11.0741
▁LED	-11.0742
▁Görüşme	-11.0742
çeşme	-11.0743
uygu	-11.0744
▁önlemleri	-11.0744
▁Zonguldak	-11.0745
▁ambulans	-11.0747
▁haliyle	-11.0749
▁SEO	-11.0753
▁verirken	-11.0754
▁alınmıştır	-11.0759
▁Cafe	-11.0768
▁Bildiri	-11.0772
▁kısmen	-11.0772
▁sürücüsü	-11.0776
▁göstererek	-11.0778
▁Moskova	-11.0781
dýr	-11.0782
▁muhtemel	-11.0785
▁kaybetmiş	-11.0787
▁Gökhan	-11.0788
YON	-11.0788
▁karışım	-11.0793
▁sarışın	-11.0795
▁Karabük	-11.0799
▁çıkarılması	-11.0803
▁ödev	-11.0806
▁güzergah	-11.0807
▁tutulması	-11.0807
▁direnç	-11.0807
▁Serbest	-11.0809
▁itfaiye	-11.0812
▁işsizlik	-11.0813
▁yasağı	-11.0818
▁anımsa	-11.082
▁gördüğünüz	-11.0821
▁Bağımsız	-11.0822
▁listesinde	-11.0836
▁Kabul	-11.0837
▁Market	-11.0847
▁düşmüş	-11.0849
▁Ümraniye	-11.0851
qua	-11.0858
▁Maltepe	-11.0861
▁ambar	-11.0864
▁Çorum	-11.0864
▁feth	-11.0864
▁çıkmıştır	-11.0866
▁Gölü	-11.0868
▁Kızılay	-11.0868
▁müşterilerimize	-11.087
▁mağara	-11.0874
▁mucize	-11.0877
▁Nakliye	-11.0882
▁parsel	-11.0894
▁kullanılıyor	-11.0897
▁Platformu	-11.09
▁ilgisini	-11.0901
▁böbrek	-11.0903
▁figür	-11.0905
▁giderilmesi	-11.0921
▁Pamuk	-11.0929
▁plakalı	-11.0934
▁Şehircilik	-11.0936
▁Rıza	-11.0937
▁pano	-11.0942
▁konuşmasında	-11.0946
▁koyul	-11.0946
▁Bahis	-11.0947
▁cevabını	-11.0949
▁istasyonu	-11.0951
▁Düzce	-11.0951
▁çalışmalarımız	-11.0957
cent	-11.0959
▁Full	-11.0961
▁düşüyor	-11.0967
▁Alışveriş	-11.0968
▁vazife	-11.0968
▁klasör	-11.0973
▁Şems	-11.0974
▁kötülük	-11.0984
▁alerji	-11.0984
▁sahasında	-11.0988
▁seslendir	-11.0997
▁Ertuğrul	-11.0997
▁toprağa	-11.0997
▁yaptıktan	-11.0998
▁haram	-11.1005
▁takviye	-11.1005
▁kaybeder	-11.1008
▁vasıtasıyla	-11.1011
▁Çavuşoğlu	-11.1011
▁statüsü	-11.1011
▁Okuma	-11.1013
▁Yöntem	-11.1016
▁önünü	-11.1019
▁diyecek	-11.1026
▁döngü	-11.1026
Bugün	-11.103
▁kurtuluş	-11.1031
iyye	-11.1032
ılacağını	-11.1035
▁Alım	-11.1039
▁sürdürme	-11.1039
▁yırt	-11.1041
EĞİ	-11.1045
▁dileriz	-11.105
▁unutulmaz	-11.1053
▁derneği	-11.1054
▁Sipariş	-11.1055
▁Gelecek	-11.1057
▁miting	-11.1058
▁karşılaştırma	-11.1058
▁İdari	-11.1061
▁düşünüyoruz	-11.1064
▁Çelebi	-11.1065
▁tepsi	-11.1071
▁idam	-11.1071
▁tamamlayan	-11.1071
vizyon	-11.1072
▁jandarma	-11.1073
▁AVM	-11.1074
▁Burcu	-11.1079
▁üzüm	-11.108
▁zikr	-11.1091
▁Neyse	-11.1092
▁Isparta	-11.1095
▁edelim	-11.1095
leştiği	-11.1099
▁cebi	-11.1102
▁yelpaze	-11.1103
▁bahane	-11.1105
▁geleneği	-11.1106
▁çalışmaktadır	-11.1107
▁Yolcu	-11.1111
▁iştirak	-11.1113
▁ısıtma	-11.1116
▁keskin	-11.112
▁yönetil	-11.1125
▁müddet	-11.1137
▁mantığı	-11.1138
▁Oyna	-11.1156
▁Bulut	-11.1158
▁operatör	-11.1161
▁sensör	-11.1172
▁Önder	-11.1177
▁taşımacılığı	-11.118
▁fırtına	-11.1183
gerçekleştirdiği	-11.1183
▁seans	-11.1183
▁yargılama	-11.1185
▁görülebilir	-11.1188
▁mutlak	-11.1191
▁masum	-11.1192
▁etkileyici	-11.1195
aydın	-11.1196
▁Avukat	-11.1196
▁burası	-11.1202
▁Rüya	-11.1207
▁Koordinatör	-11.1207
▁derhal	-11.1211
▁keşif	-11.1212
▁korkusu	-11.1214
▁İspanyol	-11.1215
▁geçirilen	-11.1215
▁arkadas	-11.1224
▁başlattığı	-11.1226
▁Divan	-11.1228
▁negatif	-11.1228
▁geçirildi	-11.1231
▁Soğuk	-11.1237
▁Şeh	-11.1238
▁düşürül	-11.1239
▁takdim	-11.1241
▁İskender	-11.1245
▁favori	-11.1247
▁Yoğun	-11.1255
▁facebook	-11.1261
▁başbakan	-11.1261
▁unuttu	-11.1262
▁merhamet	-11.1263
▁Siyaset	-11.1269
▁kaydıyla	-11.127
▁Hükümeti	-11.1273
▁afet	-11.1279
▁unutulma	-11.128
▁helikopter	-11.129
Çok	-11.1293
▁perakende	-11.1293
▁sürüş	-11.1295
▁tutuklandı	-11.1296
▁abart	-11.1309
▁kabuk	-11.1313
▁başladığını	-11.1314
PAR	-11.1315
▁ayrılmış	-11.1319
▁cehennem	-11.132
RAN	-11.1325
▁Organizasyon	-11.1326
▁Seyahat	-11.1326
▁temenni	-11.1329
▁sözünü	-11.1332
▁Küresel	-11.1334
▁Dekorasyon	-11.1334
▁patent	-11.1336
▁gitar	-11.1337
▁Çağrı	-11.1341
▁başlayıp	-11.1344
MASI	-11.1344
▁kazanım	-11.1347
▁gerçekleşmesi	-11.1351
▁ertesi	-11.1351
▁tempo	-11.1356
▁açılacak	-11.1359
▁Tekrar	-11.136
▁Bilecik	-11.1364
▁bünye	-11.1367
▁Yazıcı	-11.1368
▁Özcan	-11.1372
▁kökenli	-11.1375
▁Duygu	-11.1383
▁Cephe	-11.1385
▁Endüstri	-11.1387
▁merci	-11.1387
▁İsmet	-11.1389
▁Artvin	-11.1391
▁Ölçü	-11.1394
▁cezalandırıl	-11.1396
▁gidin	-11.1409
▁denildi	-11.1411
▁kuşak	-11.1417
▁ilkesi	-11.142
▁Trans	-11.1421
▁defalarca	-11.1425
▁Havuz	-11.1426
▁edemez	-11.1428
▁söyleşi	-11.1429
▁Mimarlık	-11.1429
▁soluk	-11.1431
▁Aşağıda	-11.1433
▁yaşadığımız	-11.1435
▁3-4	-11.1438
▁Yargı	-11.1442
▁yorul	-11.1443
▁Anlaşma	-11.1446
▁yut	-11.1456
▁zeytinyağı	-11.1463
▁bitkisel	-11.1467
▁basamak	-11.147
▁Bursaspor	-11.1482
▁grubunda	-11.1485
▁uzatma	-11.1487
▁boynu	-11.1487
▁götürdü	-11.1491
▁Finansal	-11.1494
▁duman	-11.1498
▁bereket	-11.1499
▁unvanı	-11.1501
▁Genelkurmay	-11.1504
▁konuşur	-11.1509
▁Afyonkarahisar	-11.151
▁parametre	-11.1522
▁iOS	-11.1524
▁kuram	-11.153
LİĞİ	-11.1531
▁Esnaf	-11.1532
▁sağlayarak	-11.1534
▁komik	-11.1534
▁Düzenleme	-11.1539
▁Final	-11.1539
▁Zeynep	-11.1546
▁zihni	-11.1546
▁sevişme	-11.1547
▁Erzincan	-11.1548
▁Yalova	-11.1548
▁1998	-11.1551
▁ANKARA	-11.1551
▁bulgular	-11.1554
▁Tokat	-11.1554
▁ayrılır	-11.1555
▁Kelime	-11.1568
▁coğrafi	-11.1568
▁koyuyor	-11.1572
yorlardı	-11.1573
▁Klasik	-11.1573
▁Üzerinde	-11.1579
▁bahsettiği	-11.158
▁tadilat	-11.1582
▁tuşuna	-11.1591
Eğer	-11.1595
grafi	-11.1603
▁iskele	-11.1607
▁haritası	-11.1612
▁arayın	-11.1619
▁sevimli	-11.162
▁Çakır	-11.1622
▁dolma	-11.1622
▁dostluk	-11.1623
▁atom	-11.1624
▁üretilmiş	-11.1627
▁kavur	-11.1628
▁bant	-11.163
▁Müdürlük	-11.1632
▁yıkım	-11.1632
▁köklü	-11.1638
▁full	-11.164
▁yapalım	-11.164
▁Celal	-11.164
▁özlem	-11.1647
▁hikmet	-11.1649
▁buzdolabı	-11.1652
▁evrensel	-11.1655
▁sorununu	-11.1657
▁Amatör	-11.1662
▁topluluğu	-11.1662
▁Dakika	-11.1666
▁Sahip	-11.1668
▁şebeke	-11.1669
▁Sahil	-11.1671
▁aktör	-11.1672
▁keşfetme	-11.1673
▁lazer	-11.1677
▁genetik	-11.168
▁Tuzla	-11.1689
▁alacağınız	-11.1695
▁bulundurul	-11.1696
▁davranma	-11.1696
▁saldırgan	-11.1699
▁yaşıyoruz	-11.1701
▁taşınması	-11.1707
▁hazırlanmıştır	-11.1709
▁dilerim	-11.1719
▁kurutma	-11.1721
▁Birbiri	-11.173
▁prensip	-11.1731
▁zihniyet	-11.1731
▁kocaman	-11.1733
▁endüstriyel	-11.1739
▁görüyorum	-11.1739
▁meşgul	-11.1739
▁menüsü	-11.1744
▁olasılığı	-11.1745
▁Millî	-11.1753
▁Sözcüsü	-11.1756
▁kariyeri	-11.1759
▁depresyon	-11.1759
▁Kağıt	-11.1759
▁memleketi	-11.1772
▁oturuyor	-11.1781
▁istikbal	-11.1785
▁hemşire	-11.1788
▁Risk	-11.1791
▁asfalt	-11.1793
amazsınız	-11.1795
▁zihinsel	-11.1802
▁sıkıştır	-11.1802
▁doğmuş	-11.1803
▁Ulaştırma	-11.1805
▁SORU	-11.1805
▁ümit	-11.1805
▁moral	-11.181
▁propaganda	-11.1813
▁çocuğunuz	-11.1816
▁Pınar	-11.1816
▁dondurma	-11.1819
▁izlenme	-11.1843
▁Internet	-11.1844
▁gizem	-11.1848
▁ihanet	-11.1849
▁eklenti	-11.1851
▁taşımaktadır	-11.1853
▁sağlayacağı	-11.1854
▁diyalog	-11.1856
▁büyüklüğünde	-11.1858
▁Göç	-11.186
▁bitirme	-11.186
▁Başsavcılığı	-11.1867
▁şeffaf	-11.1868
▁karaciğer	-11.1873
2008	-11.1878
▁Server	-11.1879
▁motivasyon	-11.1885
▁saklama	-11.1889
2010	-11.1891
▁Hayal	-11.1891
▁vermiyor	-11.1892
▁istikamet	-11.1893
▁prosedür	-11.1896
laştırılması	-11.1897
istanbul	-11.1898
▁isabet	-11.1899
▁sevinç	-11.1901
▁gökyüzü	-11.1909
▁Cinsel	-11.1911
▁Petrol	-11.1913
▁bağırsak	-11.1915
▁gelmiyor	-11.1919
▁döşeme	-11.1919
▁kömür	-11.1921
▁editör	-11.1925
▁Mağaza	-11.1925
▁alabilme	-11.1926
2009	-11.1929
▁ödenmesi	-11.1934
▁Öneri	-11.1941
olitik	-11.1944
▁Kamera	-11.1946
▁Nüfus	-11.1948
▁arayışı	-11.1951
▁Taksim	-11.1956
▁sicil	-11.1956
▁Kahraman	-11.1957
▁çekiliş	-11.1961
▁görüp	-11.1963
▁herhalde	-11.1969
▁vermekteyiz	-11.1974
▁vermişti	-11.198
▁SGK	-11.1983
▁unsurları	-11.1985
▁yarışması	-11.1987
▁şaşkın	-11.1989
▁Amasya	-11.199
▁Girişimci	-11.2004
ebildiği	-11.2005
▁ÖZEL	-11.2008
▁belirlediği	-11.2009
▁mektubu	-11.2009
▁etnik	-11.201
▁Hatip	-11.2012
▁çile	-11.2013
▁Sertifika	-11.2015
▁hususunda	-11.2019
▁yürüttüğü	-11.2022
▁Kararname	-11.203
▁City	-11.2033
▁düşürme	-11.2036
▁Kilo	-11.204
▁gebe	-11.2047
▁artırılması	-11.2049
▁Hint	-11.2051
▁durdurma	-11.2052
▁koordinasyon	-11.2059
▁benzin	-11.2061
▁sağlayıcı	-11.2061
▁oturup	-11.2062
▁gördüğümüz	-11.2071
▁promosyon	-11.2073
▁Çeşme	-11.2074
▁birebir	-11.2075
▁Arnavut	-11.2079
▁İddia	-11.2082
▁nasip	-11.2083
TIR	-11.2087
▁eserlerin	-11.209
▁kardeşlerimiz	-11.209
▁tablosu	-11.2091
▁Rehber	-11.2091
▁umudu	-11.2097
▁oluştuğu	-11.2097
▁kirliliği	-11.2102
▁İstatistik	-11.2103
▁âlem	-11.2105
▁Ticari	-11.2106
▁tekstil	-11.2115
▁kütle	-11.2115
▁klinik	-11.2118
▁Şart	-11.2118
▁İlköğretim	-11.2118
ömür	-11.2131
▁Patent	-11.2132
▁Bakırköy	-11.2138
▁diyebilirim	-11.2138
▁Ortaokulu	-11.2139
▁öldüğü	-11.2142
▁düzeltil	-11.2147
▁zayıflama	-11.2148
▁Ayakkabı	-11.2153
▁tırnak	-11.2159
▁minibüs	-11.2165
▁oluşturulmuş	-11.2171
▁Koşul	-11.2173
▁çıplak	-11.2174
▁Köprüsü	-11.2178
▁Umut	-11.2179
▁Stok	-11.2186
▁besleme	-11.2191
▁Başkent	-11.2196
▁muhtaç	-11.2212
▁ilacı	-11.2216
▁Kürdistan	-11.2218
▁1995	-11.2225
twitter	-11.223
▁zorunluluğu	-11.2231
▁tanınma	-11.2232
▁ingilizce	-11.2233
▁Alex	-11.2234
▁düzenleyen	-11.2236
▁Ataşehir	-11.2236
▁OKU	-11.2244
▁klavye	-11.2248
▁Şırnak	-11.2251
▁aramızda	-11.2257
▁levha	-11.2263
▁Açılış	-11.2263
▁dönüyor	-11.2265
▁Edinilen	-11.2269
▁Pendik	-11.2269
▁ettirme	-11.2276
▁Dolandırıcı	-11.2278
▁istihbarat	-11.2278
▁akımı	-11.2284
▁tuttuğu	-11.2286
▁poşet	-11.2287
▁çirkin	-11.2293
▁Teklif	-11.2293
▁Alınan	-11.2294
▁imparator	-11.2296
TSO	-11.2297
▁şükür	-11.2299
▁Uşak	-11.2299
bilgi	-11.23
▁işyerleri	-11.2302
▁cüzdan	-11.2305
▁müste	-11.2306
▁balıkçı	-11.2309
▁Mezun	-11.2312
▁verimliliği	-11.2313
▁Down	-11.232
▁korkunç	-11.2324
▁Harita	-11.2324
▁hamam	-11.233
▁Siyasi	-11.2332
▁Yatak	-11.2337
▁Hıristiyan	-11.2338
▁Organize	-11.2341
▁Milliyetçi	-11.2341
gerçekleştirildi	-11.2341
▁Sahne	-11.2341
▁nefis	-11.2345
▁muamele	-11.2353
▁ruhsal	-11.2363
▁söyledikleri	-11.2369
▁Yetki	-11.2372
▁Afyon	-11.2382
▁Papa	-11.2382
▁eğitmen	-11.2382
▁İzmit	-11.2384
▁ödün	-11.2387
Çocuk	-11.2387
▁Ucuz	-11.2392
▁aradığınız	-11.2395
▁Cihan	-11.2395
▁kontenjan	-11.2401
▁Eylem	-11.2404
▁Meyve	-11.2407
Kendi	-11.2408
▁belirledi	-11.2411
Ankara	-11.2413
▁burnu	-11.2423
▁Gayrimenkul	-11.2428
▁yıldönümü	-11.2431
▁tabela	-11.2432
▁başlayacağı	-11.2443
▁sirke	-11.2444
▁Bosna	-11.2444
▁kuzeyinde	-11.2448
▁fındık	-11.2453
▁elinizde	-11.2453
▁Ebû	-11.2456
Daha	-11.2456
▁söyleyebiliriz	-11.2462
▁Polonya	-11.2465
▁Vodafone	-11.2465
▁köfte	-11.2468
▁Umarım	-11.2474
▁muhakkak	-11.2477
▁tavrı	-11.2479
▁Washington	-11.2483
▁söylemişti	-11.2487
▁İnönü	-11.2488
▁Fayda	-11.249
▁kurulduğu	-11.25
▁Yaptığı	-11.2503
▁Nihat	-11.2508
▁olmayacaktır	-11.2511
▁dağılımı	-11.2514
▁havaalanı	-11.252
▁muaf	-11.252
týr	-11.2523
▁Fakülte	-11.2528
▁Güçlü	-11.2529
▁Donald	-11.2532
▁teşebbüs	-11.2535
▁belirtiliyor	-11.2536
▁tünel	-11.2546
▁küfür	-11.2547
▁Sahibi	-11.2547
▁müsait	-11.2557
▁Fırın	-11.2557
▁refah	-11.256
▁akciğer	-11.2563
▁Kulüp	-11.2565
▁helal	-11.2573
▁Aksaray	-11.2581
▁sürdüğü	-11.2584
▁bilmediği	-11.2586
▁arındır	-11.26
▁şarap	-11.2603
▁çocuğa	-11.2606
▁Günümüz	-11.2606
▁esmer	-11.2608
▁Ltd	-11.261
▁acele	-11.2612
Büyük	-11.2615
▁sepet	-11.2623
▁Latin	-11.2643
Devlet	-11.2643
formasyon	-11.2657
▁yaralanma	-11.2666
▁seçkin	-11.2667
▁Albayrak	-11.2671
▁heves	-11.2672
▁Meydan	-11.2674
▁bilişim	-11.2675
▁bulamadı	-11.2679
▁Makam	-11.2679
▁Temsilcisi	-11.268
▁okuyabil	-11.268
▁diyabet	-11.2684
▁Ajans	-11.2689
▁Portekiz	-11.2693
▁Menderes	-11.2693
▁arayış	-11.2693
▁Geleneksel	-11.2699
▁Afganistan	-11.2705
▁CEO	-11.2709
▁kutluyor	-11.2713
▁islam	-11.2713
▁Black	-11.2715
▁otuz	-11.2715
▁Rasûl	-11.2718
▁Yarış	-11.2721
▁sonbahar	-11.2721
▁Müftü	-11.2724
▁çamur	-11.2727
▁sorusunu	-11.2728
▁olağan	-11.2729
Bölüm	-11.2732
▁KULLAN	-11.2733
▁Boğaziçi	-11.2733
▁Madrid	-11.274
▁bittiği	-11.2742
▁bankacılık	-11.2744
▁İlkokulu	-11.2747
▁Uçak	-11.2752
▁anlayabil	-11.2753
▁Çankırı	-11.2755
▁Sinop	-11.2765
▁Fethiye	-11.2771
▁YAPI	-11.2781
▁mensup	-11.2783
bahis	-11.279
▁fıkrasında	-11.2791
Â	-11.2801
shop	-11.2817
▁TÜBİTAK	-11.2821
▁biliniyor	-11.2829
▁Ersoy	-11.2836
▁İşbirliği	-11.2837
▁Chris	-11.2837
▁Anahtar	-11.284
▁Abdul	-11.2853
▁Yozgat	-11.2853
▁Dayanak	-11.2853
▁otomotiv	-11.2862
▁çilingir	-11.2862
▁suçundan	-11.2866
▁TÜRKİYE	-11.2869
ward	-11.2872
▁ferah	-11.2872
▁kronik	-11.2882
▁tabanı	-11.2887
▁Yurtdışı	-11.2898
▁koalisyon	-11.2904
▁Danışmanlık	-11.291
▁yürürlükte	-11.292
▁tanınmış	-11.2922
▁Show	-11.2929
▁bulaşık	-11.293
▁öyküsü	-11.2937
▁element	-11.2943
INDA	-11.2944
▁Tercih	-11.2949
▁kendiliğinden	-11.2952
▁kaşık	-11.2953
▁Gazze	-11.2958
▁arayüz	-11.2968
▁Kenan	-11.2976
▁World	-11.2987
▁Davutoğlu	-11.2993
▁batarya	-11.3003
▁ahiret	-11.3003
ELE	-11.3008
▁antrenör	-11.3009
▁teyze	-11.301
AĞI	-11.3012
▁uyguladığı	-11.3017
▁Henüz	-11.3031
▁Plus	-11.3034
▁Transfer	-11.3043
▁ekmeği	-11.3046
▁tuhaf	-11.3065
▁Nokta	-11.3065
▁Hikmet	-11.3074
▁Otomatik	-11.3075
▁üyelerimiz	-11.3082
▁Marşı	-11.3092
▁tesadüf	-11.311
▁İlişki	-11.311
▁kırıklığı	-11.3121
▁2,5	-11.3122
▁sayfamızda	-11.3132
▁Önümüzdeki	-11.3132
▁zekâ	-11.3134
▁dram	-11.3134
▁objektif	-11.3136
▁portföy	-11.3139
▁Cennet	-11.3142
▁mısır	-11.3151
▁mutsuz	-11.3153
▁ortaokul	-11.3154
▁bellek	-11.3158
▁şehre	-11.3162
▁PROGRAM	-11.3168
▁gerçekleştiği	-11.317
▁Lirası	-11.3174
▁edileceği	-11.318
▁Nevşehir	-11.3185
▁Bingöl	-11.3188
▁Yüzyıl	-11.3204
▁doyur	-11.3205
▁Oldukça	-11.3208
▁döşe	-11.3209
abiliyorsunuz	-11.321
▁stüdyo	-11.3211
▁Kanser	-11.3218
▁Kırıkkale	-11.3224
▁ümmet	-11.3224
▁oldugunu	-11.3228
▁Meksika	-11.3231
▁inanıyorsanız	-11.3237
▁örgütlenme	-11.3241
▁Derece	-11.3247
▁çıkacağı	-11.325
▁Üretici	-11.325
▁ilgilendiren	-11.3257
▁İhsan	-11.3259
▁alüminyum	-11.326
▁alfabe	-11.326
▁efekt	-11.3261
▁Grafik	-11.3261
▁Satılık	-11.3264
soft	-11.3272
▁animasyon	-11.3274
▁sunuluyor	-11.3274
▁görünüş	-11.3283
▁antalya	-11.3283
▁burç	-11.3288
▁Tıkanıklığı	-11.329
▁sıva	-11.3291
▁Opera	-11.3295
▁şov	-11.3296
▁Auto	-11.3305
▁duydukları	-11.3306
▁Stadı	-11.3308
▁Kötü	-11.331
oğlan	-11.3311
▁ISO	-11.3328
▁Deprem	-11.333
▁çerez	-11.3337
▁Tıbbi	-11.335
▁Şimşek	-11.3353
http	-11.3358
▁Atölye	-11.336
▁yükümlülükler	-11.336
▁üstelik	-11.3364
▁hissedil	-11.3368
▁MERKEZ	-11.338
▁KOBİ	-11.338
▁YÖK	-11.3383
▁nezdinde	-11.3383
▁alçak	-11.3385
▁Güneydoğu	-11.3387
▁Siirt	-11.339
▁cisim	-11.3396
▁boşanma	-11.3396
▁statü	-11.3409
▁doğduğu	-11.3422
▁oynayabil	-11.3424
phone	-11.3425
▁verilebil	-11.3433
▁Bağlantı	-11.3434
▁doğrultuda	-11.3437
▁orjinal	-11.344
▁reaksiyon	-11.344
▁şikâyet	-11.3443
▁tansiyon	-11.3444
▁rezerv	-11.3444
▁parmağı	-11.3447
▁Bitcoin	-11.345
▁dolandırıcı	-11.345
▁Arşiv	-11.3454
▁jüri	-11.3454
▁becer	-11.3455
▁Uzay	-11.3455
▁füze	-11.347
▁parlamento	-11.3474
▁komite	-11.3489
▁Vadisi	-11.349
▁mülakat	-11.3491
▁Şerif	-11.3494
▁Plaj	-11.3495
▁iştah	-11.3496
▁Parlamento	-11.3497
▁itaat	-11.3505
▁YENİ	-11.3505
▁Festival	-11.3507
▁Fikir	-11.3508
qui	-11.3509
▁hissettiği	-11.3514
▁İmalat	-11.3515
ranıyorsanız	-11.352
▁umarım	-11.3528
▁bağışıklık	-11.3531
▁Havaalanı	-11.3531
▁yaşayacak	-11.3559
▁WhatsApp	-11.3562
▁öğün	-11.3574
SİAD	-11.3576
▁Çankaya	-11.3589
▁telif	-11.3591
▁Beykoz	-11.3603
▁Bonus	-11.3607
▁Olimpiyat	-11.3609
▁düşkün	-11.361
▁deyince	-11.3614
▁hücum	-11.3616
▁Gebze	-11.3623
▁global	-11.363
▁düzenlenmiş	-11.3639
▁Kahvaltı	-11.365
▁Pakistan	-11.365
▁mermer	-11.3653
▁Porno	-11.3654
word	-11.3669
▁Plastik	-11.3671
▁izlenim	-11.3673
▁veritabanı	-11.3674
▁ehli	-11.3684
▁Marmaris	-11.3702
▁bıraktıysa	-11.3703
▁geçtikçe	-11.3706
▁güldü	-11.3707
▁mübarek	-11.3709
▁Bilindiği	-11.3709
▁Robert	-11.3714
▁travma	-11.3717
▁kılıf	-11.372
▁seramik	-11.3726
▁Vücut	-11.3736
▁Otomotiv	-11.374
▁mevduat	-11.374
▁yenilgi	-11.374
▁Endüstriyel	-11.3742
▁tribün	-11.3743
▁ehliyet	-11.3753
▁Sürücü	-11.3757
▁7/24	-11.3757
▁tıkanıklığı	-11.3764
html	-11.3768
▁Andre	-11.3772
▁dolandırdığın	-11.3775
▁harekat	-11.3775
▁bürün	-11.3775
▁padişah	-11.3778
▁Bireysel	-11.3778
▁Sigara	-11.3778
▁Trakya	-11.3779
▁Bisiklet	-11.3782
▁Michael	-11.3782
▁Uyku	-11.3817
▁Eğlence	-11.3823
▁biriktir	-11.3826
▁uğruna	-11.383
▁ikramiye	-11.3831
▁müzisyen	-11.3834
▁KHK	-11.3834
▁bahsedil	-11.3846
▁Hesabı	-11.3858
▁Buraya	-11.3867
▁DERS	-11.3872
▁05066	-11.3876
▁Tekstil	-11.3876
27231	-11.3876
▁Pencere	-11.3886
▁parfüm	-11.3887
▁Gold	-11.3892
▁İdlib	-11.3893
▁Turnuva	-11.3897
▁Putin	-11.3908
▁Hediye	-11.3911
▁lens	-11.3916
▁David	-11.392
▁zulüm	-11.3925
▁samimiyet	-11.3937
▁yurtiçi	-11.3955
▁Endeksi	-11.3964
▁Global	-11.3967
▁Hepimiz	-11.3971
▁Hüküm	-11.398
▁benziyor	-11.3997
▁beyanname	-11.4004
▁google	-11.4007
▁çukur	-11.4007
▁guzel	-11.4007
youtube	-11.4021
▁obje	-11.4024
▁Yağmur	-11.4029
▁Öcalan	-11.4042
▁bambaşka	-11.4046
▁bişey	-11.405
▁öğüt	-11.4059
▁Bitlis	-11.406
▁nikah	-11.406
▁Beslenme	-11.4065
▁kudret	-11.4071
▁zahmet	-11.4078
▁güreş	-11.4082
▁alarm	-11.4092
▁zihin	-11.4096
▁denetleme	-11.4096
▁tamamlamış	-11.4097
▁burjuva	-11.4099
▁Klinik	-11.4107
▁kucağı	-11.4117
▁radikal	-11.4121
▁Tarifi	-11.4125
▁Köprü	-11.4126
▁Köpek	-11.4132
▁bulunmuyor	-11.4141
▁elverişli	-11.4153
▁Oktay	-11.4161
▁Ekibi	-11.4167
▁NOT	-11.4168
▁direksiyon	-11.4177
▁Villa	-11.4182
▁Başlangıç	-11.4182
▁tütün	-11.4187
▁Kuvvet	-11.4191
▁Restoran	-11.4204
▁hakimiyeti	-11.4209
▁hırs	-11.4213
▁Niğde	-11.4215
normal	-11.422
▁anlayama	-11.4227
▁Sabancı	-11.4248
▁uyruklu	-11.4259
▁Resmî	-11.4266
▁bülten	-11.4266
▁yakışıklı	-11.4273
▁rutin	-11.4274
▁lojistik	-11.4277
▁THY	-11.4284
▁Öğrenme	-11.4285
▁Dayanışma	-11.4288
▁ihtiyac	-11.4294
▁Göğüs	-11.4306
▁Lefkoşa	-11.4317
▁civarı	-11.4323
▁molekül	-11.4328
▁lehine	-11.4335
▁Yumurta	-11.4339
▁tahrik	-11.4341
▁nihai	-11.4346
▁koridor	-11.4357
▁Alüminyum	-11.4361
•	-12.1317
·	-13.4963
	-13.526
あ	-13.9567
́	-15.7916
