<unk>	0
<s>	0
</s>	0
.	-3.16638
,	-3.36315
▁ve	-4.05067
▁bir	-4.46597
▁	-4.80593
’	-4.85718
'	-5.03424
▁bu	-5.35213
▁için	-5.37295
n	-5.37616
▁ile	-5.45395
▁de	-5.55309
▁da	-5.5608
a	-5.57588
lar	-5.59468
i	-5.6376
da	-5.6476
ler	-5.65671
e	-5.69954
de	-5.71706
nin	-5.76528
▁olarak	-5.82902
)	-5.82964
in	-5.90116
-	-5.91545
▁(	-5.94206
▁Bu	-5.97371
m	-6.00201
▁çok	-6.02429
nın	-6.02465
▁olan	-6.05708
leri	-6.0581
:	-6.05842
ın	-6.08086
ları	-6.09262
▁en	-6.17615
k	-6.17701
▁daha	-6.21266
▁“	-6.23642
ı	-6.29443
li	-6.3165
ya	-6.3209
...	-6.32484
▁gibi	-6.33767
na	-6.355
ne	-6.38482
”	-6.43188
dan	-6.43467
den	-6.48206
;	-6.4967
ye	-6.49747
la	-6.50641
▁kadar	-6.51189
▁her	-6.52538
le	-6.5325
▁"	-6.57947
si	-6.60982
lı	-6.60988
?	-6.62152
▁sonra	-6.63587
▁ise	-6.68968
▁Türkiye	-6.71355
s	-6.7253
ni	-6.72617
lerin	-6.73011
▁-	-6.73894
▁veya	-6.77854
ların	-6.782
"	-6.80247
z	-6.80785
dir	-6.80894
te	-6.8229
▁ne	-6.85178
ta	-6.85751
nda	-6.85772
▁var	-6.87019
▁o	-6.8752
▁yer	-6.88636
nde	-6.89647
▁tarafından	-6.92242
▁göre	-6.93118
▁ya	-6.94058
t	-6.96364
▁yeni	-6.96788
▁büyük	-6.97492
▁ki	-6.97802
dır	-7.01
▁1	-7.0139
u	-7.0141
nı	-7.04783
▁olduğu	-7.04832
un	-7.04987
l	-7.05655
/	-7.06097
▁2	-7.06489
▁zaman	-7.06521
▁ilk	-7.07517
▁iyi	-7.07921
yi	-7.10212
sı	-7.10854
ki	-7.1092
lere	-7.12059
▁şekilde	-7.1259
larını	-7.13219
▁ilgili	-7.14665
▁3	-7.15233
lik	-7.1549
▁ama	-7.17789
lerini	-7.1792
an	-7.18978
▁tüm	-7.19454
▁Bir	-7.21779
lara	-7.22087
ma	-7.22258
r	-7.23737
yla	-7.24429
▁son	-7.25026
▁A	-7.253
▁olduğunu	-7.26709
yı	-7.27057
di	-7.27887
▁iki	-7.30473
▁önce	-7.31347
▁devam	-7.32441
▁içinde	-7.33209
▁gün	-7.3364
▁arasında	-7.34133
!	-7.3441
sa	-7.34974
yle	-7.35804
▁önemli	-7.35961
d	-7.37356
▁değil	-7.38385
▁Türk	-7.39325
en	-7.39842
▁birlikte	-7.41737
▁hem	-7.41835
▁İstanbul	-7.42221
▁fazla	-7.42645
▁yıl	-7.42657
▁O	-7.43018
y	-7.43264
nun	-7.43365
ndan	-7.43538
▁iş	-7.44083
▁4	-7.44284
▁diğer	-7.45686
▁karşı	-7.46192
▁aynı	-7.46477
▁alan	-7.4688
tan	-7.47075
▁diye	-7.48149
▁sahip	-7.48255
me	-7.48822
▁5	-7.49277
▁güzel	-7.49562
lık	-7.5156
▁kendi	-7.51846
p	-7.53808
▁yapılan	-7.54137
larının	-7.54302
ten	-7.54904
▁özel	-7.55172
larda	-7.55507
lu	-7.55598
▁eden	-7.56322
▁Başkanı	-7.56993
▁farklı	-7.58242
▁oldu	-7.58968
nden	-7.58989
▁bin	-7.59319
▁bulunan	-7.59483
▁gelen	-7.60634
lerde	-7.61157
▁sadece	-7.61368
▁10	-7.61961
se	-7.62805
▁tek	-7.62858
lerinin	-7.64334
er	-7.64595
larına	-7.64652
▁S	-7.64663
▁olmak	-7.64961
ca	-7.66711
lerine	-7.67008
daki	-7.67977
▁yok	-7.68859
▁doğru	-7.69586
▁nasıl	-7.69849
▁dedi	-7.69902
▁ben	-7.7064
▁üzere	-7.71396
tir	-7.71895
o	-7.72476
ini	-7.73867
▁uygun	-7.74225
▁olması	-7.76894
▁bile	-7.77395
ü	-7.77416
lerden	-7.77811
▁üzerine	-7.77882
▁şey	-7.78279
deki	-7.78544
miz	-7.79067
▁bilgi	-7.79106
▁yılında	-7.79463
▁Genel	-7.79607
▁hizmet	-7.79784
ce	-7.80072
▁su	-7.8016
▁üzerinde	-7.81022
▁6	-7.82562
▁‘	-7.83652
ti	-7.83908
b	-7.84496
▁başka	-7.84533
mi	-7.84536
▁az	-7.848
▁E	-7.84921
lardan	-7.85264
▁:	-7.85591
▁hakkında	-7.86347
▁yüksek	-7.86434
▁etti	-7.86782
niz	-7.86938
S	-7.87046
▁B	-7.88174
▁C	-7.88509
c	-7.89359
C	-7.9003
dı	-7.90898
tır	-7.92578
▁ortaya	-7.93052
▁Allah	-7.93182
A	-7.93239
▁mi	-7.93285
▁bütün	-7.93489
ine	-7.93982
K	-7.94041
▁olur	-7.94144
2	-7.95113
▁K	-7.95585
▁hiç	-7.95804
▁yüzde	-7.9596
▁kabul	-7.96017
com	-7.9614
▁eğitim	-7.96171
▁#	-7.96385
lerle	-7.96395
▁15	-7.96472
▁biri	-7.96514
larında	-7.97071
▁edilen	-7.97287
▁Her	-7.9742
▁a	-7.9766
▁7	-7.98494
ün	-7.9863
im	-7.98743
▁olacak	-7.98856
▁e	-7.98946
▁uzun	-7.99028
▁kişi	-7.99156
larla	-7.99585
al	-7.99679
▁saat	-8.00305
▁an	-8.00427
ken	-8.00472
mış	-8.00497
▁içerisinde	-8.00936
D	-8.01331
g	-8.01963
▁açık	-8.02085
▁insan	-8.02423
lerinden	-8.03279
h	-8.03309
mız	-8.04313
▁Ancak	-8.04521
f	-8.05235
▁–	-8.0538
ci	-8.05411
▁yerine	-8.05509
▁D	-8.05572
▁ifade	-8.05582
▁/	-8.05637
1	-8.0579
▁bazı	-8.06011
▁konusunda	-8.06544
▁T	-8.06693
▁8	-8.07072
▁tam	-8.07158
▁ay	-8.07432
▁M	-8.07459
▁ancak	-8.07582
lerinde	-8.07809
▁ardından	-8.07918
nız	-8.07999
▁yapan	-8.08299
▁'	-8.08448
▁Eğitim	-8.08562
B	-8.0858
▁20	-8.08821
▁süre	-8.09569
▁Üniversitesi	-8.09765
du	-8.09829
▁para	-8.09907
▁neden	-8.10258
▁m	-8.1051
▁yaptığı	-8.11467
▁yol	-8.11561
▁geri	-8.11569
▁vardır	-8.11606
sini	-8.11742
▁karar	-8.1203
larından	-8.12119
▁Dr	-8.1247
ir	-8.1312
ını	-8.13175
▁En	-8.14238
ş	-8.14394
▁Avrupa	-8.14467
▁birçok	-8.14511
▁günü	-8.1465
mak	-8.15012
▁2018	-8.15138
▁etmek	-8.15396
▁kez	-8.15837
▁Ve	-8.16164
▁ediyor	-8.16189
▁şu	-8.16278
▁i	-8.16518
▁söz	-8.16758
um	-8.17697
▁size	-8.17727
siz	-8.18116
▁olup	-8.18218
▁artık	-8.18306
sını	-8.1925
▁yine	-8.19542
▁G	-8.19629
▁geçen	-8.19901
▁hemen	-8.19975
▁Ankara	-8.20159
▁Ben	-8.20223
▁F	-8.20307
▁ev	-8.20409
▁n	-8.20563
▁ABD	-8.20629
▁s	-8.20941
G	-8.21383
miş	-8.21609
▁Yeni	-8.21759
dur	-8.21797
▁kısa	-8.21929
▁böyle	-8.22146
▁ait	-8.22669
▁bağlı	-8.22871
▁yakın	-8.23158
▁olsun	-8.23387
▁...	-8.23417
▁benim	-8.23623
▁12	-8.2364
▁altında	-8.2398
sin	-8.24041
▁tercih	-8.24189
3	-8.24282
▁destek	-8.24535
ır	-8.24673
▁k	-8.24706
▁TL	-8.24762
T	-8.25233
at	-8.25281
el	-8.25321
▁|	-8.25379
▁zamanda	-8.257
▁olabilir	-8.26351
▁küçük	-8.26352
▁sıra	-8.26433
▁Ama	-8.26707
▁çalışma	-8.26772
M	-8.26967
▁dikkat	-8.26986
▁Belediye	-8.2701
▁18	-8.27674
arak	-8.27823
tı	-8.27825
▁milyon	-8.27875
▁veren	-8.28028
▁bunu	-8.282
▁üzerinden	-8.28364
▁geldi	-8.28485
su	-8.28793
▁eski	-8.28846
	-8.28912
▁Ayrıca	-8.29246
▁iç	-8.29717
▁I	-8.29747
▁sosyal	-8.29866
sine	-8.30092
▁hiçbir	-8.30243
▁oldukça	-8.30301
ar	-8.30459
▁gereken	-8.30492
▁göz	-8.30683
▁9	-8.32096
P	-8.33063
▁mı	-8.33672
▁hafta	-8.33691
lama	-8.33698
▁söyledi	-8.33761
▁ilişkin	-8.34509
▁yönelik	-8.34797
man	-8.34835
oğlu	-8.34847
▁pek	-8.35371
▁in	-8.35592
▁kadın	-8.35682
.”	-8.35686
▁nedeniyle	-8.3588
liği	-8.36024
ım	-8.36123
▁el	-8.36369
lü	-8.36768
v	-8.37012
▁yapmak	-8.37061
­	-8.3771
▁genel	-8.37816
▁30	-8.38194
cı	-8.38217
▁onu	-8.38768
▁biraz	-8.39009
▁üç	-8.39244
▁konusu	-8.39314
▁Daha	-8.39595
ç	-8.39836
▁tekrar	-8.39985
▁P	-8.40336
▁herhangi	-8.40386
E	-8.4048
▁elde	-8.40528
▁Ne	-8.40584
▁özellikle	-8.40774
(	-8.41011
▁bana	-8.41179
lan	-8.41447
▁İl	-8.41462
▁H	-8.41496
ra	-8.41729
."	-8.42438
F	-8.42479
iz	-8.42522
İ	-8.43238
ip	-8.4325
▁üst	-8.43281
▁biz	-8.43368
sel	-8.43397
▁olmayan	-8.43832
▁takip	-8.43867
▁kapsamında	-8.44047
re	-8.44164
▁gelir	-8.44298
▁al	-8.44353
▁çıkan	-8.44506
sız	-8.44696
▁Kurulu	-8.448
▁g	-8.44868
▁dolayı	-8.44881
▁ikinci	-8.45254
il	-8.45636
▁kolay	-8.45928
luk	-8.45938
4	-8.45972
▁tarihi	-8.46256
▁yeniden	-8.46592
acak	-8.4663
▁başladı	-8.46685
▁dünya	-8.46704
▁Belediyesi	-8.46717
▁onun	-8.47078
Y	-8.47208
inin	-8.4724
▁ek	-8.47632
▁Çünkü	-8.47987
▁ön	-8.48353
▁yani	-8.48366
▁almak	-8.48585
▁değildir	-8.48618
▁dışında	-8.48677
▁kontrol	-8.48889
▁Son	-8.48968
▁Erdoğan	-8.49046
▁gerekli	-8.49071
▁eder	-8.49319
▁çocuk	-8.49393
▁gerçek	-8.49402
▁Bunun	-8.49485
x	-8.49495
O	-8.49567
ecek	-8.4978
▁bugün	-8.49821
lığı	-8.49934
erek	-8.50241
nizi	-8.50316
▁zor	-8.50404
▁hava	-8.50449
▁sağlık	-8.50633
ması	-8.50823
▁14	-8.50862
▁olsa	-8.50894
▁Dünya	-8.5122
▁sahibi	-8.51436
▁ana	-8.51673
▁bizim	-8.51945
▁2017	-8.51998
nu	-8.51999
▁yanı	-8.52054
▁halinde	-8.52607
▁rağmen	-8.52713
▁adet	-8.52812
▁çeşitli	-8.52889
▁gerek	-8.52907
inde	-8.53004
H	-8.53061
▁ziyaret	-8.53307
▁görev	-8.53382
▁kat	-8.54047
▁16	-8.54137
mek	-8.54309
nızı	-8.54358
Bu	-8.54414
▁hareket	-8.54552
▁11	-8.54702
ri	-8.54823
▁ara	-8.54889
▁sürekli	-8.54945
▁1.	-8.55284
▁b	-8.55503
▁mümkün	-8.55638
▁ürün	-8.55832
▁temel	-8.55928
▁gece	-8.55946
▁bunun	-8.5599
▁burada	-8.56099
▁Parti	-8.56159
▁19	-8.56413
▁sayesinde	-8.56631
▁durum	-8.56874
▁Ali	-8.57036
▁yardımcı	-8.57142
▁ettiği	-8.57162
▁hızlı	-8.57282
yan	-8.57333
▁13	-8.57437
▁boyunca	-8.57474
▁ayrı	-8.57538
▁Eğer	-8.577
ına	-8.57734
▁konu	-8.5782
▁türlü	-8.58155
▁sayılı	-8.5838
sinde	-8.58535
I	-8.58538
▁yaz	-8.5868
▁derece	-8.58818
▁Merkezi	-8.58894
mı	-8.59191
ıp	-8.59322
▁Başkan	-8.59565
▁oyun	-8.59999
ik	-8.60563
ur	-8.60572
ka	-8.60741
▁adı	-8.60786
▁24	-8.60997
▁verilen	-8.61051
▁bi	-8.61277
▁2.	-8.61322
▁yaklaşık	-8.61465
▁hangi	-8.61483
▁Y	-8.61826
sına	-8.62014
▁bize	-8.62167
▁ederek	-8.62444
▁tarihinde	-8.62588
siniz	-8.62702
▁İlk	-8.63019
▁internet	-8.63144
▁Müdürlüğü	-8.63162
ge	-8.63203
),	-8.63455
▁hale	-8.63468
▁genç	-8.63527
▁oluyor	-8.63564
▁gerekir	-8.63597
▁verdi	-8.6374
▁r	-8.63769
▁anda	-8.63912
Ş	-8.6414
▁mu	-8.64162
▁teknik	-8.64199
ıyor	-8.64234
▁beni	-8.64306
uz	-8.64875
▁Bakanlığı	-8.64927
▁yanında	-8.65127
▁çıkar	-8.65596
▁25	-8.6562
▁Biz	-8.65713
▁sık	-8.6592
▁Anadolu	-8.6623
sın	-8.66343
▁Su	-8.6667
is	-8.66713
leriyle	-8.66727
▁aldı	-8.66867
▁olacaktır	-8.66918
ve	-8.67109
bi	-8.67132
▁nedenle	-8.67323
▁çalışan	-8.67337
iyor	-8.67827
▁sizin	-8.67848
▁devlet	-8.67978
]	-8.68086
▁İş	-8.68269
N	-8.68556
▁Özel	-8.68734
▁kalan	-8.68798
▁*	-8.68826
▁yapılacak	-8.68988
▁Çok	-8.69054
▁durumda	-8.69127
▁canlı	-8.69149
▁Milli	-8.69257
▁izle	-8.6934
▁İzmir	-8.69452
▁ona	-8.69636
▁17	-8.69795
7	-8.69799
larıyla	-8.69827
▁Kasım	-8.69841
▁Temmuz	-8.6994
▁adına	-8.70052
▁beraber	-8.70139
sinin	-8.70194
▁kız	-8.70467
▁sistemi	-8.70574
▁yaptı	-8.70735
▁araç	-8.7074
maktadır	-8.71177
leme	-8.71374
▁yardım	-8.71411
▁Tüm	-8.71435
▁Eylül	-8.71585
▁Mehmet	-8.71608
▁bulunduğu	-8.71657
on	-8.71704
▁2016	-8.71932
▁hep	-8.72666
▁c	-8.72772
çi	-8.72945
▁kötü	-8.73073
▁sonucu	-8.73164
▁düzenlenen	-8.73284
▁ele	-8.73392
▁at	-8.73515
▁sırasında	-8.73548
▁konuda	-8.73566
▁giriş	-8.73567
▁şeklinde	-8.7357
8	-8.73774
▁100	-8.73912
mesi	-8.73973
▁alt	-8.74008
5	-8.74171
▁belli	-8.74427
▁kullanılan	-8.74521
▁açısından	-8.74544
▁%	-8.74746
▁ülke	-8.74861
▁siz	-8.74925
▁fark	-8.75173
L	-8.75193
ter	-8.75575
▁konuştu	-8.75637
sal	-8.7576
▁telefon	-8.75863
▁şöyle	-8.75909
gi	-8.76337
▁il	-8.76342
▁sonunda	-8.76355
▁hak	-8.76556
▁itibaren	-8.76558
ak	-8.76562
▁erkek	-8.76751
▁hizmeti	-8.76756
▁sizi	-8.76882
▁ortak	-8.76905
▁dakika	-8.76964
it	-8.77048
▁İ	-8.77207
tik	-8.77255
ul	-8.77255
▁adam	-8.77305
▁tür	-8.77543
▁Ekim	-8.7766
▁haber	-8.7767
▁d	-8.77719
▁çıktı	-8.77731
ba	-8.7776
▁yaşam	-8.77949
▁başarılı	-8.7804
▁R	-8.78211
▁aldığı	-8.78509
▁Spor	-8.78564
▁izin	-8.78711
▁geniş	-8.78728
▁değer	-8.78766
▁kaç	-8.78801
▁vardı	-8.78868
R	-8.78915
▁hazır	-8.78929
ında	-8.7908
▁kişinin	-8.79172
▁Cumhurbaşkanı	-8.79261
▁yemek	-8.794
▁uygulama	-8.79675
▁Mustafa	-8.79923
î	-8.80108
▁film	-8.80582
▁U	-8.80958
▁şehir	-8.8099
▁toplam	-8.81013
va	-8.81047
▁teşekkür	-8.81083
▁doğal	-8.81102
▁kitap	-8.81115
▁yoğun	-8.81219
▁kan	-8.81395
abilirsiniz	-8.8149
▁kullan	-8.81645
▁ilgi	-8.81921
▁amacıyla	-8.82126
▁kredi	-8.82164
▁isteyen	-8.82187
▁insanlar	-8.82191
yu	-8.82271
U	-8.82314
▁bulundu	-8.82531
▁Haziran	-8.82571
▁yıllık	-8.82751
mektedir	-8.83175
▁güvenlik	-8.83306
▁verdiği	-8.83348
▁varsa	-8.83383
bu	-8.83411
▁0	-8.83429
▁yılı	-8.83468
et	-8.83541
▁ince	-8.83556
mizi	-8.83673
▁meydana	-8.83702
▁Yönetim	-8.83709
▁Devlet	-8.83729
▁tedavi	-8.83738
▁AK	-8.83824
▁Ak	-8.83863
▁50	-8.83891
▁istiyorum	-8.83928
▁dil	-8.83997
▁ödeme	-8.8405
▁dahil	-8.84239
dığı	-8.84386
▁web	-8.84519
▁enerji	-8.84591
▁geliyor	-8.84603
▁tespit	-8.84688
▁Bakanı	-8.84788
ndaki	-8.8481
▁mücadele	-8.84849
▁güçlü	-8.85159
V	-8.85289
▁sorun	-8.85356
▁talep	-8.85413
▁oluşan	-8.85469
▁Mayıs	-8.85488
▁proje	-8.85588
nün	-8.85781
ay	-8.859
▁ses	-8.86132
▁sene	-8.86152
ğ	-8.86168
▁yerde	-8.86248
▁2015	-8.863
▁baş	-8.86323
▁yan	-8.86343
sanız	-8.86386
▁tamamen	-8.86438
maya	-8.86473
▁bulunmaktadır	-8.86726
▁Büyük	-8.86729
▁Mart	-8.86894
▁2014	-8.8705
▁arasındaki	-8.87053
▁Ay	-8.87105
▁l	-8.87123
▁teslim	-8.87335
▁sohbet	-8.87377
ol	-8.87408
▁servis	-8.87465
▁olma	-8.8753
▁satış	-8.87679
▁ayrıca	-8.87847
▁ekonomik	-8.8785
▁alma	-8.88111
▁edildi	-8.88138
▁yana	-8.8827
▁yüzden	-8.88349
▁mevcut	-8.88508
▁geç	-8.88522
▁imza	-8.88639
▁durumu	-8.88697
ndeki	-8.88737
▁öyle	-8.88776
▁yapı	-8.88846
▁zarar	-8.89277
san	-8.89389
▁aile	-8.8955
▁yüz	-8.89614
▁kaliteli	-8.89679
▁V	-8.89708
▁yayın	-8.89791
cu	-8.89793
▁dile	-8.898
ydi	-8.89969
▁sizlere	-8.89994
▁t	-8.89997
▁Büyükşehir	-8.90018
▁çünkü	-8.9002
▁cevap	-8.90025
be	-8.90112
▁gerekiyor	-8.90218
▁Türkçe	-8.9041
▁yorum	-8.90614
▁Sosyal	-8.90682
▁güç	-8.90811
▁yabancı	-8.90913
▁yönetim	-8.91004
▁parça	-8.91105
▁kar	-8.91261
▁gelecek	-8.91281
▁fakat	-8.91492
tr	-8.9166
▁edecek	-8.91675
▁satın	-8.9172
▁edin	-8.91736
▁yoktur	-8.91767
▁Prof	-8.9181
min	-8.9184
▁bahis	-8.91964
▁yap	-8.92024
▁haline	-8.92062
han	-8.92232
▁edilmesi	-8.92331
▁mutlu	-8.92418
muş	-8.92441
▁spor	-8.92525
▁sonrası	-8.92612
▁başlayan	-8.92784
▁ciddi	-8.9283
▁fiyat	-8.92907
▁kendini	-8.92926
▁başvuru	-8.93225
▁günlük	-8.93482
▁Kara	-8.935
dim	-8.93643
▁El	-8.93648
▁birkaç	-8.93737
▁İşte	-8.94014
▁bak	-8.94053
▁Ar	-8.94101
▁dönem	-8.94144
abilir	-8.94146
е	-8.94209
▁CHP	-8.94305
▁alınan	-8.94489
▁zaten	-8.94658
▁yaş	-8.94723
▁Ocak	-8.94776
▁üretim	-8.94798
▁Nisan	-8.94877
ha	-8.94927
▁Al	-8.94962
▁N	-8.95125
▁Ahmet	-8.95126
▁sayısı	-8.95157
▁dış	-8.95214
▁anne	-8.9523
tu	-8.95242
▁[	-8.9526
len	-8.95291
Ç	-8.95293
▁önceki	-8.9566
▁sağ	-8.95784
▁merkezi	-8.95947
▁takım	-8.95977
▁et	-8.95979
▁bayan	-8.96019
▁yatırım	-8.96099
▁Özellikle	-8.96147
▁insanların	-8.96335
ının	-8.96397
▁rahat	-8.96437
▁Re	-8.96533
▁Atatürk	-8.96542
▁içi	-8.9657
▁Fakat	-8.96579
▁bilgiler	-8.96633
▁yere	-8.96635
▁vermek	-8.96684
tur	-8.96827
▁re	-8.96835
ebilir	-8.9691
mızı	-8.96934
▁aslında	-8.96998
▁soru	-8.97082
▁Yani	-8.97196
6	-8.97247
▁dönemde	-8.97274
▁ders	-8.97276
▁ağır	-8.97448
▁etme	-8.97504
▁hatta	-8.9753
▁seçim	-8.97553
▁3.	-8.97589
▁araya	-8.97659
▁orta	-8.97712
▁dört	-8.97748
▁23	-8.97792
▁gerçekten	-8.97895
▁ihtiyaç	-8.97999
▁iletişim	-8.98137
▁işlem	-8.98187
▁edilir	-8.98238
▁savaş	-8.98361
sında	-8.9847
▁arama	-8.98504
▁Kur	-8.98762
ver	-8.9896
▁resmi	-8.99014
▁Er	-8.99033
▁yaşayan	-8.99041
▁öğrenci	-8.99264
▁video	-8.99484
▁Birliği	-8.99503
▁altına	-8.99507
▁başına	-8.99512
▁dünyanın	-8.99557
▁alanında	-8.99731
▁adlı	-8.99818
za	-8.99995
▁Sağlık	-9.00016
çı	-9.00034
▁Öz	-9.00044
ed	-9.00051
▁milyar	-9.00072
▁tavsiye	-9.00275
▁ayında	-9.00308
▁21	-9.00311
w	-9.00315
▁22	-9.00539
▁din	-9.00556
▁Müdürü	-9.00593
▁yazı	-9.0065
▁sen	-9.01065
▁yolu	-9.01083
to	-9.01172
▁yapılması	-9.01196
▁yanlış	-9.01485
▁şimdi	-9.01499
▁Diğer	-9.019
▁marka	-9.01976
▁dair	-9.02009
▁araştırma	-9.02067
diği	-9.02186
▁arada	-9.0221
kan	-9.02239
▁dolu	-9.02343
▁ücretsiz	-9.02383
▁Rusya	-9.02399
▁renk	-9.0244
os	-9.0252
lük	-9.02527
▁çözüm	-9.02536
▁oy	-9.02569
▁buna	-9.02779
iş	-9.02878
▁olmadığı	-9.02894
▁Suriye	-9.03011
▁adım	-9.03058
us	-9.03067
▁Cumhuriyet	-9.03189
▁yağ	-9.0327
▁durumunda	-9.03323
ing	-9.03366
▁uluslararası	-9.03425
unu	-9.03459
▁z	-9.03608
▁çevre	-9.03616
▁Aynı	-9.03661
▁kamu	-9.03812
ek	-9.03818
▁Antalya	-9.04499
▁firma	-9.04514
▁escort	-9.0457
▁Aralık	-9.04578
▁çalışmaları	-9.04705
dım	-9.04848
▁2013	-9.04923
▁ediyorum	-9.05197
▁Osmanlı	-9.05497
▁tarih	-9.05503
▁okul	-9.0557
▁üye	-9.05616
▁VE	-9.05685
▁L	-9.0579
sınız	-9.05955
▁yeri	-9.06015
▁ak	-9.06048
▁De	-9.06053
ydı	-9.06066
▁hesap	-9.06249
larımız	-9.06299
çe	-9.06329
▁mutlaka	-9.06361
▁müşteri	-9.06452
▁[...]	-9.06569
▁kayıt	-9.06811
▁can	-9.06901
▁Bey	-9.06943
▁işi	-9.06985
▁40	-9.06995
▁puan	-9.07023
▁grup	-9.07163
▁on	-9.0729
sun	-9.0734
▁ilan	-9.07424
bir	-9.07475
▁kararı	-9.07717
▁Derneği	-9.07774
▁defa	-9.07801
ke	-9.0785
▁siyasi	-9.08021
sının	-9.08059
▁başında	-9.08085
▁yeterli	-9.08255
▁akşam	-9.08681
▁sonrasında	-9.08785
▁Fakültesi	-9.08788
▁alıyor	-9.08794
▁Ağustos	-9.08807
▁Şimdi	-9.08878
▁uzak	-9.08973
▁Kültür	-9.09145
▁kimse	-9.09159
▁beri	-9.09219
▁)	-9.09283
▁sıcak	-9.09442
▁İlçe	-9.09466
▁olmuş	-9.09546
▁yurt	-9.09908
▁değerli	-9.09954
▁alanı	-9.10013
▁arası	-9.10149
▁alanda	-9.10166
▁düşük	-9.10215
▁önünde	-9.10364
st	-9.10453
▁Bugün	-9.10462
▁bilgileri	-9.10479
▁hayat	-9.105
а	-9.10502
▁sayıda	-9.10556
▁kullanım	-9.10559
â	-9.10632
▁fiyatları	-9.10652
▁olay	-9.10668
▁gerçekleştir	-9.10739
▁gerektiğini	-9.10803
▁tasarım	-9.10806
▁halde	-9.10947
▁bizi	-9.11004
▁kendisine	-9.11099
▁28	-9.11131
iye	-9.11136
▁örnek	-9.11137
▁iddia	-9.1123
▁Almanya	-9.1131
▁gerekmektedir	-9.1133
miştir	-9.11434
▁fotoğraf	-9.11611
ga	-9.1164
▁y	-9.11682
▁taş	-9.11683
dik	-9.11725
▁sitesi	-9.11756
▁Sayın	-9.11783
▁önem	-9.11829
▁Başkanlığı	-9.11963
▁mal	-9.12051
▁ünlü	-9.12244
▁Bursa	-9.12247
▁uzman	-9.12326
▁sistem	-9.12328
▁kurum	-9.12358
▁yaşanan	-9.12387
▁müzik	-9.12477
▁parti	-9.1261
▁İyi	-9.12666
▁temiz	-9.1272
▁yapma	-9.12752
▁dolar	-9.1281
▁Z	-9.12852
▁yandan	-9.12954
▁olmadığını	-9.12976
▁belirten	-9.1332
▁şeyler	-9.13367
▁yazılı	-9.13371
▁zorunda	-9.13377
▁yapılır	-9.13393
▁normal	-9.13415
▁sağlar	-9.13443
mizin	-9.13461
▁toplum	-9.13762
▁gösteren	-9.13774
ran	-9.13803
▁aylık	-9.13841
▁işaret	-9.13849
inden	-9.13887
▁teknoloji	-9.1411
dür	-9.14112
▁etkili	-9.14234
▁sınıf	-9.14338
▁medya	-9.14448
▁W	-9.14471
▁saç	-9.14475
▁ürünleri	-9.14508
▁Çin	-9.14516
spor	-9.14527
▁olmaz	-9.14536
▁Sa	-9.1454
▁Teknik	-9.14583
▁oyunu	-9.1463
▁sağlıklı	-9.14664
▁Kemal	-9.14734
▁verme	-9.14864
▁Uluslararası	-9.14899
▁f	-9.1492
▁yada	-9.14948
▁beyaz	-9.15038
▁içine	-9.15088
▁ileri	-9.15691
lanan	-9.15943
▁Merkez	-9.15964
▁hala	-9.15964
▁bilgisayar	-9.15987
▁2012	-9.16034
▁gider	-9.16176
▁sağlamak	-9.16241
layan	-9.16255
▁madde	-9.16309
▁bilim	-9.16428
▁belki	-9.16503
lerimiz	-9.16572
▁deniz	-9.16711
ül	-9.16935
liğe	-9.17059
▁dışı	-9.17201
▁net	-9.17205
▁Yüksek	-9.17275
▁polis	-9.17414
▁onların	-9.17444
▁indir	-9.17534
▁olursa	-9.1755
▁27	-9.17606
▁kurulu	-9.17659
ro	-9.17833
mıştır	-9.17894
▁ceza	-9.18046
ız	-9.18067
▁yaparak	-9.18089
▁ba	-9.18163
▁sanat	-9.18174
▁Gül	-9.1826
lerdir	-9.18355
9	-9.18636
iyle	-9.18645
▁program	-9.18654
▁başta	-9.18756
▁Şubat	-9.18814
▁arkadaş	-9.18819
▁terör	-9.18846
▁eve	-9.18874
▁ister	-9.18902
lardır	-9.18955
j	-9.18988
▁kap	-9.19016
▁Ev	-9.19084
▁Ç	-9.19146
▁onları	-9.19157
▁herkes	-9.19179
net	-9.19192
▁şeyi	-9.19243
▁26	-9.19251
nıza	-9.1934
▁hedef	-9.19397
▁oda	-9.19452
▁sağlayan	-9.19464
▁dizi	-9.19535
▁Ticaret	-9.19714
▁baskı	-9.19788
es	-9.19789
▁lira	-9.19853
▁programı	-9.19928
▁Burada	-9.19948
▁mü	-9.20014
▁alarak	-9.20081
▁bulunuyor	-9.20136
Ö	-9.2023
▁sabah	-9.20246
ktan	-9.20574
teki	-9.20596
▁İslam	-9.20678
▁amacı	-9.2089
▁açıklama	-9.20938
▁eğer	-9.20969
lo	-9.20979
▁faaliyet	-9.20989
men	-9.21254
zi	-9.21287
ılan	-9.21451
▁ta	-9.21578
▁sırada	-9.21591
▁veri	-9.21613
▁29	-9.21688
▁beş	-9.21815
▁La	-9.21818
as	-9.21998
▁No	-9.22148
0	-9.22239
mize	-9.22422
▁model	-9.22427
▁tane	-9.22483
▁Amerika	-9.22667
▁Sanayi	-9.22747
▁hasta	-9.22814
▁lazım	-9.22833
▁İnsan	-9.22848
▁onlar	-9.22863
▁kara	-9.2291
mu	-9.22943
▁engel	-9.2317
▁kullanarak	-9.23264
▁kuru	-9.23373
▁kilo	-9.2339
▁sonuç	-9.23419
▁aç	-9.23468
fi	-9.23525
▁görmek	-9.23771
ist	-9.239
▁araba	-9.24004
▁bakım	-9.24259
▁Milletvekili	-9.24327
▁güven	-9.24427
▁birinci	-9.24456
do	-9.24597
▁çalışmalar	-9.24612
▁Eski	-9.24653
▁belediye	-9.24675
▁Madde	-9.24721
▁halk	-9.24747
▁acı	-9.24833
▁istediğiniz	-9.24874
▁́	-9.24883
ça	-9.24894
▁Ş	-9.25212
▁&	-9.25249
▁kişiler	-9.25349
▁Bazı	-9.25379
▁hakkı	-9.25463
▁ediyoruz	-9.25505
▁yerinde	-9.25559
▁kim	-9.256
▁olmuştur	-9.25672
ür	-9.25707
▁profesyonel	-9.2571
▁etki	-9.25713
▁hayata	-9.25809
▁özelliği	-9.25905
▁Şu	-9.25931
yim	-9.26047
up	-9.26107
▁aşağıdaki	-9.26193
▁basın	-9.26353
▁belirtilen	-9.26356
▁Ya	-9.26374
taki	-9.26403
▁suç	-9.26546
▁değerlendirme	-9.26694
▁Doğu	-9.26703
▁döneminde	-9.26843
fa	-9.26989
imiz	-9.27159
▁karşısında	-9.27184
▁isim	-9.27251
▁yıllarda	-9.27303
▁İki	-9.2731
▁hizmetleri	-9.27454
▁vergi	-9.27474
▁sonucunda	-9.27481
dığını	-9.27538
▁tabi	-9.27572
▁diyor	-9.27603
sen	-9.27644
▁sahiptir	-9.27693
▁başarı	-9.27724
▁olun	-9.2775
▁belirtti	-9.27777
▁katkı	-9.27953
▁bunlar	-9.27988
W	-9.2807
▁Ma	-9.28128
▁oyuncu	-9.28193
▁benzer	-9.28214
▁sınav	-9.28238
▁aday	-9.28348
▁hayatını	-9.28369
X	-9.28637
▁merak	-9.28694
▁süresi	-9.2879
▁altı	-9.28838
▁açıklamada	-9.28881
▁gören	-9.29017
▁Tek	-9.29253
▁İngilizce	-9.29418
▁Yardımcısı	-9.29568
▁isimli	-9.29615
▁dünyada	-9.29875
kar	-9.29909
▁ederim	-9.29937
▁te	-9.30031
‘	-9.30077
▁darbe	-9.30116
▁üniversite	-9.3015
▁reklam	-9.30268
nize	-9.30352
ici	-9.30356
▁vb	-9.30366
▁Hz	-9.30448
▁kesinlikle	-9.30465
▁yapmış	-9.30504
van	-9.30511
ılır	-9.30516
_	-9.3062
▁etmiş	-9.30701
lığa	-9.30717
▁er	-9.30937
mda	-9.30939
▁meslek	-9.31043
▁henüz	-9.31092
▁çoğu	-9.31124
ev	-9.31173
▁alır	-9.31312
▁maç	-9.31314
▁görüntü	-9.31334
▁görüş	-9.3135
▁is	-9.31395
ıcı	-9.31463
▁bas	-9.31512
▁katıldı	-9.31622
▁Kar	-9.31737
▁Bilgi	-9.3175
▁kültür	-9.31757
▁işe	-9.31853
ö	-9.3189
▁önüne	-9.31959
▁p	-9.31989
der	-9.32051
▁nedir	-9.32052
▁X	-9.32057
▁kesin	-9.32113
▁elektrik	-9.32184
▁şirket	-9.32242
nü	-9.32251
▁birisi	-9.32253
▁31	-9.32337
▁of	-9.32366
sak	-9.32393
go	-9.32412
▁=	-9.32535
▁Çocuk	-9.3267
vi	-9.32866
▁zengin	-9.32915
▁yapıldı	-9.32924
▁Lig	-9.33096
▁kendine	-9.3322
▁ilçesinde	-9.33237
▁anlamda	-9.33299
▁Bölüm	-9.33322
▁giren	-9.3343
▁sürede	-9.33477
▁verir	-9.33487
nce	-9.33638
▁insanın	-9.33659
▁güncel	-9.33668
▁sonraki	-9.33742
▁Can	-9.33742
▁esas	-9.3378
▁Deniz	-9.33787
▁sebep	-9.33869
▁arka	-9.33902
▁yara	-9.33929
▁seks	-9.33935
▁yapıyor	-9.33955
▁eş	-9.3403
ko	-9.34051
▁Aydın	-9.34163
▁say	-9.34212
▁üçüncü	-9.34276
▁demek	-9.3437
▁Halk	-9.34467
▁AB	-9.34482
▁basit	-9.34488
▁cam	-9.3462
▁taşıma	-9.34737
▁etmesi	-9.34785
bet	-9.34793
▁bundan	-9.34858
▁sayfa	-9.34908
▁kaynak	-9.34958
▁sanayi	-9.34989
▁Kadın	-9.35011
ebilirsiniz	-9.35173
▁?	-9.35209
▁kişisel	-9.3521
▁oranı	-9.35228
▁yoksa	-9.35276
co	-9.35288
▁Başbakan	-9.35296
Ü	-9.35304
▁Hava	-9.35392
▁Kanun	-9.35435
▁tepki	-9.35457
▁numara	-9.35489
▁asla	-9.35492
suz	-9.35495
mizde	-9.35584
muz	-9.35688
▁yerel	-9.35691
▁sorunu	-9.3572
lenen	-9.35883
▁Bunu	-9.35946
▁günlerde	-9.35956
▁2011	-9.35972
▁ilçe	-9.36066
▁Sonra	-9.3618
▁belirterek	-9.36207
▁etmektedir	-9.36218
▁edilmiş	-9.3623
▁mesaj	-9.36412
▁güneş	-9.36413
▁alıp	-9.36425
▁ye	-9.36451
▁onlara	-9.36456
yen	-9.36537
▁öğretim	-9.36774
▁Mahallesi	-9.36786
▁Orta	-9.36797
▁alın	-9.36884
±	-9.36911
▁öne	-9.36937
▁başlar	-9.37015
can	-9.37016
▁çift	-9.37088
▁60	-9.37146
▁Konya	-9.37156
▁davet	-9.37296
20	-9.37337
▁diş	-9.37349
sunuz	-9.37376
▁modelleri	-9.37379
▁modern	-9.37447
▁yıldır	-9.37459
son	-9.37469
▁4.	-9.37593
▁bol	-9.37807
▁işlemi	-9.37893
▁metre	-9.3798
▁ücret	-9.37997
lanma	-9.38053
▁kendisini	-9.38058
▁veriyor	-9.38063
meye	-9.38122
▁kas	-9.3813
ber	-9.38159
▁Sen	-9.38164
▁yasa	-9.38223
▁Na	-9.38269
▁gerçekleştiril	-9.38274
sinden	-9.38298
▁yazar	-9.38324
mızın	-9.3835
imi	-9.38443
▁faiz	-9.38462
▁İran	-9.38543
▁dava	-9.38614
▁bölge	-9.38626
ze	-9.38785
▁koruma	-9.3884
▁inşa	-9.38882
▁Ö	-9.38946
▁artış	-9.38967
10	-9.38973
▁Ana	-9.38979
ton	-9.39054
▁ortalama	-9.391
larınızı	-9.39111
▁bunların	-9.39165
Bir	-9.39166
▁kullanma	-9.39338
▁giden	-9.39364
▁sona	-9.3941
mıza	-9.39438
▁Çalışma	-9.39467
ılmış	-9.39673
▁kaldı	-9.39724
▁işte	-9.39748
▁konut	-9.3987
▁km	-9.39882
▁dün	-9.39931
▁aracı	-9.40159
▁kullanımı	-9.40222
▁Sadece	-9.40253
▁hayal	-9.40305
▁sezon	-9.40344
▁(1)	-9.40346
siyle	-9.40391
▁yaşındaki	-9.40524
þ	-9.40881
▁etkisi	-9.40969
▁aşk	-9.40989
Z	-9.41039
or	-9.41045
▁alışveriş	-9.41119
▁Buna	-9.41121
▁edip	-9.41131
▁kişilerin	-9.41204
▁+	-9.41228
▁do	-9.41231
▁bilinen	-9.41252
▁yola	-9.41282
Ä	-9.41488
▁bazen	-9.41493
liğini	-9.4155
▁yaşında	-9.41599
▁sana	-9.41612
▁Güvenlik	-9.41657
▁çeken	-9.41867
▁Benim	-9.41869
▁Adana	-9.41929
▁harika	-9.41952
▁Kendi	-9.41983
▁ilişki	-9.42011
▁orada	-9.42102
▁sözleşme	-9.42111
ý	-9.42214
▁kapalı	-9.42246
▁konuşma	-9.42253
▁ışık	-9.42322
://	-9.42328
ık	-9.42357
▁Hem	-9.4237
iyet	-9.42452
▁ismi	-9.42551
▁askeri	-9.42581
▁Cumhuriyeti	-9.42607
▁düşünce	-9.42611
00	-9.42611
▁kendisi	-9.42649
▁yılda	-9.4265
▁Ha	-9.42692
▁TV	-9.42704
▁suyu	-9.42728
▁özellikleri	-9.4276
▁İç	-9.42809
▁dahi	-9.42814
▁etmeye	-9.42826
▁müdahale	-9.42873
▁genellikle	-9.42921
lerinizi	-9.42924
▁Uzun	-9.43085
▁plan	-9.43112
▁silah	-9.43135
nca	-9.43144
▁desteği	-9.43203
▁yapacak	-9.43278
▁tatil	-9.43306
▁yük	-9.43376
▁pazar	-9.43452
▁yavaş	-9.43471
am	-9.43535
▁resim	-9.43565
▁doğum	-9.43742
▁sol	-9.43841
▁der	-9.43923
▁Böylece	-9.4393
▁Beşiktaş	-9.44079
▁olmasına	-9.441
▁milli	-9.44166
▁İngiltere	-9.44185
▁di	-9.44491
▁kısmı	-9.44534
▁üyesi	-9.44613
▁Ba	-9.44616
▁mükemmel	-9.44686
▁ma	-9.44733
▁yapmaya	-9.44801
▁:)	-9.44861
▁çık	-9.44871
▁>	-9.44953
▁site	-9.44965
▁Araştırma	-9.45025
▁kapı	-9.45026
▁sert	-9.45028
▁boş	-9.4509
id	-9.45144
hane	-9.45271
▁banka	-9.45348
▁Yine	-9.4544
▁evde	-9.45484
▁öncesi	-9.45503
▁olumsuz	-9.45504
▁Kıbrıs	-9.45693
▁bunları	-9.45701
▁biçimde	-9.45742
▁almış	-9.45781
▁AKP	-9.45791
▁Google	-9.45819
yım	-9.45967
▁ürünler	-9.46008
▁Örneğin	-9.46122
let	-9.46293
▁2010	-9.46295
▁Se	-9.46445
▁kal	-9.4654
▁kafa	-9.46598
▁Yılmaz	-9.46606
▁getiren	-9.46612
▁serbest	-9.4662
▁Tarihi	-9.46621
▁Küçük	-9.46638
▁baba	-9.46698
ad	-9.46704
▁alacak	-9.46751
lardı	-9.46764
▁personel	-9.46855
LER	-9.46902
▁doğrultusunda	-9.46905
▁ticaret	-9.46906
▁Baş	-9.47039
▁rol	-9.47049
▁Aile	-9.47224
▁olduğuna	-9.47381
lanmış	-9.47401
iniz	-9.47413
▁•	-9.47424
▁İsrail	-9.47501
▁işlemleri	-9.4751
▁Güzel	-9.47735
▁ülkenin	-9.47772
ladı	-9.47773
pe	-9.47792
▁liste	-9.47808
▁Fenerbahçe	-9.47863
▁top	-9.47917
▁kullandı	-9.47919
▁geçmiş	-9.48028
gen	-9.48057
▁önemlidir	-9.48123
yiz	-9.48149
▁çay	-9.48176
▁giderek	-9.48179
▁uçak	-9.48361
▁The	-9.48427
▁tahmin	-9.48451
▁ton	-9.48513
▁bebek	-9.48546
▁geçti	-9.48551
▁ihtiyacı	-9.48582
▁olumlu	-9.48607
▁lisans	-9.48612
▁erken	-9.48617
	-9.4863
▁online	-9.48666
▁nedeni	-9.48799
▁kitabı	-9.48853
▁gir	-9.48908
▁çocuklar	-9.48946
ından	-9.49023
▁	-9.49076
▁Kanunu	-9.49099
▁ayı	-9.49281
ch	-9.49312
▁transfer	-9.4932
▁diyerek	-9.49416
▁derin	-9.49423
▁hediye	-9.49561
▁içeren	-9.49664
▁seyahat	-9.4987
▁sonu	-9.49885
▁inceleme	-9.49928
▁hafif	-9.49937
▁kullanıcı	-9.50023
▁oldukları	-9.50047
▁İçin	-9.50099
köy	-9.50111
▁Konu	-9.50164
▁üzerindeki	-9.5019
▁kişilik	-9.5019
▁sefer	-9.50195
▁kalp	-9.50278
▁verildi	-9.5035
▁Le	-9.50447
▁hoş	-9.50466
gu	-9.50475
▁test	-9.50499
▁yeşil	-9.50598
▁saygı	-9.50614
▁bölüm	-9.50622
▁Proje	-9.5063
▁belge	-9.50687
▁yönetimi	-9.5083
lak	-9.50918
▁olmasını	-9.50926
▁çerçevesinde	-9.51033
▁imkanı	-9.51234
▁Bütün	-9.51293
▁Meclis	-9.513
lanması	-9.51324
▁olmaya	-9.51325
▁vakit	-9.5134
▁süreci	-9.51382
▁ortadan	-9.51531
▁duvar	-9.51545
▁cm	-9.51661
▁eğitimi	-9.51687
▁teklif	-9.51798
▁yapımı	-9.51972
▁okuma	-9.52003
▁çıkıyor	-9.52059
alım	-9.52065
▁yaygın	-9.52133
▁Recep	-9.52153
ut	-9.52154
▁yaşama	-9.52171
▁emin	-9.52176
▁u	-9.52233
▁hayvan	-9.52236
▁servisi	-9.52301
▁sahne	-9.52329
▁Sanat	-9.52372
▁kart	-9.52404
▁doğrudan	-9.52407
▁güvenli	-9.52458
▁gaz	-9.52494
▁Fransa	-9.52562
▁Ek	-9.52768
▁Otel	-9.52883
▁Çevre	-9.52931
▁Galatasaray	-9.52937
▁Sayfa	-9.52973
▁Genç	-9.53011
▁nokta	-9.53118
▁belirli	-9.53135
▁ekran	-9.53307
▁geçiş	-9.53307
▁aşırı	-9.5331
▁Peki	-9.53404
▁ölüm	-9.53539
lenmiş	-9.53565
▁Bizim	-9.53593
▁ka	-9.53606
▁yapılmış	-9.53675
▁aktif	-9.53706
▁kullanılır	-9.53747
▁Film	-9.53754
+	-9.53765
▁An	-9.53855
▁bende	-9.53861
▁500	-9.53881
ış	-9.5389
▁kırmızı	-9.53975
▁otomobil	-9.5401
▁temsil	-9.54025
▁kalite	-9.54144
tim	-9.54257
▁mobil	-9.54355
▁açıkladı	-9.5439
▁Haber	-9.54459
▁be	-9.54509
▁Ön	-9.5458
▁yılın	-9.54605
▁tarihli	-9.54661
▁kaza	-9.54752
▁gücü	-9.54785
▁Bölge	-9.54801
ıldı	-9.54822
▁hata	-9.54845
▁alınması	-9.54847
▁yasal	-9.54896
▁Fatih	-9.54981
▁zevk	-9.55001
lenme	-9.55009
▁fiyatı	-9.55147
▁saha	-9.55318
sıyla	-9.55366
▁h	-9.55388
▁geldiği	-9.55399
▁lütfen	-9.55437
▁Mo	-9.55467
▁neler	-9.55477
▁korku	-9.55495
▁Mar	-9.55508
▁yalnızca	-9.55516
▁meyve	-9.5553
▁sayı	-9.55783
leşme	-9.55795
▁değişiklik	-9.55874
▁işçi	-9.55945
▁se	-9.56034
▁senin	-9.56103
if	-9.56115
▁filmi	-9.56162
ot	-9.56274
mıştı	-9.56388
▁şehit	-9.56402
Türkiye	-9.56418
diğini	-9.56437
▁kurulan	-9.56458
▁gitti	-9.56476
▁kendilerine	-9.56495
▁altın	-9.565
▁almaktadır	-9.56507
▁gol	-9.56536
sek	-9.56539
▁»	-9.56593
dü	-9.56605
▁otel	-9.56606
▁na	-9.56633
▁toprak	-9.56652
ılarak	-9.56662
▁öğrenciler	-9.56687
▁Batı	-9.56761
liğin	-9.56801
▁tak	-9.5681
▁Tarih	-9.56956
50	-9.5701
▁Yıldırım	-9.57245
▁ticari	-9.57252
▁düzenli	-9.57253
▁yapar	-9.57287
nızda	-9.57371
▁boya	-9.57395
ilen	-9.57432
▁Bankası	-9.57504
30	-9.57529
▁düşünüyorum	-9.5754
met	-9.57598
▁yerini	-9.57728
kten	-9.57786
▁otomatik	-9.57788
▁yaparken	-9.57811
▁Kurumu	-9.57911
▁daire	-9.57971
▁merkez	-9.58011
▁J	-9.58012
▁Odası	-9.58039
lerimizi	-9.58112
▁fayda	-9.58136
▁cinsel	-9.58137
▁Bölümü	-9.58163
ren	-9.58198
▁hız	-9.5826
▁kır	-9.58374
▁ayak	-9.58519
iyorum	-9.58587
landı	-9.58663
▁Ders	-9.58666
▁eşi	-9.58716
▁getirdi	-9.58847
▁the	-9.58897
▁kamera	-9.58934
ıl	-9.58986
▁sat	-9.59018
▁Irak	-9.59024
taş	-9.5915
▁tip	-9.59238
`	-9.59301
ünü	-9.59385
▁yargı	-9.59387
▁den	-9.59431
▁Güney	-9.59496
▁v	-9.59552
▁Tayyip	-9.59595
▁Yapı	-9.59595
ımız	-9.59625
ah	-9.59695
▁ad	-9.59747
▁asıl	-9.59817
▁Sistemi	-9.59847
▁işletme	-9.5987
▁So	-9.59999
▁tatlı	-9.60005
▁dedim	-9.60006
cık	-9.6002
▁Partisi	-9.60074
▁kartı	-9.60122
▁olmadan	-9.60209
larımızı	-9.6022
▁Artık	-9.60295
▁Uygulama	-9.60398
▁Hasan	-9.60433
▁Süper	-9.60563
▁seni	-9.60577
▁dosya	-9.60771
▁kira	-9.60793
▁sorumlu	-9.60836
▁Yaz	-9.60855
▁Web	-9.60918
▁''	-9.60939
▁Böyle	-9.61028
▁detaylı	-9.61031
▁soğuk	-9.6105
▁gel	-9.61068
▁çağrı	-9.61098
yo	-9.61127
▁akıllı	-9.61135
▁dikkate	-9.61154
▁çıkış	-9.61233
layarak	-9.61246
▁Kan	-9.61256
▁bölümü	-9.61264
▁katılan	-9.61311
▁anlamına	-9.61359
▁verecek	-9.61361
▁malzeme	-9.61368
LAR	-9.61376
▁çaba	-9.61392
laşma	-9.61455
ly	-9.61506
▁günde	-9.61508
▁düzenleme	-9.61723
▁Üniversite	-9.6176
ıyoruz	-9.61765
hi	-9.61767
seniz	-9.61825
▁içindeki	-9.61837
dık	-9.61866
▁edebilirsiniz	-9.61894
▁kere	-9.61935
▁sonuçları	-9.61997
▁Ra	-9.62195
▁Kuzey	-9.6223
▁İbrahim	-9.62239
▁çalışması	-9.62255
▁tarihleri	-9.6235
▁değeri	-9.62356
ılacak	-9.62363
▁Güneş	-9.62369
▁insanları	-9.62497
▁taşıyan	-9.62503
▁inşaat	-9.62503
▁sıkıntı	-9.62538
mo	-9.62552
▁kanun	-9.62595
▁girdi	-9.62724
▁Sultan	-9.62742
▁dua	-9.62814
▁herkesin	-9.62865
▁uygulaması	-9.62909
▁inan	-9.62959
▁önceden	-9.62988
▁hayatı	-9.63088
tür	-9.63097
▁İkinci	-9.63109
▁dönüş	-9.63112
▁Rus	-9.63172
▁idi	-9.63187
▁bölgede	-9.6322
▁adını	-9.63291
▁Ro	-9.63298
▁turizm	-9.63316
▁gelmiş	-9.63323
▁performans	-9.63369
▁kent	-9.63429
▁Hakkında	-9.63507
▁söyleyen	-9.63513
▁hazırlanan	-9.63539
▁yalnız	-9.63573
▁başkanı	-9.63587
▁Ka	-9.63662
▁Li	-9.6373
▁çocukların	-9.63756
▁gıda	-9.64084
▁yaptıkları	-9.64106
▁Bunlar	-9.64116
▁gizli	-9.64125
▁şeker	-9.64153
▁anlam	-9.64161
▁Murat	-9.64233
▁35	-9.64286
▁hepsi	-9.64338
▁and	-9.64369
▁kazan	-9.64426
▁ülkede	-9.64436
ilir	-9.64473
▁yerli	-9.64493
elim	-9.64546
▁projesi	-9.64548
ger	-9.64582
▁Grup	-9.64623
▁Turizm	-9.64625
▁yolcu	-9.64807
▁takdirde	-9.64857
dum	-9.64885
▁modeli	-9.64969
▁değişik	-9.65003
lanır	-9.65072
▁sarı	-9.65094
▁işbirliği	-9.65308
▁yazılım	-9.65363
▁to	-9.6543
=	-9.65501
▁as	-9.65571
▁Gün	-9.6562
▁Siz	-9.65633
▁hal	-9.65817
▁kalma	-9.6583
Lİ	-9.65844
▁öğretmen	-9.65849
▁memnun	-9.6587
▁zamanlarda	-9.65875
▁sebebi	-9.65888
▁sevgi	-9.65953
▁televizyon	-9.65963
mer	-9.66067
▁me	-9.66086
▁ulaşabilirsiniz	-9.66147
▁Di	-9.66176
▁binlerce	-9.66198
▁mahkeme	-9.6622
▁yetkili	-9.66236
mez	-9.66254
▁Ara	-9.66289
evi	-9.66291
▁kaynağı	-9.66302
▁Müslüman	-9.66339
asyon	-9.66361
▁5.	-9.66408
▁güvenilir	-9.66419
▁olduğundan	-9.66442
▁başlıyor	-9.66537
▁bölgesinde	-9.66628
▁alındı	-9.66631
▁yatak	-9.66643
▁ilave	-9.66675
▁arkadaşlar	-9.66744
▁geçerli	-9.66781
▁sipariş	-9.66804
▁tur	-9.6682
sü	-9.66847
▁kış	-9.66986
▁Okul	-9.67033
▁indirim	-9.67074
▁ulaşım	-9.6711
▁sivil	-9.67119
▁dik	-9.67155
yse	-9.67243
▁toplumsal	-9.6731
▁savunma	-9.67363
tü	-9.67389
▁tarım	-9.67393
ılması	-9.67395
▁Kamu	-9.67411
▁sınır	-9.67416
▁süt	-9.67462
▁200	-9.67518
▁elektronik	-9.67523
▁www	-9.67532
no	-9.67538
unun	-9.67564
▁II	-9.67611
▁beslenme	-9.67618
▁amaçlı	-9.67688
▁otobüs	-9.67722
▁bağımsız	-9.67811
▁siyah	-9.67882
▁sinema	-9.67905
▁fikir	-9.67924
▁Emniyet	-9.67934
▁sonuna	-9.68028
ry	-9.68036
▁yararlan	-9.6812
▁demektir	-9.68209
▁itibariyle	-9.68241
pa	-9.68256
▁bahçe	-9.68257
▁Nasıl	-9.68331
sam	-9.68397
▁anlaşma	-9.68431
▁ediliyor	-9.68511
?”	-9.68538
▁ateş	-9.68545
▁ağ	-9.68577
▁Yapılan	-9.68605
▁görsel	-9.68686
▁Açık	-9.68688
▁Pazar	-9.68704
▁sa	-9.68722
yken	-9.68749
▁olanlar	-9.6877
iyoruz	-9.68824
▁Programı	-9.68857
▁Samsun	-9.689
▁ekibi	-9.68911
25	-9.68915
▁sergi	-9.68985
ret	-9.68989
▁dünyaya	-9.68995
12	-9.69026
nizde	-9.69093
▁mahalle	-9.69216
▁iken	-9.69232
acaktır	-9.69262
ör	-9.69318
miyor	-9.69405
▁bey	-9.69448
gan	-9.69459
▁sistemleri	-9.69553
tar	-9.69562
▁Para	-9.69608
▁benzeri	-9.69613
▁görme	-9.69627
▁ucuz	-9.69681
▁bağ	-9.69719
▁ilaç	-9.69719
▁kişiye	-9.6976
▁Merhaba	-9.69771
▁ilanı	-9.69777
▁ekipleri	-9.69828
▁dolayısıyla	-9.69891
▁Mi	-9.69929
gerçekleştirilen	-9.69956
yor	-9.69962
ama	-9.69993
▁görülen	-9.70022
▁durumlarda	-9.70054
▁motor	-9.70064
▁Günü	-9.7011
▁Altın	-9.7014
▁Öğretim	-9.70166
▁taraf	-9.70218
▁cok	-9.70236
▁kadro	-9.70279
▁oğlu	-9.70292
▁Ta	-9.70328
nizin	-9.70329
dar	-9.70364
LARI	-9.7038
▁kon	-9.70406
▁halı	-9.70429
▁kol	-9.7044
▁San	-9.70513
▁kızı	-9.70521
▁2009	-9.70535
▁çizgi	-9.70542
lat	-9.70562
▁edilmiştir	-9.70578
maz	-9.70612
▁yarı	-9.70656
din	-9.70695
▁denetim	-9.70698
ınız	-9.70786
▁toplantı	-9.70819
▁yaşadığı	-9.7087
▁maddesi	-9.70886
▁Hatta	-9.70912
▁eşya	-9.7093
▁neredeyse	-9.70934
▁lise	-9.70944
▁olacağını	-9.70969
▁paylaş	-9.7098
▁rahatsız	-9.70992
▁Osman	-9.7102
▁Göz	-9.71037
▁paket	-9.71063
▁siteleri	-9.71063
%	-9.71074
▁bağlantı	-9.71092
▁tehdit	-9.71093
▁Hizmetleri	-9.71131
▁yasak	-9.71141
▁ar	-9.71182
▁kadınlar	-9.71203
▁yumurta	-9.7124
▁anlat	-9.71245
▁Evet	-9.71285
▁Grubu	-9.71349
▁bulunur	-9.71352
▁bakış	-9.71354
▁öncelikle	-9.71366
▁Co	-9.71405
▁hızla	-9.71502
▁boyu	-9.71561
yum	-9.7162
▁yangın	-9.71662
▁oyunları	-9.71671
▁tanı	-9.71694
av	-9.71821
▁kullanmak	-9.71825
▁PKK	-9.71894
▁hukuk	-9.71955
▁etkin	-9.71976
sından	-9.72
▁Me	-9.72078
rak	-9.72098
▁cep	-9.72106
▁kahve	-9.72118
mızda	-9.72125
▁ortamda	-9.72154
▁makine	-9.72213
ster	-9.72268
▁ettiğini	-9.7228
▁Gazete	-9.72284
▁trafik	-9.72321
▁öz	-9.72361
yız	-9.72363
▁ayar	-9.72366
▁şekil	-9.72418
▁Yıldız	-9.72468
▁Ürün	-9.72588
▁sal	-9.72624
ru	-9.72659
▁istediği	-9.72681
▁atan	-9.72705
▁bekliyor	-9.72859
▁80	-9.7286
▁Vi	-9.72897
J	-9.72908
▁üyeleri	-9.7294
▁Peygamber	-9.72957
▁gereği	-9.73023
▁bina	-9.73032
▁kaydetti	-9.73186
▁İnternet	-9.73209
▁yarış	-9.73309
▁Cuma	-9.73311
▁popüler	-9.73311
▁olmalıdır	-9.73345
ey	-9.73353
▁As	-9.73368
▁kesim	-9.73408
▁ç	-9.73479
inizi	-9.73534
ıyla	-9.73536
üm	-9.7355
▁Pro	-9.73592
▁öğrencilerin	-9.73617
▁Da	-9.73633
▁bütçe	-9.73654
▁birbirinden	-9.73767
▁büyüme	-9.73789
▁diyen	-9.73824
th	-9.73827
mde	-9.73917
▁kalın	-9.73965
▁Tarım	-9.73988
lıyor	-9.74002
▁yak	-9.74089
▁toplu	-9.74123
▁cihaz	-9.74162
leyen	-9.74169
▁Paşa	-9.74297
▁Mersin	-9.7443
larımızın	-9.74437
▁sektör	-9.74442
▁onay	-9.74446
▁tutar	-9.74557
tal	-9.74575
▁At	-9.74579
▁Aslında	-9.74664
▁açılan	-9.74683
▁kur	-9.74685
lığın	-9.74686
▁firması	-9.74752
▁kelime	-9.74753
▁Çelik	-9.74755
▁MADDE	-9.74764
▁eksik	-9.74774
11	-9.74802
una	-9.74917
▁dönemi	-9.74931
mişti	-9.74934
▁İşletme	-9.75009
▁ürünü	-9.75079
▁gemi	-9.75114
▁Hastanesi	-9.75138
ımı	-9.75144
dıkları	-9.75159
▁yapabilirsiniz	-9.75163
▁iptal	-9.75171
▁aşağıda	-9.75172
▁anlama	-9.75208
▁hakları	-9.75213
▁sorumluluk	-9.7533
▁görevi	-9.75391
40	-9.75394
▁nakliyat	-9.75402
▁güvenliği	-9.75522
▁almaya	-9.75526
lığını	-9.75542
▁Kürt	-9.75561
▁istiyoruz	-9.75566
ic	-9.75579
▁Enerji	-9.75657
▁Facebook	-9.75774
▁kendilerini	-9.758
▁kurumsal	-9.7582
▁san	-9.75842
▁yıllar	-9.7586
▁renkli	-9.75917
▁noktada	-9.75948
▁bal	-9.75971
▁yapısı	-9.76029
▁Yönetimi	-9.76033
▁yaptır	-9.76106
▁fırsat	-9.76155
▁ederken	-9.76183
▁gazete	-9.76205
▁Anayasa	-9.76205
▁süren	-9.76219
Ben	-9.76293
▁köy	-9.76318
▁seri	-9.76341
▁ol	-9.76346
MA	-9.76357
▁analiz	-9.76399
▁2008	-9.7647
▁Taş	-9.76472
о	-9.76483
▁işin	-9.76522
▁sağlığı	-9.76523
▁x	-9.76625
▁grubu	-9.76635
fe	-9.76683
▁vs	-9.76697
▁olduğumuz	-9.7675
▁Ömer	-9.76763
lim	-9.76823
▁tasarımı	-9.76848
ilmiş	-9.76849
▁sabit	-9.76876
▁Şube	-9.76953
▁Ramazan	-9.76968
▁sizler	-9.77067
▁nefes	-9.77077
▁Onun	-9.77103
▁soruşturma	-9.77193
▁Alman	-9.77195
luğu	-9.77246
▁In	-9.77274
▁kurul	-9.77335
▁Yer	-9.77388
mayı	-9.77392
▁Van	-9.77423
▁parçası	-9.77465
LERİ	-9.77506
▁gösteriyor	-9.77579
▁hali	-9.7759
▁Hizmet	-9.77674
▁ihale	-9.77721
▁sigorta	-9.77721
ner	-9.77727
▁dini	-9.77749
ağı	-9.77763
▁alternatif	-9.7781
tepe	-9.77853
▁Hüseyin	-9.77937
▁idare	-9.77978
▁istiyorsanız	-9.77993
▁Bar	-9.78003
▁park	-9.78006
▁kimi	-9.78031
▁vermiş	-9.78091
16	-9.78121
layabilirsiniz	-9.78155
▁Escort	-9.78199
▁temizlik	-9.78214
nızın	-9.78243
▁başı	-9.78251
▁90	-9.78347
▁futbol	-9.78399
▁Bi	-9.78403
oz	-9.78445
▁olmaktadır	-9.78483
▁ruh	-9.78497
uyor	-9.785
▁hükümet	-9.78532
▁ağrı	-9.78554
inci	-9.78565
bo	-9.78591
▁gelin	-9.78631
▁deneme	-9.78658
mıyor	-9.78659
▁Bakan	-9.78692
▁rapor	-9.7872
▁Dolayısıyla	-9.7876
malıdır	-9.78761
▁amaç	-9.78799
▁gözaltına	-9.78834
▁bakımından	-9.78862
acağı	-9.78874
▁sar	-9.78909
▁Sınıf	-9.78911
▁si	-9.78977
▁telefonu	-9.79018
▁düşen	-9.79035
ley	-9.79192
▁bilimsel	-9.79222
▁pay	-9.79257
▁ver	-9.79272
▁kimlik	-9.79277
▁verilir	-9.79397
ıyorum	-9.79398
▁tanım	-9.79419
▁ısı	-9.79465
▁millet	-9.79475
▁sektöründe	-9.79479
abilecek	-9.7948
▁ada	-9.79489
▁Man	-9.79532
▁70	-9.79562
▁İletişim	-9.79587
▁lider	-9.79626
▁öğrenme	-9.79655
|	-9.79751
▁belgesi	-9.7979
▁görüşme	-9.79793
▁İşleri	-9.79865
▁yanıt	-9.79883
▁istiyor	-9.79895
90	-9.79908
▁sağlam	-9.7994
ilmesi	-9.8
aj	-9.80019
▁takımı	-9.80044
lendirme	-9.80061
▁genelinde	-9.80085
▁verilmesi	-9.8012
▁Bal	-9.80153
▁Onlar	-9.80208
▁mezun	-9.80222
▁gösterir	-9.80268
▁yarın	-9.80281
▁vermektedir	-9.80382
▁yöntem	-9.80404
lerimizin	-9.8054
▁muhteşem	-9.80591
ket	-9.80651
▁Dışişleri	-9.80711
▁yalan	-9.80715
sh	-9.80747
cak	-9.80762
▁Zaman	-9.80913
▁arz	-9.80927
▁süreç	-9.80936
▁sözü	-9.80942
lamak	-9.80945
▁hakim	-9.80963
▁oranında	-9.80993
▁ofis	-9.81016
▁iyice	-9.81091
▁terk	-9.81098
▁Tam	-9.81101
▁MHP	-9.81212
müş	-9.81242
▁6.	-9.81258
tiği	-9.81302
▁45	-9.8135
▁cilt	-9.81383
▁makinesi	-9.81456
kı	-9.81463
▁Gençlik	-9.81474
▁Do	-9.81522
▁alım	-9.81531
▁Söz	-9.81552
▁gelip	-9.81564
▁çalışıyor	-9.81633
▁Bo	-9.81669
▁sunan	-9.81676
▁gösterdi	-9.81677
▁oku	-9.81729
▁edildiği	-9.81761
▁olduğunuz	-9.81768
▁sorunları	-9.81779
▁katılım	-9.81806
▁Ligi	-9.81943
eceği	-9.81944
▁İngiliz	-9.81975
▁Demir	-9.81996
▁üretimi	-9.82029
▁ödül	-9.82134
▁edilecek	-9.82161
▁Malatya	-9.82177
▁rengi	-9.82255
amaz	-9.82298
tım	-9.82327
ebilecek	-9.82345
▁ekip	-9.82369
▁kay	-9.82378
abiliyor	-9.82386
▁Kitap	-9.82388
▁Muhammed	-9.82413
▁karşılık	-9.82419
▁düşman	-9.8244
▁seçenekleri	-9.82502
▁şık	-9.82534
▁Tıp	-9.82544
▁teşvik	-9.82545
▁yılından	-9.82581
▁kültürel	-9.82774
▁Adı	-9.82796
ben	-9.82856
▁buraya	-9.8288
▁Windows	-9.82944
yon	-9.82985
▁Doç	-9.83062
▁Teknoloji	-9.83071
▁Dil	-9.83104
IN	-9.83162
lari	-9.83182
▁Asya	-9.83205
▁işler	-9.83232
lendi	-9.83274
▁yayınlanan	-9.83323
gı	-9.8333
▁Kocaeli	-9.83456
▁zamanı	-9.83544
▁alabilirsiniz	-9.83585
>	-9.83592
▁sunuyor	-9.83619
▁Temel	-9.8366
makta	-9.83679
▁cezası	-9.83687
▁ortam	-9.83717
▁çeşit	-9.83762
▁dijital	-9.83779
▁FETÖ	-9.83799
▁aşağı	-9.83987
▁kampanya	-9.8401
▁Yıl	-9.84062
▁çiçek	-9.84094
▁bulunması	-9.84099
▁çekti	-9.84133
▁saldırı	-9.84138
▁Ca	-9.84272
▁not	-9.84283
▁yapıldığı	-9.84325
izm	-9.84343
▁orman	-9.84345
▁doktor	-9.84347
▁Kredi	-9.84368
▁açma	-9.84415
▁hastalık	-9.84489
ho	-9.84501
▁Oku	-9.84537
*	-9.84542
▁olmalı	-9.84552
▁Bil	-9.84607
▁yemeği	-9.84618
▁miktar	-9.84659
▁sağlayacak	-9.84672
▁istedi	-9.8468
▁bayram	-9.84728
▁Ü	-9.84792
▁uyumlu	-9.8494
▁algı	-9.84943
▁balık	-9.84943
▁emekli	-9.84966
▁esnasında	-9.85
▁Belki	-9.85009
▁kaldır	-9.85011
▁adayı	-9.85016
▁fabrika	-9.85054
▁Pa	-9.85064
▁ekonomi	-9.85122
▁babası	-9.85142
▁Projesi	-9.85159
▁adresi	-9.8517
▁geliştirme	-9.85214
▁ilginç	-9.85273
▁dur	-9.85334
hat	-9.85389
▁mutfak	-9.85412
▁Bilim	-9.85439
ası	-9.85445
▁bence	-9.85452
&	-9.85461
▁mağaza	-9.85463
cılık	-9.85475
▁bünyesinde	-9.85481
tor	-9.85485
▁tamam	-9.85504
▁ulusal	-9.85542
▁hastane	-9.85577
▁piyasa	-9.85584
ünün	-9.85584
▁konuşan	-9.85598
▁kadının	-9.85625
▁insanı	-9.85642
▁Saat	-9.85658
▁bölümünde	-9.8566
▁bugüne	-9.85698
▁Ulusal	-9.85719
▁problem	-9.85746
▁kargo	-9.85757
▁Etiketler	-9.85764
▁Şehir	-9.85772
▁art	-9.85799
cü	-9.85811
▁olacağı	-9.85893
▁sebebiyle	-9.85894
▁belirlenen	-9.85982
▁Karadeniz	-9.86071
baş	-9.86133
cilik	-9.86152
op	-9.86188
▁örgüt	-9.86251
▁uyum	-9.86282
▁iade	-9.86305
▁Öğrenci	-9.8633
▁Han	-9.86389
lidir	-9.86439
▁şirketi	-9.86519
▁Lisesi	-9.86526
▁uyarı	-9.86571
▁ülkemizde	-9.86581
▁yetki	-9.86585
▁evden	-9.86608
▁av	-9.86654
▁şarkı	-9.86676
▁tipi	-9.86676
▁standart	-9.8668
Sİ	-9.86704
▁Resmi	-9.86706
▁dağ	-9.86728
▁yoluyla	-9.86733
▁başkan	-9.8675
▁odası	-9.86785
▁birer	-9.86829
60	-9.86864
▁kolayca	-9.869
▁geçtiğimiz	-9.87037
▁asker	-9.87044
▁Ko	-9.87101
18	-9.87107
▁bulunma	-9.87123
▁itiraz	-9.87143
po	-9.87144
▁usta	-9.87162
▁gitmek	-9.87178
▁aldım	-9.87181
▁sevk	-9.87214
▁uç	-9.87236
▁bulun	-9.87296
▁bilgiye	-9.87344
▁32	-9.87399
▁Nur	-9.87418
▁kadınların	-9.875
▁Apple	-9.87502
lanıyor	-9.87518
▁adeta	-9.87519
lenir	-9.87523
▁biridir	-9.87571
▁Te	-9.87697
▁risk	-9.87728
▁tecrübe	-9.87739
YA	-9.87793
▁demir	-9.87803
▁gelişme	-9.87861
▁açıdan	-9.87876
layıp	-9.87964
posta	-9.8797
▁Meclisi	-9.88106
▁akıl	-9.88107
▁cami	-9.88113
ecektir	-9.88138
▁duygu	-9.88147
▁getir	-9.88193
▁Kulübü	-9.88242
▁beğen	-9.88262
▁Be	-9.88276
▁vücut	-9.88283
▁işleme	-9.88319
▁sermaye	-9.8839
15	-9.88421
▁Bundan	-9.88454
▁Arap	-9.88486
▁Beyaz	-9.88514
şa	-9.88661
▁New	-9.88678
▁geçici	-9.88682
▁un	-9.88708
mis	-9.88732
▁düz	-9.88783
▁kullanılması	-9.88802
▁boy	-9.88805
▁aykırı	-9.88844
▁Orman	-9.88847
▁yükle	-9.8893
bar	-9.88949
sem	-9.89021
▁eylem	-9.89104
▁alanları	-9.89164
▁Gerçek	-9.8919
▁vermeye	-9.89217
▁barış	-9.89223
başı	-9.89234
▁birbirine	-9.89239
▁alınarak	-9.89385
▁Havalimanı	-9.89408
▁iz	-9.89503
▁hikaye	-9.89532
▁deneyim	-9.89585
▁Kat	-9.89603
ap	-9.89604
▁Sarı	-9.89656
▁Akdeniz	-9.8973
▁kiralama	-9.89862
▁çek	-9.89881
▁göster	-9.89884
▁fatura	-9.89934
▁maddi	-9.90024
▁taşı	-9.90056
▁Euro	-9.90097
▁sanki	-9.90157
▁devletin	-9.90176
▁kullanan	-9.90241
19	-9.90245
▁Program	-9.9026
▁Ke	-9.90333
▁Lo	-9.90394
▁birini	-9.90416
masını	-9.90421
acağız	-9.90473
▁yanına	-9.90497
▁Gaziantep	-9.90529
▁çıkma	-9.90546
▁Kurul	-9.90599
▁gerektiği	-9.90644
fer	-9.90696
dikleri	-9.90709
▁katı	-9.90793
▁işleri	-9.90813
kal	-9.90821
melidir	-9.90846
▁isterseniz	-9.90855
80	-9.90874
▁Mısır	-9.90882
▁yerlerde	-9.90926
▁yaşlı	-9.90931
▁Vali	-9.90941
▁sayede	-9.90949
▁Vakfı	-9.90975
▁Dış	-9.90996
▁Savaşı	-9.91004
ER	-9.91027
▁Lisans	-9.91037
▁mekan	-9.9106
▁bilen	-9.91086
rt	-9.91093
ser	-9.91093
leniyor	-9.91111
:00	-9.91151
▁Amerikan	-9.91177
▁hasar	-9.912
▁bırak	-9.91209
▁çekici	-9.91221
liler	-9.9131
▁Mahkemesi	-9.91314
▁Ni	-9.91333
▁karşıya	-9.91352
▁olduklarını	-9.91603
lardaki	-9.91624
▁gelmesi	-9.91636
▁em	-9.91662
▁anlatan	-9.91723
▁masa	-9.91776
▁metin	-9.91789
▁değişim	-9.91877
ılıyor	-9.919
▁Ceza	-9.91913
▁dakikada	-9.91928
▁yaka	-9.92033
veya	-9.92047
▁çocuğun	-9.92097
▁Po	-9.92169
▁yarat	-9.92182
gin	-9.92262
ıldığı	-9.92282
▁halkın	-9.92344
▁anlattı	-9.92382
▁tabii	-9.92387
AN	-9.92405
lüğü	-9.92413
▁devre	-9.92461
▁yerden	-9.92467
▁elbette	-9.9249
ck	-9.92512
ırken	-9.92547
▁batı	-9.92574
▁es	-9.92584
▁sesi	-9.92585
▁getirmek	-9.92648
▁birinin	-9.92679
▁firmamız	-9.92725
▁ifadelerini	-9.92729
▁aralarında	-9.92734
▁Kız	-9.92741
▁deri	-9.92754
▁Park	-9.92846
▁insanlara	-9.92861
▁İnşaat	-9.92879
▁herkese	-9.92886
▁toplumun	-9.92893
▁seçimi	-9.92933
▁farkı	-9.92968
▁etmiştir	-9.92979
▁Olay	-9.92995
▁la	-9.9304
madan	-9.93043
ku	-9.93081
▁Meslek	-9.93124
▁Ege	-9.93142
malı	-9.93267
▁olmadı	-9.93273
▁düzeyde	-9.93279
▁İn	-9.93306
▁Trabzon	-9.93328
▁sağlıyor	-9.93328
▁kuruluş	-9.93393
▁vererek	-9.93405
▁bilgisi	-9.93406
▁Yap	-9.9343
▁civarında	-9.93473
▁konuk	-9.93487
▁olmayı	-9.93532
▁gönder	-9.93539
▁arazi	-9.93598
he	-9.93655
▁bitki	-9.93655
▁gezi	-9.93668
▁Android	-9.93776
▁ameliyat	-9.9378
▁yöntemi	-9.93804
Ha	-9.93845
▁nda	-9.93851
bey	-9.93927
▁alış	-9.9398
▁edilmektedir	-9.94048
▁keyifli	-9.94109
▁Kim	-9.94121
▁böylece	-9.9419
mekte	-9.94223
▁yüzünden	-9.94234
▁içerik	-9.94249
▁kanal	-9.9428
var	-9.94325
En	-9.94338
eli	-9.94368
▁tarz	-9.94378
▁önde	-9.94406
▁ettim	-9.94409
▁dalga	-9.9449
▁gidiyor	-9.94525
▁Trump	-9.94579
▁bulabilirsiniz	-9.94613
▁Kaya	-9.94659
▁tesis	-9.94723
▁yedi	-9.94743
▁Bayramı	-9.94757
▁acil	-9.94762
▁bulmak	-9.94771
ok	-9.94774
ân	-9.94777
dığımız	-9.94779
▁Doğan	-9.94802
▁Yeşil	-9.94814
▁Sınav	-9.94829
▁operasyon	-9.94842
ysa	-9.94844
▁zorunlu	-9.94851
▁geçir	-9.94859
mdan	-9.94898
▁kanser	-9.94912
-1	-9.94998
▁Kısa	-9.95
▁Polis	-9.9501
▁istihdam	-9.95029
▁Ata	-9.95052
▁Var	-9.9511
▁karakter	-9.95151
▁şunları	-9.95156
▁adres	-9.95227
▁misafir	-9.95284
▁halka	-9.95287
▁eşit	-9.95322
▁olanak	-9.95346
▁fiziksel	-9.95371
▁ondan	-9.95422
▁düşün	-9.95444
▁arzu	-9.95453
▁ufak	-9.9548
▁eser	-9.955
▁aracılığıyla	-9.9553
▁Oyun	-9.95579
▁ihracat	-9.95642
▁uyku	-9.95642
▁yazma	-9.95662
70	-9.9567
▁garanti	-9.95677
▁iktidar	-9.95769
▁sunulan	-9.95808
▁|--	-9.95926
▁pazarlama	-9.9593
▁konularda	-9.95965
▁yoktu	-9.95994
▁yaşamak	-9.96007
ğa	-9.9601
▁kazanan	-9.96015
▁Diyarbakır	-9.96025
lem	-9.96036
▁Av	-9.96088
acağını	-9.9612
ov	-9.96134
▁vurgu	-9.96157
▁değişikliği	-9.96167
▁Fa	-9.96173
▁sonuçlar	-9.96187
ab	-9.96255
▁süreçte	-9.9628
▁yıldız	-9.96318
▁heyecan	-9.96375
gar	-9.96452
▁oyna	-9.9659
▁verimli	-9.96602
▁Müşteri	-9.96618
▁Bilgisayar	-9.96628
ban	-9.96702
▁Yayın	-9.96735
▁birden	-9.96748
▁kapat	-9.96764
▁edilebilir	-9.96778
▁300	-9.96779
▁buradan	-9.96815
▁ölçüde	-9.96839
▁Amaç	-9.96842
▁düğün	-9.96875
45	-9.96954
▁şiir	-9.96992
▁namaz	-9.97004
▁ettir	-9.97022
▁sinir	-9.97028
▁ücreti	-9.97042
▁sevgili	-9.9707
▁temin	-9.97075
▁yedek	-9.9708
▁Süleyman	-9.97103
▁kalıcı	-9.97104
▁borç	-9.97119
▁koy	-9.97128
▁·	-9.97135
▁mutluluk	-9.97149
▁demokrasi	-9.97154
24	-9.97161
EN	-9.97194
üp	-9.97195
▁bar	-9.97285
Biz	-9.97288
▁kilometre	-9.97293
▁gidip	-9.97345
▁yay	-9.97428
▁üstüne	-9.97492
▁hoca	-9.97532
▁miktarı	-9.97587
lenmesi	-9.97624
▁pratik	-9.97632
her	-9.9767
▁gündeme	-9.97688
meyi	-9.97701
▁adamı	-9.97721
▁hastalığı	-9.97723
▁nerede	-9.97754
▁2007	-9.97756
▁genelde	-9.97787
▁gözlem	-9.97843
▁alması	-9.97911
▁;	-9.97935
▁Daire	-9.97959
▁İsmail	-9.98018
▁Ri	-9.98031
▁Şahin	-9.9804
▁tarzı	-9.98075
▁örgütü	-9.98196
▁falan	-9.98224
▁mevcuttur	-9.98228
▁01	-9.98231
▁1-	-9.98239
▁öncesinde	-9.98264
▁uygulamaları	-9.98341
ucu	-9.98352
▁geleneksel	-9.9839
▁yakından	-9.98396
▁Koç	-9.98411
ff	-9.98465
▁tedavisi	-9.98467
▁suretiyle	-9.98484
▁Destek	-9.9853
▁ideal	-9.98536
▁Komisyonu	-9.98567
lay	-9.98572
ji	-9.9858
▁zayıf	-9.98583
▁kullandığı	-9.98598
tin	-9.98621
▁çocukları	-9.98701
cik	-9.98707
▁döviz	-9.98714
▁yolunda	-9.98754
▁Gece	-9.98841
ılabilir	-9.98867
▁Çanakkale	-9.98903
▁inci	-9.98951
cılar	-9.98955
▁sınırları	-9.98996
▁belirtildi	-9.99016
İN	-9.99018
▁metal	-9.99037
▁attı	-9.99115
▁noktası	-9.99137
▁ulaş	-9.99151
▁sıvı	-9.99198
▁çıkmış	-9.99202
▁makale	-9.99203
▁alınır	-9.99292
▁klima	-9.99345
▁pro	-9.99352
▁dili	-9.99376
▁ha	-9.99452
▁olmaması	-9.99475
lıdır	-9.99485
▁Kayseri	-9.99497
▁maçı	-9.99535
▁aktar	-9.99571
abilmek	-9.99573
▁sıkı	-9.99583
Ya	-9.99596
▁yapın	-9.99627
▁icin	-9.99635
▁günümüzde	-9.99669
▁beden	-9.99751
▁hazırlık	-9.99763
▁çalış	-9.99773
▁sigara	-9.99818
▁Yan	-9.99826
▁Önce	-9.9984
▁Mu	-9.99875
las	-9.99894
bel	-9.99929
▁bazıları	-9.99934
21	-9.99963
q	-9.9998
▁kuvvet	-10.0001
▁banyo	-10.0007
▁mali	-10.0009
▁Futbol	-10.0009
▁kimyasal	-10.0009
▁Öte	-10.001
▁tanesi	-10.0013
▁Elektrik	-10.0013
▁Gıda	-10.0015
aç	-10.0019
▁küresel	-10.0021
yü	-10.0023
▁kazandı	-10.0024
▁im	-10.0029
▁saf	-10.003
▁bil	-10.0031
35	-10.0032
ll	-10.0035
▁çalışmalarını	-10.0036
www	-10.0037
▁Geçen	-10.0042
▁hat	-10.0047
▁mümkündür	-10.005
İM	-10.0053
▁mavi	-10.0056
▁Eğitimi	-10.0059
▁duruma	-10.006
▁am	-10.0062
▁Giriş	-10.0065
▁Bölgesi	-10.0073
Ğ	-10.0082
▁endişe	-10.0083
▁ölçü	-10.0086
▁Başvuru	-10.0088
▁gerçekleşen	-10.0092
▁numarası	-10.0096
▁Oda	-10.0096
▁Köyü	-10.0098
▁politika	-10.0103
▁huzur	-10.0107
▁alıcı	-10.0108
LI	-10.011
▁içeriği	-10.0111
gün	-10.0113
▁çıkacak	-10.0113
isi	-10.0115
ans	-10.0116
▁milletvekili	-10.0123
▁7.	-10.0126
▁dönüşüm	-10.013
per	-10.0132
▁sanatçı	-10.0132
▁2000	-10.0143
ince	-10.0144
▁arkadaşı	-10.0147
▁mm	-10.015
▁ge	-10.0153
▁yönünde	-10.0162
▁çekiyor	-10.017
▁Ki	-10.0173
▁görevli	-10.0173
▁ederiz	-10.0181
75	-10.0181
▁Hukuk	-10.0187
▁bilir	-10.0188
▁sorunlar	-10.0198
▁uyar	-10.0199
▁sizleri	-10.02
▁He	-10.02
AT	-10.0201
▁eğlenceli	-10.0204
▁yarım	-10.0213
▁etkinlik	-10.0232
▁Nakliyat	-10.0234
▁alanlarda	-10.0234
▁beyin	-10.0241
▁Öncelikle	-10.0241
▁bulma	-10.0242
▁Afrika	-10.0243
▁radyo	-10.0243
▁kulak	-10.0246
▁yolda	-10.0248
▁değiştirme	-10.025
▁firmaları	-10.0255
▁seksi	-10.0255
▁tiyatro	-10.0257
▁Et	-10.0261
▁engelli	-10.0262
13	-10.0265
SI	-10.0265
umuz	-10.0267
▁klasik	-10.0273
▁Gazi	-10.0278
▁ser	-10.0288
ebiliyor	-10.0297
▁geçer	-10.0299
▁söylüyor	-10.0303
▁hisse	-10.0305
▁koltuk	-10.0311
▁Neden	-10.0314
▁Yaşam	-10.0314
lerdeki	-10.0318
▁cümle	-10.0321
AK	-10.0323
ildi	-10.0325
▁Bay	-10.0326
Allah	-10.0327
▁gelişmiş	-10.0329
▁uçuş	-10.0332
▁Fransız	-10.0332
▁Zaten	-10.0335
▁porno	-10.0335
tt	-10.0336
layacak	-10.0336
▁sözleri	-10.0337
ize	-10.0351
▁hesabı	-10.0356
▁numaralı	-10.0359
17	-10.036
▁anlamı	-10.036
▁temas	-10.0361
▁Üyesi	-10.0361
▁vize	-10.0367
▁zemin	-10.0367
▁kedi	-10.0376
▁olayı	-10.0376
▁http	-10.0378
▁firmalar	-10.038
▁halkı	-10.0382
▁Tasarım	-10.0385
▁Ver	-10.039
▁Yazar	-10.0392
leştirme	-10.0393
▁Ed	-10.0396
tma	-10.0396
▁tarihinden	-10.0398
▁anında	-10.0398
▁ettik	-10.0405
nuz	-10.0406
▁yaptığımız	-10.0408
ME	-10.0412
▁günün	-10.0413
▁satışı	-10.0413
▁Müzik	-10.0414
▁gerekse	-10.0414
▁olunca	-10.0419
tığı	-10.042
▁gelişim	-10.0422
yacak	-10.0424
yoruz	-10.0426
▁şeyin	-10.0429
▁kriz	-10.0436
▁planı	-10.0438
ağa	-10.0439
lerimize	-10.044
▁Az	-10.0444
▁konser	-10.0445
▁çelik	-10.0445
▁sakin	-10.0446
▁yarar	-10.0448
▁tarafı	-10.0451
▁büyü	-10.0452
▁hapis	-10.0453
▁Bunların	-10.0454
▁güne	-10.0456
▁Pi	-10.046
▁doğa	-10.0465
▁elinde	-10.0467
▁kayıp	-10.0471
▁parmak	-10.0472
ment	-10.0473
▁biliyor	-10.0473
▁sorular	-10.0473
▁önümüzdeki	-10.0476
▁denir	-10.0478
▁edebilir	-10.0486
diğimiz	-10.0488
kin	-10.0492
▁Bodrum	-10.0496
▁ürünlerin	-10.0498
▁Anne	-10.0502
▁süredir	-10.0507
▁Seçim	-10.0509
RA	-10.0515
Me	-10.0523
▁sürecinde	-10.0527
▁günden	-10.054
tık	-10.0543
layın	-10.0551
▁kimsenin	-10.0552
▁düzenlediği	-10.0554
▁katıldığı	-10.0558
▁zamanında	-10.0559
▁2019	-10.0559
▁malzemeleri	-10.056
▁çocuğu	-10.0567
▁paylaşım	-10.0568
▁Eskişehir	-10.0574
06	-10.0574
▁bireysel	-10.0581
▁petrol	-10.0583
▁altını	-10.0591
▁başlayacak	-10.0592
▁yaptık	-10.0594
layıcı	-10.0603
org	-10.0604
▁denge	-10.0607
▁kalmış	-10.0609
▁üstün	-10.0609
▁günler	-10.0611
▁Yazı	-10.0618
▁iman	-10.0622
▁Ga	-10.0623
▁İtalya	-10.0624
▁üstü	-10.0629
َ	-10.0636
ris	-10.0646
▁Aşk	-10.065
▁Pe	-10.065
ron	-10.0651
▁kaybetti	-10.0653
▁kitle	-10.0653
▁Başka	-10.0654
▁hariç	-10.0657
süz	-10.0675
▁araştır	-10.0677
▁şekli	-10.0678
▁(2)	-10.0678
▁sağlanması	-10.0683
▁bakan	-10.0694
▁değerlendir	-10.0694
▁fırsatı	-10.0698
▁yaptım	-10.0699
▁Erkek	-10.07
imizin	-10.0701
▁üstünde	-10.0705
▁düzen	-10.0713
▁kuş	-10.0718
▁oyunlar	-10.0721
▁okur	-10.0723
Ma	-10.0723
şe	-10.0727
▁köşe	-10.0729
▁kıl	-10.073
▁dayan	-10.0737
▁Rum	-10.0746
▁korumak	-10.0746
tör	-10.0748
ladığı	-10.0748
AL	-10.075
▁dayalı	-10.075
ebilmek	-10.0762
▁Ülke	-10.0764
▁36	-10.0765
▁izleme	-10.0766
▁gelme	-10.0766
▁depo	-10.0774
▁miktarda	-10.0787
▁çalışır	-10.0792
ker	-10.0802
har	-10.0807
larınız	-10.0808
▁hayatta	-10.081
▁Sakarya	-10.0818
▁düşünme	-10.0819
▁oldum	-10.082
▁maruz	-10.0829
▁derecede	-10.0836
▁verici	-10.0837
▁yağmur	-10.0845
▁tartışma	-10.0846
▁Mü	-10.0847
Cumhurbaşkanlığı	-10.0847
▁talebi	-10.0847
▁Festivali	-10.085
▁mobilya	-10.085
▁yapılmaktadır	-10.0852
▁davranış	-10.0853
▁ayakkabı	-10.0855
▁makam	-10.0855
▁tehlike	-10.0855
ss	-10.0862
▁Din	-10.0863
▁sunmaktadır	-10.0873
▁Ku	-10.0878
▁saatlerinde	-10.0879
▁geldiğini	-10.0879
▁Fotoğraf	-10.0879
ciler	-10.0881
▁saati	-10.0881
▁beyan	-10.0882
▁Roma	-10.089
şi	-10.089
▁Kapı	-10.0891
▁hüküm	-10.0893
▁no	-10.0899
▁şehri	-10.09
▁faydalı	-10.0901
Ka	-10.0907
▁hayırlı	-10.0908
masına	-10.0908
▁sıfır	-10.0909
▁öğrencileri	-10.091
▁nesil	-10.0911
▁özen	-10.0914
▁Oysa	-10.092
▁Servisi	-10.0921
▁getirdiği	-10.0926
▁gördüğü	-10.0928
▁rekabet	-10.0929
▁sınırlı	-10.093
▁annesi	-10.093
▁İle	-10.0931
▁anı	-10.0932
▁yöntemleri	-10.0937
32	-10.0938
▁artan	-10.0938
▁eğlence	-10.0945
▁kod	-10.0946
▁konuş	-10.096
▁yılları	-10.0962
▁istanbul	-10.0963
▁buldu	-10.0964
yin	-10.0964
▁mesafe	-10.0967
▁yapım	-10.097
▁so	-10.0976
▁uygulanan	-10.0983
▁33	-10.0983
▁kul	-10.0986
▁yıllardır	-10.0988
27	-10.0993
▁Adam	-10.1002
mm	-10.1004
▁komşu	-10.1004
ara	-10.1006
▁İnce	-10.1008
Ge	-10.1009
irken	-10.1009
▁Yol	-10.101
▁Yunanistan	-10.1014
▁kendimi	-10.1016
▁inanç	-10.1021
DA	-10.1023
▁Car	-10.1025
▁Saç	-10.1028
▁blog	-10.103
▁mesele	-10.103
ilecek	-10.1032
▁acaba	-10.1039
▁iPhone	-10.104
meyen	-10.1043
▁düştü	-10.1044
▁türü	-10.1054
eri	-10.1054
▁Abdullah	-10.1055
▁uyu	-10.106
▁isteği	-10.1063
▁Yatırım	-10.1063
▁Marka	-10.1065
▁Ekonomi	-10.1071
▁şifre	-10.1074
liğine	-10.1077
▁Okulu	-10.1079
unda	-10.1081
▁yapıp	-10.1081
▁değildi	-10.1083
▁Yurt	-10.1085
▁alanlar	-10.1086
kaya	-10.1086
hu	-10.1092
▁Hak	-10.1095
▁sizlerle	-10.1097
▁Caddesi	-10.1099
▁TBMM	-10.1099
31	-10.1105
▁Dünyanın	-10.1106
?"	-10.1108
müz	-10.1112
▁kullanılabilir	-10.1119
▁Üç	-10.112
▁günah	-10.1124
▁kaplama	-10.1125
▁dar	-10.1133
fet	-10.1134
▁34	-10.1134
▁tat	-10.1144
▁organizasyon	-10.1144
▁soruları	-10.1146
▁sürece	-10.1148
▁ulaşmak	-10.1149
▁adalet	-10.1149
▁umut	-10.1151
▁Hu	-10.1155
Sen	-10.1155
▁St	-10.1155
▁yapması	-10.1165
ud	-10.1165
▁şehrin	-10.1165
▁Toplam	-10.1171
üyor	-10.1172
@	-10.1179
▁azalt	-10.1179
▁uğraş	-10.1181
▁Satış	-10.1183
▁emniyet	-10.1185
▁seven	-10.1188
▁maddesinin	-10.1189
▁Digiturk	-10.1193
leyerek	-10.1194
28	-10.1196
abileceği	-10.1202
▁Dönem	-10.1202
▁Site	-10.1203
▁alımı	-10.1203
▁Har	-10.1204
▁kutu	-10.1207
▁Federasyonu	-10.1207
▁maaş	-10.1211
▁tablo	-10.1212
▁Hasta	-10.1217
▁kalır	-10.1229
Türk	-10.123
▁edilerek	-10.123
▁has	-10.1232
▁başladığı	-10.1234
▁Adalet	-10.1238
İK	-10.1238
em	-10.124
▁yüzey	-10.1241
▁olabilirsiniz	-10.1242
▁deprem	-10.1248
▁göç	-10.1248
▁kaybı	-10.1249
▁Hemen	-10.1253
▁Gu	-10.1255
▁görüşü	-10.1255
▁evlilik	-10.1256
▁hayır	-10.1257
rı	-10.1259
▁gayet	-10.1259
▁olduğum	-10.1265
▁Hakan	-10.1267
▁İslâm	-10.1268
meli	-10.127
▁yılının	-10.1271
ilebilir	-10.1274
▁çıkması	-10.1278
▁anahtar	-10.1278
▁dedektiflik	-10.1279
▁yapmanız	-10.1282
leriniz	-10.1283
mar	-10.1284
▁Tabii	-10.1285
07	-10.1285
▁sokak	-10.1289
▁oluşturan	-10.1292
larımıza	-10.1295
▁başlıklı	-10.1301
▁aşkın	-10.1303
▁dost	-10.1303
▁halen	-10.1306
▁panel	-10.1306
nd	-10.1307
▁şüpheli	-10.1307
14	-10.1314
▁söylemek	-10.1315
▁açılış	-10.1316
▁şiddet	-10.1318
▁gelmektedir	-10.1322
▁150	-10.1325
▁yatır	-10.133
▁Tabi	-10.1335
IM	-10.1339
▁arıza	-10.1339
imizi	-10.1341
▁çöz	-10.1343
▁Günümüzde	-10.1343
yarak	-10.1345
▁Ser	-10.1346
▁Kanunun	-10.1348
▁olaylar	-10.1349
▁üzeri	-10.1352
▁onunla	-10.1355
▁saatleri	-10.1358
ova	-10.136
▁ekmek	-10.136
▁ip	-10.1361
▁çalışmak	-10.1361
lam	-10.1363
▁8.	-10.1365
!”	-10.1367
▁tanıtım	-10.1367
▁haberleri	-10.1368
▁yukarıda	-10.1368
▁artır	-10.1368
▁05	-10.1369
▁Ber	-10.1372
▁sebeple	-10.1373
▁yapılıyor	-10.1374
▁taze	-10.1377
ant	-10.1386
▁gösterme	-10.1388
▁Karşı	-10.1392
▁konaklama	-10.1394
▁tuz	-10.1403
▁Top	-10.1412
▁gönül	-10.1412
▁maçında	-10.1413
▁geçiyor	-10.1414
▁bisiklet	-10.1416
so	-10.1418
▁gelince	-10.1419
▁kahvaltı	-10.142
▁perde	-10.1421
▁Yusuf	-10.1426
▁ürünün	-10.1428
▁yönetici	-10.1428
▁Mutfak	-10.1432
▁olmaları	-10.1435
▁kurma	-10.1437
▁başar	-10.1437
▁gitme	-10.144
▁çatışma	-10.1441
▁teknolojisi	-10.1442
▁noktasında	-10.1448
▁bonus	-10.1449
▁olmasa	-10.1459
▁çıkart	-10.1461
▁ata	-10.1461
▁Marmara	-10.1462
▁toz	-10.1463
▁2006	-10.1464
▁görür	-10.1471
▁temizliği	-10.1472
▁yaklaşım	-10.1473
EL	-10.1477
▁ettikleri	-10.1477
▁Baba	-10.1478
▁yolculuk	-10.148
▁köpek	-10.148
26	-10.1481
▁Mal	-10.1485
▁çıktığı	-10.1485
▁gördü	-10.1486
▁Cumartesi	-10.1489
▁Bana	-10.149
▁ağaç	-10.1491
▁Kore	-10.1497
▁moda	-10.15
▁çatı	-10.1501
▁cihazı	-10.1501
▁link	-10.1502
bur	-10.1503
▁sunucu	-10.1514
36	-10.1515
▁yat	-10.1516
dy	-10.1523
▁düzey	-10.1525
▁gösterdiği	-10.1527
▁Dalı	-10.1528
▁tarifi	-10.153
▁sorgu	-10.1534
diğiniz	-10.1537
▁olduk	-10.1538
▁üretilen	-10.1539
▁Doğru	-10.154
22	-10.1541
▁futbolcu	-10.1542
▁oluşur	-10.1542
▁Sistem	-10.1542
▁Ho	-10.1544
▁zamanlar	-10.1544
▁lideri	-10.1548
▁yazık	-10.1551
▁yüzü	-10.156
ledi	-10.156
ð	-10.1562
▁yıkama	-10.1564
▁iletişime	-10.1566
▁seçeneği	-10.1566
▁Kent	-10.1569
▁Kayıt	-10.1571
gel	-10.1572
▁Savaş	-10.1575
▁Sabah	-10.1577
▁süper	-10.1578
▁Video	-10.1583
▁göstermektedir	-10.159
▁gül	-10.1592
▁dal	-10.1595
▁Hiç	-10.1596
▁getirme	-10.1597
▁izni	-10.1601
▁birlik	-10.1602
▁bırakma	-10.1604
▁geliştir	-10.1607
▁çalışmaya	-10.1607
▁arı	-10.1608
▁şikayet	-10.1608
▁yeme	-10.1609
▁rahmet	-10.1613
▁Bak	-10.1614
▁Per	-10.1616
▁kağıt	-10.1618
▁maliyet	-10.1622
▁Eve	-10.1623
▁Denizli	-10.1627
▁Paris	-10.1628
▁Araç	-10.1629
▁oran	-10.163
▁mail	-10.1632
▁Not	-10.1636
▁hücre	-10.1638
▁Farklı	-10.1646
▁ayda	-10.1648
▁işlemler	-10.1649
▁etmeyi	-10.1652
▁albüm	-10.1653
▁Ol	-10.1654
▁Karar	-10.1654
▁kendinizi	-10.1654
▁özgürlük	-10.1654
▁vatandaşlar	-10.1659
oto	-10.1663
larındaki	-10.1667
▁Jo	-10.1667
▁Sayı	-10.1669
▁tarif	-10.1671
▁tehlikeli	-10.1672
les	-10.1677
ilerek	-10.1681
eceğini	-10.1683
▁Sağ	-10.1684
▁Öyle	-10.1685
▁erişim	-10.1699
▁doğu	-10.1706
▁sanırım	-10.1708
mayın	-10.1708
vo	-10.1713
▁önemi	-10.1716
lılar	-10.1717
az	-10.1717
▁davran	-10.1722
▁yerler	-10.1723
▁Barış	-10.1728
▁kaldığı	-10.1729
▁yön	-10.1729
sta	-10.1731
▁ters	-10.1731
İL	-10.1731
▁beklenen	-10.1732
▁Alan	-10.1735
Ne	-10.1736
▁dev	-10.1736
▁geleceği	-10.1744
▁Yabancı	-10.1748
DE	-10.1754
kara	-10.1757
▁tut	-10.1761
eği	-10.1762
▁meme	-10.1763
dağ	-10.1764
lamış	-10.1764
▁üyelik	-10.1767
▁kalem	-10.1772
▁ilçesi	-10.1772
▁$	-10.1776
▁Ce	-10.1777
▁selam	-10.1778
▁Tur	-10.1781
▁Ge	-10.1782
▁aracın	-10.1782
▁Gök	-10.1783
▁48	-10.1785
▁roman	-10.1786
▁”	-10.1793
▁ikili	-10.1794
▁ibadet	-10.1802
▁Bayan	-10.181
pi	-10.181
▁kurmak	-10.181
▁haberi	-10.181
▁sıcaklık	-10.1812
▁birliği	-10.1812
▁Fen	-10.1812
kat	-10.1822
▁şüphe	-10.1825
▁Eş	-10.1826
▁imkan	-10.1828
▁yapabilir	-10.1828
▁Telefon	-10.1833
▁payı	-10.1834
▁şa	-10.1835
▁deney	-10.1837
▁kurban	-10.1838
▁disiplin	-10.1838
▁aylarında	-10.1841
▁gördüm	-10.1842
▁toplantısı	-10.1843
▁Ja	-10.1845
▁vermesi	-10.1846
▁görünüyor	-10.1852
▁Tanrı	-10.1852
esi	-10.1853
▁damar	-10.1855
▁Kurum	-10.1856
▁Birinci	-10.186
▁Sal	-10.1861
▁yerleşim	-10.1866
▁yürüyüş	-10.1869
▁sunduğu	-10.1871
▁Sivas	-10.1871
▁olmuştu	-10.1872
abilen	-10.1874
▁rüya	-10.1875
▁araçları	-10.1882
▁taraftan	-10.1883
▁ok	-10.1892
▁Yemek	-10.1897
▁çalıştır	-10.1898
▁evi	-10.1902
▁elbise	-10.1905
AR	-10.1905
▁kalitesi	-10.1905
lerindeki	-10.1906
▁final	-10.1907
▁varlığı	-10.1907
▁kardeşi	-10.1907
for	-10.1908
▁idari	-10.1915
▁Şanlıurfa	-10.192
▁Müdür	-10.192
▁şartları	-10.1921
▁rahatlıkla	-10.1923
▁ör	-10.1925
ep	-10.1928
▁hattı	-10.1929
▁kodu	-10.193
▁har	-10.1933
▁Twitter	-10.1934
LAN	-10.1935
▁yıla	-10.1938
rit	-10.1939
▁tl	-10.1939
▁merkezinde	-10.194
▁sendika	-10.1943
▁platform	-10.1944
eceğiz	-10.1948
▁harekete	-10.1949
SA	-10.1952
▁başlat	-10.196
▁süreli	-10.196
▁Doğum	-10.1963
▁kardeş	-10.1964
▁çekme	-10.1966
tra	-10.1968
▁Kalite	-10.1971
İT	-10.1972
▁dönüştür	-10.1973
▁isteme	-10.1984
▁başlangıç	-10.1986
▁İs	-10.1986
▁prim	-10.1988
▁Birçok	-10.1989
▁bit	-10.199
▁kahraman	-10.1993
NA	-10.1993
AY	-10.1995
nci	-10.1998
▁co	-10.2001
▁havuz	-10.2002
▁yukarı	-10.2003
kta	-10.2004
▁bayanlar	-10.2004
▁koku	-10.2006
▁fikri	-10.2007
▁Hayat	-10.2008
▁grafik	-10.2009
▁nakliye	-10.2011
▁Erzurum	-10.2011
▁Ad	-10.2012
▁görülür	-10.2016
▁programları	-10.2016
lek	-10.2018
▁bul	-10.2019
top	-10.202
▁Pazartesi	-10.2023
▁konular	-10.2023
▁yönde	-10.2026
▁yağı	-10.2027
▁İmam	-10.2032
▁bo	-10.2037
▁harita	-10.2038
▁Servis	-10.2039
▁vazgeç	-10.2043
▁sitesinde	-10.2048
▁İlgili	-10.2049
▁pencere	-10.205
▁olamaz	-10.2051
▁sürücü	-10.2052
▁Emre	-10.2053
▁görüyoruz	-10.2055
▁hizmetler	-10.2056
ılmaktadır	-10.2058
▁Online	-10.2059
ılıp	-10.2063
▁gelişmeler	-10.2068
▁azından	-10.2068
▁yapmayı	-10.2069
▁maalesef	-10.2072
▁sisteminin	-10.2076
▁farkında	-10.2079
▁Bununla	-10.2079
▁izlemek	-10.2083
set	-10.2085
▁etkinliği	-10.2089
▁Fi	-10.2091
▁Kupası	-10.2091
▁Kişi	-10.2092
mik	-10.2093
landığı	-10.2094
▁Va	-10.2099
UN	-10.2104
▁HDP	-10.2104
▁olabilecek	-10.2104
▁çekim	-10.2105
▁pa	-10.2113
je	-10.2124
▁haz	-10.2126
▁çanta	-10.2129
▁gözü	-10.2131
▁aşı	-10.2136
▁bildirdi	-10.2138
İZ	-10.2138
▁Ardından	-10.2143
▁bekleniyor	-10.2143
▁ko	-10.2143
▁satışa	-10.2143
▁ayet	-10.2145
▁olmaktan	-10.2146
▁Kılıçdaroğlu	-10.2147
▁başlamış	-10.2149
▁gelerek	-10.215
▁siyaset	-10.215
▁olası	-10.2156
23	-10.2161
▁verilecek	-10.2162
Her	-10.2162
▁hanım	-10.2163
▁özellikler	-10.2163
▁hakkını	-10.2168
▁Diş	-10.2171
kte	-10.2173
laş	-10.2174
▁par	-10.2179
02	-10.2183
▁güncelleme	-10.2184
▁merkezine	-10.2188
▁ölü	-10.2189
39	-10.219
▁Çarşamba	-10.2193
▁başladım	-10.2193
▁kavga	-10.2194
▁karşılaşma	-10.2199
▁bulunmak	-10.2201
▁Go	-10.221
▁mah	-10.2211
▁alana	-10.2213
▁gurur	-10.2215
▁Or	-10.2222
99	-10.223
▁kullanıcılar	-10.2232
▁Enstitüsü	-10.2232
▁sap	-10.2234
▁emek	-10.2234
lâ	-10.2234
▁evine	-10.2239
AM	-10.224
▁uyan	-10.2241
▁takdir	-10.2241
▁lezzet	-10.2242
gun	-10.2245
ligi	-10.2248
▁açıklaması	-10.2248
yorum	-10.2249
▁bilet	-10.2252
▁büyüsü	-10.2259
▁arasına	-10.2266
▁bildir	-10.2266
val	-10.2267
▁kamp	-10.2268
yer	-10.2269
▁kontrolü	-10.2271
▁tren	-10.2272
▁dağıt	-10.2273
▁Yakın	-10.2275
▁bizlere	-10.2275
emez	-10.2281
▁bomba	-10.2287
uş	-10.2289
▁açtı	-10.229
▁Mücadele	-10.2291
▁seçenek	-10.2292
▁belir	-10.2292
▁evinde	-10.2294
▁yarışma	-10.2296
▁dışarı	-10.2296
sunu	-10.2298
sizlik	-10.2301
▁fon	-10.2309
gü	-10.2311
▁Zira	-10.2311
▁bel	-10.2318
▁sev	-10.2329
LE	-10.2331
▁dergi	-10.2331
larım	-10.2332
▁adamın	-10.2334
▁saniye	-10.2346
▁Fe	-10.2346
▁edeceğiz	-10.2349
▁çapında	-10.2351
▁Günlük	-10.2351
▁ahşap	-10.2355
09	-10.2359
▁eleştiri	-10.236
▁kilit	-10.2364
▁(19	-10.2366
mın	-10.2369
▁alabilir	-10.2371
lenecek	-10.2373
▁değiştir	-10.2374
▁sanal	-10.238
▁şeyleri	-10.2381
▁forma	-10.2382
▁kayıtlı	-10.2383
rma	-10.2383
▁raporu	-10.2388
ste	-10.2388
▁yükleme	-10.2389
▁yüzlerce	-10.239
bay	-10.2391
▁tanıma	-10.2394
▁tescil	-10.2394
▁maliyeti	-10.2395
▁bakımı	-10.2395
▁Yılı	-10.2396
▁düzenlenecek	-10.2397
▁icra	-10.2397
mon	-10.2399
▁Si	-10.24
▁yolları	-10.2402
▁sektörü	-10.2403
▁erkekler	-10.2403
▁usul	-10.2404
ılmıştır	-10.2406
▁sor	-10.2414
▁başlığı	-10.2415
▁Dairesi	-10.2421
▁yapıyoruz	-10.2426
▁tutan	-10.2427
▁sunar	-10.2428
▁tel	-10.2431
▁uyarınca	-10.2434
▁şube	-10.2436
uk	-10.2437
▁Geçtiğimiz	-10.2438
▁hayatın	-10.2438
▁maddeler	-10.244
dığınız	-10.2444
▁oturma	-10.2444
▁olduğunda	-10.2449
▁Hanım	-10.2449
▁Jandarma	-10.2451
▁deneyimi	-10.2452
▁direk	-10.2453
▁Gür	-10.2454
▁zam	-10.2455
▁stres	-10.2458
▁akademik	-10.2463
lanabilir	-10.2467
▁doğan	-10.2468
▁ilişkiler	-10.2469
▁masaj	-10.247
▁haklı	-10.2471
▁yardımı	-10.2473
▁isterim	-10.2474
▁meydan	-10.2475
▁kalıyor	-10.2478
▁Balıkesir	-10.2484
▁göstermek	-10.2485
▁giy	-10.2493
▁bedeli	-10.2495
▁To	-10.2505
ydu	-10.2509
▁üretici	-10.251
▁hedefi	-10.251
▁alınacak	-10.2511
▁rüzgar	-10.2511
▁uygulamalar	-10.2512
▁isteyenler	-10.2513
▁Kas	-10.2527
▁ilanları	-10.2527
▁özellik	-10.2529
▁Kontrol	-10.253
▁Em	-10.2534
▁Ordu	-10.2534
▁kasa	-10.2535
▁vefat	-10.2537
▁Manisa	-10.2539
▁Bebek	-10.2543
TL	-10.2543
▁ettiğiniz	-10.2544
▁gelmiştir	-10.2545
▁teşekkürler	-10.2546
29	-10.2547
▁restoran	-10.2549
▁Kır	-10.2553
▁Kay	-10.2554
▁ter	-10.256
▁yumuşak	-10.2568
▁anlayışı	-10.258
▁hassas	-10.258
ia	-10.2583
ham	-10.2585
▁Ci	-10.2587
▁herkesi	-10.2587
▁38	-10.2596
▁eşliğinde	-10.2597
▁istedim	-10.2599
▁kategori	-10.2602
ard	-10.2602
▁yerleri	-10.2607
lanarak	-10.2609
▁faydalan	-10.261
▁şart	-10.2611
▁kurumlar	-10.2615
▁anlar	-10.2618
▁Savunma	-10.2621
▁ettiler	-10.2622
▁edici	-10.2626
▁oranda	-10.2629
▁yürürlüğe	-10.263
▁Ağır	-10.2632
▁Sistemleri	-10.2633
mayan	-10.2634
duk	-10.2635
ts	-10.2635
▁Veri	-10.2636
34	-10.2638
▁bulur	-10.2639
▁öğrencilere	-10.264
▁fe	-10.2644
ınca	-10.2644
▁Metin	-10.2645
Sa	-10.2645
▁örneği	-10.2646
umu	-10.2652
▁katkıda	-10.2653
08	-10.2655
De	-10.2661
▁kısım	-10.2663
▁gazeteci	-10.2668
tion	-10.267
▁sahil	-10.2677
▁geldiğinde	-10.2686
▁kişiyi	-10.2687
▁mesleki	-10.2688
▁harcama	-10.269
▁kombi	-10.2691
ks	-10.2691
ği	-10.2693
▁Takım	-10.2697
▁faaliyetleri	-10.2702
zan	-10.2704
dığım	-10.2709
▁ordu	-10.2709
▁ş	-10.2714
▁zararlı	-10.2715
iği	-10.2716
▁işletim	-10.2719
EK	-10.2719
▁Sağlığı	-10.2719
▁Ter	-10.2723
▁evet	-10.2724
▁55	-10.2726
▁men	-10.2728
▁seç	-10.2729
▁temsilcileri	-10.2732
▁cephe	-10.2733
▁Yaklaşık	-10.2734
▁Hangi	-10.2736
duğu	-10.2738
▁adıyla	-10.274
iç	-10.2744
▁katılma	-10.2746
▁günleri	-10.2748
▁olmanın	-10.2754
leyici	-10.2761
LA	-10.2762
▁ülkeler	-10.2762
zer	-10.2766
▁karşımıza	-10.2766
▁kalıp	-10.2767
tek	-10.2774
▁Görev	-10.2775
▁On	-10.2776
▁2005	-10.2793
▁öğrenmek	-10.2794
▁Bahçe	-10.2795
▁oluşturmak	-10.2798
▁vatan	-10.2799
▁Bağ	-10.28
tel	-10.2802
▁Am	-10.2803
▁çıkardı	-10.2804
▁sürpriz	-10.2804
▁nin	-10.2806
unuz	-10.2808
▁400	-10.2812
▁topu	-10.2813
37	-10.2815
▁giyim	-10.2817
▁denk	-10.2831
▁sürü	-10.2835
▁haftada	-10.2837
mus	-10.2837
▁işgal	-10.284
▁Üstelik	-10.2844
▁diz	-10.2847
af	-10.2848
▁koca	-10.285
AP	-10.2854
▁Konseyi	-10.2855
▁ilişkileri	-10.2858
▁kes	-10.2866
▁etmeniz	-10.2869
▁konferans	-10.2871
▁Alt	-10.2873
▁sex	-10.2873
▁verileri	-10.2873
▁kurtul	-10.2875
▁muayene	-10.2877
▁ayır	-10.2877
▁Konut	-10.2878
▁maçta	-10.2889
▁birimi	-10.2889
▁kurdu	-10.289
▁şunu	-10.2892
▁besin	-10.2897
▁Haberleri	-10.2899
tre	-10.2901
ınızı	-10.2905
▁performansı	-10.2913
▁Pek	-10.2914
▁Suudi	-10.2915
▁psikolojik	-10.2916
▁derken	-10.2916
▁uzay	-10.2918
▁dışındaki	-10.2921
▁ayrıntılı	-10.2923
▁özgür	-10.2925
İş	-10.2927
▁arasından	-10.2929
▁atma	-10.293
til	-10.2933
▁çeşitleri	-10.2933
▁köprü	-10.2933
▁girer	-10.2934
▁izleyici	-10.2941
▁attığı	-10.2942
▁açıldı	-10.2943
▁içeri	-10.2944
▁kullanılarak	-10.2948
33	-10.2951
▁Hoca	-10.2951
▁oluşturma	-10.2954
▁bunlara	-10.2954
▁istenen	-10.2955
▁kısmında	-10.2959
▁Takımı	-10.2959
▁değişiklikler	-10.2961
▁Bakım	-10.2962
▁dışına	-10.2963
rek	-10.2964
imize	-10.2965
▁oto	-10.2966
▁salonu	-10.2966
▁Mühendisliği	-10.2973
▁Selçuk	-10.2975
▁çıkarma	-10.2976
▁it	-10.2982
▁75	-10.2987
▁yapılabilir	-10.2994
lanacak	-10.2995
▁alanına	-10.2995
▁he	-10.2998
▁uzat	-10.2998
▁Lu	-10.3
▁asit	-10.3001
▁Bel	-10.3003
▁meclis	-10.3007
▁ulaştı	-10.3011
▁yazdığı	-10.3013
▁Sigorta	-10.3013
▁duyma	-10.3017
dere	-10.3021
▁hızı	-10.3021
▁komisyon	-10.3025
▁yaşıyor	-10.3027
rat	-10.3027
▁durumun	-10.3028
▁dikkatli	-10.3028
▁Perşembe	-10.3032
▁ağız	-10.3033
▁sayısının	-10.3035
▁ayakta	-10.3037
▁tasarruf	-10.304
▁gelişen	-10.3041
▁müze	-10.3041
▁gerçekleşti	-10.3043
▁teklifi	-10.3044
55	-10.3044
▁üret	-10.3044
▁Işık	-10.3045
leyebilirsiniz	-10.3048
▁lüks	-10.3048
▁şirketin	-10.3049
▁resimleri	-10.3051
▁kaydı	-10.3051
▁bilmiyorum	-10.3053
▁demokratik	-10.3061
▁çözümü	-10.3062
▁anlatıyor	-10.3066
▁kuzey	-10.3067
▁açtığı	-10.3067
▁çalışmalarına	-10.3068
liyor	-10.3069
▁eriş	-10.3069
#	-10.3069
▁Devleti	-10.307
▁kapsamlı	-10.3071
car	-10.3081
KA	-10.3081
▁Mobil	-10.3083
▁markası	-10.309
▁gidecek	-10.309
kur	-10.309
▁Tan	-10.3101
▁başkenti	-10.3109
▁değerleri	-10.3113
▁girme	-10.3114
meden	-10.3116
▁yayımlanan	-10.3119
▁bilgilere	-10.312
▁altyapı	-10.3121
▁tepe	-10.3122
▁konuları	-10.3125
istan	-10.3125
▁pasta	-10.3126
aş	-10.3127
▁ailesi	-10.3132
▁Kalkınma	-10.3133
▁kurtar	-10.3133
▁ülkelerin	-10.3134
▁işveren	-10.3135
▁düşme	-10.3137
▁Salı	-10.3142
▁peygamber	-10.3143
▁sağlama	-10.3147
land	-10.3148
▁etmez	-10.3149
▁konuyu	-10.3154
):	-10.3154
▁arttır	-10.3155
▁Mah	-10.3156
par	-10.3156
▁geride	-10.3159
▁kongre	-10.3161
▁York	-10.3165
-3	-10.3173
lerdi	-10.3176
▁dönemlerde	-10.318
▁Uğur	-10.3181
▁Sev	-10.3182
▁suyun	-10.3187
▁nüfus	-10.3189
baba	-10.3191
▁koyu	-10.3195
▁alakalı	-10.3198
▁görünce	-10.3198
▁ö	-10.3206
laması	-10.3211
▁getiriyor	-10.3212
▁dersi	-10.3212
▁fi	-10.3214
▁hitap	-10.3215
▁verilmiştir	-10.323
▁yavru	-10.3232
▁kiralık	-10.3232
▁yapılmıştır	-10.3233
TE	-10.3234
▁etkinlikleri	-10.3238
▁Soru	-10.3239
▁almıştır	-10.3239
▁Der	-10.3241
▁Birleşik	-10.3242
▁yorumlar	-10.3243
▁250	-10.3244
▁alırken	-10.3247
▁yürütülen	-10.325
leşen	-10.325
▁doku	-10.3255
▁Kullan	-10.3262
▁riski	-10.3265
▁açı	-10.3266
▁gram	-10.3267
▁donanım	-10.327
▁verdim	-10.3271
ven	-10.3271
▁ağırlık	-10.3274
▁ten	-10.3274
▁dizisi	-10.3278
▁kaynakları	-10.3279
▁aşamasında	-10.3282
▁yaşamını	-10.3282
▁düş	-10.3282
▁gök	-10.3283
▁kare	-10.3283
yet	-10.3292
▁oynadığı	-10.3293
38	-10.3301
▁özgü	-10.3302
luğa	-10.3306
▁aşama	-10.3306
▁2-	-10.3312
lenebilir	-10.3314
NE	-10.3321
▁hayatına	-10.3322
▁Örnek	-10.3327
▁Müzesi	-10.3329
▁tablet	-10.3333
▁sunum	-10.3333
kiralama	-10.3334
▁for	-10.3343
iliyor	-10.3351
▁öğrenildi	-10.3352
▁37	-10.3353
▁Üye	-10.3353
▁unutma	-10.3364
UM	-10.3365
▁bağış	-10.3365
▁Sizin	-10.3366
▁tutma	-10.3368
▁Kadınlar	-10.337
gal	-10.3375
▁ilke	-10.3378
▁w	-10.3385
▁Size	-10.3386
amayan	-10.3387
▁olgun	-10.339
▁kaybeden	-10.3391
▁devir	-10.3392
▁söyleme	-10.3394
▁değişimi	-10.3396
▁uyuşturucu	-10.3399
▁kale	-10.34
▁ez	-10.34
▁projeleri	-10.3401
▁bakın	-10.3407
▁getirilmesi	-10.3412
▁olmuyor	-10.3413
dal	-10.3413
▁bizimle	-10.3415
▁kazanç	-10.3421
95	-10.3423
▁dönemin	-10.3427
▁organize	-10.3427
-19	-10.343
▁dans	-10.3433
▁söyler	-10.3436
▁bölgeye	-10.3437
▁Basın	-10.3438
▁aksine	-10.344
▁Medya	-10.344
▁bekleyen	-10.344
▁kazanma	-10.344
▁kaçak	-10.3443
▁evin	-10.3443
lendiği	-10.3443
2016	-10.3447
▁sürüyor	-10.3448
▁listesi	-10.3452
▁stok	-10.3452
sk	-10.3459
▁öner	-10.3463
▁Firma	-10.3464
bil	-10.3465
IR	-10.3465
▁emeği	-10.3471
▁kalmak	-10.3474
▁kendileri	-10.3475
▁istifa	-10.3478
▁seviyorum	-10.3478
▁dernek	-10.3478
▁koyun	-10.3479
▁boru	-10.3482
▁toplantısında	-10.3486
▁gayret	-10.3486
▁pahalı	-10.3488
▁Sevgili	-10.349
▁milletin	-10.3491
▁Mahkeme	-10.3493
▁Herkes	-10.3495
▁kalk	-10.3498
▁görevini	-10.3498
▁doktora	-10.3499
▁plana	-10.3501
diğim	-10.3501
▁duyuru	-10.3503
▁malzemeler	-10.3505
ımızın	-10.3506
name	-10.3506
bat	-10.3506
▁gerçeği	-10.3507
tis	-10.351
kent	-10.351
01	-10.3511
▁Banka	-10.3516
▁açan	-10.3519
▁direkt	-10.3521
TO	-10.3526
▁ortasında	-10.3526
UR	-10.3529
▁manevi	-10.3532
▁65	-10.3533
▁bilgilendirme	-10.3534
mesini	-10.3535
▁görülmektedir	-10.3545
OS	-10.3546
▁metrekare	-10.3547
ng	-10.3549
ps	-10.3549
▁plastik	-10.355
▁girdiği	-10.3553
▁Sol	-10.3554
▁gönderme	-10.3557
▁teknolojik	-10.3557
▁Sohbet	-10.3558
▁taşın	-10.3558
▁dinle	-10.3559
oloji	-10.356
▁sistemin	-10.3562
dıklarını	-10.3563
mayacak	-10.3564
▁Ses	-10.3565
hal	-10.3566
▁sebze	-10.357
▁bildirildi	-10.357
▁korunması	-10.3574
▁arkasında	-10.3575
0.000	-10.3575
▁tamamladı	-10.3585
▁kalabalık	-10.3586
kullanılmaktadır	-10.3587
▁bölümde	-10.3587
65	-10.3588
▁keyif	-10.3595
▁atık	-10.3599
kları	-10.3602
▁etkileri	-10.3603
▁kablo	-10.3606
ıyordu	-10.3606
▁kumaş	-10.3606
sat	-10.3608
▁Şehit	-10.361
▁Mesela	-10.3614
▁dir	-10.3616
▁seviyede	-10.3621
▁bileti	-10.3621
▁Du	-10.3623
▁altındaki	-10.3623
▁vakti	-10.3634
▁göğüs	-10.3636
▁tık	-10.3636
larınızın	-10.3637
▁başlamıştır	-10.3637
▁kanıt	-10.3642
▁geçme	-10.3645
▁anlamında	-10.3647
▁İspanya	-10.3648
▁tamamı	-10.365
abilmektedir	-10.365
Se	-10.3656
tif	-10.366
▁tan	-10.3663
▁09	-10.3664
▁po	-10.3666
▁borcu	-10.3666
▁Bayram	-10.3669
▁finansal	-10.367
TA	-10.3673
bin	-10.3678
yip	-10.3681
▁ÜNİVERSİTESİ	-10.3681
▁çözümler	-10.3683
eti	-10.3683
▁Londra	-10.3684
▁AL	-10.3686
▁şirketleri	-10.3688
İstanbul	-10.3688
ral	-10.3689
▁kişilere	-10.3689
ük	-10.3693
▁şeye	-10.3694
▁arayan	-10.3694
▁yaptığını	-10.3694
▁Maliye	-10.3697
▁yılına	-10.3697
▁oluştur	-10.3697
▁aş	-10.37
▁gözden	-10.3702
▁eşlik	-10.3702
rken	-10.3705
▁9.	-10.3707
▁İlişkin	-10.3713
ent	-10.3714
▁kanalı	-10.3716
▁çalıştı	-10.3717
▁hakem	-10.3721
OR	-10.3721
▁Cem	-10.3723
▁yazarı	-10.3724
▁Cam	-10.3725
▁Sonuç	-10.373
▁taşıyor	-10.3732
/1	-10.3732
▁sözler	-10.3736
▁Kartal	-10.3739
mesine	-10.3739
-2	-10.3741
▁Za	-10.3745
▁fuar	-10.3746
▁çalıştığı	-10.3747
▁geçirmek	-10.375
▁sizden	-10.3751
ct	-10.3751
▁rakip	-10.3755
▁denilen	-10.376
▁Ey	-10.376
▁benimle	-10.3765
▁Personel	-10.3766
▁Çiçek	-10.3768
▁bizzat	-10.3768
▁vatandaşların	-10.3769
▁Kanal	-10.3773
▁görüyor	-10.3774
▁yapacağı	-10.3774
▁kategorisinde	-10.3779
▁evli	-10.3779
▁istek	-10.378
▁kalacak	-10.378
gül	-10.3784
▁Evden	-10.379
▁oranları	-10.3791
▁kulüp	-10.3791
alı	-10.3792
▁tanıt	-10.3798
▁mevsim	-10.3802
▁Ermeni	-10.3804
▁anlamlı	-10.3805
▁Bolu	-10.3807
▁motoru	-10.3816
▁koruyucu	-10.3818
▁çeviri	-10.3822
▁makyaj	-10.3822
cam	-10.3823
▁devreye	-10.3824
don	-10.3824
ib	-10.3828
▁işyeri	-10.3828
▁Şen	-10.3828
▁bayrak	-10.3829
çü	-10.3832
▁sorunun	-10.3833
lin	-10.3835
▁sizlerin	-10.3836
▁testi	-10.3837
▁alanlarında	-10.384
mü	-10.3842
▁Sıra	-10.3842
▁AR	-10.3856
▁iklim	-10.3857
▁karşılıklı	-10.3858
ana	-10.3858
▁odaklı	-10.3859
▁esnaf	-10.3863
dikten	-10.3864
▁tarihine	-10.3864
▁isimleri	-10.3866
▁oynanan	-10.3867
▁düzgün	-10.3868
▁eseri	-10.3868
▁sil	-10.3869
▁gücünü	-10.3869
▁Bazen	-10.3874
▁merhaba	-10.3879
▁Con	-10.3882
▁döndü	-10.3883
▁İşçi	-10.3886
▁şans	-10.3888
▁ortada	-10.3891
▁kurulmuş	-10.3892
nik	-10.3893
▁memur	-10.3893
▁ulaştır	-10.3895
▁şair	-10.3895
▁zeka	-10.3896
“	-10.3897
▁Ünlü	-10.3898
ja	-10.3899
▁filmin	-10.3899
ram	-10.39
▁Gar	-10.3902
▁Kon	-10.3905
yecek	-10.3906
AS	-10.3911
▁Vergi	-10.3915
▁kazanmak	-10.392
▁seyirci	-10.3924
▁mektup	-10.3925
▁fiyatlar	-10.3927
▁kazı	-10.3928
▁anlamak	-10.3928
▁firmaların	-10.393
▁eşsiz	-10.3932
▁HD	-10.3938
landırma	-10.3939
▁karşın	-10.3943
▁takibi	-10.3947
▁Tatil	-10.3951
▁Arabistan	-10.3951
▁açıkça	-10.3953
lerim	-10.3954
▁forum	-10.3954
▁Uzmanı	-10.3958
▁paylaşmak	-10.3959
▁sahipliği	-10.3964
▁diyorum	-10.3964
landır	-10.3972
sidir	-10.3973
▁yaralandı	-10.3976
▁yönetmen	-10.3976
▁boyun	-10.3978
▁vi	-10.3978
lenerek	-10.3978
▁formu	-10.3978
laştırma	-10.3981
üncü	-10.3982
▁sahte	-10.3982
▁rakam	-10.3984
▁değişen	-10.3985
▁tutmak	-10.3985
▁hukuki	-10.3987
▁sunmak	-10.3988
▁asgari	-10.3989
▁personeli	-10.399
▁diyet	-10.399
▁Kerim	-10.3992
▁başlama	-10.3994
▁olmayacak	-10.3995
▁Gazetesi	-10.3995
▁ülkeye	-10.3996
▁kullanıcıların	-10.3996
▁enflasyon	-10.3996
▁Dün	-10.3997
▁taksit	-10.3999
▁hatun	-10.4
altı	-10.4001
▁Orhan	-10.4003
▁Kullanıcı	-10.4006
▁sağlamaktadır	-10.4013
▁ihlal	-10.4014
▁ziyaretçi	-10.4015
▁yakıt	-10.4017
▁dinamik	-10.4021
▁çocuklara	-10.4023
▁estetik	-10.4023
▁Sitesi	-10.4024
▁çıkıp	-10.4027
▁Şirket	-10.403
▁problemi	-10.4033
lerinize	-10.404
öl	-10.4042
▁protein	-10.4042
▁eri	-10.4043
▁anti	-10.4044
od	-10.4044
▁hekim	-10.4045
▁bildirim	-10.4047
▁yapmaktadır	-10.405
mur	-10.4051
▁cevabı	-10.4052
ES	-10.4053
▁kaba	-10.4053
▁sorgulama	-10.4055
dil	-10.4056
ğı	-10.4059
▁aydınlatma	-10.4061
▁isimler	-10.4061
▁protesto	-10.4062
42	-10.4063
▁İhale	-10.4063
çu	-10.4064
▁hükümleri	-10.4065
▁ederler	-10.4066
▁zamanla	-10.4068
▁olayları	-10.4069
▁detayları	-10.4072
▁getirir	-10.4075
Re	-10.4082
▁tekne	-10.4082
▁teşkil	-10.4083
▁tarafında	-10.4084
43	-10.4087
▁Doğal	-10.4088
▁artışı	-10.409
▁paralel	-10.409
▁ce	-10.4091
▁Koruma	-10.4093
ilme	-10.4098
▁bakma	-10.4098
▁sorunsuz	-10.41
▁benden	-10.4103
▁set	-10.4105
▁arkadaşım	-10.4106
▁kendisinin	-10.4108
–	-10.4108
▁başarılar	-10.4109
▁duyu	-10.4114
▁yolunu	-10.4117
▁insana	-10.4119
▁birim	-10.4121
▁fırın	-10.4124
▁içerir	-10.4124
▁biliyoruz	-10.4126
▁Hayır	-10.4126
▁Komutanlığı	-10.4126
ire	-10.4128
Dr	-10.4129
▁Yunan	-10.4129
▁Kuvvetleri	-10.4129
▁Dergisi	-10.413
likle	-10.4131
▁biliyorum	-10.4132
yar	-10.4132
▁geçirdiği	-10.4135
Te	-10.4136
▁görünüm	-10.4136
of	-10.4137
▁Plan	-10.4139
▁Üst	-10.4141
▁belgeleri	-10.4144
ebileceği	-10.4145
▁tv	-10.4146
▁bizler	-10.4147
▁Öğretmen	-10.4148
▁ikisi	-10.4149
▁Gerek	-10.415
▁kampanyası	-10.4151
▁konum	-10.4153
▁Efendi	-10.4153
▁çekmek	-10.4154
▁vatandaşlarımız	-10.4158
▁göze	-10.4158
▁hakkındaki	-10.4158
▁kısmını	-10.4161
▁karıştır	-10.4162
▁veriler	-10.4165
▁Toplum	-10.4167
▁Hollanda	-10.4167
▁Ağ	-10.4168
üstü	-10.417
▁42	-10.417
▁düzenlendi	-10.4172
▁Hafta	-10.4176
▁mimari	-10.4178
lanmıştır	-10.418
▁Kadıköy	-10.4184
▁pas	-10.4184
▁öneri	-10.4186
▁sistemini	-10.4188
▁siyasal	-10.419
▁ilişkisi	-10.4191
▁sistemine	-10.4194
▁Mali	-10.4194
▁bedava	-10.4197
▁Sak	-10.4197
▁bilgilerin	-10.4199
▁gönüllü	-10.4199
abı	-10.4202
:30	-10.4203
▁ila	-10.4203
▁2004	-10.4204
▁piyasaya	-10.4207
yalım	-10.421
▁Yorum	-10.4212
yıp	-10.4212
85	-10.4216
▁seviye	-10.4219
▁odaları	-10.4223
▁merdiven	-10.4227
▁Hi	-10.4228
RE	-10.4228
▁olmakla	-10.4232
▁boyutu	-10.4234
▁gününde	-10.4237
▁ülkemizin	-10.4239
▁milletvekilleri	-10.4244
laştır	-10.4245
▁kimliği	-10.4245
ebilen	-10.4246
▁döner	-10.4248
▁anket	-10.4249
▁çevresinde	-10.4253
▁yerlere	-10.4256
ang	-10.4257
▁mekân	-10.426
▁Toplantı	-10.426
▁1000	-10.4262
▁okuyucu	-10.4266
▁Sınavı	-10.4269
▁Yayınları	-10.4271
03	-10.4271
▁uydu	-10.4272
▁kum	-10.4275
▁krizi	-10.4279
▁uygulamaya	-10.4281
▁referans	-10.4284
53	-10.4284
inize	-10.4286
▁Es	-10.4287
▁yarattığı	-10.429
ers	-10.4291
▁Çocuklar	-10.4294
▁BM	-10.4294
▁bilme	-10.4297
▁52	-10.4297
▁bölgesi	-10.43
▁Ortadoğu	-10.43
▁ismini	-10.4301
▁çiftçi	-10.4301
▁sahipleri	-10.4302
kon	-10.4303
▁doğdu	-10.4303
▁İnsanlar	-10.4308
▁atama	-10.4308
▁Uzman	-10.4308
▁kanseri	-10.431
res	-10.4311
▁hizmete	-10.4311
▁etkiler	-10.4312
ds	-10.4314
▁randevu	-10.4314
▁uygulanması	-10.4324
▁Hakları	-10.4326
.(	-10.4326
▁Canlı	-10.4329
05	-10.4329
GE	-10.4332
▁itibarıyla	-10.4335
▁Lise	-10.434
▁tüketici	-10.4342
▁Oyunları	-10.4344
▁almayı	-10.4346
[	-10.4347
ıt	-10.4349
ez	-10.4349
larken	-10.435
▁Samsung	-10.4351
▁2002	-10.4352
▁@	-10.4352
▁içerisine	-10.4353
▁çektiği	-10.4354
▁uygulanır	-10.4356
▁projeler	-10.4356
▁mesajı	-10.4358
▁çabuk	-10.436
▁geçtiği	-10.4364
▁öğren	-10.4364
▁Ürünleri	-10.4365
AB	-10.4366
▁Hindistan	-10.437
▁oluşturduğu	-10.4374
▁birşey	-10.4376
▁Üretim	-10.4377
▁emir	-10.4378
▁hocam	-10.438
▁gecesi	-10.4385
▁verilmektedir	-10.4391
û	-10.4391
48	-10.4394
▁varlık	-10.4398
▁şansı	-10.4399
▁kaşığı	-10.44
▁strateji	-10.4407
▁temsilcisi	-10.4412
▁bulunduğunu	-10.4414
▁Güven	-10.4416
▁Koca	-10.4417
▁geçmek	-10.4418
▁öğrencisi	-10.442
▁form	-10.4422
▁yaralı	-10.4423
yol	-10.4424
▁Kol	-10.4426
▁çıkarmak	-10.4427
▁tatmin	-10.4427
▁sınavı	-10.4428
▁geliştirmek	-10.4429
▁dekorasyon	-10.4431
▁değilim	-10.4431
▁gündüz	-10.4432
▁istediğini	-10.4436
▁uğra	-10.4437
▁artması	-10.4438
ücü	-10.4439
▁hepimiz	-10.4439
▁kg	-10.444
▁Hastane	-10.4441
▁mide	-10.4442
▁Acil	-10.4445
▁planlama	-10.4447
▁taksi	-10.4448
port	-10.4448
▁06	-10.4452
▁geliş	-10.4454
▁Çek	-10.4454
▁içme	-10.4455
▁araçlar	-10.446
lendir	-10.4463
art	-10.4463
likler	-10.4463
▁Sun	-10.4464
▁geriye	-10.4465
lemek	-10.4466
49	-10.4469
▁biçimi	-10.4469
▁ihtimali	-10.4471
▁Doktor	-10.4474
▁Hacı	-10.4475
▁koşulları	-10.4477
▁ülkelerde	-10.4477
▁Salonu	-10.4478
▁Millet	-10.4484
türk	-10.4485
▁Yok	-10.4486
▁kuralları	-10.4486
▁ortamı	-10.4488
abilmesi	-10.4489
muştur	-10.449
.30	-10.4492
▁edebiyat	-10.4496
▁st	-10.4501
▁konuya	-10.4501
▁sektörünün	-10.4502
▁Fer	-10.4503
▁düşüş	-10.4504
▁don	-10.4507
▁orijinal	-10.4508
▁Art	-10.4509
▁Fuarı	-10.4509
▁çıkarak	-10.4512
▁ci	-10.4512
▁duruyor	-10.4518
lığına	-10.4518
▁ku	-10.4519
▁sır	-10.4522
▁kadını	-10.4523
▁Sokak	-10.4523
▁İlçesi	-10.4524
▁Bin	-10.4526
zen	-10.453
▁Hazır	-10.4537
▁makinası	-10.454
44	-10.4544
▁açıklandı	-10.4545
▁edenler	-10.4547
▁Bas	-10.4549
▁biber	-10.4552
▁yıllarında	-10.4553
ite	-10.4558
ig	-10.4563
miyorum	-10.4563
▁yazdı	-10.4566
▁girişimi	-10.4568
▁Trabzonspor	-10.4569
▁hazırlanmış	-10.4571
▁girmek	-10.4576
▁okumak	-10.458
▁Ülkemizde	-10.458
▁Kal	-10.458
▁Hiçbir	-10.4581
▁parçaları	-10.4582
▁amaçla	-10.4582
▁Beni	-10.4582
▁Dağ	-10.4583
▁bekleme	-10.4584
▁aldık	-10.4588
▁belgeler	-10.4588
▁Geri	-10.4588
▁şimdiden	-10.4592
▁bunlardan	-10.4592
▁şarj	-10.4594
sey	-10.4594
▁Sayılı	-10.4598
lamaya	-10.4599
▁yeterince	-10.4602
▁yapılarak	-10.4603
▁yazısı	-10.4603
▁yetkilileri	-10.4603
▁dediği	-10.4604
▁ortamında	-10.4604
▁konulu	-10.4604
▁muhafaza	-10.4605
▁parlak	-10.4605
lenmiştir	-10.4606
▁haftalık	-10.4606
DER	-10.4607
▁dersleri	-10.4611
▁Oto	-10.4613
▁Yolu	-10.4619
likleri	-10.462
▁Valisi	-10.462
şehir	-10.462
▁dayanıklı	-10.4621
▁etiket	-10.4622
▁şirketler	-10.4622
▁delil	-10.4627
▁tebrik	-10.4628
▁etrafında	-10.4629
ا	-10.463
▁Japonya	-10.463
▁kapsamda	-10.4631
▁bekliyoruz	-10.4632
▁edecektir	-10.4633
▁gelişimi	-10.4633
▁kapasite	-10.4633
▁meselesi	-10.4634
▁uzmanı	-10.4634
üz	-10.4636
pınar	-10.4637
▁39	-10.4641
▁karakteri	-10.4647
▁Hal	-10.4649
▁gerekçe	-10.4651
▁hareketi	-10.4652
▁karşılaş	-10.4653
▁hepsini	-10.4655
düğü	-10.4656
▁Giresun	-10.4656
▁abi	-10.4657
▁Oyunu	-10.4664
▁tamir	-10.4674
▁03	-10.4674
ac	-10.468
fl	-10.4682
▁kazandır	-10.4683
▁elinden	-10.4685
▁Boz	-10.4691
▁ca	-10.4694
▁çalışıyoruz	-10.4695
▁kolaylıkla	-10.4698
▁gerçekleştirdi	-10.4698
▁Instagram	-10.4699
▁Microsoft	-10.4699
▁Bülent	-10.4704
▁çöp	-10.4708
▁tutuklu	-10.4713
▁öykü	-10.4716
▁duygusal	-10.4717
▁olabileceği	-10.4719
2014	-10.472
mızdan	-10.4721
öz	-10.4721
▁devleti	-10.4721
▁Gelir	-10.4722
▁görmüş	-10.4722
▁anayasa	-10.4728
46	-10.4728
US	-10.4732
▁eline	-10.4736
▁okuyan	-10.4738
▁Elektronik	-10.4738
▁vurgulayan	-10.4739
hil	-10.4741
▁potansiyel	-10.4745
▁Azerbaycan	-10.4748
▁Meydanı	-10.4748
▁hastalıkları	-10.4748
▁karanlık	-10.4752
▁raf	-10.4754
04	-10.4754
▁Örgütü	-10.4757
▁sikiş	-10.4758
▁ke	-10.4761
»	-10.4762
ğe	-10.4763
▁karşılığı	-10.477
▁paylaştı	-10.4772
▁seçme	-10.4772
▁inşallah	-10.4772
CI	-10.4773
▁Terör	-10.4775
▁oraya	-10.4779
▁geçerek	-10.4785
▁vatandaş	-10.4787
paşa	-10.4791
▁disk	-10.4792
▁öğrenim	-10.4793
▁Bilimleri	-10.4793
▁damla	-10.4794
▁kullanır	-10.4795
▁anlayış	-10.4796
▁Biraz	-10.4796
▁serisi	-10.4799
▁Lütfen	-10.48
▁kesme	-10.4806
▁11.	-10.4807
▁Tel	-10.481
▁kaya	-10.481
▁ihraç	-10.4814
▁savaşı	-10.4814
▁okula	-10.4821
MAN	-10.4823
▁olurdu	-10.4825
▁egzersiz	-10.4825
▁Camii	-10.4827
▁Edirne	-10.4829
▁misiniz	-10.4829
▁olayın	-10.483
▁(3)	-10.4835
▁tüketimi	-10.4835
▁arkadaşları	-10.4837
▁irade	-10.4844
▁husus	-10.4845
▁Radyo	-10.4845
▁man	-10.4847
▁Ti	-10.4847
sızlık	-10.4848
eğe	-10.4849
▁Kitabı	-10.4851
kim	-10.4851
mail	-10.4853
▁geliştirilmesi	-10.4854
▁Reklam	-10.4857
▁filtre	-10.4859
▁08	-10.4862
▁belirleme	-10.4862
▁Devamını	-10.4864
▁ettiğimiz	-10.4865
indeki	-10.4865
diklerini	-10.4874
▁Şubesi	-10.4874
▁fazlası	-10.4876
▁ağrısı	-10.4876
▁sektörde	-10.4877
▁DE	-10.4877
▁festival	-10.4877
▁nem	-10.4878
▁kurulması	-10.4878
▁tavan	-10.488
▁Hareket	-10.4884
▁41	-10.4885
▁vadeli	-10.4886
▁yönet	-10.4891
▁ihmal	-10.4891
▁platformu	-10.4892
▁ah	-10.4892
▁akım	-10.4894
▁süs	-10.4896
EY	-10.4898
▁sağladığı	-10.4899
che	-10.4901
LU	-10.4902
▁posta	-10.4903
▁olsaydı	-10.4903
▁Men	-10.4904
▁daima	-10.4906
▁BÖLÜM	-10.4906
▁kıyı	-10.4911
▁02	-10.4913
▁Sinan	-10.4914
▁karşısına	-10.4916
▁bitir	-10.4918
manız	-10.4919
▁hangisi	-10.492
▁Kişisel	-10.4921
▁İçişleri	-10.4921
▁etmekte	-10.4922
▁Şeker	-10.4923
▁kopya	-10.4923
zu	-10.4924
▁girecek	-10.4925
▁Ger	-10.4925
idir	-10.4926
emeyen	-10.4928
▁kitapları	-10.4928
▁Kongresi	-10.4929
▁macera	-10.4929
▁mezar	-10.4929
▁keyfi	-10.4932
▁tuvalet	-10.4933
▁ağı	-10.4934
▁terörist	-10.4939
SS	-10.494
medi	-10.4942
▁durumlar	-10.4942
▁öğret	-10.4944
▁akla	-10.4945
ting	-10.495
▁Q	-10.495
▁bakalım	-10.495
▁izleyen	-10.4957
▁rica	-10.4958
▁hamile	-10.4959
ub	-10.4961
▁gerekirse	-10.4978
▁Fiyat	-10.498
▁alınmış	-10.4981
▁Kuş	-10.4985
▁mevzuat	-10.4995
▁Onu	-10.5001
▁sertifika	-10.5001
ıdır	-10.5003
▁güney	-10.5005
▁git	-10.5007
▁Değerlendirme	-10.5009
▁karşılığında	-10.5009
Yeni	-10.5011
▁derdi	-10.5014
▁tezgah	-10.5015
▁yetersiz	-10.5019
malısınız	-10.502
▁gençler	-10.502
kça	-10.5021
▁maddesinde	-10.5022
AD	-10.5025
▁turist	-10.5026
▁Gider	-10.5028
▁odaklan	-10.5028
▁olduğunun	-10.503
▁Is	-10.5032
▁isyan	-10.5032
▁Yardım	-10.5032
▁birine	-10.5033
▁kaçır	-10.5033
▁Kaza	-10.5034
▁rezervasyon	-10.504
▁inanılmaz	-10.5041
▁üreten	-10.5041
▁olmazsa	-10.5046
▁söylen	-10.5046
▁Yavuz	-10.5048
mal	-10.5048
▁kullanmaya	-10.505
▁projenin	-10.5051
rin	-10.5054
▁tez	-10.5055
▁2003	-10.5056
▁kalması	-10.5057
▁ili	-10.5066
▁00	-10.5073
▁sever	-10.5073
▁44	-10.5076
▁Sar	-10.5076
▁lezzetli	-10.5077
▁boz	-10.5078
▁kaydeden	-10.5079
▁muhalefet	-10.5079
▁baştan	-10.5082
ET	-10.5085
▁kaynaklanan	-10.5085
▁unutmayın	-10.5087
ılma	-10.5087
▁sesli	-10.5088
▁sorumluluğu	-10.5089
▁yazan	-10.5089
▁Parkı	-10.509
▁kök	-10.5091
▁duyduğu	-10.5091
▁sürdü	-10.5093
▁le	-10.5097
▁120	-10.5098
▁haberler	-10.5098
▁İŞ	-10.5098
▁gösteri	-10.5099
▁içer	-10.51
▁Hükümet	-10.5103
▁hissi	-10.5103
▁katlı	-10.5107
▁neticesinde	-10.5107
▁kural	-10.5107
yerek	-10.5107
lt	-10.5108
▁gereklidir	-10.5112
▁duy	-10.5117
▁tarihte	-10.5118
▁adaylar	-10.5119
▁yararlı	-10.512
▁diliyorum	-10.5126
▁istenilen	-10.5127
rem	-10.513
bra	-10.5133
▁arkadaşlık	-10.5134
▁soy	-10.5134
dıktan	-10.5135
▁kuruluşları	-10.514
abileceğiniz	-10.5143
▁demiş	-10.5144
▁hayran	-10.5148
▁ı	-10.515
▁gizle	-10.5151
▁organ	-10.5152
▁fotoğrafları	-10.5155
47	-10.5159
▁aydın	-10.5159
▁sporcu	-10.5162
▁Hızlı	-10.5163
▁Ulu	-10.5163
▁ger	-10.5167
▁Ekonomik	-10.517
▁sade	-10.5175
Al	-10.5177
▁dediler	-10.5181
▁samimi	-10.5185
▁çağır	-10.5186
▁hadis	-10.5191
ayım	-10.5192
▁görebilirsiniz	-10.5194
▁tasar	-10.5194
▁ihtiyacınız	-10.5195
▁53	-10.5195
sün	-10.5196
▁olağanüstü	-10.52
▁tarihlerinde	-10.52
▁tutun	-10.5208
▁salon	-10.5208
▁oradan	-10.521
▁bölgenin	-10.5211
▁bugünkü	-10.5212
▁eleman	-10.5215
▁Halil	-10.5215
▁bölgelerde	-10.5215
▁sigortalı	-10.5218
▁Ala	-10.5218
▁Kılıç	-10.5219
▁Hatay	-10.522
▁içinden	-10.5221
CE	-10.5223
nuzu	-10.5223
▁Bakanlık	-10.5231
▁düşünüyor	-10.5236
▁duyurdu	-10.5236
▁paketi	-10.5237
▁tıklayın	-10.5237
▁Ateş	-10.5239
▁Sözleşme	-10.524
▁sessiz	-10.5242
▁takımın	-10.5242
▁çal	-10.5243
▁ulaşma	-10.5247
▁kitaplar	-10.5248
▁sisteme	-10.5249
▁vurguladı	-10.5252
▁Gerçekten	-10.5253
▁toplama	-10.5255
▁dokun	-10.5256
▁dü	-10.5258
▁Ajansı	-10.526
▁açıklamalarda	-10.5261
lıkları	-10.5262
ex	-10.5262
▁Aç	-10.5263
▁kaynaklı	-10.5265
▁Filistin	-10.5266
▁Hayvan	-10.5268
▁Belgesi	-10.527
likten	-10.527
▁ayr	-10.5271
▁tarihten	-10.5273
▁Orada	-10.5274
hr	-10.5274
▁Yerel	-10.5274
▁Tekirdağ	-10.5275
▁medyada	-10.5275
▁Dar	-10.5278
▁olurken	-10.5279
▁Kızıl	-10.528
▁tanış	-10.5281
▁töreni	-10.5283
▁Yönetmelik	-10.5287
▁İdaresi	-10.5288
▁Dizi	-10.5289
▁İm	-10.5289
Kur	-10.5292
▁kaldırılması	-10.5292
▁özgün	-10.5292
▁Kazan	-10.5294
▁verebilir	-10.5294
eme	-10.5296
maları	-10.5298
▁Öztürk	-10.5299
▁aittir	-10.5304
▁olmasının	-10.5304
▁planda	-10.5306
▁Ücretsiz	-10.5308
inizin	-10.5308
▁..	-10.5316
▁tema	-10.5318
▁yaşamı	-10.532
▁zamanlı	-10.5328
▁kaybetme	-10.5328
▁yoluna	-10.5329
▁halkının	-10.5331
▁biçim	-10.5335
▁depolama	-10.5337
▁düşünen	-10.5337
▁kuruluşu	-10.534
gın	-10.5341
▁Dili	-10.5341
▁Gaz	-10.5343
▁Dağı	-10.5343
▁Motor	-10.5345
▁inancı	-10.5346
âh	-10.5348
ili	-10.5351
▁Şekil	-10.5353
▁Aslan	-10.5354
▁kendime	-10.536
▁satır	-10.536
▁ithal	-10.5361
▁dönme	-10.5364
▁yaptığınız	-10.5365
▁du	-10.5365
▁gittik	-10.5366
▁maden	-10.5367
▁sizinle	-10.5369
▁abone	-10.537
ilmiştir	-10.5372
▁imar	-10.5372
yat	-10.5373
▁filmleri	-10.5378
▁kararlar	-10.5378
▁bizleri	-10.5381
bal	-10.5382
teri	-10.5382
▁oluşturulan	-10.5384
▁Nedir	-10.5385
▁saatte	-10.5386
ebilme	-10.5387
▁dünyasında	-10.5389
▁Ağrı	-10.539
▁sınıfı	-10.5391
ebilmektedir	-10.5397
Siz	-10.5398
▁iftar	-10.5399
▁silahlı	-10.5405
▁işini	-10.5407
▁programlar	-10.5408
▁bireyler	-10.541
▁cadde	-10.5411
▁Modern	-10.5412
▁gittim	-10.5414
sý	-10.5415
▁beton	-10.5415
▁mikro	-10.5417
▁farklılık	-10.5417
▁güzellik	-10.5418
▁yöneticileri	-10.5419
▁casino	-10.5419
▁buluşma	-10.5422
▁600	-10.5425
▁ra	-10.5427
log	-10.5428
▁etmişti	-10.5428
▁onur	-10.5433
leyip	-10.5433
▁vesile	-10.5434
▁Göre	-10.5436
▁Oyuncu	-10.5437
▁cinayet	-10.5441
▁kemik	-10.5448
▁tahsil	-10.5451
▁Suriyeli	-10.5456
▁uzan	-10.5461
▁Hepsi	-10.5462
▁satılık	-10.5462
▁konularında	-10.5466
▁Gezi	-10.5467
▁Denetim	-10.5468
▁getirilen	-10.5468
ildiği	-10.547
▁yardımıyla	-10.547
▁Forum	-10.5472
▁şirketlerin	-10.5472
lıklar	-10.5477
▁hakaret	-10.5478
▁Yazılım	-10.5479
▁Ziraat	-10.5482
▁başardı	-10.5486
▁duran	-10.5493
▁tıp	-10.5495
yacağı	-10.5496
lerimi	-10.5496
üne	-10.5497
▁göreve	-10.5498
▁annem	-10.5505
▁omuz	-10.5506
▁yapılacaktır	-10.5509
▁madalya	-10.5509
▁Ah	-10.551
▁Toplantısı	-10.5512
▁gönderilen	-10.5513
▁kitabın	-10.5513
▁mini	-10.5514
▁dostu	-10.552
▁mağdur	-10.5523
▁Süt	-10.5524
leştir	-10.5535
LİK	-10.5537
▁tutarı	-10.5538
:)	-10.5538
▁ir	-10.5538
▁belirlenmesi	-10.554
▁ölçüm	-10.5548
▁oyunun	-10.5548
▁birey	-10.5551
▁Matematik	-10.5551
tme	-10.5551
▁taban	-10.5552
▁Yüz	-10.5554
meyecek	-10.5557
▁Dönemi	-10.5557
▁Mor	-10.5557
▁Kazakistan	-10.5558
▁namazı	-10.5561
▁07	-10.5562
acağım	-10.5563
ow	-10.5564
▁yas	-10.5565
▁kursu	-10.5566
▁ocak	-10.5566
yın	-10.5566
Ta	-10.5566
▁kızlar	-10.5567
abilme	-10.5567
▁kut	-10.5568
amıyor	-10.5571
▁cihazlar	-10.5576
▁bilgilerini	-10.5576
▁bastır	-10.5577
100	-10.5578
▁verdik	-10.558
▁belirgin	-10.5584
66	-10.5584
▁bez	-10.5593
▁Kurumsal	-10.5594
▁gecikme	-10.5595
yal	-10.5596
▁veriyoruz	-10.5603
▁efsane	-10.5605
59	-10.5609
▁kaygı	-10.5609
▁antrenman	-10.5612
▁alkol	-10.5613
▁etkinlikler	-10.5613
▁Rize	-10.5614
▁Şampiyonası	-10.5614
2015	-10.5614
▁dön	-10.5617
pp	-10.5619
▁toplamda	-10.5622
▁araştırmalar	-10.5622
▁‘’	-10.5624
▁bırakın	-10.5625
rü	-10.5626
▁değişken	-10.5627
▁Kongre	-10.5629
▁örneğin	-10.563
▁Aziz	-10.5632
lon	-10.5633
▁Aşağıdaki	-10.5633
▁Şarkı	-10.5638
▁memnuniyeti	-10.5639
soy	-10.5642
laşan	-10.5645
zel	-10.5646
rik	-10.5649
▁başından	-10.565
▁başladık	-10.565
68	-10.5651
▁söyle	-10.5652
iyordu	-10.5653
▁eksikliği	-10.5653
▁dedektif	-10.5653
chi	-10.5655
▁hayatında	-10.5657
▁oluşturur	-10.5658
▁girip	-10.5658
▁For	-10.566
lma	-10.5661
▁dilim	-10.5663
▁çerçeve	-10.5666
▁olacağız	-10.5666
▁istedikleri	-10.5669
▁Bunlardan	-10.5669
▁Aksi	-10.5669
▁rolü	-10.5671
▁baz	-10.5674
41	-10.5677
ticaret	-10.5677
▁öncü	-10.5679
▁müracaat	-10.5681
86	-10.5683
▁İz	-10.5684
▁dahilinde	-10.5686
▁kızın	-10.5687
▁sunuyoruz	-10.5687
▁verilmiş	-10.5691
▁stratejik	-10.5692
▁ayağı	-10.5692
▁yaratıcı	-10.5693
▁girişim	-10.5694
▁kavramı	-10.5695
▁musunuz	-10.5695
▁kurgu	-10.5695
▁Uygun	-10.5695
▁Doğa	-10.5695
▁patlama	-10.5697
▁öte	-10.5698
▁ayrıldı	-10.5699
▁burun	-10.5701
▁mesela	-10.5701
▁Kadir	-10.5701
▁profil	-10.5702
▁Toprak	-10.5702
▁pozitif	-10.5703
▁Adnan	-10.5703
▁aldığını	-10.5703
▁çikolata	-10.5705
▁modeller	-10.5708
ih	-10.5709
▁programında	-10.571
▁yönel	-10.5711
▁Has	-10.5711
▁dert	-10.5715
▁Wi	-10.5717
▁Çoğu	-10.5718
▁bulan	-10.5723
▁katıl	-10.573
Di	-10.5731
▁47	-10.5732
bak	-10.5732
Ve	-10.5734
▁vergisi	-10.5737
▁maksimum	-10.574
▁Hotel	-10.5744
anlar	-10.5745
▁yen	-10.5745
Q	-10.5747
▁Köy	-10.5747
▁kullanıyor	-10.5748
▁tutum	-10.5748
▁önemlisi	-10.5749
▁açılması	-10.5751
▁zorlu	-10.5753
▁ac	-10.5754
▁Hastalıkları	-10.5757
▁temizleme	-10.5758
▁Resim	-10.5759
▁kek	-10.5759
▁topla	-10.576
▁girişi	-10.5761
▁kullanabilir	-10.5762
▁Beş	-10.5762
▁Çe	-10.5762
▁Araba	-10.5765
▁opsiyon	-10.5765
▁market	-10.5769
▁Ye	-10.577
▁Un	-10.5772
▁zorla	-10.5773
abil	-10.5774
▁şartı	-10.5775
▁Yaş	-10.5777
▁okulu	-10.5777
ıldığını	-10.5777
▁lig	-10.578
▁boyut	-10.5783
▁gösterilen	-10.5783
▁Elbette	-10.5784
▁Kurban	-10.5788
▁zamandır	-10.5789
▁olmanız	-10.5792
▁vali	-10.5792
▁pat	-10.5796
▁56	-10.5799
▁hesaplama	-10.5799
▁getirildi	-10.5802
▁arkadaşlarımız	-10.5803
▁per	-10.5803
▁Kudüs	-10.5804
▁yaptığım	-10.5805
acağınız	-10.5806
▁https	-10.5807
▁ekledi	-10.5808
▁blok	-10.5808
▁öfke	-10.5813
▁bildiri	-10.5813
▁Mardin	-10.5814
▁evvel	-10.5814
▁kilise	-10.5816
▁Birlik	-10.5819
UT	-10.5819
▁dinleme	-10.582
▁Kimi	-10.5822
▁gözleri	-10.5823
▁Arka	-10.5825
▁54	-10.5827
▁düzeni	-10.5828
▁gerilim	-10.583
▁başlaması	-10.5833
▁oluşmaktadır	-10.5834
▁his	-10.5835
▁niye	-10.5838
▁ilim	-10.584
▁hazırladığı	-10.5841
▁kurduğu	-10.5843
▁müziği	-10.5844
▁dek	-10.5844
▁bıraktı	-10.5846
▁tahsis	-10.5847
▁tu	-10.5848
▁gibidir	-10.585
▁kutlama	-10.5852
▁şeyden	-10.5853
▁Kaynak	-10.5856
▁Karaman	-10.5858
▁aldıkları	-10.5859
▁ihtiyaçlarını	-10.586
mle	-10.5861
▁Arslan	-10.5862
rar	-10.5865
▁zorundadır	-10.5865
▁sordu	-10.5865
▁Kuru	-10.5868
▁Raporu	-10.5868
▁Ukrayna	-10.587
▁politikası	-10.5873
▁beraberinde	-10.5876
77	-10.5879
▁Çift	-10.5881
▁pi	-10.5881
▁vermeden	-10.5884
ft	-10.5884
▁sayılır	-10.5886
▁Test	-10.5887
▁çamaşır	-10.589
ty	-10.5891
luğunu	-10.5893
▁yaşar	-10.5894
mizden	-10.5895
▁kutsal	-10.5896
▁laf	-10.5899
▁fıkra	-10.59
▁Alevi	-10.5905
▁Bilimler	-10.5908
▁aşık	-10.5908
▁beyler	-10.5908
▁Muğla	-10.5912
fir	-10.5913
▁tüket	-10.5914
▁yorumları	-10.5916
▁Yasa	-10.5919
▁gittiği	-10.5919
▁ikamet	-10.5919
▁Başkanımız	-10.592
▁geçmişi	-10.5921
▁bahar	-10.5924
ımızı	-10.5927
▁örnekleri	-10.5932
leyin	-10.5936
▁Alınır	-10.5936
çok	-10.5937
▁başa	-10.5939
78	-10.5939
▁taahhüt	-10.594
▁Sü	-10.5946
▁aldığınız	-10.5947
bit	-10.5947
▁ham	-10.5947
▁sınırsız	-10.5947
▁dördüncü	-10.5949
▁tıklayınız	-10.5954
▁dolarlık	-10.5954
▁yeter	-10.5959
▁Geç	-10.5963
▁düşünür	-10.5965
▁çıkmak	-10.5968
67	-10.5969
▁Mavi	-10.5969
▁seçilen	-10.597
▁edilme	-10.597
▁edil	-10.5972
▁buluş	-10.5974
▁avantaj	-10.5976
▁sınırı	-10.5977
▁maddeleri	-10.5977
▁sırt	-10.5979
▁Mes	-10.5979
2)	-10.5981
▁balkon	-10.5982
▁Yaşar	-10.5984
mun	-10.5986
▁Güvenliği	-10.5987
▁va	-10.5989
▁bayrağı	-10.5989
▁Siyah	-10.5989
▁Toto	-10.599
iki	-10.5992
▁Japon	-10.5992
nder	-10.5992
▁kimseye	-10.5999
▁ömür	-10.6001
▁sıradan	-10.6004
▁ruhu	-10.6006
▁ülkeleri	-10.6009
öğrenebilirsiniz	-10.601
▁noktaları	-10.6014
76	-10.6014
▁yüzme	-10.6015
▁kurtarma	-10.6015
▁harf	-10.602
atör	-10.6021
▁detay	-10.6024
▁yar	-10.6024
▁deli	-10.6024
▁vitamin	-10.6025
▁Kap	-10.6025
▁KO	-10.6028
▁menü	-10.6028
▁görünen	-10.603
▁yazıyor	-10.603
▁araçların	-10.6031
▁Gi	-10.6033
▁Bahar	-10.6033
▁şehirde	-10.6033
▁krem	-10.6038
mizle	-10.6039
▁emri	-10.6041
lıyoruz	-10.6043
▁adresine	-10.6043
▁eli	-10.6043
▁dikkati	-10.6044
▁yarısı	-10.6046
mden	-10.6049
▁Yoksa	-10.6049
▁ötürü	-10.6049
▁manzara	-10.605
lenmektedir	-10.6051
▁kurs	-10.6051
▁Diyanet	-10.6053
sar	-10.6054
▁denen	-10.6056
▁puanı	-10.6057
▁kritik	-10.6057
▁eti	-10.6058
▁sözleşmesi	-10.6058
▁durma	-10.6063
▁kültürü	-10.6066
▁Gelin	-10.6067
▁verin	-10.6067
▁ispat	-10.6069
▁Adıyaman	-10.6071
▁Pan	-10.6072
▁çalışmaların	-10.6074
aba	-10.6074
▁borsa	-10.6075
eceğiniz	-10.6075
ýn	-10.6075
▁gümrük	-10.6076
▁değerlendiril	-10.6078
▁açmak	-10.6078
▁süresince	-10.6079
▁Kırmızı	-10.608
▁cemaat	-10.6082
88	-10.6082
▁öğle	-10.6083
▁Cami	-10.6085
▁âyet	-10.6085
▁yiyecek	-10.6086
şan	-10.6089
kor	-10.609
▁hastaneye	-10.6091
▁sofra	-10.6091
▁Herhangi	-10.6092
▁noktaya	-10.6092
▁olursunuz	-10.6093
▁ekle	-10.6094
▁yıldan	-10.6095
▁Ru	-10.6095
bb	-10.6095
▁46	-10.6097
▁tespiti	-10.6098
▁konuyla	-10.6103
ation	-10.6105
▁düşer	-10.6107
▁Kargo	-10.6108
▁ilerleyen	-10.6109
▁Trafik	-10.6109
▁gez	-10.611
▁Kapsam	-10.6114
amadı	-10.6115
▁ankara	-10.6115
▁yükseliş	-10.6116
▁yaratan	-10.6116
▁geçirdi	-10.6118
▁beceri	-10.6119
▁Kale	-10.612
▁oynayan	-10.6122
▁Önemli	-10.6123
▁oyuncusu	-10.6124
▁ihracatı	-10.6124
▁türkçe	-10.6128
▁pozisyon	-10.6128
▁aşamada	-10.6129
▁bakmak	-10.613
▁olmasından	-10.6132
▁heyet	-10.6133
kay	-10.6134
▁Evi	-10.6134
we	-10.6135
ali	-10.6135
▁turu	-10.6138
▁ödülü	-10.6139
▁imam	-10.6139
▁istediğim	-10.6139
▁Kullanım	-10.6141
▁layık	-10.6143
▁İtalyan	-10.6143
▁budur	-10.6143
▁aldığım	-10.6144
▁Akşam	-10.6144
▁gördük	-10.6146
larımızda	-10.6147
▁sütü	-10.6149
▁gerekçesiyle	-10.615
2017	-10.6152
▁Mimar	-10.6153
▁değin	-10.6154
▁yazmak	-10.6156
▁hikâye	-10.6159
luyor	-10.6159
▁Düğün	-10.616
▁kullanıldığı	-10.616
▁cenaze	-10.6162
▁bizden	-10.6166
▁IP	-10.6167
▁oyuncular	-10.6169
larımı	-10.6169
▁rehber	-10.617
▁robot	-10.6171
▁toplantıda	-10.6173
▁Güç	-10.6178
▁kuruluşlar	-10.6179
▁üyeliği	-10.6181
▁şok	-10.6181
▁bağlantısı	-10.6185
ırım	-10.6188
▁ilgisi	-10.6188
muzda	-10.6189
ılacaktır	-10.6192
▁dünyayı	-10.6197
▁Bakanlar	-10.6202
▁canım	-10.6202
64	-10.6203
▁bilmek	-10.6203
Fi	-10.6204
▁denize	-10.6206
▁Özgür	-10.6208
▁sevdiği	-10.6211
▁yağış	-10.6213
▁Sim	-10.6217
▁şiirleri	-10.6218
▁zincir	-10.6219
kçe	-10.622
▁niyet	-10.6222
▁adamları	-10.6225
▁entegre	-10.6225
▁Yönetmeliği	-10.6232
▁kavram	-10.6232
▁sandalye	-10.6235
▁Tra	-10.6238
▁ömrü	-10.6241
▁maddenin	-10.6242
▁kısaca	-10.6244
▁yazıları	-10.6244
71	-10.6245
▁or	-10.6247
▁sayfasında	-10.6248
57	-10.6251
▁Ödülü	-10.6252
▁sitemizde	-10.6255
▁Onur	-10.6255
iyeti	-10.6255
▁keyfini	-10.626
lerce	-10.626
▁doğalgaz	-10.6263
▁şahıs	-10.6264
▁önlemek	-10.6264
98	-10.6267
▁limon	-10.6267
▁söylediği	-10.6268
▁Star	-10.6269
▁onlarca	-10.6269
▁kime	-10.627
yüz	-10.6273
▁onarım	-10.6275
zı	-10.6276
arı	-10.6277
▁burcu	-10.6279
▁köyü	-10.6281
▁Emlak	-10.6282
▁tartış	-10.6282
▁Durum	-10.6282
▁Ju	-10.6284
LIK	-10.6286
▁euro	-10.6286
▁bilinci	-10.6287
▁nereye	-10.6287
▁gidil	-10.6289
▁Salih	-10.6292
▁Tu	-10.6292
▁ekleme	-10.6296
▁başlıkları	-10.6297
▁Haberler	-10.6299
▁dönemine	-10.63
▁ordusu	-10.6301
wa	-10.6301
ther	-10.6303
▁Saray	-10.6304
▁43	-10.6304
yak	-10.6306
ksiyon	-10.6307
▁bekliyorum	-10.6308
▁ihtiyaçları	-10.6308
▁yapıldığını	-10.6308
▁senaryo	-10.631
▁giriyor	-10.6312
▁silin	-10.6313
▁protokol	-10.6313
▁tanrı	-10.6314
▁aracılığı	-10.6315
▁alacağı	-10.6317
eş	-10.6318
▁elini	-10.6318
pan	-10.632
▁pil	-10.632
▁emanet	-10.632
▁yükselt	-10.6321
▁hükümeti	-10.6326
▁Ham	-10.6326
▁Halı	-10.6329
▁tüketim	-10.6334
▁somut	-10.6334
▁sitede	-10.6335
▁götür	-10.6336
larý	-10.6337
▁Rüyada	-10.6338
▁bulunmakta	-10.634
▁ilham	-10.634
▁ikna	-10.6341
▁sonradan	-10.6341
▁Gör	-10.6344
mas	-10.6344
▁boşluk	-10.6345
ıyorsunuz	-10.6349
▁oturan	-10.635
▁firmanın	-10.6352
▁geçirme	-10.6354
▁anlatmak	-10.6354
▁herşey	-10.6355
▁görevleri	-10.6356
miştim	-10.6356
meleri	-10.6357
!..	-10.6358
56	-10.6358
▁AY	-10.6362
▁sünnet	-10.6363
▁Turkcell	-10.6363
▁koydu	-10.6364
liğinin	-10.6366
lanmaktadır	-10.6366
▁okulun	-10.6367
▁geçiren	-10.6369
▁yık	-10.6371
İS	-10.6371
▁Duvar	-10.6372
▁hizmetlerini	-10.6375
kol	-10.6375
▁gözler	-10.6376
▁vitamini	-10.6377
▁yöre	-10.6382
▁04	-10.6383
▁geçmesi	-10.6383
▁karmaşık	-10.6383
▁günümüze	-10.6385
▁nefret	-10.6385
▁görülüyor	-10.6385
▁deneyimli	-10.6386
abiliriz	-10.6387
▁Parça	-10.6388
muyor	-10.6391
▁müdür	-10.6394
▁kala	-10.6394
▁tekniği	-10.6395
▁kanı	-10.6396
▁olmasın	-10.6397
▁tazminat	-10.6397
▁64	-10.6397
▁sür	-10.6398
▁3-	-10.6398
▁Ödeme	-10.64
▁buz	-10.6401
▁olmasıdır	-10.6402
▁arayıp	-10.6403
▁Hukuku	-10.6403
AA	-10.6405
daş	-10.6406
▁milyonlarca	-10.6406
Ama	-10.6411
cuk	-10.6412
▁tören	-10.6416
tro	-10.642
▁%100	-10.6423
▁türleri	-10.6425
▁çizim	-10.6425
▁etkileşim	-10.6426
▁üzül	-10.6428
▁sey	-10.6429
▁inanıyorum	-10.643
▁Tak	-10.6432
▁kuvvetli	-10.6437
▁sekiz	-10.6438
▁49	-10.644
dî	-10.6441
ika	-10.6441
▁ağırlığı	-10.6442
▁Par	-10.6443
▁bitti	-10.6443
istik	-10.6443
▁anlatım	-10.6443
İR	-10.6444
▁ambalaj	-10.6445
▁parçalar	-10.6447
▁giderken	-10.6449
▁ayrılan	-10.6452
▁suçlu	-10.6452
▁seçin	-10.6453
▁arsa	-10.6454
▁satıcı	-10.6457
▁çağdaş	-10.6461
dılar	-10.6461
▁aldığımız	-10.6468
▁kurulum	-10.6468
▁çe	-10.6472
▁Gönder	-10.6473
▁atılan	-10.6474
▁Kombi	-10.6474
▁ortağı	-10.6474
▁enerjisi	-10.6475
ışı	-10.6475
▁Turan	-10.6479
▁bedel	-10.648
▁mezunu	-10.6482
▁51	-10.6482
▁Değerli	-10.6482
▁sorunların	-10.6483
▁belgesel	-10.6483
▁sıcaklığı	-10.6484
▁Olan	-10.6485
▁tanışma	-10.6486
▁meşhur	-10.6487
▁hemde	-10.6487
▁ziyade	-10.6495
▁değiş	-10.6497
▁ilaçlar	-10.6497
▁tanık	-10.6498
▁katılımıyla	-10.6499
▁liman	-10.65
tti	-10.65
▁Bina	-10.6502
▁minik	-10.6504
▁Klima	-10.6504
▁yazılımı	-10.6505
▁Maç	-10.6506
▁gelişmeleri	-10.6507
▁Çay	-10.6508
▁kardeşim	-10.6508
▁insanlık	-10.6509
▁türk	-10.651
▁girmiş	-10.6515
▁etkileyen	-10.6515
▁açar	-10.6516
üs	-10.6522
est	-10.6522
▁Yu	-10.6522
▁Sel	-10.6524
▁Hazine	-10.6525
▁yapacağız	-10.6528
54	-10.6532
kleri	-10.6536
bul	-10.6538
▁albümü	-10.6539
▁önemini	-10.654
▁Sermaye	-10.6541
▁Boy	-10.6543
▁Şah	-10.6543
▁politik	-10.6545
▁telefondan	-10.6547
▁Geliştirme	-10.6547
▁Mahmut	-10.6547
▁işareti	-10.6549
▁bardak	-10.6552
lerinizin	-10.6554
▁EN	-10.6554
▁yapıyorum	-10.6559
▁ulaşan	-10.6561
▁özelliklerini	-10.6562
▁istemez	-10.6564
▁montaj	-10.6565
iyorsunuz	-10.6567
▁kaçın	-10.6568
000	-10.6569
▁hafıza	-10.6569
▁bununla	-10.6571
asyonu	-10.6572
layabilir	-10.6572
▁onlardan	-10.6572
▁görüldü	-10.6572
▁Sinema	-10.6573
▁göçmen	-10.6575
▁çoğunluğu	-10.6578
▁Dersin	-10.6582
▁yüklü	-10.6584
▁sik	-10.6585
▁sizde	-10.6589
▁Rehberi	-10.6589
▁yöntemler	-10.6589
▁yükseldi	-10.6591
leyecek	-10.6596
▁verip	-10.6597
▁sonsuz	-10.6597
▁heyeti	-10.6603
▁Cemal	-10.6603
▁kentin	-10.6605
sti	-10.6608
▁Je	-10.6608
▁etken	-10.6609
▁tedbir	-10.661
▁tıbbi	-10.6617
▁aktivite	-10.6617
ktedir	-10.6618
▁Sekreteri	-10.6618
ön	-10.6621
▁yapacağınız	-10.6622
▁Nitekim	-10.6623
▁Elazığ	-10.6623
▁ilaçlama	-10.6624
ullah	-10.6625
▁hikayesi	-10.6628
▁yemin	-10.6628
▁etmeleri	-10.6629
▁belirlendi	-10.663
▁İdare	-10.6631
▁olayların	-10.6633
▁ağırlıklı	-10.6634
ON	-10.6634
▁Sevgi	-10.6636
▁gümüş	-10.6638
▁Tedavi	-10.6638
▁ekstra	-10.664
▁görüntüler	-10.664
yn	-10.6641
▁tarafta	-10.6641
▁sektörün	-10.6642
▁Dikkat	-10.6642
▁ifadesi	-10.6643
▁Açıklama	-10.6647
▁şiddetli	-10.6649
▁ahlak	-10.6649
Ar	-10.6651
▁geliştirilen	-10.6654
▁sözlerine	-10.6655
▁hareketleri	-10.6656
▁devri	-10.666
oğu	-10.6662
.[	-10.6663
▁gerektiren	-10.6666
▁sakın	-10.6668
▁ayrılma	-10.6668
▁Direktörü	-10.6671
▁programına	-10.6671
▁oynama	-10.6673
▁sürdürülebilir	-10.6673
▁cinsiyet	-10.6675
▁ediyorlar	-10.6675
▁hissetme	-10.6676
mes	-10.6679
69	-10.668
▁getirerek	-10.6681
▁başvurusu	-10.6682
▁ikram	-10.6685
▁Selim	-10.6685
▁Ada	-10.6686
▁vazgeçilmez	-10.6688
▁diğeri	-10.6689
▁hamur	-10.6696
▁içe	-10.6698
▁çağ	-10.6701
82	-10.6702
▁ölümü	-10.6704
▁merkezli	-10.6704
▁Üsküdar	-10.6705
▁adayların	-10.6706
▁Evde	-10.6711
▁yaklaş	-10.6714
▁devrimci	-10.6714
▁Gel	-10.6717
▁fa	-10.6717
▁ayna	-10.6717
▁doğrusu	-10.6718
▁SE	-10.6718
▁kamyon	-10.6719
-12	-10.6721
▁zeytin	-10.6721
▁organik	-10.6724
▁mağlup	-10.6726
▁yazın	-10.6726
▁yetkisi	-10.6727
▁Avusturya	-10.6727
▁gayrimenkul	-10.6728
▁yüzünü	-10.6729
▁Çalışan	-10.673
▁örgü	-10.6736
▁kalitesini	-10.6736
▁şartlar	-10.6736
▁Şa	-10.6737
zar	-10.6737
▁hayli	-10.6739
▁atölye	-10.674
eddin	-10.6742
▁durumuna	-10.6743
▁bilin	-10.6744
▁dinlenme	-10.6745
/2	-10.6745
kâr	-10.6746
▁Holding	-10.6748
gerçekleştirildi	-10.6748
▁kütüphane	-10.6749
▁Makine	-10.675
EP	-10.6751
▁danışmanlık	-10.6751
▁görevlisi	-10.6752
▁zamana	-10.6753
▁dünyadaki	-10.6753
▁girişimci	-10.6754
▁öldü	-10.6756
▁yansıt	-10.676
▁geldik	-10.6761
▁Fırat	-10.6762
▁dolara	-10.6763
▁hacmi	-10.6763
▁Bizler	-10.6764
larınıza	-10.677
▁doldur	-10.677
▁Tamam	-10.6771
▁Sayısı	-10.6772
▁edilmelidir	-10.6772
▁eserler	-10.6776
▁bulut	-10.6777
▁bes	-10.6777
▁Pazarlama	-10.6783
sil	-10.6784
▁değerler	-10.6786
▁işten	-10.6786
müştür	-10.6791
▁12.	-10.6792
▁yükselen	-10.6793
▁müdürü	-10.6793
▁teminat	-10.6794
▁suya	-10.6794
▁Dijital	-10.6795
aklı	-10.6798
▁uzaktan	-10.6798
demir	-10.6798
▁kokusu	-10.6799
▁arkadaşlarım	-10.68
üş	-10.6803
▁NATO	-10.6805
▁Ab	-10.6805
▁Şiir	-10.6807
▁tadını	-10.6808
▁sağladı	-10.681
▁!	-10.6812
▁sayfada	-10.6814
-4	-10.6818
▁sürdüren	-10.6823
▁dosyaları	-10.6826
Kİ	-10.6827
▁yaşadıkları	-10.6827
▁bizde	-10.6828
▁açığı	-10.6828
▁ailenin	-10.6831
▁2001	-10.6831
▁Hac	-10.6833
▁adımlar	-10.6834
▁aralık	-10.6836
▁uzanan	-10.6836
▁sü	-10.6839
▁Yüce	-10.684
▁konusundaki	-10.684
▁kimin	-10.6841
▁dönen	-10.6841
▁uy	-10.6843
▁kanat	-10.6843
▁teknolojileri	-10.6845
▁yaratma	-10.6849
▁defter	-10.6849
▁yapay	-10.6852
▁yerinden	-10.6852
▁yaptırmak	-10.6853
▁Kor	-10.6853
▁bebeğin	-10.6856
▁Edebiyat	-10.6856
▁gidiş	-10.6856
▁peynir	-10.6859
▁görüşmeler	-10.6859
▁Gelen	-10.686
▁biten	-10.6862
klarını	-10.6862
▁belirtmek	-10.6863
▁koşu	-10.6863
▁li	-10.6863
▁toplanan	-10.6863
▁Eşya	-10.6865
▁yaşandı	-10.6867
zo	-10.6871
▁adli	-10.6871
▁adresinden	-10.6872
$	-10.6873
▁beğeni	-10.6874
▁gösterge	-10.6876
▁Ayşe	-10.6877
▁Türkler	-10.6877
olojik	-10.6878
▁devamlı	-10.6879
▁verdiğimiz	-10.6882
▁Milletler	-10.6887
▁Kanada	-10.689
mıştım	-10.689
!"	-10.6891
▁medeniyet	-10.6892
▁Baskı	-10.6893
CA	-10.6894
▁oluşuyor	-10.6896
▁dizayn	-10.6897
▁Dair	-10.6898
▁Dünyada	-10.69
▁eserleri	-10.6901
▁medyum	-10.6902
▁Bahçeli	-10.6905
şar	-10.6909
mp	-10.6912
▁boyunda	-10.6914
▁sözlü	-10.6916
▁Yrd	-10.6918
▁Ona	-10.692
▁ışığı	-10.6922
▁yeteneği	-10.6923
▁sarf	-10.6923
▁artırmak	-10.6924
▁Hürriyet	-10.6927
nan	-10.6929
▁kariyer	-10.6929
▁kızım	-10.6934
▁gönderdi	-10.6934
▁nesne	-10.6938
▁Hep	-10.6941
▁ER	-10.6942
▁konumunda	-10.6945
▁Planı	-10.6951
▁kına	-10.6952
▁satan	-10.6955
▁gelebilir	-10.6956
▁dediğimiz	-10.6956
▁İlişkiler	-10.6957
▁Mesleki	-10.6958
▁TRT	-10.6958
58	-10.6958
ice	-10.6959
bas	-10.696
▁2-3	-10.696
▁plaj	-10.696
▁Yahudi	-10.6965
ilip	-10.6966
▁taşımacılık	-10.6968
▁kullanılacak	-10.6968
▁Değişiklik	-10.6968
▁nice	-10.6972
▁yirmi	-10.6972
▁sayısını	-10.6972
▁Alanya	-10.6972
51	-10.6973
▁onlarla	-10.6974
▁oynan	-10.6974
▁sevilen	-10.6976
▁seviyesinde	-10.6979
amayacağı	-10.6981
▁kurumu	-10.6982
Ey	-10.6984
▁grupları	-10.6993
▁Yapımı	-10.6995
▁şaşır	-10.7
▁gündem	-10.7
▁yönlendirme	-10.7001
imin	-10.7003
▁dönük	-10.7004
▁chat	-10.7006
▁çalışırken	-10.7006
▁mar	-10.7008
▁Bize	-10.7008
▁tarla	-10.7009
▁edilecektir	-10.7012
▁özet	-10.7013
▁Seri	-10.7017
▁karın	-10.7017
▁Selam	-10.7019
▁muhasebe	-10.702
▁edildiğini	-10.702
leş	-10.7021
▁başarıyla	-10.7021
▁kapasitesi	-10.7023
ebilmesi	-10.703
▁tebliğ	-10.7031
▁coğrafya	-10.7032
▁tavuk	-10.7032
▁kaş	-10.7034
▁tıklayarak	-10.7036
▁Cengiz	-10.7037
ril	-10.7037
▁cennet	-10.7039
larımızla	-10.7041
▁geçecek	-10.7043
▁güçleri	-10.7043
▁Metal	-10.7043
▁hareketli	-10.7044
▁gönderdiği	-10.7044
lediği	-10.7048
▁Fiyatları	-10.7049
▁değişme	-10.705
89	-10.705
▁Kaç	-10.7054
▁Banyo	-10.7055
▁Özellikleri	-10.7055
▁duyar	-10.7055
▁olabiliyor	-10.7056
▁yaşamış	-10.7056
▁Kış	-10.7057
▁Tiyatro	-10.7059
▁Ekran	-10.706
▁kurucu	-10.7061
▁Musa	-10.7062
▁Sil	-10.7062
▁Kart	-10.7065
▁arşiv	-10.7066
▁razı	-10.7066
▁kendinize	-10.7069
▁içerisindeki	-10.7073
▁askerlik	-10.7073
72	-10.7074
▁aklı	-10.7077
▁gölge	-10.7078
▁kenti	-10.708
▁KKTC	-10.7083
▁edeceği	-10.709
▁erkeklerin	-10.7092
▁yi	-10.7093
▁bayi	-10.7093
▁detaylar	-10.7094
Dünya	-10.7094
▁yem	-10.7095
▁iğne	-10.7099
▁sıklıkla	-10.71
▁şekeri	-10.7102
▁hayvanlar	-10.7103
▁Mutlu	-10.7104
▁domates	-10.7104
▁savaşın	-10.7105
▁Mer	-10.7105
▁ot	-10.7108
▁bakıldığında	-10.7111
▁yapılacağı	-10.7112
▁merkezleri	-10.7113
▁Ruh	-10.7114
▁rakibi	-10.7117
▁katılımcı	-10.7117
▁hi	-10.7118
▁olabileceğini	-10.7118
▁gereğince	-10.7123
▁Ölüm	-10.7124
▁Genellikle	-10.7124
▁İnan	-10.7125
om	-10.7125
oo	-10.7126
▁gönderildi	-10.7128
▁birbirlerine	-10.7132
▁Pu	-10.7133
▁gr	-10.7135
▁otopark	-10.7136
▁işlemci	-10.7137
▁III	-10.7138
▁kelimeler	-10.7138
▁Mas	-10.7139
acaksınız	-10.714
▁gen	-10.7142
▁Yarışma	-10.7143
▁arttı	-10.7144
▁zafer	-10.7144
▁Eren	-10.7146
▁garip	-10.7148
▁Onların	-10.7148
▁taşıt	-10.715
▁Güncel	-10.7151
▁oluşturulması	-10.7151
muzu	-10.7152
▁alındığı	-10.7153
▁Tv	-10.7153
▁Sürekli	-10.716
▁güzelliği	-10.716
2013	-10.7161
▁tarihinin	-10.7161
▁ÖZ	-10.7163
▁logo	-10.7163
▁gelmez	-10.7163
▁yazılar	-10.7164
ime	-10.7164
▁vaka	-10.7167
▁tavır	-10.7167
▁şişe	-10.7167
▁olanların	-10.7168
▁Dolar	-10.7169
mekteyiz	-10.7169
▁yüzyılda	-10.7171
eyim	-10.7172
▁belirlenir	-10.7173
▁Veli	-10.7182
▁katılmak	-10.7184
▁tesisi	-10.7187
▁ilerleme	-10.7188
▁virüs	-10.719
▁IŞİD	-10.719
▁mesai	-10.7191
▁kav	-10.7192
ılmalıdır	-10.7198
SE	-10.72
Tİ	-10.7201
manın	-10.7202
▁sevdiğim	-10.7205
▁ücretleri	-10.7206
▁sözlerini	-10.7209
▁haberine	-10.7209
pro	-10.721
▁davası	-10.7211
▁yılların	-10.7213
▁onayı	-10.7213
▁pişir	-10.7214
▁katil	-10.7214
▁elemanları	-10.7215
▁kullanıma	-10.7215
▁John	-10.7216
▁tahta	-10.7217
▁mo	-10.7218
▁sağlayacaktır	-10.7221
▁patates	-10.7222
vet	-10.7226
▁çare	-10.7226
▁sağlan	-10.7227
▁Çözüm	-10.7232
▁bölümünü	-10.7233
ümü	-10.7235
▁oluşturuyor	-10.7236
52	-10.7236
▁talepleri	-10.7237
▁GB	-10.7241
▁yatırımcı	-10.7241
▁Devamı	-10.7241
▁fotoğraflar	-10.7242
dem	-10.7249
▁kurumları	-10.725
▁Açma	-10.7251
▁yoldan	-10.7251
▁ardı	-10.7253
▁üyelerinin	-10.7253
▁bardağı	-10.7255
▁intihar	-10.7256
▁hastanede	-10.7257
▁gereksiz	-10.7262
▁63	-10.7262
▁kullanıcıları	-10.7265
▁izmir	-10.7266
▁otur	-10.7266
▁lastik	-10.7267
▁Kanununun	-10.7268
▁yoğunluğu	-10.7268
bank	-10.727
84	-10.7271
▁atmak	-10.7274
▁bay	-10.7276
Su	-10.7281
...”	-10.7284
▁kurabiye	-10.7284
▁işlemlerini	-10.7286
yr	-10.7287
▁ıs	-10.7292
▁doğur	-10.7292
▁bölgedeki	-10.7295
▁başlamak	-10.7297
▁haksız	-10.7298
▁Hakkı	-10.7299
▁verdiğini	-10.73
▁Tüketici	-10.73
▁yapılar	-10.73
▁yenilikçi	-10.73
▁dök	-10.7301
▁hükümetin	-10.7302
▁gruplar	-10.7302
▁Otobüs	-10.7304
▁karış	-10.7304
ction	-10.7305
▁yaşadı	-10.7305
▁dünyası	-10.7305
▁imalat	-10.7309
▁fer	-10.731
▁saray	-10.7311
▁mantar	-10.7311
▁semt	-10.7313
fen	-10.7313
▁babam	-10.7314
▁şahit	-10.7316
▁bölgesel	-10.7316
▁yaşat	-10.7319
▁dersler	-10.7319
▁filmler	-10.732
fo	-10.732
gil	-10.7321
▁tasarlanmış	-10.7327
93	-10.7331
▁sak	-10.7331
▁lo	-10.7332
▁yönlendir	-10.7332
bek	-10.7333
ünde	-10.7334
▁saçma	-10.7336
▁verdikleri	-10.7338
▁cerrahi	-10.734
▁dünyasının	-10.734
▁nişan	-10.7342
▁röportaj	-10.7344
▁Kodu	-10.7345
▁tatili	-10.7345
▁Yüksel	-10.7348
dis	-10.7348
▁Mekan	-10.7349
▁Bekir	-10.7349
lacak	-10.7351
▁fonksiyon	-10.7352
▁düzenlemeler	-10.7353
▁öğrencinin	-10.7353
▁oldugu	-10.7357
▁Tablo	-10.7358
▁gönderi	-10.7358
▁yayınlandı	-10.7359
▁kazanır	-10.7362
▁dosyası	-10.7365
▁ürünlerini	-10.7367
▁ayının	-10.7367
IZ	-10.7367
vr	-10.7369
▁kuran	-10.737
▁olanı	-10.7372
▁dâhil	-10.7373
▁çalışanları	-10.7375
eceğim	-10.7376
EC	-10.7377
mıyorum	-10.7377
▁devamı	-10.7378
▁cesaret	-10.7378
▁verildiği	-10.7378
▁Balık	-10.7379
▁sahası	-10.7379
kü	-10.738
▁sok	-10.7381
kla	-10.7382
▁yapabilecek	-10.7383
-10	-10.7383
DEN	-10.7386
▁Kurt	-10.7391
▁unut	-10.7392
ata	-10.7392
▁güçlendir	-10.7392
▁kurucusu	-10.7393
OĞLU	-10.7394
▁tüzel	-10.7394
▁mes	-10.74
▁Erdem	-10.7402
üre	-10.7403
▁savcı	-10.7406
▁müjde	-10.7407
▁yüce	-10.7408
▁ayrıntı	-10.7409
▁Yalnız	-10.741
▁Mac	-10.741
▁(1	-10.7411
63	-10.7412
▁gezegen	-10.7414
▁görünür	-10.7418
▁fotoğrafı	-10.7419
▁hain	-10.7422
▁ekleyin	-10.7422
▁oyuna	-10.7423
mediği	-10.7423
▁1,5	-10.7424
lis	-10.7424
▁fakir	-10.7426
▁düzeyinde	-10.7426
▁etmeden	-10.7428
▁İSTANBUL	-10.7429
▁Bilişim	-10.7429
▁İsveç	-10.7431
▁us	-10.7434
▁tarihe	-10.7438
▁çoğunlukla	-10.744
▁57	-10.7442
cek	-10.7443
▁kapısı	-10.7443
muzun	-10.7445
▁sun	-10.7449
▁yönlü	-10.7451
▁açıklamalar	-10.7451
▁seviyesi	-10.7452
▁varlığını	-10.7452
▁Durumu	-10.7453
▁eksiksiz	-10.7453
▁üste	-10.7455
▁Vekili	-10.7458
▁Yangın	-10.7458
▁Arapça	-10.7462
▁dağıtım	-10.7462
▁çevir	-10.7463
▁gençlerin	-10.7466
▁degil	-10.7467
▁Ortak	-10.7469
▁uyma	-10.747
laşmış	-10.747
▁resmen	-10.7473
▁edilemez	-10.7473
81	-10.7477
▁anlamıyla	-10.748
▁nükleer	-10.7481
▁başkanlık	-10.7483
▁taşır	-10.7483
lıktan	-10.7484
▁indirme	-10.7485
IL	-10.7487
râ	-10.7489
▁yetiştir	-10.7493
▁liraya	-10.7496
▁deme	-10.7497
▁ettiklerini	-10.7497
▁ilçesine	-10.75
73	-10.7501
▁çalışacak	-10.7502
âm	-10.7503
▁hu	-10.7504
▁Bizans	-10.7505
▁Gümrük	-10.7508
▁kral	-10.7511
▁personelin	-10.7511
vat	-10.7514
▁koyma	-10.7516
▁Firmamız	-10.7516
▁alınma	-10.7517
▁Başarı	-10.7523
▁bildiği	-10.7527
▁Ahşap	-10.7527
▁Gir	-10.753
▁Eli	-10.7531
▁Emir	-10.7538
▁düzenledi	-10.754
leşmiş	-10.7542
▁Televizyon	-10.7543
▁nci	-10.7548
▁girerek	-10.7552
▁reform	-10.7553
▁yağlı	-10.7554
▁İşlem	-10.7555
▁ölen	-10.7555
▁Olarak	-10.7557
▁rota	-10.7558
▁81	-10.756
ece	-10.756
▁şuan	-10.7561
▁61	-10.7565
▁oynamak	-10.7568
▁gerçekleşecek	-10.7568
▁gazetesi	-10.757
▁Selçuklu	-10.7571
amayacak	-10.7572
▁Bur	-10.7572
▁ey	-10.7574
▁Hay	-10.7575
▁Hedef	-10.758
▁tahliye	-10.758
▁KPSS	-10.7582
cc	-10.7583
▁devrim	-10.7583
diye	-10.7587
▁tamamlanması	-10.7589
▁kâr	-10.759
▁yazılmış	-10.7591
▁Â	-10.7592
uncu	-10.7598
▁haricinde	-10.7602
▁Af	-10.7603
▁şiş	-10.7603
▁aya	-10.7606
▁bulunmayan	-10.7608
line	-10.7609
▁yazılan	-10.761
▁Muharrem	-10.7611
▁nereden	-10.7613
▁burs	-10.7614
EM	-10.7616
ırlar	-10.7617
▁Üçüncü	-10.7618
▁ibaresi	-10.7619
▁Mahalle	-10.7619
▁Arkadaşlar	-10.7621
▁matematik	-10.7625
▁durak	-10.7626
▁yapıya	-10.7627
▁UEFA	-10.7629
▁havalimanı	-10.7629
▁rekor	-10.7632
leştirilmesi	-10.7632
ion	-10.7633
▁Valiliği	-10.7638
stan	-10.7638
▁EĞİTİM	-10.764
▁kaleci	-10.764
▁İndir	-10.7642
sim	-10.7643
▁müthiş	-10.7647
74	-10.7648
▁vücudun	-10.7648
2012	-10.765
▁bölgelerinde	-10.7653
▁yaptıklarını	-10.7653
lamaktadır	-10.7654
▁Birleşmiş	-10.7654
▁Basketbol	-10.7656
▁Oğuz	-10.7656
▁Avustralya	-10.7658
▁yolculuğu	-10.766
▁Moda	-10.7661
▁mesleği	-10.7662
▁95	-10.7664
▁Tor	-10.7667
▁başlattı	-10.767
ted	-10.7673
▁Model	-10.7674
ılacağı	-10.7676
▁memuru	-10.7677
ture	-10.7681
▁boğaz	-10.7682
yacaktır	-10.7684
▁villa	-10.7687
▁haklarını	-10.7687
tum	-10.7687
▁değiştirmek	-10.7689
▁Sey	-10.769
syon	-10.7691
diler	-10.7692
▁hâlâ	-10.7692
▁Kırım	-10.7692
83	-10.7693
▁Yönetmeliğin	-10.7697
▁Amerikalı	-10.7697
ina	-10.7698
▁oyunda	-10.7699
▁imkansız	-10.7701
▁Aday	-10.7701
▁Kuran	-10.7702
▁ü	-10.7702
göz	-10.7702
▁Ebu	-10.7702
▁okulda	-10.7702
▁işkence	-10.7703
▁katma	-10.7703
▁demişti	-10.7704
ÖR	-10.7704
▁birinde	-10.7709
▁artıyor	-10.771
▁kendisinden	-10.7711
▁felaket	-10.7711
▁Talep	-10.7712
rd	-10.7716
▁düşür	-10.7717
ât	-10.7718
▁Usta	-10.7721
nızdan	-10.7722
eceksiniz	-10.7722
▁Mühendislik	-10.7723
▁korun	-10.7727
▁1999	-10.7727
79	-10.7728
▁mod	-10.7729
▁şüphesiz	-10.773
▁etmiyor	-10.773
▁AS	-10.7732
▁bağlıdır	-10.7734
▁zorluk	-10.7734
▁duyulan	-10.7736
▁sayıları	-10.7736
eb	-10.7737
lit	-10.7738
▁KA	-10.7738
▁bozulma	-10.7738
▁ic	-10.7739
▁ün	-10.7739
▁koyduğu	-10.7742
lerimizde	-10.7745
▁çekerek	-10.7749
▁yüreği	-10.775
96	-10.775
▁oruç	-10.775
kış	-10.7751
▁Ziyaret	-10.7751
▁j	-10.7753
▁sel	-10.7754
▁koyup	-10.7755
abileceğini	-10.7756
▁nolu	-10.7757
▁ME	-10.776
▁kalbi	-10.776
▁açığa	-10.7761
▁sevgilisi	-10.7764
▁sevme	-10.7765
▁Cihaz	-10.7765
▁anla	-10.7766
87	-10.7767
▁Yönetici	-10.7768
▁beklenti	-10.7769
▁nitelikli	-10.7769
▁haftasında	-10.777
▁felsefe	-10.7775
bri	-10.7775
▁kendimizi	-10.7776
▁mahkum	-10.7777
▁referandum	-10.7777
▁kentinde	-10.7778
▁Konser	-10.778
▁hususlar	-10.7784
sever	-10.7791
▁kurumun	-10.7792
▁Say	-10.7794
▁mesafede	-10.7794
▁analizi	-10.7797
HA	-10.7797
▁Dev	-10.7798
▁Kiralama	-10.7801
▁öncelikli	-10.7801
TM	-10.7801
▁Yalçın	-10.7801
▁Zi	-10.7802
▁kapan	-10.7802
gerçekleştirdiği	-10.7804
▁kaleme	-10.7807
▁Efendimiz	-10.7808
▁Fu	-10.7808
▁üzüntü	-10.7808
▁sığın	-10.7809
▁edebilecek	-10.7809
aret	-10.7811
▁kağıdı	-10.7817
▁malzemesi	-10.782
▁beraberlik	-10.782
▁başlayarak	-10.7824
▁İnşallah	-10.7825
sit	-10.7827
▁car	-10.7827
ilmelidir	-10.7827
▁çak	-10.7828
▁değerini	-10.7828
▁ilahi	-10.783
▁Kaymakamı	-10.783
lî	-10.783
▁Polat	-10.7831
▁renkler	-10.7831
▁elektrikli	-10.7834
▁sınava	-10.7838
suzluk	-10.7842
▁sundu	-10.7842
▁Çetin	-10.7842
▁duyan	-10.7843
▁öğretmenler	-10.7847
▁başkanları	-10.7847
▁çözül	-10.7849
oy	-10.7849
▁Kolay	-10.7852
▁akraba	-10.7854
▁kolu	-10.7855
▁mak	-10.7855
▁RE	-10.7856
▁yurtdışında	-10.7858
▁çıkardığı	-10.7862
▁başlık	-10.7863
▁nimet	-10.7864
▁muhabbet	-10.7867
▁yolla	-10.7868
▁gelmek	-10.7869
hâ	-10.787
▁kopar	-10.7872
söz	-10.7874
▁yayım	-10.7876
▁stil	-10.7876
▁dis	-10.7877
▁Türkmen	-10.7877
▁SA	-10.7878
▁ifadesini	-10.7878
▁duyarlı	-10.7878
▁sanık	-10.788
▁göl	-10.7882
▁gerçekleştirmek	-10.7885
UK	-10.7885
▁kapsayan	-10.7885
.6	-10.7885
▁köyünde	-10.7888
fon	-10.7889
▁saatlik	-10.7889
▁Kimse	-10.7893
▁bilmeyen	-10.7894
1)	-10.7894
▁Profesyonel	-10.7894
▁Galaxy	-10.7894
▁We	-10.7898
atif	-10.7901
▁cihazları	-10.7902
▁tecavüz	-10.7903
▁Renk	-10.7904
siyon	-10.7906
que	-10.7908
▁nelerdir	-10.7909
▁hazırlama	-10.7909
lý	-10.791
▁bıçak	-10.791
▁yürek	-10.7912
İŞ	-10.7915
▁görüldüğü	-10.7915
▁TR	-10.7916
▁finans	-10.7919
▁aksi	-10.7922
mışlardır	-10.7924
▁kişiden	-10.7925
▁1980	-10.7929
▁sahada	-10.7929
▁Sıcak	-10.7932
▁kurulmuştur	-10.7934
▁akışı	-10.7934
▁neyse	-10.7934
▁Görüntü	-10.7934
▁bilinç	-10.7935
▁hakkına	-10.7936
▁bırakıp	-10.7938
▁karışık	-10.7938
▁kararları	-10.7939
▁Hat	-10.7939
▁önerileri	-10.794
▁tarihsel	-10.7941
▁İbn	-10.7943
sindeki	-10.7944
iyorlar	-10.795
▁ruhsat	-10.7951
▁yetenek	-10.7953
▁Arama	-10.7955
▁ülkeyi	-10.7958
BA	-10.7961
▁yıkan	-10.7962
▁Afrin	-10.7963
▁hatları	-10.7964
▁Cilt	-10.7965
▁duş	-10.7966
▁başlatılan	-10.7967
▁bölümleri	-10.7967
▁tecrübeli	-10.7968
▁EK	-10.7968
▁karşılaştır	-10.7968
▁tra	-10.7969
▁kelimesi	-10.7969
▁af	-10.797
▁kurşun	-10.797
▁Teknolojileri	-10.7972
▁ülkemiz	-10.7975
▁hızlandır	-10.7979
▁haberdar	-10.7982
▁Komutanı	-10.7982
▁bek	-10.7983
▁diyorlar	-10.7985
▁çin	-10.7987
▁tıpkı	-10.7989
biz	-10.799
▁problemleri	-10.7991
-5	-10.7993
▁midir	-10.7994
▁akşamı	-10.7996
üt	-10.7998
▁katılımı	-10.7999
ebiliriz	-10.7999
cm	-10.8001
▁foto	-10.8004
▁sayfası	-10.8005
▁çeker	-10.8006
▁Şeyh	-10.8006
▁başlandı	-10.8006
▁kadına	-10.8007
▁Com	-10.8008
▁oğlum	-10.801
▁erdi	-10.801
▁rivayet	-10.8011
raf	-10.8012
ebileceğiniz	-10.8012
▁galibiyet	-10.8013
▁toptan	-10.8015
▁çekilen	-10.8015
▁Sch	-10.8018
▁tarayıcı	-10.802
▁sistemler	-10.8021
▁sıkça	-10.8022
▁gelecekte	-10.8022
▁Anabilim	-10.8023
▁Hü	-10.8026
▁etkisiyle	-10.8027
▁Air	-10.8028
▁İmparatorluğu	-10.803
▁Fuar	-10.803
An	-10.803
▁çalışmalarının	-10.8034
▁Yukarıda	-10.8035
▁bazında	-10.8035
▁MA	-10.8036
▁dk	-10.8036
▁KDV	-10.8039
hir	-10.8039
▁sürüm	-10.8041
▁gövde	-10.8043
nizle	-10.8043
▁AD	-10.8044
▁katılacak	-10.8045
▁çorba	-10.8045
doğan	-10.8046
ğu	-10.8047
▁kafe	-10.805
ÜN	-10.8051
▁alev	-10.8056
▁kullanın	-10.8056
▁duruşu	-10.8056
▁gebelik	-10.8057
▁değilse	-10.8058
▁metro	-10.8059
▁kısmına	-10.8062
▁ederse	-10.8062
▁dayanışma	-10.8066
▁oluşu	-10.8067
▁Mobilya	-10.8067
▁gü	-10.8068
▁çekin	-10.8072
▁artı	-10.8074
▁kayıtları	-10.8075
▁lan	-10.8075
YE	-10.8077
▁yardımcısı	-10.8078
▁olursak	-10.8079
▁köle	-10.8081
AH	-10.8083
▁gündür	-10.8083
▁GENEL	-10.8083
▁olu	-10.8084
▁58	-10.8086
▁niteliği	-10.8086
▁gör	-10.8089
▁planlanan	-10.8089
▁örtü	-10.8091
▁sürdürüyor	-10.8091
ürü	-10.8092
▁gençlik	-10.8092
-18	-10.8093
▁mıdır	-10.8093
▁karşılamak	-10.8094
▁Dur	-10.8094
▁durdur	-10.8095
▁gelişmesi	-10.8098
▁ap	-10.8099
▁potansiyeli	-10.81
▁başlamıştı	-10.8103
▁yolun	-10.8104
▁verilme	-10.8105
▁kapak	-10.8106
LO	-10.8108
▁İsviçre	-10.8109
▁açıklamaya	-10.8109
▁Cevap	-10.8111
▁yaşı	-10.8112
▁boşalt	-10.8114
▁pompa	-10.8116
dük	-10.8116
raz	-10.8117
▁ettiğim	-10.812
▁başlıca	-10.812
▁USB	-10.8123
▁hayatının	-10.8125
▁çıkarılan	-10.8126
▁Far	-10.8128
▁alet	-10.813
▁yerleştirme	-10.8132
▁sıralama	-10.8132
emiyor	-10.8133
ag	-10.814
▁Eyüp	-10.814
61	-10.8141
our	-10.8142
▁limit	-10.8142
▁kaldırıldı	-10.8143
▁yaşa	-10.8147
ıyorlar	-10.8148
▁Dosya	-10.815
▁tarife	-10.815
▁nitelik	-10.815
▁uygundur	-10.815
▁Mevcut	-10.8151
▁etkisini	-10.8151
▁sezonu	-10.8154
▁olacaksınız	-10.8155
EV	-10.8155
▁kalça	-10.8156
▁yuva	-10.8157
▁Kampanya	-10.8157
▁Garanti	-10.8158
▁fazlasıyla	-10.8158
▁Üzerine	-10.8159
▁boyutlu	-10.8162
ros	-10.8163
▁öğrencilerimiz	-10.8164
▁yaklaşımı	-10.8165
▁kumanda	-10.8166
▁tadı	-10.8168
OL	-10.8169
ore	-10.8171
▁işçilerin	-10.8174
▁tanımı	-10.8174
sıdır	-10.8177
▁yahut	-10.8178
▁konforlu	-10.818
▁artarak	-10.818
▁Piyasası	-10.8181
▁mücadelesi	-10.8186
▁düşünün	-10.8188
▁gelmişti	-10.8189
▁Şam	-10.8189
▁kör	-10.8189
▁imalatı	-10.819
▁turnuva	-10.819
Ba	-10.8191
▁ekibimiz	-10.8192
▁seti	-10.8192
▁Burak	-10.8192
▁kop	-10.8192
▁piyasada	-10.8196
▁Bunları	-10.8199
▁paylaştığı	-10.8199
▁geldim	-10.8202
▁Erkekler	-10.8202
▁geleceğini	-10.8203
düğünü	-10.8203
▁dükkan	-10.8205
ses	-10.8207
▁yaratmak	-10.8212
▁kupa	-10.8219
tesi	-10.8219
▁yaşamın	-10.822
▁Belçika	-10.8221
▁havuzu	-10.8223
▁vekil	-10.8228
▁kenar	-10.8228
▁arıyorum	-10.8228
nç	-10.8228
▁Adet	-10.8229
▁4-	-10.8229
▁çalışmalara	-10.823
▁direktör	-10.823
▁bozma	-10.823
▁oynuyor	-10.823
▁yorumu	-10.823
▁bankalar	-10.8232
▁PC	-10.8232
landığını	-10.8234
▁bıraktığı	-10.8234
▁meşru	-10.8235
▁sürecek	-10.8235
▁çeşidi	-10.8237
DI	-10.8239
▁öldür	-10.8241
con	-10.8247
▁kalmadı	-10.8247
▁iri	-10.8249
▁görüntüleri	-10.8249
▁yönetmelik	-10.8251
▁Hali	-10.8253
▁vakıf	-10.8254
liyim	-10.8254
▁lif	-10.8256
▁ittifak	-10.8257
▁Alanı	-10.8261
▁vurdu	-10.8262
▁yaşandığı	-10.8263
▁bağlamda	-10.8263
▁partisi	-10.8269
▁makineleri	-10.8272
▁yapılmasını	-10.8272
▁sisteminde	-10.8273
▁renkleri	-10.8274
▁mükellef	-10.8275
şu	-10.8276
▁kurallar	-10.8277
▁geçerlidir	-10.8279
▁İsa	-10.8279
▁konuşmada	-10.828
▁Sınır	-10.8281
lerimizden	-10.8282
UZ	-10.8283
▁yüzyıl	-10.8283
▁yor	-10.8286
▁artar	-10.8287
TR	-10.8287
▁üz	-10.829
▁öğretmeni	-10.8291
▁bulundukları	-10.8293
▁Yarışması	-10.8293
▁çalışanların	-10.8294
▁Öğrenciler	-10.8294
▁katkısı	-10.8295
▁topluluk	-10.8295
▁planları	-10.8296
para	-10.8296
▁85	-10.8298
▁kaydedildi	-10.8298
▁yerin	-10.8299
▁idrar	-10.8299
▁Biri	-10.83
▁milleti	-10.8302
▁laboratuvar	-10.8304
▁ürettiği	-10.8304
▁operasyonu	-10.8305
▁kalkınma	-10.8305
bî	-10.8306
▁Yağ	-10.8311
▁istisna	-10.8313
▁1.5	-10.8317
▁bakar	-10.8318
zon	-10.8319
▁kül	-10.8321
▁1990	-10.8321
ring	-10.8321
▁birimleri	-10.8322
▁Çeşitli	-10.8323
atı	-10.8327
▁kıyafet	-10.8327
▁diyebiliriz	-10.8328
▁kullanışlı	-10.8335
▁(3	-10.8335
▁düzeltme	-10.8335
▁hatıra	-10.834
▁durumunu	-10.834
▁Fatma	-10.8343
▁Sn	-10.8344
lip	-10.8345
▁parayı	-10.8347
▁800	-10.8348
▁başarısız	-10.8349
▁boşa	-10.8349
▁kavuş	-10.8349
▁motosiklet	-10.8349
dıkça	-10.835
▁basketbol	-10.8352
▁Berlin	-10.8353
erken	-10.8357
ettin	-10.8358
▁kazandığı	-10.836
Ak	-10.8361
▁varmış	-10.8362
▁(2	-10.8365
▁ediyordu	-10.8368
▁Kahramanmaraş	-10.8368
▁Saha	-10.8368
▁açısı	-10.8369
▁atar	-10.837
io	-10.837
▁kıymetli	-10.8371
▁Sur	-10.8371
▁müşterilerine	-10.8374
ble	-10.8375
▁dayanan	-10.8376
▁başarısı	-10.8384
▁ço	-10.8384
▁açıklamasında	-10.8384
▁eşim	-10.8387
▁Emin	-10.8387
▁İYİ	-10.8388
▁ekleyip	-10.839
▁yemekleri	-10.8391
▁amel	-10.8392
▁yapmıştır	-10.8392
iyi	-10.8393
▁Sektör	-10.8394
▁makina	-10.8396
▁görül	-10.8397
▁kusursuz	-10.8399
▁evrak	-10.8401
▁bilinçli	-10.8401
one	-10.8402
▁teknikleri	-10.8402
▁tanınan	-10.8405
▁Ayak	-10.8406
▁gene	-10.8406
▁sız	-10.8408
▁rahatsızlık	-10.8409
▁seçimleri	-10.8411
▁buradaki	-10.8411
ino	-10.8415
▁tetik	-10.8416
▁kendiniz	-10.8416
muştu	-10.8417
▁yetişkin	-10.8418
▁davranışları	-10.8418
▁kesintisiz	-10.8419
▁yaşamaya	-10.842
TER	-10.8421
▁avukat	-10.8421
▁ailesinin	-10.8423
▁elma	-10.8423
▁soğutma	-10.8425
▁Çam	-10.8426
▁masal	-10.8427
▁Muhasebe	-10.8428
▁Öğretmenleri	-10.843
▁Ofis	-10.843
▁filmde	-10.8431
▁tuş	-10.8432
▁olanağı	-10.8432
bor	-10.8433
▁sürül	-10.8439
▁Dava	-10.844
ld	-10.8441
▁mas	-10.8442
▁işçiler	-10.8442
kale	-10.8445
ESİ	-10.8447
cy	-10.8448
▁Kursu	-10.845
▁Başbakanı	-10.845
▁doğumlu	-10.8454
▁halini	-10.8454
▁Akıllı	-10.8454
▁harca	-10.8455
▁tutuyor	-10.8455
▁ötesinde	-10.8456
▁gübre	-10.8459
▁vermiştir	-10.8463
▁açılma	-10.8465
BB	-10.8467
▁kı	-10.8469
▁sitemiz	-10.847
▁videoları	-10.8471
▁baktığımızda	-10.8472
▁buhar	-10.8473
lenip	-10.8474
▁imkanları	-10.8477
▁hane	-10.8477
▁72	-10.8479
▁resimler	-10.848
▁kuruldu	-10.8482
▁Min	-10.8483
▁sürdürdü	-10.8483
▁şeytan	-10.8485
▁Faruk	-10.8487
▁ısınma	-10.8488
▁Kars	-10.8488
▁Net	-10.849
▁hastalıklar	-10.8491
▁peşinde	-10.8493
▁dilekçe	-10.8493
▁Play	-10.8496
▁vicdan	-10.8496
cisi	-10.8497
▁Düz	-10.8497
▁Mekke	-10.8498
▁ağacı	-10.8498
▁adlandır	-10.8499
▁çıkarılması	-10.8499
abi	-10.85
tay	-10.8501
bol	-10.8504
Son	-10.8505
▁satılan	-10.8509
▁itiraf	-10.851
-6	-10.851
▁unsur	-10.8511
▁bağlama	-10.8515
▁tarifleri	-10.8519
▁Yüksekokulu	-10.8521
▁TE	-10.8522
şı	-10.8525
▁oynadı	-10.8528
▁iste	-10.8529
▁Zafer	-10.8533
▁Borsa	-10.8534
-20	-10.8535
▁cuma	-10.8537
▁görüşleri	-10.8537
ook	-10.8537
▁tayin	-10.8537
▁açılır	-10.8538
▁kuruş	-10.8543
▁geleceğe	-10.8544
▁pilot	-10.8545
▁faaliyetlerini	-10.8545
▁uygulan	-10.8546
lendirilmesi	-10.8546
▁000	-10.8546
unuzu	-10.8547
▁veriliyor	-10.855
sınıf	-10.855
▁yoksul	-10.8552
▁koymak	-10.8552
leştirilmiş	-10.8553
▁ziyareti	-10.8553
▁yatırımlar	-10.8555
▁açıp	-10.8557
▁nitelikte	-10.8558
NET	-10.8558
▁girmesi	-10.8561
▁kararını	-10.8561
laşır	-10.8563
ekli	-10.8563
cem	-10.8563
La	-10.8564
▁mimar	-10.8564
▁yapmadan	-10.8565
▁çıkaran	-10.8571
▁üncü	-10.8571
▁bireylerin	-10.8573
Pa	-10.8574
▁özelliğini	-10.8576
▁sıkıntılar	-10.8577
▁apartman	-10.858
AV	-10.8582
▁Bende	-10.8585
▁özür	-10.8587
▁santral	-10.8589
▁ga	-10.8589
▁kimseler	-10.8596
▁istediğimiz	-10.8598
▁hayali	-10.86
▁sitesinden	-10.86
▁etsin	-10.8601
▁yenileme	-10.8602
▁sırasıyla	-10.8603
▁Cor	-10.8605
▁mer	-10.8605
3)	-10.8606
▁Komitesi	-10.8609
▁bilmiyor	-10.8611
▁Bilgiler	-10.8611
▁Güler	-10.8612
▁yollar	-10.8613
dd	-10.8614
gur	-10.8616
▁Karşıyaka	-10.8617
▁Sivil	-10.8618
lanıp	-10.8619
▁Belediyespor	-10.8619
▁sürecinin	-10.8622
▁büyüyen	-10.8622
▁tamamını	-10.8624
▁hastanın	-10.8624
▁çıkışı	-10.8624
▁yönünden	-10.8625
▁çılgın	-10.863
▁eğitime	-10.8632
▁Fazla	-10.8632
▁sorma	-10.8633
▁bulunmamaktadır	-10.8634
▁belirlemek	-10.8634
▁adayları	-10.8637
lemiş	-10.8637
2018	-10.8637
▁taciz	-10.8639
▁hazırlanıyor	-10.864
RI	-10.8649
▁kadrosu	-10.8649
▁Sizler	-10.8649
▁yapılmalıdır	-10.865
▁numaraları	-10.8652
▁imkânı	-10.8658
▁Cep	-10.8659
▁ikiye	-10.8659
▁tercüme	-10.8659
▁Hakkari	-10.8659
▁kolları	-10.866
▁Kütahya	-10.866
▁serin	-10.866
age	-10.866
▁Yunus	-10.8662
▁meta	-10.8663
İnsan	-10.8664
▁branş	-10.8666
▁duygusu	-10.8666
▁şah	-10.8668
amadım	-10.8673
▁sürecini	-10.8673
▁etkileme	-10.8674
▁Tanı	-10.8675
nizdeki	-10.8675
mut	-10.8676
Ev	-10.8676
yâ	-10.8677
Mü	-10.8677
▁tohum	-10.868
▁Gra	-10.8682
acı	-10.8683
▁karışımı	-10.8684
▁kaldım	-10.8686
▁buyur	-10.8688
▁sigortası	-10.8689
▁hastalığın	-10.869
▁Bütçe	-10.8691
▁gazi	-10.8692
▁May	-10.8694
▁sulama	-10.8695
▁istediklerini	-10.8695
▁Sarayı	-10.8696
▁durumları	-10.8698
▁başkanlığında	-10.8699
▁go	-10.8701
leyebilir	-10.8701
▁belirtileri	-10.8702
▁gitmiş	-10.8703
500	-10.8704
▁Silahlı	-10.8704
larsa	-10.8704
▁yarışı	-10.8706
▁söyleyerek	-10.8706
▁arayarak	-10.8707
▁bekle	-10.8707
▁olurlar	-10.8708
▁adlandırılan	-10.8709
▁ücretli	-10.8709
▁dere	-10.871
▁burda	-10.871
▁şeref	-10.8711
▁59	-10.8711
likte	-10.8713
▁Başakşehir	-10.8713
▁yetiş	-10.8714
▁sur	-10.8716
▁Zeytin	-10.8717
▁sağlanır	-10.8719
amıyorum	-10.872
▁atarak	-10.872
▁ucu	-10.8722
▁torba	-10.8723
▁Otomobil	-10.8723
▁yakalandı	-10.8725
▁Mil	-10.8725
▁binası	-10.8725
▁oranla	-10.8727
▁kalori	-10.8728
lüğünü	-10.873
▁verilerin	-10.8731
OP	-10.8732
▁görüntüsü	-10.8734
▁BİR	-10.8736
▁pembe	-10.8736
▁muhtemelen	-10.8737
▁babasının	-10.8738
sik	-10.8738
▁İstiklal	-10.8738
▁oturum	-10.8739
▁yuvarlak	-10.8742
▁ayakları	-10.8742
▁nite	-10.8743
leştirmek	-10.8743
▁almadan	-10.8744
▁BİRİNCİ	-10.8746
ora	-10.8747
▁Deri	-10.8748
▁istemiyorum	-10.8749
▁seminer	-10.8749
▁teması	-10.8749
▁basınç	-10.875
▁kırık	-10.875
He	-10.8751
▁diyoruz	-10.8757
▁katında	-10.8757
▁yürütme	-10.8758
▁minimum	-10.8758
▁Dört	-10.876
▁görevlileri	-10.876
▁67	-10.8762
▁tapu	-10.8763
ity	-10.8763
▁güvence	-10.8766
Mo	-10.8766
▁Arı	-10.8766
▁Demokrasi	-10.8766
yordu	-10.8767
madı	-10.8771
▁simge	-10.8773
62	-10.8776
▁dürüst	-10.8777
▁Ümit	-10.8778
▁kademe	-10.8782
▁Levent	-10.8783
leşmesi	-10.8788
seydi	-10.879
▁Rapor	-10.879
bağ	-10.8792
▁aynen	-10.8792
▁sayılan	-10.8793
▁sürdür	-10.8794
▁180	-10.8796
▁oluşumu	-10.8801
▁başını	-10.8802
▁dışarıdan	-10.8803
▁Bank	-10.8804
▁İster	-10.8804
▁maçın	-10.8804
▁bilgiyi	-10.8804
▁buluştu	-10.8805
▁seçmen	-10.8809
▁çıkmaya	-10.8809
cer	-10.8809
▁sürecin	-10.8809
▁Önceki	-10.881
▁düzenlenmesi	-10.881
öğretim	-10.8811
▁etmesini	-10.8815
▁bilinmektedir	-10.8817
▁Yargıtay	-10.8818
▁soğan	-10.8818
▁seviyesine	-10.8819
▁(4)	-10.882
▁TÜRK	-10.8821
▁fare	-10.8821
ef	-10.8825
ımızda	-10.8829
▁takvim	-10.8829
▁TA	-10.8833
ys	-10.8833
▁Göster	-10.8834
OK	-10.8834
▁cumhurbaşkanı	-10.8835
▁Özdemir	-10.8839
▁Ünal	-10.8843
▁ilkokul	-10.8845
▁sevinirim	-10.8846
▁Sha	-10.8847
▁toplumu	-10.8848
▁hamle	-10.8848
▁tamiri	-10.885
larımızdan	-10.885
hisar	-10.885
▁çekirdek	-10.885
▁işletmeler	-10.8851
▁pasaport	-10.8851
▁örnekler	-10.8852
▁mor	-10.8852
▁kasaba	-10.8856
▁döneme	-10.8859
▁Teşkilatı	-10.8859
▁çete	-10.8859
KO	-10.8863
▁ödev	-10.8864
▁İmar	-10.8865
▁esir	-10.8866
▁Haftası	-10.8869
▁verilerine	-10.8869
▁istasyonu	-10.8871
Bo	-10.8872
▁Bence	-10.8872
▁azalma	-10.8872
▁Komisyon	-10.8873
▁Yardımcı	-10.8873
▁pe	-10.8876
▁nakit	-10.8877
tasyon	-10.8877
IS	-10.8877
▁desen	-10.8878
▁muhalif	-10.888
▁İpek	-10.8883
▁Bulgaristan	-10.8883
▁buluyor	-10.8883
ach	-10.8884
▁tutulması	-10.8887
IT	-10.889
▁Tanıtım	-10.889
kap	-10.8891
▁huzurlu	-10.8892
▁birtakım	-10.8893
▁buldum	-10.8894
▁ticareti	-10.8896
▁Gemi	-10.8897
▁Demirtaş	-10.8898
▁Temizlik	-10.8899
▁türkiye	-10.89
iyer	-10.8901
enler	-10.8901
▁geçin	-10.8904
▁Serdar	-10.8909
▁Bol	-10.8913
▁kaçınılmaz	-10.8913
▁yaşantı	-10.8914
▁mutfağı	-10.8915
▁oksijen	-10.8916
▁yepyeni	-10.8916
▁litre	-10.8918
▁bozukluğu	-10.8919
UL	-10.8923
▁ho	-10.8924
▁faydası	-10.8926
▁gelsin	-10.8927
▁videosu	-10.8928
▁ileride	-10.8928
▁dedik	-10.893
▁Form	-10.8931
tes	-10.8931
▁açıklanan	-10.8932
▁heykel	-10.8933
▁zirve	-10.8933
ile	-10.8936
AŞ	-10.8936
▁istedik	-10.8937
▁gerçekleştiren	-10.8939
▁bilinir	-10.8939
▁Böylelikle	-10.894
▁zel	-10.894
▁Yükseköğretim	-10.8945
tıkları	-10.8945
2011	-10.8945
▁Altı	-10.8948
▁pantolon	-10.8949
▁1-2	-10.8949
malar	-10.8951
▁Malzeme	-10.8952
▁vermeyi	-10.8954
▁soğu	-10.8955
▁Kum	-10.8958
▁Kastamonu	-10.8958
ladım	-10.896
▁konunun	-10.8961
dikçe	-10.8961
ladığımız	-10.8964
▁far	-10.8965
▁göreceksiniz	-10.8966
▁Dernek	-10.8967
▁görmesi	-10.8968
▁şehrinde	-10.8968
▁62	-10.8969
▁zorunludur	-10.8971
▁evre	-10.8973
▁fizik	-10.8974
▁başla	-10.8975
▁görün	-10.8977
iyo	-10.8979
yabilir	-10.8981
▁yürüme	-10.8983
▁çalışanlar	-10.8983
▁değerlendirmesi	-10.899
▁vücudu	-10.8991
▁seçimlerde	-10.8991
▁Hele	-10.8992
br	-10.8993
yeni	-10.8993
▁çalışıyorum	-10.8994
▁Soy	-10.8994
▁yıldızı	-10.8999
▁Merhabalar	-10.9
▁Ziya	-10.9001
▁Roman	-10.9003
▁bağlan	-10.9006
▁sitenin	-10.9007
▁listesinde	-10.9007
▁hizmetini	-10.901
▁çıkmaktadır	-10.9011
▁Ap	-10.9012
▁aza	-10.9015
▁bakarak	-10.9016
miyoruz	-10.9017
▁siteye	-10.9017
▁yukarıdaki	-10.9019
▁Hayvancılık	-10.902
▁baskın	-10.9021
low	-10.9021
▁ÖSYM	-10.9022
▁ilde	-10.9024
leridir	-10.9026
▁anılan	-10.9026
▁66	-10.9029
▁titiz	-10.9029
letme	-10.903
▁düştüğü	-10.9032
▁kararlı	-10.9032
▁karayolu	-10.9033
▁günümüz	-10.9035
El	-10.9038
nizden	-10.9039
▁videoyu	-10.904
▁Batman	-10.9042
▁hazırlanması	-10.9043
▁bağlantılı	-10.9043
▁diy	-10.9044
▁ekipman	-10.9047
▁bilinmeyen	-10.905
▁sonuçlarını	-10.905
▁verirken	-10.905
▁Kurtuluş	-10.9054
▁nüfusu	-10.9055
amadığı	-10.9055
▁Sonrasında	-10.9055
▁paylaşımı	-10.9055
▁buğday	-10.9056
▁Gölü	-10.9058
▁aydınlat	-10.906
lüğe	-10.9061
▁Birkaç	-10.9063
▁pamuk	-10.9063
▁olmaksızın	-10.9064
▁göstererek	-10.9066
▁haliyle	-10.9066
▁LED	-10.9067
▁Gülen	-10.9068
▁Telekom	-10.9068
▁Rektör	-10.907
▁Ahmed	-10.907
▁Peygamberimiz	-10.9071
▁HA	-10.9071
▁Geniş	-10.9072
▁alınmıştır	-10.9073
▁görülme	-10.9075
ura	-10.9077
▁havada	-10.9077
▁geçmişte	-10.9078
▁yüzüne	-10.9078
▁solunum	-10.9081
▁Zonguldak	-10.9081
▁hayati	-10.9082
kil	-10.9083
kul	-10.9083
▁kıta	-10.9084
▁gun	-10.9085
▁dilediğiniz	-10.9085
▁bırakmak	-10.9087
▁ayın	-10.9087
▁SEO	-10.9087
rah	-10.9088
ibi	-10.9091
▁Pen	-10.9091
▁şifa	-10.9092
▁muh	-10.9096
▁tesisleri	-10.9096
▁şimdiye	-10.9097
▁kısmen	-10.9097
▁çiz	-10.9098
▁Söyle	-10.9099
▁KUR	-10.91
▁taşımak	-10.9103
▁birikimi	-10.9104
▁daim	-10.9107
▁Senin	-10.9107
ebe	-10.9109
▁İçinde	-10.9111
▁atıyor	-10.9112
▁Moskova	-10.9112
▁görünümü	-10.9114
▁Gökhan	-10.9115
▁başlı	-10.9118
▁Dal	-10.9118
▁Kahve	-10.912
▁kaldırma	-10.9121
▁tank	-10.9122
▁tarafa	-10.9123
nüz	-10.9124
▁muhtemel	-10.9124
▁katliam	-10.9124
▁sarışın	-10.9125
alan	-10.9126
▁Evleri	-10.9127
▁etek	-10.9127
▁sorusu	-10.9132
▁kapatma	-10.9134
▁Kul	-10.9135
ari	-10.9135
▁karşılaştırma	-10.9136
▁çözümleri	-10.9139
▁İnsanların	-10.914
▁niteliğinde	-10.9142
▁itfaiye	-10.9143
▁ırk	-10.9143
▁sahibinin	-10.9143
▁imkân	-10.9147
▁Serbest	-10.9147
▁işsizlik	-10.9147
▁dul	-10.915
şık	-10.9152
92	-10.9155
▁değerlendirilme	-10.9155
▁Kabul	-10.9156
▁fazlasını	-10.9156
▁hissettir	-10.9157
▁kadınları	-10.9157
▁Bağımsız	-10.916
▁başvuruları	-10.9164
key	-10.9165
▁insanlarla	-10.9165
▁ithalat	-10.9165
▁gördüğünüz	-10.9166
▁Tom	-10.9166
▁Kalp	-10.9169
▁tesisat	-10.9171
▁kaynaklar	-10.9173
▁müsabaka	-10.9173
▁tabir	-10.9174
▁Market	-10.9175
▁yakında	-10.9177
▁rejim	-10.9179
ruk	-10.9179
▁1)	-10.9179
▁ağzı	-10.9179
▁taraftar	-10.918
▁ag	-10.918
▁cari	-10.9181
▁Ümraniye	-10.9182
▁çıkmıştır	-10.9184
▁seçildi	-10.9184
▁Hesap	-10.9186
▁yürü	-10.9187
▁Gümüş	-10.9187
▁hastaların	-10.9187
▁Maltepe	-10.9191
▁insani	-10.9192
200	-10.9193
fre	-10.9193
▁yasağı	-10.9194
▁Çorum	-10.9195
▁hâkim	-10.9196
▁Tar	-10.9196
▁sure	-10.9198
▁haritası	-10.9199
▁Saf	-10.9203
▁Askeri	-10.9204
▁mağara	-10.9205
larınızda	-10.9207
▁Toplu	-10.9212
▁ti	-10.9213
▁Pat	-10.9215
▁parsel	-10.9215
▁detaylara	-10.9216
▁açıklamaları	-10.9216
??	-10.9217
▁itibar	-10.9218
mil	-10.9221
▁miras	-10.9222
▁artırma	-10.9223
▁iyileştirme	-10.9223
▁oluş	-10.9226
▁transferi	-10.9226
lıkla	-10.9228
▁müşterilerimize	-10.923
allah	-10.9231
▁öncelik	-10.9233
▁Pay	-10.9233
▁böbrek	-10.9234
▁yerleştir	-10.9235
▁Suç	-10.9237
▁konuşmasında	-10.9238
▁tabanlı	-10.9241
▁Bahis	-10.9243
▁yöneticisi	-10.9245
▁hatırla	-10.9245
▁Esas	-10.9246
▁ısıtma	-10.9248
▁fiil	-10.925
▁hap	-10.9252
▁esnek	-10.9253
▁Zeki	-10.9255
▁dişi	-10.9256
▁başlattığı	-10.9256
tic	-10.9257
ymiş	-10.9257
▁beklediği	-10.9257
▁mantığı	-10.9258
/3	-10.9258
▁haram	-10.9259
▁Vergisi	-10.9259
▁istekli	-10.926
ound	-10.9261
▁fakülte	-10.9263
▁biyo	-10.9264
▁aklıma	-10.9265
▁yazımızda	-10.9265
▁kullanılıyor	-10.9266
▁Pri	-10.9266
▁Şehircilik	-10.9267
tıcı	-10.9268
▁Rıza	-10.9268
▁War	-10.9269
▁ısrar	-10.9269
▁kadınlara	-10.9272
maksızın	-10.9272
▁Kav	-10.9274
▁etmedi	-10.9274
vas	-10.9274
▁Düzce	-10.9275
▁amatör	-10.9276
hak	-10.9276
▁Ücret	-10.9277
mla	-10.9278
▁sahasında	-10.928
▁plakalı	-10.9281
▁isti	-10.9281
▁Full	-10.9281
▁giderilmesi	-10.9283
▁(%	-10.9285
▁vatandaşı	-10.9286
▁yaşta	-10.9286
▁organizasyonu	-10.9286
▁My	-10.9289
▁konumu	-10.9289
▁getirecek	-10.929
▁duru	-10.929
dr	-10.9291
madığı	-10.9291
▁komutan	-10.9292
▁kanalları	-10.9294
▁Platformu	-10.9295
jen	-10.9298
▁Alışveriş	-10.9299
▁Sert	-10.93
▁Dan	-10.93
wi	-10.9301
▁Düzen	-10.9303
bl	-10.9304
▁Kes	-10.9304
▁özgürlüğü	-10.9304
▁geleneği	-10.9304
▁kötülük	-10.9305
mit	-10.9307
▁kurumların	-10.9307
-15	-10.9307
▁tr	-10.9308
▁başrol	-10.9309
▁Hocam	-10.9309
▁paylaşma	-10.9311
▁olduktan	-10.9315
▁teşkilat	-10.9316
▁yaptıktan	-10.9317
▁19.	-10.932
▁13.	-10.9325
▁önlem	-10.9325
▁İste	-10.9326
▁içten	-10.9326
▁Ertuğrul	-10.9328
▁toprağa	-10.9328
▁pop	-10.9334
▁gözle	-10.9336
▁tutuklandı	-10.9337
▁eğ	-10.9338
4)	-10.9339
kas	-10.9339
▁bakımdan	-10.934
▁düşüyor	-10.9342
▁Çavuşoğlu	-10.9342
▁vasıtasıyla	-10.9343
▁idam	-10.9344
▁üzüm	-10.9345
▁ekipler	-10.9346
▁duyguları	-10.9347
▁versiyonu	-10.9347
▁700	-10.9348
tas	-10.9348
▁korkusu	-10.9349
▁atış	-10.9351
▁sinyal	-10.9355
▁açlık	-10.9356
▁ateşli	-10.9359
▁Tri	-10.9359
▁Kararı	-10.936
▁rakamlar	-10.936
▁ortaklık	-10.936
▁ayına	-10.936
▁uzaklaştır	-10.9361
▁yoğurt	-10.9364
emediği	-10.9366
▁Gelecek	-10.9368
94	-10.9371
▁unutulmaz	-10.9372
▁kir	-10.9372
▁uzmanlar	-10.9373
▁dileriz	-10.9375
-16	-10.9378
▁Sözleşmesi	-10.9381
Bugün	-10.9383
▁karışım	-10.9385
▁Sipariş	-10.9386
▁işlemini	-10.9386
▁eklem	-10.9387
▁düşünüyoruz	-10.9389
▁Beden	-10.939
▁hedefleri	-10.939
▁hassasiyet	-10.9391
.9	-10.9391
▁İdari	-10.9391
▁Çal	-10.9392
▁üretme	-10.9394
▁tamamlayan	-10.9394
mat	-10.9396
▁Çelebi	-10.9397
▁kad	-10.9397
▁sürüş	-10.9398
▁Burcu	-10.9399
▁Memur	-10.9401
▁taşınmaz	-10.9401
▁jandarma	-10.9405
▁AVM	-10.9406
▁oyuncuları	-10.9407
▁müdürlüğü	-10.941
▁mantık	-10.9411
▁öde	-10.9411
▁Bul	-10.9411
▁vade	-10.9411
TÜ	-10.9413
sion	-10.9414
▁çalışmaktadır	-10.9414
▁Tal	-10.9415
▁Neyse	-10.9415
eç	-10.9415
▁grubun	-10.9417
▁düzelt	-10.942
▁Sözleri	-10.9421
▁edelim	-10.9422
▁ibaret	-10.9422
▁Isparta	-10.9426
eğin	-10.9426
▁görüşmeleri	-10.9427
▁canlandır	-10.943
SU	-10.943
▁edeceğini	-10.9431
ere	-10.9431
▁bulduk	-10.9432
▁uzmanlık	-10.9433
▁sorunlarını	-10.9434
▁müslüman	-10.9434
▁endeksi	-10.9434
▁ola	-10.9436
▁aşkı	-10.9439
Si	-10.9439
▁keskin	-10.944
▁iştirak	-10.9444
▁takımları	-10.9447
▁çağrısı	-10.9447
▁faydaları	-10.945
▁şampiyon	-10.9452
▁Engin	-10.9453
▁olduğumu	-10.9454
▁temsilci	-10.9455
▁hükümlerine	-10.9456
▁ilgisini	-10.9457
▁cevabını	-10.9461
▁ülkesi	-10.9462
▁Tez	-10.9463
llah	-10.9465
▁Faaliyet	-10.9466
▁etmeyin	-10.9467
▁sokakta	-10.9468
sco	-10.947
▁kitapta	-10.9472
▁yaşına	-10.9473
▁genişlet	-10.9473
▁TC	-10.9475
▁Nuri	-10.9477
ulur	-10.9479
▁vermez	-10.9479
▁Bulut	-10.9484
▁yaptırma	-10.9484
▁toplumda	-10.9484
▁işlerini	-10.9484
▁seans	-10.9485
▁NO	-10.9486
▁içki	-10.9487
▁Tepe	-10.9489
lerinizde	-10.9491
▁ndan	-10.9492
▁burası	-10.9494
▁şartlarda	-10.9494
▁dilek	-10.9494
▁Şampiyonlar	-10.9495
▁gördüğüm	-10.9496
örü	-10.9496
▁sanatı	-10.9497
▁başlamadan	-10.9497
▁erkeğin	-10.9498
▁Önder	-10.9499
▁ekim	-10.9499
▁kalmaz	-10.9502
▁görülebilir	-10.9503
▁çim	-10.9505
▁Vatan	-10.9506
▁şehirler	-10.9507
▁ülkeden	-10.9507
▁okun	-10.9508
▁parası	-10.9509
hen	-10.9509
▁taşımacılığı	-10.9512
▁yargılama	-10.9512
▁fırtına	-10.9514
▁etkileyici	-10.9516
▁format	-10.9521
▁sözünü	-10.9521
ick	-10.9522
▁aydır	-10.9522
▁â	-10.9522
stra	-10.9522
▁çerçevede	-10.9522
▁Oyna	-10.9523
▁Adem	-10.9524
▁saklı	-10.9527
▁Avukat	-10.9527
▁geçirilen	-10.9529
▁konuşuyor	-10.9532
▁cildi	-10.9533
▁borçlu	-10.9533
▁masum	-10.9533
▁mutlak	-10.9535
▁derhal	-10.9537
Dİ	-10.9537
▁fan	-10.9538
▁etkisiz	-10.9539
97	-10.954
▁bulunacak	-10.954
▁Rüya	-10.954
▁gec	-10.9541
ımıza	-10.9543
▁keşif	-10.9543
▁takdim	-10.9543
▁görülmesi	-10.9545
▁tamamlandı	-10.9546
ümüz	-10.9546
▁kazanmış	-10.9548
TI	-10.9549
▁Varlık	-10.955
▁bulduğu	-10.9551
larca	-10.9556
rus	-10.9557
▁leke	-10.9559
▁negatif	-10.9559
▁sandık	-10.956
-30	-10.956
by	-10.9561
▁tasarımcı	-10.9564
▁post	-10.9566
▁faktör	-10.9566
▁Normal	-10.9569
▁niyeti	-10.9572
▁kanama	-10.9573
▁aktaran	-10.9575
ebil	-10.9575
▁yatağı	-10.9575
▁internette	-10.9577
▁hayvanların	-10.9578
▁favori	-10.9578
▁almanız	-10.9581
▁Soğuk	-10.9581
▁yazıda	-10.9581
ST	-10.9582
▁kurtulmak	-10.9583
▁Yoğun	-10.9586
gov	-10.959
ülü	-10.9592
lilerin	-10.9593
▁merhamet	-10.9595
▁noktasına	-10.9597
▁kaydıyla	-10.9598
undan	-10.9599
Kar	-10.9599
▁bor	-10.9601
▁tas	-10.9601
▁gitar	-10.9603
▁NE	-10.9605
▁sabır	-10.9606
▁şarkısı	-10.9606
▁facebook	-10.9608
▁sağlanan	-10.9609
▁bat	-10.961
mb	-10.9616
▁tahmini	-10.9617
▁destekleme	-10.9618
geç	-10.9618
▁düzeyi	-10.9619
▁topluma	-10.9619
▁Siyaset	-10.9619
▁kaybettiği	-10.9619
▁sevdikleri	-10.9619
▁düşmesi	-10.9619
▁helikopter	-10.9622
sis	-10.9622
Çok	-10.9623
▁fiziki	-10.9624
▁etmeyen	-10.9626
▁yo	-10.9627
▁yemekler	-10.9628
str	-10.9629
rk	-10.9629
▁bulunmadığı	-10.9632
▁vereceği	-10.9632
labilir	-10.9634
▁Kıs	-10.9639
▁başladığını	-10.9639
Kara	-10.964
▁faaliyetler	-10.9642
▁dışarıda	-10.9644
cor	-10.9644
▁maçları	-10.9645
▁Çağrı	-10.9645
▁yazıyı	-10.9646
▁okudu	-10.9646
▁okudum	-10.9646
▁aran	-10.9646
nt	-10.9648
▁bakanlık	-10.9648
▁cehennem	-10.9651
-11	-10.9653
SP	-10.9656
▁Seyahat	-10.9657
▁koyuyor	-10.9658
▁temenni	-10.966
▁tüy	-10.966
dol	-10.9662
ski	-10.9664
▁başlayıp	-10.9667
leştiği	-10.9667
▁edilmesini	-10.9669
▁Red	-10.967
▁göstermesi	-10.9671
▁eyalet	-10.9671
ılmaya	-10.9671
▁talebinde	-10.9672
üf	-10.9674
▁kullanmayı	-10.9674
▁birikim	-10.9674
▁Küresel	-10.9677
▁öteki	-10.9678
▁İzle	-10.9678
▁Müslümanlar	-10.9678
▁ertesi	-10.9678
▁üretmek	-10.9679
▁vadede	-10.9679
▁atmosfer	-10.968
▁önlemler	-10.968
▁by	-10.9681
▁Kapalı	-10.9682
▁çadır	-10.9683
▁Yat	-10.9686
▁karara	-10.9687
▁Tekrar	-10.9688
▁sayın	-10.9689
▁çayı	-10.969
▁mesajları	-10.969
▁Özcan	-10.969
kle	-10.9692
ou	-10.9692
▁Bilecik	-10.9695
▁kaçırma	-10.9699
▁68	-10.9699
▁Hekim	-10.9701
âr	-10.9701
▁bölgesindeki	-10.9704
▁aktardı	-10.9706
ebileceğini	-10.9706
▁ilgilen	-10.9707
▁Yara	-10.9707
▁patent	-10.9708
malıyız	-10.971
▁İsmet	-10.971
▁Erol	-10.9711
Do	-10.9712
fil	-10.9713
zaman	-10.9713
▁teslimat	-10.9714
▁Standart	-10.9717
bed	-10.9717
▁işlev	-10.9718
pen	-10.9719
▁kuşak	-10.9722
▁Artvin	-10.9723
▁Endüstri	-10.9725
lah	-10.9727
▁kökenli	-10.9727
lıkta	-10.9729
luğun	-10.9729
daha	-10.973
▁teker	-10.9731
irler	-10.9731
-0	-10.9735
▁seçimlerinde	-10.9736
▁sesini	-10.9738
arken	-10.974
tun	-10.9741
▁ni	-10.9745
arım	-10.9746
▁ihtiyacını	-10.9747
▁söyleşi	-10.9748
▁Anti	-10.975
▁Mimarlık	-10.975
dor	-10.9751
▁konumda	-10.9752
▁uzmanları	-10.9753
▁örgütleri	-10.9753
▁defalarca	-10.9754
▁haş	-10.9755
▁mutluluğu	-10.9755
▁eğlen	-10.9755
▁yatırma	-10.9757
▁kıyafetleri	-10.9762
▁Bor	-10.9763
▁hd	-10.9763
lisiniz	-10.9763
▁Tebliğ	-10.9763
▁kurtulma	-10.9765
larıdır	-10.9767
▁tasarımları	-10.9767
▁müşterilerimiz	-10.9767
▁zamanın	-10.9767
▁kısmının	-10.9767
▁boynu	-10.9768
▁Paket	-10.9771
memiş	-10.9772
▁yaşadığımız	-10.9772
gir	-10.9773
▁maaşı	-10.9776
▁gelenek	-10.9776
▁3-4	-10.9776
▁duman	-10.9778
▁bitkisel	-10.9781
▁tedarik	-10.9783
▁barındıran	-10.9783
▁aktör	-10.9784
▁sitesine	-10.9785
kül	-10.9787
▁ekrana	-10.9788
▁çalışmanın	-10.9793
▁zeytinyağı	-10.9794
▁basamak	-10.9794
▁seyir	-10.9795
hem	-10.9795
▁AA	-10.9797
▁kılın	-10.9797
▁oluşum	-10.9798
▁Hani	-10.9798
▁işlemlerinin	-10.9798
6)	-10.9801
▁adımı	-10.9802
tri	-10.9804
▁edemez	-10.9804
▁Bit	-10.9805
▁deyip	-10.9805
Le	-10.9808
mem	-10.9808
▁Bursaspor	-10.9809
▁geliri	-10.9809
▁gerçekçi	-10.981
▁Kaş	-10.9813
▁değişir	-10.9816
▁Finansal	-10.9818
▁trend	-10.9819
▁korunma	-10.9819
▁isten	-10.982
ımın	-10.9822
▁sağlayabilir	-10.9822
▁yetkililer	-10.9833
▁Genelkurmay	-10.9835
ence	-10.9837
▁Dünyası	-10.9838
▁rev	-10.9842
amp	-10.9843
park	-10.9843
▁eminim	-10.9844
▁Afyonkarahisar	-10.9845
▁arkada	-10.9846
▁iOS	-10.9847
▁deplasmanda	-10.9849
▁ailesine	-10.985
▁hormon	-10.9851
▁Maden	-10.9852
▁Ze	-10.9853
ney	-10.9854
▁fu	-10.9854
▁sag	-10.9855
▁kimdir	-10.9856
liğinde	-10.9856
▁fena	-10.9856
▁Aşağıda	-10.9857
ði	-10.9858
▁hile	-10.9858
▁komik	-10.9858
ysanız	-10.9858
▁çalışmalarında	-10.9859
▁sağlayarak	-10.986
▁elden	-10.986
ling	-10.9861
▁gerçekleşmesi	-10.9863
▁Esnaf	-10.9863
▁maddelerin	-10.9863
▁Tuna	-10.9865
91	-10.9867
▁yıkım	-10.9872
nuzda	-10.9873
▁fırça	-10.9876
▁Final	-10.9876
▁Zeynep	-10.9877
▁Avcı	-10.9877
▁zihni	-10.9879
▁güler	-10.9879
▁Erzincan	-10.988
▁olasılığı	-10.988
▁Yalova	-10.988
▁ANKARA	-10.9882
▁ekranı	-10.9882
▁Tokat	-10.9883
lerimizle	-10.9883
▁anal	-10.9885
ami	-10.9886
▁1998	-10.9887
▁tanıtımı	-10.9887
▁yıllarca	-10.9889
▁yayla	-10.9889
ola	-10.9889
▁şarkıları	-10.9892
▁koşul	-10.9895
AZ	-10.9896
emi	-10.9896
▁Düzenleme	-10.9897
ure	-10.9898
▁coğrafi	-10.9899
▁sitesinin	-10.99
▁mat	-10.9901
▁kıyasla	-10.9902
▁sürme	-10.9904
▁Klasik	-10.9905
▁imal	-10.9906
▁varan	-10.9907
yel	-10.9908
▁taşınması	-10.9909
▁koyan	-10.9912
▁tadilat	-10.9913
▁görmeye	-10.9915
▁götürdü	-10.9916
laşması	-10.9918
▁atom	-10.9918
▁geçirildi	-10.992
▁eğitimin	-10.992
▁programda	-10.992
▁atın	-10.9922
▁iseniz	-10.9923
▁iyileşme	-10.9924
▁faktörler	-10.9924
▁bölümünden	-10.9926
▁hazırlamak	-10.9929
▁tuşuna	-10.9929
▁mühendislik	-10.993
matik	-10.9933
▁gerektiğinde	-10.9934
▁haftanın	-10.9937
▁dostluk	-10.994
▁ülkemize	-10.9941
▁teori	-10.9945
▁Çakır	-10.9946
Eğer	-10.9946
▁olgu	-10.9947
▁malı	-10.9948
▁sevimli	-10.995
MO	-10.9951
imizde	-10.9951
▁uygulanacak	-10.9952
▁siteler	-10.9952
▁ayrılır	-10.9954
▁yapalım	-10.9955
▁köklü	-10.9956
▁okullarda	-10.9958
▁iyilik	-10.9961
digi	-10.9961
▁bilgilendir	-10.9965
▁kok	-10.9967
▁bant	-10.997
mir	-10.9971
lk	-10.9972
▁Celal	-10.9972
ray	-10.9973
▁ani	-10.9974
▁Kendisi	-10.9975
▁sezonun	-10.9977
▁şarkıcı	-10.9977
▁alman	-10.9977
▁kapağı	-10.9979
▁Amatör	-10.9979
▁hikmet	-10.998
▁bı	-10.9981
▁Özer	-10.9983
ÜZ	-10.9983
▁akımı	-10.9983
▁kişileri	-10.9984
▁yönetiminde	-10.9984
▁evrensel	-10.9987
▁Dakika	-10.9997
ras	-10.9998
▁birbirini	-10.9998
▁lazer	-11.0001
▁Merkezleri	-11.0002
psi	-11.0005
▁dönüp	-11.0006
▁sp	-11.0006
▁istismar	-11.0006
▁egemen	-11.0006
▁odak	-11.0009
▁yaban	-11.001
▁kucak	-11.0011
▁ulaştığı	-11.0012
▁sevin	-11.0014
▁genetik	-11.0014
▁yapanlar	-11.0014
▁ihtimal	-11.0014
▁yaşıyoruz	-11.0015
▁içecek	-11.0015
ERİ	-11.0015
osu	-11.0017
▁sürecine	-11.0017
▁Saygı	-11.0019
▁alacağınız	-11.0019
▁günlerinde	-11.002
▁derler	-11.0021
▁çekilme	-11.0023
▁ab	-11.0026
▁saldırgan	-11.0028
▁aşan	-11.0029
▁hazırlanmıştır	-11.0029
▁dilerim	-11.0031
▁denildi	-11.0032
▁sesleri	-11.0032
▁Geçmiş	-11.0033
▁kurutma	-11.0034
▁çıktığını	-11.0034
▁Sana	-11.0036
YO	-11.0036
▁bitkiler	-11.0036
maktır	-11.0037
▁Masa	-11.0037
▁Malzemeleri	-11.0037
▁şeklindeki	-11.0039
▁kayded	-11.0041
▁seviyeye	-11.005
▁Ayı	-11.005
▁belirtiyor	-11.0051
▁kova	-11.0052
▁kocaman	-11.0053
▁zira	-11.0053
▁yakınları	-11.0054
▁sürükle	-11.0057
landırılması	-11.0059
▁zihniyet	-11.006
▁karşılama	-11.006
▁önder	-11.006
dışı	-11.006
▁görüyorum	-11.0062
▁AN	-11.0064
▁evlenme	-11.0066
▁yapmakta	-11.0066
▁Çatı	-11.0069
▁tava	-11.007
▁ünite	-11.007
▁Başta	-11.007
▁meşgul	-11.007
▁Pas	-11.0071
▁sıralarında	-11.0073
▁önerisi	-11.0074
▁aksesuar	-11.0074
ding	-11.0075
▁endüstriyel	-11.0075
▁türkü	-11.0076
▁fiyatlarla	-11.0077
▁inanan	-11.0077
shi	-11.0078
aca	-11.0079
▁kayak	-11.008
▁Millî	-11.0085
▁Seçme	-11.0085
▁tecrübesi	-11.0086
duğunu	-11.0087
▁Sözcüsü	-11.0088
▁depresyon	-11.009
▁gri	-11.0091
▁Göl	-11.0091
▁Piyasa	-11.0094
▁açılmış	-11.0094
.19	-11.0096
ğını	-11.0096
▁yeterlidir	-11.0099
mişlerdir	-11.01
▁Tuzla	-11.01
▁Risk	-11.0101
▁karı	-11.0102
▁yararlanmak	-11.0104
▁davranışlar	-11.0104
▁materyal	-11.0104
▁aktarma	-11.0105
▁Pir	-11.0108
▁Tatlı	-11.011
▁tarama	-11.0112
▁artırılması	-11.0114
▁diyecek	-11.0115
TAŞ	-11.0115
▁otorite	-11.0115
▁istikbal	-11.0116
▁Ker	-11.0117
▁Yo	-11.0118
▁binanın	-11.0118
▁Makinesi	-11.0118
▁hemşire	-11.0119
▁Yetkili	-11.0119
gaz	-11.012
jo	-11.0121
▁döşeme	-11.0121
▁anlatır	-11.0123
oid	-11.0124
▁asfalt	-11.0124
▁öngörülen	-11.0125
▁kutusu	-11.0125
▁yoksun	-11.0127
▁veriyorum	-11.0127
▁düşünceleri	-11.0128
▁Şirketi	-11.0129
▁Ulaştırma	-11.013
▁zihinsel	-11.0132
▁Üzerinde	-11.0132
içi	-11.0133
▁vermişti	-11.0136
▁ümit	-11.0136
▁bedeni	-11.014
▁moral	-11.014
▁sürümü	-11.0143
▁maske	-11.0143
▁konak	-11.0149
▁tamamlama	-11.0155
▁buyurdu	-11.0157
abildiği	-11.0158
.11	-11.0159
▁doz	-11.016
rî	-11.016
kit	-11.016
▁adında	-11.0166
▁okullar	-11.0169
baz	-11.0169
▁Sağlıklı	-11.0172
▁Internet	-11.0174
▁gözlerini	-11.0174
▁taşımaktadır	-11.0174
▁kentsel	-11.0176
▁Alp	-11.0176
▁tanımlama	-11.0176
▁Hayal	-11.0177
▁elit	-11.0177
▁ihanet	-11.0179
▁anlaşması	-11.0179
▁ilkesi	-11.018
▁tüp	-11.0181
▁denli	-11.0182
▁gazı	-11.0185
leşir	-11.0186
▁beklen	-11.0186
▁ürünlerinin	-11.0187
▁diyalog	-11.0187
▁Karaca	-11.0187
▁politikaları	-11.0187
▁Başsavcılığı	-11.0188
▁kesinti	-11.0189
▁Yıllık	-11.0191
nes	-11.0191
▁Büro	-11.0192
Mar	-11.0193
▁anlatma	-11.0193
▁vermiyor	-11.0194
▁liralık	-11.0196
▁Fon	-11.0196
▁yatırımları	-11.0196
▁geleni	-11.0197
▁ilerle	-11.0197
▁şeffaf	-11.0199
▁anlık	-11.0201
▁Server	-11.0202
▁salonunda	-11.0203
lıyız	-11.0203
Rİ	-11.0204
▁karaciğer	-11.0204
▁Sahil	-11.0205
âb	-11.0206
▁Arkadaş	-11.0206
▁hac	-11.0206
▁altından	-11.0207
▁hele	-11.021
▁kılan	-11.0213
▁dondurma	-11.0214
▁dönüşü	-11.0215
izasyon	-11.0215
▁yürüten	-11.0216
▁gerektirir	-11.0216
çiler	-11.0216
▁yarattı	-11.0216
Da	-11.0216
▁sevinç	-11.0219
Be	-11.022
▁Numaralı	-11.0221
▁uza	-11.0222
▁nar	-11.0222
lıyorum	-11.0223
rim	-11.0226
ort	-11.0226
▁prosedür	-11.0227
cim	-11.0229
▁CD	-11.0232
▁ulus	-11.0233
▁öden	-11.0236
▁Terim	-11.0237
▁ediniz	-11.0239
tuk	-11.024
▁Bes	-11.024
leşti	-11.0241
▁amaçları	-11.0241
▁farkına	-11.0242
▁Cinsel	-11.0244
▁bırakan	-11.0245
▁bağırsak	-11.0246
DU	-11.0246
▁iktidarın	-11.0247
▁sayısında	-11.0248
▁direniş	-11.0249
▁kömür	-11.0249
▁utan	-11.025
▁fl	-11.025
▁ceviz	-11.0255
▁Mağaza	-11.0256
sol	-11.0257
▁Zor	-11.0258
▁fiyata	-11.0258
▁düşünmek	-11.0259
▁organları	-11.0259
▁hic	-11.026
▁Devam	-11.0261
▁piyasası	-11.0261
▁bela	-11.0263
▁özü	-11.027
hl	-11.027
my	-11.0271
▁özelliklere	-11.0272
▁adil	-11.0273
▁kullanımına	-11.0273
▁Dede	-11.0273
GA	-11.0274
▁dolaş	-11.0275
▁gerçekleştirdik	-11.0275
▁sicil	-11.0276
▁ayırma	-11.0277
▁Kamera	-11.0277
acağımız	-11.0277
▁modu	-11.0277
▁kenarında	-11.0278
IK	-11.0279
▁Nüfus	-11.0279
▁sorusuna	-11.028
▁Brezilya	-11.0281
▁avantajı	-11.0282
▁Kurumları	-11.0282
▁Petrol	-11.0282
des	-11.0284
▁ödenmesi	-11.0284
cal	-11.0284
▁görüp	-11.0286
yap	-11.0287
▁Sam	-11.0287
vel	-11.0287
▁Port	-11.0288
▁ihtiyacımız	-11.0289
▁ajan	-11.0293
▁ekonomisi	-11.0293
▁kür	-11.0294
▁Derin	-11.0297
▁Kahraman	-11.0298
▁oluşturmaktadır	-11.0298
▁verim	-11.0299
▁herhalde	-11.03
▁gu	-11.03
▁kenara	-11.03
▁yakalama	-11.0301
▁vermekteyiz	-11.0301
▁um	-11.0304
▁adama	-11.0305
▁baskısı	-11.0305
▁sınıfta	-11.0305
▁Boş	-11.0309
▁sim	-11.031
Ko	-11.0312
▁inç	-11.0313
▁Gündem	-11.0314
▁başlangıcı	-11.0314
kt	-11.0315
mel	-11.0316
▁fikirleri	-11.0316
▁notu	-11.0317
▁SGK	-11.0317
▁Mon	-11.0319
▁yazmış	-11.0319
▁Bra	-11.0319
▁Amasya	-11.032
▁Kir	-11.0321
diğinde	-11.0322
Po	-11.0323
▁full	-11.0324
▁gelmiyor	-11.0325
Ra	-11.0327
▁değerlendirmek	-11.0328
▁hazine	-11.0329
▁etik	-11.033
▁etnik	-11.0331
▁Hatip	-11.0332
▁küme	-11.0332
gra	-11.0333
Gİ	-11.0336
▁Türklerin	-11.0338
PA	-11.0339
▁mektubu	-11.034
▁Paylaş	-11.0342
▁tedavisinde	-11.0343
elli	-11.0344
Tek	-11.0344
çılar	-11.0346
▁bahsed	-11.0347
▁fotoğrafçı	-11.0348
▁Seni	-11.0349
▁koşullarda	-11.0351
▁yürüttüğü	-11.0352
▁takı	-11.0354
sunun	-11.0354
▁City	-11.0354
▁Uç	-11.0356
▁gerçekleştirme	-11.0357
▁Kararname	-11.036
Fa	-11.036
yolu	-11.0362
▁yüksekliği	-11.0362
way	-11.0364
▁nce	-11.0364
▁yükü	-11.0364
TV	-11.0365
sp	-11.0368
ınızın	-11.037
▁yapıştır	-11.0371
▁Taksim	-11.0372
▁Hint	-11.0377
▁suyunu	-11.0379
▁ayırt	-11.0381
laştı	-11.0382
uc	-11.0383
▁kurulumu	-11.0384
▁eskiden	-11.0387
▁oturup	-11.0387
▁Devletleri	-11.0387
▁sağlayıcı	-11.0387
▁partner	-11.039
▁Sorumlu	-11.039
▁bırakır	-11.0393
▁Binali	-11.0394
uç	-11.0394
▁Sizlere	-11.0395
▁eğitimini	-11.0395
▁Akademisi	-11.0397
▁hususunda	-11.04
▁avantajlı	-11.0401
dâ	-11.0402
▁Yolları	-11.0402
memesi	-11.0403
▁sezonunda	-11.0404
▁promosyon	-11.0405
▁birebir	-11.0405
▁Çeşme	-11.0405
▁karşılaştığı	-11.0405
▁uyandır	-11.0405
▁arasındadır	-11.0406
▁çalışmalarda	-11.0409
Ay	-11.0409
▁mühendis	-11.041
▁Düş	-11.041
▁yapının	-11.0411
▁iddialı	-11.0413
▁gördüğümüz	-11.0413
▁böcek	-11.0415
▁nasip	-11.0415
▁formül	-11.0417
▁Akademik	-11.0417
iv	-11.0419
▁--	-11.0421
▁faaliyeti	-11.0422
▁göstermiş	-11.0425
▁bölümüne	-11.0426
TSO	-11.0428
klerini	-11.0428
▁mekanik	-11.0429
▁kalitede	-11.0432
▁Yerli	-11.0433
▁ülkelerinde	-11.0433
▁engellemek	-11.0433
▁İstatistik	-11.0434
▁sunumu	-11.0437
cısı	-11.0438
▁Kral	-11.0438
▁Fre	-11.0441
▁tekstil	-11.0444
▁İlköğretim	-11.0445
▁Ticari	-11.0445
▁hepimizin	-11.0448
MI	-11.0448
▁klinik	-11.0449
lığının	-11.045
ulan	-11.0452
▁umudu	-11.0453
▁destekleyen	-11.0454
▁99	-11.0454
5)	-11.0455
Gel	-11.0455
▁belirlediği	-11.0455
▁dekorasyonu	-11.0459
▁akış	-11.046
▁Patent	-11.0461
mizdeki	-11.0461
▁Adası	-11.0463
▁Kaliteli	-11.0463
▁istemediği	-11.0463
▁tuttu	-11.0469
▁Bakırköy	-11.047
▁diyebilirim	-11.047
▁problemler	-11.0471
▁Hadi	-11.0471
▁gemisi	-11.0471
tak	-11.0472
▁Yukarıdaki	-11.0473
▁büyüklüğünde	-11.0474
▁ileti	-11.0474
▁dışından	-11.0475
▁Puan	-11.0479
blo	-11.0482
vit	-11.0482
▁Modelleri	-11.0484
▁Ayakkabı	-11.0484
▁verimliliği	-11.0484
▁yönden	-11.0486
melisiniz	-11.0486
▁çevresi	-11.0487
ms	-11.0487
sor	-11.0488
▁alanındaki	-11.0489
▁çeyrek	-11.0489
▁gelmeye	-11.0489
▁hizmetlerin	-11.0489
▁yatay	-11.049
▁TSK	-11.049
▁tırnak	-11.049
▁zayıflama	-11.0491
▁rahatlat	-11.0492
▁adımları	-11.0494
▁minibüs	-11.0496
▁trans	-11.0496
▁kıymet	-11.0497
▁kendinden	-11.0497
mekten	-11.0497
▁Bugüne	-11.0498
▁yaprak	-11.0498
▁önünü	-11.0499
▁saatler	-11.0499
▁istemiyor	-11.0502
▁ا	-11.0504
▁oranının	-11.0504
▁enfeksiyon	-11.0504
▁çıplak	-11.0505
▁seviyor	-11.0507
say	-11.0507
▁görecek	-11.0508
▁zorunluluğu	-11.051
ight	-11.051
▁netice	-11.051
▁kartları	-11.0512
▁Stok	-11.0516
▁ihti	-11.0516
▁alıyoruz	-11.0517
▁değ	-11.0518
▁Köprüsü	-11.0519
▁Umut	-11.0521
meniz	-11.0521
▁Başkent	-11.0522
▁Beyoğlu	-11.0522
▁yapıları	-11.0522
▁unsurlar	-11.0524
▁gor	-11.0524
mad	-11.0525
medim	-11.0525
SO	-11.0527
7)	-11.0527
▁Sık	-11.0528
▁vazgeçme	-11.0529
▁gündemi	-11.0535
▁ilinde	-11.0536
▁soruların	-11.0536
▁Mat	-11.0539
▁mesajlar	-11.054
▁seçti	-11.0542
▁Boya	-11.0542
▁Trans	-11.0542
▁Ortaokulu	-11.0543
▁muhtaç	-11.0543
▁Filmin	-11.0544
▁belirt	-11.0545
▁bağır	-11.0547
▁sorularını	-11.0548
med	-11.0549
▁kirliliği	-11.0549
▁%50	-11.0551
imde	-11.0551
▁pis	-11.0552
vin	-11.0553
▁düzenleyen	-11.0554
▁çoğal	-11.0555
▁Hizmetler	-11.0556
▁Kürdistan	-11.0556
day	-11.0557
▁Üniversitemiz	-11.0557
gram	-11.0558
▁1995	-11.0559
▁bölgeleri	-11.056
lerken	-11.0561
▁inşaatı	-11.0561
▁söyledikleri	-11.0562
▁Firmaları	-11.0562
▁Metro	-11.0562
TAN	-11.0563
çak	-11.0563
▁ingilizce	-11.0564
▁Ataşehir	-11.0565
▁İleri	-11.0565
▁varken	-11.0566
▁besleme	-11.0568
ABD	-11.0568
mam	-11.0569
▁Yük	-11.057
▁geçip	-11.0571
▁nak	-11.0572
▁duygular	-11.0573
▁Şüphesiz	-11.0575
uma	-11.0576
▁bayanım	-11.0576
▁klavye	-11.0579
▁Adres	-11.058
▁Boğaz	-11.0581
▁Tü	-11.0581
▁Şırnak	-11.0582
▁Den	-11.0583
▁kullanılmıştır	-11.0583
▁öğrendik	-11.0584
▁bilgisayarınız	-11.0586
▁yüzyılın	-11.0589
maktayız	-11.0591
▁karısı	-11.0592
dra	-11.0593
▁koleksiyon	-11.0593
As	-11.0594
▁levha	-11.0594
▁Özkan	-11.0595
▁GÜN	-11.0596
▁Tesisleri	-11.0596
rs	-11.0597
▁yaşından	-11.0597
▁Açılış	-11.0598
ero	-11.0599
▁Edinilen	-11.06
▁Pendik	-11.0602
DP	-11.0604
▁çabası	-11.0604
▁istihbarat	-11.0609
▁Dolandırıcı	-11.0609
▁etmenin	-11.0611
ec	-11.0611
▁peşin	-11.0615
SM	-11.0615
▁şubesi	-11.0616
▁Yeri	-11.0616
▁aldıktan	-11.0616
▁poşet	-11.0618
▁fantezi	-11.0618
▁kurt	-11.0619
▁basıncı	-11.0623
▁Mini	-11.0624
▁çirkin	-11.0624
▁gerektiğine	-11.0624
sy	-11.0626
▁Fiyatı	-11.0626
▁hesabından	-11.0627
▁Alınan	-11.0629
oyun	-11.063
▁şükür	-11.063
▁işlemlerin	-11.063
▁belirlenmiş	-11.063
▁Uşak	-11.0631
makla	-11.0631
▁Gal	-11.0632
▁şiiri	-11.0632
▁eylemi	-11.0634
▁karşınıza	-11.0635
tem	-11.0635
▁yaptılar	-11.0635
▁çözme	-11.0635
▁Başbakanlık	-11.0636
▁bilerek	-11.0638
▁sistemde	-11.0641
▁çök	-11.0642
▁hamam	-11.0643
kir	-11.0643
▁Kilo	-11.0644
▁Emekli	-11.0646
▁modül	-11.0646
▁cumhuriyet	-11.0648
▁oluşturdu	-11.0648
yıl	-11.0648
▁yararlanma	-11.0648
▁dokuz	-11.0649
gat	-11.0649
▁maddesine	-11.0649
kuş	-11.0651
▁korkunç	-11.0652
▁mantıklı	-11.0655
▁Eser	-11.0657
▁yatan	-11.0658
lus	-11.0658
şit	-11.0661
▁Siyasi	-11.0663
▁emeklilik	-11.0663
▁menfaat	-11.0664
▁dokunma	-11.0664
▁şarkılar	-11.0664
▁yaptırım	-11.0666
gon	-11.0668
▁Erken	-11.0669
▁kazası	-11.0669
▁Hıristiyan	-11.0669
▁engeller	-11.0669
maktan	-11.0671
▁vermedi	-11.0672
▁Organize	-11.0672
ılmaz	-11.0672
▁dokusu	-11.0674
▁İşlemleri	-11.0675
▁nefis	-11.0675
▁Büyü	-11.0675
ART	-11.0676
▁Yatak	-11.0676
▁kitabında	-11.0676
dığında	-11.0677
!!!	-11.0677
▁Tanımlar	-11.0678
▁unu	-11.0678
▁Akın	-11.0678
▁Milliyetçi	-11.0679
istanbul	-11.0679
▁seçimler	-11.0682
▁Yaka	-11.0684
▁muamele	-11.0684
▁irtibat	-11.0684
Benim	-11.0686
▁ruhsal	-11.0687
▁golü	-11.0687
▁ayarları	-11.0689
▁Eylem	-11.0691
ûr	-11.0693
▁değişti	-11.0693
▁emlak	-11.0697
▁döv	-11.0698
▁hacim	-11.0699
▁verdiğiniz	-11.0701
-25	-11.0702
▁böl	-11.0702
▁kullanıcılara	-11.0703
▁kaldık	-11.0703
▁bozuk	-11.0704
▁seçenekler	-11.0706
▁eğitmen	-11.0707
▁çalışmayı	-11.0707
▁Tipi	-11.0708
▁alanın	-11.0709
▁Afyon	-11.0712
▁programa	-11.0712
▁belirsiz	-11.0712
lenmeye	-11.0714
▁İzmit	-11.0714
TP	-11.0715
▁Akif	-11.0715
ph	-11.072
▁Ucuz	-11.0723
▁önündeki	-11.0725
▁kupon	-11.0727
tığını	-11.0728
▁Hikaye	-11.0728
▁Tasarımı	-11.073
liğinden	-11.073
▁sek	-11.073
▁açılacak	-11.0732
▁kontenjan	-11.0732
▁elinizde	-11.0732
▁yayınladı	-11.0733
▁oluşması	-11.0734
▁gelecektir	-11.0734
▁One	-11.0735
▁gözet	-11.0736
▁Meyve	-11.0738
▁Tem	-11.074
▁mekanizma	-11.074
▁teşhis	-11.0741
▁aramızda	-11.0742
▁hatırlatan	-11.0742
▁Eğ	-11.0742
ıldığında	-11.0744
lemesi	-11.0744
▁tir	-11.0744
▁süreçleri	-11.0746
avi	-11.0746
▁Kuruluş	-11.0747
▁taraftarı	-11.0748
▁makul	-11.0752
▁birisidir	-11.0753
▁garantisi	-11.0756
vâ	-11.0757
Kendi	-11.0757
haber	-11.0759
▁ışığında	-11.0759
▁ilmi	-11.076
▁çalışarak	-11.076
pt	-11.0761
▁tabela	-11.0763
Ankara	-11.0763
▁Gayrimenkul	-11.0764
▁okumaya	-11.0765
▁değiliz	-11.0765
▁muhtar	-11.0766
▁grev	-11.0768
▁Nar	-11.0768
▁bah	-11.0769
saydı	-11.077
▁yollarını	-11.0771
8)	-11.0771
kendi	-11.0772
▁Bosna	-11.0775
üsü	-11.0778
▁tarafına	-11.078
▁yapıyorlar	-11.0781
og	-11.0781
▁fındık	-11.0784
▁davranma	-11.0786
▁desteğini	-11.0786
▁açıyor	-11.0787
▁Ebû	-11.0787
▁tahminleri	-11.0787
▁yükselme	-11.0789
menin	-11.079
▁bag	-11.079
▁ulaşması	-11.0792
▁partiler	-11.0792
▁söyleyebiliriz	-11.0793
▁Vodafone	-11.0796
▁Polonya	-11.0796
▁Ste	-11.0796
ong	-11.0797
▁köfte	-11.0799
▁çekilmiş	-11.08
▁sıkıntısı	-11.08
▁buçuk	-11.08
▁ortamlarda	-11.0801
▁con	-11.0803
ls	-11.0804
▁ilçede	-11.0804
▁yanınızda	-11.0804
▁beklentileri	-11.0805
▁yüksel	-11.0807
▁yönetiminin	-11.0807
Daha	-11.0807
▁muhakkak	-11.0808
ASI	-11.0809
▁tavrı	-11.0809
▁dönüyor	-11.0809
▁Antik	-11.0811
▁71	-11.0814
▁Washington	-11.0814
▁sunma	-11.0815
▁Umarım	-11.0816
▁Kaynakları	-11.0817
▁mensupları	-11.0817
▁İnönü	-11.0818
▁Açıklaması	-11.0819
▁aradığınız	-11.0821
▁harç	-11.0821
▁süreyle	-11.0822
▁nedenlerle	-11.0823
▁ulaşabilir	-11.0826
▁düşünerek	-11.0826
fik	-11.0827
▁turizmi	-11.0827
▁bitirdi	-11.0828
▁mülteci	-11.083
▁isterse	-11.083
▁güvenliğini	-11.083
▁düşüncesi	-11.0831
▁Nihat	-11.0831
▁önlenmesi	-11.0832
▁kullanılmış	-11.0835
▁olmayacaktır	-11.0836
arac	-11.0837
▁Elif	-11.0838
gs	-11.0838
riz	-11.0839
▁odasında	-11.084
formasyon	-11.0841
▁Post	-11.0843
▁mülk	-11.0844
▁gelmesini	-11.0845
▁belgelerin	-11.0846
rent	-11.0847
▁Almanca	-11.0847
▁tutarak	-11.0848
▁operasyonda	-11.0851
▁Etkinlik	-11.0852
▁kulağı	-11.0852
berg	-11.0854
cağı	-11.0856
▁Buradan	-11.0856
▁dikkatini	-11.0861
▁bulup	-11.0863
▁Konuşma	-11.0863
▁Donald	-11.0863
▁kullanabileceği	-11.0864
▁belirtiliyor	-11.0867
▁alındığında	-11.0867
uğu	-11.0868
▁partinin	-11.0869
▁Güçlü	-11.0869
▁kanalında	-11.0869
▁koşullar	-11.087
.10	-11.087
▁fırsatları	-11.087
▁Değer	-11.0871
▁anlatmaya	-11.0872
▁Kimya	-11.0872
▁MEB	-11.0874
▁Birlikte	-11.0875
▁tünel	-11.0877
yazı	-11.0877
▁taraflar	-11.0878
▁Fırın	-11.0878
▁geçirdik	-11.0878
yy	-11.0879
▁Sahibi	-11.0879
▁büyüt	-11.0881
▁inanma	-11.0882
▁yüzlü	-11.0883
▁karbon	-11.0883
▁tehlikesi	-11.0884
▁Sat	-11.0884
▁kullanılma	-11.0884
▁zararı	-11.0885
nur	-11.0887
▁müsait	-11.0888
▁memleket	-11.0888
▁gitmesi	-11.0889
Devamı	-11.089
▁%1	-11.089
▁bilmediği	-11.089
▁küfür	-11.089
out	-11.0892
gr	-11.0892
▁iyisi	-11.0893
▁akciğer	-11.0894
▁Kulüp	-11.0894
▁Usul	-11.0895
▁Ayrı	-11.0896
▁işine	-11.0897
▁Blog	-11.0897
▁numarasının	-11.0897
▁helal	-11.0899
uyorum	-11.09
▁Belge	-11.0906
ilmez	-11.0908
▁çarpıcı	-11.0909
▁butonuna	-11.091
▁epey	-11.0911
▁ilişkili	-11.0912
▁kombin	-11.0913
▁Aksaray	-11.0913
▁Of	-11.0914
▁kamuoyu	-11.0916
▁bölgesine	-11.0916
▁adresleri	-11.0917
▁uzunluğu	-11.0918
▁kapsamı	-11.092
▁Listesi	-11.0921
▁takma	-11.0921
▁staj	-11.0921
etti	-11.0922
▁Ac	-11.0924
▁ortaklığı	-11.0924
▁dönmesi	-11.0929
▁Gö	-11.093
▁esmer	-11.0933
▁şarap	-11.0934
▁kolaylık	-11.0935
▁çıktık	-11.0935
▁başvur	-11.0936
▁çocuğa	-11.0937
kın	-11.0939
▁iktidarı	-11.094
▁Ltd	-11.094
▁acele	-11.0942
ung	-11.0946
▁ik	-11.0946
/19	-11.0947
▁gar	-11.0947
▁ajans	-11.0948
▁değişiklikleri	-11.0948
▁Yeniden	-11.0949
2010	-11.0954
/4	-11.0956
▁görüntülü	-11.0959
▁yoğunluk	-11.0959
▁vur	-11.0961
▁söylem	-11.0963
▁biç	-11.0968
Büyük	-11.0971
);	-11.0976
▁edinme	-11.0976
▁olursanız	-11.0976
▁bölme	-11.0978
▁seçkin	-11.098
▁işle	-11.098
▁Türkistan	-11.0982
▁arkasından	-11.0982
▁destekler	-11.0982
▁zanlı	-11.0982
▁tarihini	-11.0983
▁aksiyon	-11.0987
▁tabaka	-11.0987
▁uyguladığı	-11.0987
▁uğur	-11.0988
▁meraklı	-11.0989
çer	-11.0991
▁istiyordum	-11.0992
Devlet	-11.0995
▁savun	-11.0996
▁mineral	-11.0997
▁heves	-11.1
▁Konferans	-11.1001
▁kuyu	-11.1001
▁satışları	-11.1002
▁Albayrak	-11.1003
▁Fizik	-11.1004
▁bilişim	-11.1006
▁sözcüğü	-11.1007
▁Kod	-11.1008
▁giderleri	-11.1009
▁Rabbimiz	-11.1011
▁teşkilatı	-11.1011
▁evleri	-11.1012
▁Liste	-11.1013
emeyecek	-11.1014
▁diyabet	-11.1015
▁tersine	-11.1015
▁durumdan	-11.1016
▁getirmiş	-11.1017
▁bacak	-11.1019
tırma	-11.102
▁anlaşılır	-11.1021
300	-11.1023
▁Kira	-11.1023
▁Menderes	-11.1024
▁Portekiz	-11.1024
▁Temsilcisi	-11.1024
▁1994	-11.1025
▁Hazırlık	-11.1026
-14	-11.1028
▁Sanatlar	-11.1028
▁Şi	-11.103
▁tar	-11.103
yseniz	-11.1033
▁Qu	-11.1033
emedi	-11.1034
▁Bö	-11.1035
▁Kafa	-11.1035
▁olmamız	-11.1036
▁Afganistan	-11.1037
▁toplantıya	-11.1037
▁Demirel	-11.1038
▁zehir	-11.1039
▁Geleneksel	-11.104
▁CEO	-11.1042
▁Düşün	-11.1044
▁projede	-11.1048
▁eşyaları	-11.1048
▁Kullanımı	-11.105
▁seyred	-11.105
▁biliniyor	-11.1054
▁sonbahar	-11.1054
▁olağan	-11.1058
▁ayağa	-11.1059
▁memnuniyetini	-11.1059
▁üreticisi	-11.1061
▁Max	-11.1062
▁uçağı	-11.1064
▁durur	-11.1064
▁Boğaziçi	-11.1065
▁programını	-11.1065
▁1997	-11.1066
▁bankacılık	-11.1067
▁İlhan	-11.1069
▁Sta	-11.1069
▁otuz	-11.107
▁çamur	-11.107
gre	-11.107
▁taşıdığı	-11.107
▁bot	-11.107
▁Madrid	-11.1071
▁unsuru	-11.1071
▁almakta	-11.1072
▁yazmaya	-11.1074
▁konuşul	-11.1076
▁Uçak	-11.1078
▁damga	-11.1078
▁başvurma	-11.1079
▁anlattığı	-11.1081
▁siparişi	-11.1082
▁Chi	-11.1082
▁Gre	-11.1082
▁çevirme	-11.1083
inizde	-11.1083
Bölüm	-11.1083
▁çalıştım	-11.1084
▁toplamı	-11.1084
▁sahiplerinin	-11.1084
▁Ajans	-11.1085
▁üretiminde	-11.1086
▁Çankırı	-11.1086
lor	-11.1088
mâ	-11.1089
▁anma	-11.1089
▁Formu	-11.109
▁Taşıma	-11.109
▁(4	-11.109
fat	-11.1092
▁özenle	-11.1092
hh	-11.1092
LAMA	-11.1093
▁Sinop	-11.1093
▁gitmeye	-11.1099
▁olmamak	-11.11
▁aileleri	-11.11
▁becerileri	-11.1101
▁vatandaşın	-11.1102
▁Sin	-11.1102
▁kıs	-11.1103
▁Bilimsel	-11.1103
sındaki	-11.1108
▁Fethiye	-11.1108
sto	-11.1109
IP	-11.111
▁fren	-11.1111
▁port	-11.1111
lemeye	-11.1115
▁dağılımı	-11.1117
▁tok	-11.1117
▁düşmanı	-11.112
▁Gid	-11.112
▁dolgu	-11.1121
▁İçerik	-11.1122
▁ihbar	-11.1123
▁oyuncak	-11.1123
▁Planlama	-11.1124
gh	-11.1125
▁istatistik	-11.1125
▁doküman	-11.1125
▁korur	-11.1125
▁edebilmek	-11.1126
▁tutku	-11.1127
▁heyecanı	-11.1127
▁Fo	-11.113
▁yaralanan	-11.113
sch	-11.1131
▁oldular	-11.1136
▁yapılırken	-11.1141
▁alay	-11.1141
▁tencere	-11.1144
ym	-11.1144
▁koyar	-11.1145
bahis	-11.1146
▁kararının	-11.1146
▁plaka	-11.1146
cılığı	-11.1146
Or	-11.1147
▁kullanıyorum	-11.1147
▁ameliyatı	-11.1148
▁Bölgesinde	-11.1148
▁Filistinli	-11.115
▁akın	-11.1151
▁SORU	-11.1151
▁tap	-11.1151
▁kaldırmak	-11.1152
Â	-11.1153
▁Detayları	-11.1154
▁katman	-11.1154
▁köylü	-11.1157
▁önemine	-11.1158
▁davetli	-11.1158
▁TÜBİTAK	-11.1159
▁Şişli	-11.116
▁farkındalık	-11.1161
▁Ersoy	-11.1161
▁riskini	-11.1161
▁bakır	-11.1162
GB	-11.1162
iyye	-11.1162
▁çocuklarının	-11.1162
▁vaat	-11.1164
ağın	-11.1165
▁kıvam	-11.1165
▁kırsal	-11.1166
▁azgın	-11.1166
▁subay	-11.1168
▁İşbirliği	-11.1169
▁önlemleri	-11.1169
▁yapısını	-11.117
▁mülkiyet	-11.117
▁maya	-11.1171
▁iddiasıyla	-11.1171
▁Anahtar	-11.1171
▁İlkokulu	-11.1173
bes	-11.1174
iğin	-11.1175
▁Bakımı	-11.1177
▁kısıtlama	-11.1178
▁mecbur	-11.1178
▁incelenmesi	-11.1178
▁ze	-11.1179
▁Milyon	-11.1183
▁antik	-11.1184
▁Dayanak	-11.1185
▁allah	-11.1185
▁kılavuz	-11.1186
▁fıkrasında	-11.1187
▁geceleri	-11.1188
▁konulara	-11.1188
▁Tekin	-11.1189
▁Birim	-11.1189
▁skor	-11.119
Şu	-11.1192
▁öngörül	-11.1192
▁Yozgat	-11.1193
▁sözde	-11.1194
▁otomotiv	-11.1194
▁çilingir	-11.1194
▁nöbet	-11.1194
▁Sanatçı	-11.1195
▁telefonları	-11.1195
▁ferah	-11.1195
SEL	-11.1197
▁engelleme	-11.1198
▁TÜRKİYE	-11.12
deniz	-11.1201
▁adamlar	-11.1202
▁nadir	-11.1203
▁tabanı	-11.1203
▁Aslı	-11.1203
▁kadarıyla	-11.1204
▁Pre	-11.1204
▁konuşmak	-11.1205
▁hakikat	-11.1205
▁tercihi	-11.1205
▁plak	-11.1206
▁geliştirdiği	-11.1207
▁avcı	-11.1208
▁kapsamındaki	-11.1208
▁hesaba	-11.1209
yeceğini	-11.1209
▁kirli	-11.121
▁tanınmış	-11.1211
▁suçundan	-11.1211
▁kronik	-11.1213
Er	-11.1213
▁Aracı	-11.1215
▁filan	-11.1219
▁Col	-11.122
lamıştır	-11.1222
▁Turgut	-11.1223
▁Görüşme	-11.1225
▁yönü	-11.1227
▁endüstri	-11.1227
uyla	-11.1227
▁kırk	-11.1228
▁taraflı	-11.1229
▁zordur	-11.1231
▁2)	-11.1231
▁edi	-11.1235
▁koalisyon	-11.1235
▁sayısız	-11.1236
▁Yarış	-11.1236
▁Kılavuzu	-11.1238
▁Ürünler	-11.1239
▁sonuçta	-11.1241
mızla	-11.1242
▁Danışmanlık	-11.1244
▁tıkla	-11.1246
▁sürücüsü	-11.1252
▁salata	-11.1253
anne	-11.1254
▁isteriz	-11.1254
▁77	-11.1255
ilmektedir	-11.1258
▁Wa	-11.1259
▁yerlerden	-11.126
▁bulaşık	-11.1261
▁kaldığını	-11.1261
▁arıyor	-11.1261
▁ri	-11.1261
▁turistik	-11.1262
▁ilişkilerin	-11.1262
ife	-11.1262
▁YA	-11.1265
▁internetten	-11.1265
▁zinciri	-11.1267
▁yarısında	-11.1267
▁müzakere	-11.1268
▁Show	-11.1269
▁uzatma	-11.1269
▁desteğiyle	-11.127
üç	-11.127
▁sayfaları	-11.127
▁almıştı	-11.1271
▁amca	-11.1273
▁kemer	-11.1273
▁kaşık	-11.1273
▁aslı	-11.1275
▁Adım	-11.1276
▁element	-11.1278
▁21.	-11.1279
▁Op	-11.1279
▁Tercih	-11.128
▁yil	-11.1282
▁Benzer	-11.1283
▁Logo	-11.1284
The	-11.1286
▁Gazze	-11.1288
▁cihazların	-11.1288
▁kendiliğinden	-11.1289
▁boyama	-11.1289
▁metni	-11.1291
▁min	-11.1291
işi	-11.1291
▁mucize	-11.1291
▁hatalı	-11.1293
▁çekildi	-11.1294
▁Bizi	-11.1297
▁bakımlı	-11.1297
ladıkları	-11.13
▁tarihin	-11.1301
▁ayni	-11.1302
▁Müslümanların	-11.1303
▁Kenan	-11.1303
▁açıktır	-11.1304
▁Ayhan	-11.1305
▁belde	-11.1306
▁nedenleri	-11.1306
▁dünyasına	-11.1306
row	-11.1307
orta	-11.1307
ast	-11.1311
▁geçebilirsiniz	-11.1311
▁indi	-11.1313
Cİ	-11.1317
▁sorumludur	-11.1318
▁yapıda	-11.1319
part	-11.132
▁çocukluk	-11.132
Kim	-11.1322
▁bulacak	-11.1323
▁sos	-11.1324
▁Davutoğlu	-11.1325
lanmaya	-11.1326
▁pul	-11.1327
▁çözmek	-11.1328
▁World	-11.1329
▁süsleme	-11.1329
▁uzaklaş	-11.133
▁içecekler	-11.133
▁sunulması	-11.1332
gg	-11.1334
▁DA	-11.1334
▁batarya	-11.1334
sinler	-11.1334
tus	-11.1334
▁çevresindeki	-11.1335
▁5-	-11.1336
▁üyeler	-11.1336
▁değişiyor	-11.1336
▁Bat	-11.1337
▁dereceye	-11.134
▁siki	-11.1342
▁gününü	-11.1343
▁koç	-11.1345
▁salgı	-11.1345
▁Hız	-11.1346
▁programın	-11.1346
▁Tatar	-11.1347
aat	-11.1351
▁bankaların	-11.1352
▁Konferansı	-11.1354
▁karşılaştı	-11.1354
▁ocağı	-11.1356
▁Edebiyatı	-11.1357
▁göstergesi	-11.1357
▁sorumlusu	-11.1359
▁Henüz	-11.136
▁kalmıştır	-11.1362
▁ilkeleri	-11.1363
▁Plus	-11.1366
▁Asıl	-11.1367
ona	-11.1369
İP	-11.1369
▁talimat	-11.1369
kes	-11.1369
aza	-11.1369
ısı	-11.1369
eh	-11.1372
▁çarp	-11.1373
▁Transfer	-11.1373
▁gününe	-11.1375
▁duruş	-11.1376
▁yırt	-11.1376
▁azalması	-11.1378
▁Dost	-11.1378
▁Temiz	-11.1379
▁azdır	-11.1381
ınıza	-11.1382
▁temelinde	-11.1382
▁yapıların	-11.1383
▁standartları	-11.1383
ebildiği	-11.1385
▁1.1	-11.1386
▁gelmedi	-11.1387
▁mevki	-11.1387
▁etkilenme	-11.1388
▁memnuniyet	-11.139
▁sığ	-11.1391
▁Çar	-11.1391
lanmasını	-11.1391
▁çalışmasını	-11.1391
▁Hizmeti	-11.1391
▁getiril	-11.1392
▁Belir	-11.1394
▁tuhaf	-11.1396
▁Uz	-11.1397
▁kariyeri	-11.1399
▁götürül	-11.1399
▁kalkış	-11.14
▁konudaki	-11.1403
▁sembol	-11.1404
▁Hikmet	-11.1405
▁Otomatik	-11.1405
▁imha	-11.1407
Li	-11.1407
MS	-11.1409
▁baya	-11.1409
▁çektir	-11.141
dınız	-11.1411
▁hastalıkların	-11.1413
▁Marşı	-11.1413
▁sı	-11.1414
İYE	-11.1415
▁atılması	-11.1417
▁kalacağı	-11.1417
▁Kurs	-11.1418
star	-11.1418
▁1996	-11.1418
▁kullanılmaya	-11.1419
▁Del	-11.1423
▁kom	-11.1427
▁paneli	-11.1427
▁GE	-11.1427
▁elçi	-11.1429
rid	-11.1429
▁sevda	-11.1429
▁Babası	-11.143
çay	-11.1432
▁AŞ	-11.1437
▁benze	-11.1437
iy	-11.1439
▁istekleri	-11.144
▁yaşını	-11.144
▁Strateji	-11.1442
İB	-11.1443
BS	-11.1444
▁Don	-11.1444
▁sunulmaktadır	-11.1445
▁SMS	-11.1446
▁han	-11.1446
▁fırında	-11.1447
▁hissediyor	-11.1448
▁arttırmak	-11.145
▁öğretmenlerin	-11.1452
▁severler	-11.1454
larýn	-11.1454
▁görevine	-11.1455
▁eğilim	-11.1457
▁KARA	-11.1459
▁Nakliye	-11.1459
▁Taraf	-11.1459
▁edilmez	-11.1459
irim	-11.1465
GS	-11.1466
▁objektif	-11.1467
▁suçu	-11.1469
▁ekranda	-11.147
▁öğrendiği	-11.1471
sâ	-11.1472
▁takılan	-11.1474
▁aranan	-11.1474
▁Savcı	-11.1475
▁Önümüzdeki	-11.1475
▁Sorun	-11.1475
▁mücadelede	-11.1475
kov	-11.1476
▁ro	-11.1476
▁uzaklıkta	-11.1477
▁öneriler	-11.1478
bre	-11.1479
▁mısır	-11.148
lenmek	-11.148
▁sunacak	-11.1481
▁sahiplerine	-11.1481
Der	-11.1481
II	-11.1482
▁İzin	-11.1483
▁oyuncuların	-11.1483
▁Takip	-11.1483
▁Cennet	-11.1484
İlk	-11.1484
▁adresinde	-11.1485
uyoruz	-11.1485
▁bellek	-11.1485
-17	-11.1485
▁dövme	-11.1488
▁Kategori	-11.1488
tv	-11.1488
FA	-11.1488
▁ayrılmış	-11.1489
▁Asker	-11.1489
▁güçlük	-11.149
şey	-11.1491
▁şehre	-11.1493
▁Haz	-11.1495
▁denetimi	-11.1496
▁hukuku	-11.1496
▁Gerekli	-11.1496
▁Isı	-11.1497
▁oturdu	-11.1497
▁şi	-11.1501
▁Amacı	-11.1502
▁başvurular	-11.1502
▁:))	-11.1502
▁ede	-11.1504
ağ	-11.1504
▁aradan	-11.1505
BE	-11.1506
▁2,5	-11.1508
▁sakinleri	-11.151
▁hizmetin	-11.151
▁tasarrufu	-11.1511
▁çoktan	-11.1511
▁Tip	-11.1515
Ek	-11.1515
▁Nevşehir	-11.1516
▁kabar	-11.1517
▁kılavuzu	-11.1517
tos	-11.1517
▁girmeye	-11.1519
▁Bingöl	-11.1519
▁anlaş	-11.1521
▁herşeyi	-11.1521
kom	-11.1521
şır	-11.1525
▁Operasyon	-11.1526
DR	-11.1526
▁Çağ	-11.1526
▁iddiası	-11.1526
▁konulan	-11.1527
▁düşmüş	-11.1527
RT	-11.1527
▁yapacağım	-11.1528
▁görevlendiril	-11.1528
▁mısınız	-11.153
▁bütçesi	-11.1531
▁kursları	-11.1531
▁mahallesi	-11.1532
▁Yüzyıl	-11.1533
ünüzü	-11.1535
▁bakıyor	-11.1538
▁Oldukça	-11.1539
▁Yazılı	-11.1539
▁Real	-11.1541
▁Medine	-11.1541
▁konusudur	-11.1542
tip	-11.1542
▁garantili	-11.1543
▁dengeli	-11.1544
▁açarak	-11.1545
▁CO	-11.1546
sınlar	-11.1546
▁kişiliği	-11.1547
▁söylüyorum	-11.1548
▁kredisi	-11.1548
▁tır	-11.1548
▁Bilgileri	-11.1549
▁lik	-11.1549
▁testleri	-11.155
▁112	-11.1551
▁Hükümeti	-11.1552
▁okunması	-11.1554
▁güzellikleri	-11.1554
▁Kırıkkale	-11.1555
▁kesimi	-11.1556
▁ortaokul	-11.1556
▁anahtarı	-11.1556
olog	-11.1557
▁Süre	-11.1558
▁başladılar	-11.1561
▁konusunu	-11.1561
▁Meksika	-11.1562
▁gösterisi	-11.1562
▁Kanser	-11.1562
▁dersin	-11.1564
▁onaylı	-11.1565
▁oluyoruz	-11.1566
▁Başkanlık	-11.1567
▁Sonuçta	-11.1567
▁Yücel	-11.1568
▁za	-11.1569
▁inanıyorsanız	-11.1569
▁besinler	-11.157
▁yönelt	-11.157
▁kimler	-11.157
hel	-11.1572
▁şampiyonluk	-11.1574
▁İlaç	-11.1576
▁bulunabilir	-11.1581
▁sakat	-11.1581
the	-11.1582
▁İçi	-11.1583
▁tedbirler	-11.1583
▁ölçekli	-11.1583
▁Lirası	-11.1584
▁İhsan	-11.1586
▁tutul	-11.1586
▁kabuk	-11.1586
İs	-11.1588
▁ilgilendiren	-11.1589
.11.2018	-11.1589
▁olabilmek	-11.159
▁yapmıştı	-11.1591
cular	-11.1591
▁alüminyum	-11.1591
▁Grafik	-11.1592
▁şov	-11.1593
▁frekans	-11.1593
hip	-11.1595
▁fragmanı	-11.1596
▁emekçi	-11.1597
▁erişimi	-11.16
▁sunuluyor	-11.1601
▁Sezon	-11.1601
▁çalışmada	-11.1602
▁Che	-11.1602
▁fen	-11.1603
▁Kalesi	-11.1604
▁animasyon	-11.1605
▁Acı	-11.1606
▁fiyatlarını	-11.1607
▁tutulma	-11.1608
gör	-11.1609
▁sıva	-11.1609
▁kararın	-11.161
▁yüze	-11.1613
▁hatası	-11.1614
ALI	-11.1615
Ye	-11.1615
▁kusur	-11.1616
▁aşağıya	-11.1616
▁tersi	-11.1617
▁ml	-11.1617
▁başkent	-11.1618
▁göstermeye	-11.1618
▁Satılık	-11.1619
▁burç	-11.1619
▁hesapları	-11.162
meliyiz	-11.1621
▁Tıkanıklığı	-11.1621
▁olmadığına	-11.1622
▁ülkelere	-11.1622
▁seyret	-11.1624
▁Günde	-11.1625
▁renkte	-11.1625
▁uydur	-11.1625
▁mutsuz	-11.1626
▁törenle	-11.1626
ix	-11.1627
▁etse	-11.1627
▁azaltmak	-11.163
▁dolap	-11.163
üldü	-11.1633
▁antalya	-11.1633
▁kurtarmak	-11.1636
yl	-11.1636
▁Saati	-11.1636
▁Prens	-11.1638
▁sokul	-11.1638
ığı	-11.1639
▁oldugunu	-11.1642
şir	-11.1643
▁Stadı	-11.1643
▁gürültü	-11.1644
▁grubunda	-11.1646
9)	-11.1647
▁markalar	-11.1647
▁Tesis	-11.1648
▁Erkan	-11.1648
▁(5)	-11.1649
bah	-11.1651
▁Kötü	-11.1651
▁merakla	-11.1654
▁numaranın	-11.1654
▁ISO	-11.1654
▁1992	-11.1655
▁İşin	-11.1656
▁telefonla	-11.1656
▁Deprem	-11.1661
▁69	-11.1662
▁büro	-11.1662
▁sağlığını	-11.1663
▁asır	-11.1663
diniz	-11.1663
▁kaplı	-11.1664
lısınız	-11.1665
▁çıkarken	-11.1667
▁çerez	-11.1668
▁köşesinde	-11.1669
▁ödemek	-11.167
▁masraf	-11.1672
▁yapılmasına	-11.1673
▁Öğr	-11.1674
▁zorlan	-11.1677
▁almasını	-11.1679
▁hissedil	-11.168
▁Tıbbi	-11.1681
▁şoför	-11.1682
▁Gen	-11.1684
▁Şimşek	-11.1684
▁tonu	-11.1688
▁kullanmanız	-11.1688
▁tedarikçi	-11.1691
▁ligde	-11.1691
▁uygulamayı	-11.1691
▁sponsor	-11.1692
▁açıl	-11.1695
▁sözlük	-11.1695
kür	-11.1695
▁seçilmiş	-11.1696
▁Darbe	-11.1696
toloji	-11.1698
▁yerlerinde	-11.1698
▁yayınları	-11.1699
▁hatır	-11.17
▁Üyeleri	-11.1701
▁atmış	-11.1701
▁gösterebilir	-11.1702
▁yanındaki	-11.1702
şen	-11.1702
▁MS	-11.1702
uru	-11.1703
zin	-11.1704
▁tasarlanan	-11.1704
▁figür	-11.1705
▁uygula	-11.1706
▁14.	-11.1706
▁oynanacak	-11.1707
▁BA	-11.1707
▁yaşan	-11.1708
▁üstelik	-11.1708
▁koyarak	-11.1709
▁eşyalar	-11.171
▁arkadaşımız	-11.1711
▁KOBİ	-11.1711
▁başkanlığı	-11.1712
▁geçtiğini	-11.1713
▁nezdinde	-11.1714
▁YÖK	-11.1715
▁silme	-11.1716
▁alçak	-11.1717
▁davanın	-11.1718
▁Güneydoğu	-11.1718
▁baktım	-11.1718
▁Abi	-11.1719
▁gideceği	-11.172
▁Siirt	-11.1721
▁çıkmaz	-11.1721
▁çevril	-11.1722
▁Poli	-11.1724
▁boşanma	-11.1725
▁derim	-11.1725
▁Sergi	-11.1725
▁cisim	-11.1726
▁vizyon	-11.1727
▁üretilmiş	-11.1727
▁masaya	-11.1727
▁yapabileceği	-11.1732
▁İkili	-11.1733
▁yılbaşı	-11.1733
▁Müze	-11.1737
▁Karabük	-11.1737
▁hataları	-11.1738
▁Sekreter	-11.1738
▁kulübü	-11.1744
hur	-11.1746
▁kimseyi	-11.1748
▁kapıları	-11.1752
▁gelebilecek	-11.1752
▁hareketler	-11.1753
▁Birimi	-11.1757
▁bahane	-11.1757
▁LG	-11.1759
▁geçirilmesi	-11.176
▁çocuklarda	-11.176
▁diyordu	-11.1762
▁şartıyla	-11.1762
▁Yay	-11.1764
▁asansör	-11.1765
▁Bağlantı	-11.1765
nızla	-11.1765
▁hükmü	-11.1766
▁kazanım	-11.1767
▁Bayrak	-11.1768
▁pişman	-11.1771
▁orjinal	-11.1771
▁reaksiyon	-11.1771
▁konsept	-11.1772
▁usulü	-11.1772
▁Demek	-11.1773
▁peş	-11.1773
▁belirti	-11.1774
▁şikâyet	-11.1774
▁saldırısı	-11.1775
▁sabun	-11.1776
▁koruyan	-11.1776
▁İnceleme	-11.1776
▁verdiler	-11.1777
▁1970	-11.1778
▁parmağı	-11.1778
azi	-11.178
▁Bitcoin	-11.1781
.12	-11.1782
▁üstlendiği	-11.1782
▁Kaymakam	-11.1784
▁jüri	-11.1785
▁balığı	-11.1786
▁Nu	-11.1786
▁cihazın	-11.1787
▁Uzay	-11.1787
▁kâ	-11.1788
meyin	-11.1788
▁videolar	-11.1788
suna	-11.1793
▁çalışanı	-11.1795
▁buluştur	-11.1795
▁sorunlara	-11.1795
▁beklentisi	-11.1797
lüğün	-11.1798
▁Şerif	-11.18
oğulları	-11.1801
▁füze	-11.1802
▁yetiştirme	-11.1802
▁oluştu	-11.1802
▁Balkan	-11.1804
▁parlamento	-11.1805
▁çalın	-11.1807
▁raporları	-11.1809
▁yurttaş	-11.1809
▁Çocukların	-11.1811
▁doğrultuda	-11.1811
▁yarışması	-11.1812
Bil	-11.1812
▁suda	-11.1813
▁rezerv	-11.1814
▁1993	-11.1814
▁yapış	-11.1819
▁destekli	-11.1819
▁dayanarak	-11.1819
▁mülakat	-11.1822
▁Tah	-11.1823
▁aileler	-11.1825
▁Ex	-11.1826
ple	-11.183
sunda	-11.183
yorsunuz	-11.1831
ografi	-11.1832
▁uğrat	-11.1832
ELİ	-11.1832
▁bağımlı	-11.1832
ous	-11.1833
▁idaresi	-11.1835
ymış	-11.1835
▁itaat	-11.1836
LÜ	-11.1837
▁kentte	-11.1837
▁uygulanma	-11.1838
▁gittikçe	-11.1839
▁Fikir	-11.1839
▁kapılarını	-11.1839
▁söylenen	-11.184
/12	-11.1841
▁pazarı	-11.1842
▁Yedi	-11.1844
▁kalkan	-11.1846
▁Çiftçi	-11.1847
▁Geçici	-11.1847
▁bilgisini	-11.1848
▁konuların	-11.1849
▁yenilikler	-11.185
ilecektir	-11.1852
▁DO	-11.1853
▁ed	-11.1854
▁hastası	-11.1854
▁melek	-11.1854
▁ölme	-11.1854
▁dakikalık	-11.1856
-9	-11.1856
▁miting	-11.1856
▁maça	-11.1857
▁play	-11.1857
▁Sonuçları	-11.1859
▁nihayet	-11.1859
▁baraj	-11.1859
▁yurtdışı	-11.1859
▁mg	-11.186
▁umarım	-11.186
▁başarıya	-11.1861
▁Evren	-11.1861
▁bağışıklık	-11.1862
▁Havaalanı	-11.1862
▁Fonu	-11.1863
▁halkına	-11.1866
▁hedefleyen	-11.1866
▁getirmeye	-11.1867
▁sürer	-11.1867
▁statü	-11.1867
▁trafiği	-11.1868
▁Nerede	-11.1868
▁doğduğu	-11.1868
▁dönemlerinde	-11.1869
▁yazıp	-11.1869
▁patron	-11.1869
▁ıslak	-11.187
klar	-11.187
zik	-11.1871
▁Vadisi	-11.1871
▁hizmetine	-11.1871
▁komut	-11.1871
▁mana	-11.1873
▁gerçekleşir	-11.1873
▁Yargı	-11.1875
▁Mert	-11.1875
▁Vo	-11.1877
▁malum	-11.1877
▁Demokrat	-11.1879
▁Hakk	-11.1879
▁arkasına	-11.1881
▁kazanması	-11.1883
ayet	-11.1883
▁kuvvetleri	-11.1884
▁Bro	-11.1886
▁toprakları	-11.1887
▁erkeği	-11.1888
Mİ	-11.1888
▁insanlığın	-11.1888
-8	-11.1888
alt	-11.1889
▁saklan	-11.1892
▁WhatsApp	-11.1893
▁alkış	-11.1893
▁çevreye	-11.1894
▁yüzeyi	-11.1894
▁izler	-11.1895
▁hareketle	-11.1895
▁balon	-11.1896
▁diyelim	-11.1896
▁büyümesi	-11.1896
▁yetenekli	-11.1898
▁programının	-11.19
▁Çıkar	-11.1901
▁çalışmalarımız	-11.1903
▁adresini	-11.1904
▁Fabrika	-11.1906
▁kalmaya	-11.1906
lendiğini	-11.1907
▁uygulamanın	-11.1908
▁Festival	-11.1911
▁İTÜ	-11.1912
▁poz	-11.1914
▁arayışı	-11.1915
▁1960	-11.1916
▁bitme	-11.1916
▁olanlara	-11.1917
▁liradan	-11.1917
uldu	-11.1917
üdür	-11.1919
▁indirimli	-11.1919
▁telif	-11.1919
eceğimiz	-11.1919
▁Çankaya	-11.192
▁Akademi	-11.1921
Bizim	-11.1921
ED	-11.1922
▁farklılıklar	-11.1922
▁76	-11.1923
▁bakteri	-11.1924
▁açılışı	-11.1924
▁ifadeleri	-11.1926
▁çalıştık	-11.1926
▁öğün	-11.1928
▁bazlı	-11.1928
▁Tuz	-11.1929
pon	-11.193
ID	-11.1931
▁bağı	-11.1932
▁Beykoz	-11.1934
▁sonuçlarına	-11.1935
▁düşkün	-11.1935
▁mum	-11.1935
▁elemanı	-11.1935
ato	-11.1936
▁Atık	-11.1936
▁devamını	-11.1939
▁gelişi	-11.1939
▁neyi	-11.1941
▁Seç	-11.1941
dýr	-11.1943
mî	-11.1943
▁İslami	-11.1946
▁Diyet	-11.1946
▁hücum	-11.1947
▁pan	-11.1951
YON	-11.1952
▁Gebze	-11.1954
▁Paul	-11.1954
▁benzersiz	-11.1954
▁Bonus	-11.1957
▁vurul	-11.1958
▁mani	-11.1959
▁hissettiği	-11.1959
dat	-11.196
vaz	-11.1961
win	-11.1962
lıların	-11.1962
▁Herkesin	-11.1963
▁sunmaya	-11.1963
isti	-11.1964
▁verecektir	-11.1965
▁dediğim	-11.1965
düm	-11.1967
-7	-11.1967
▁bır	-11.1968
▁düşündüm	-11.1968
▁Dis	-11.1969
▁listede	-11.1969
▁78	-11.197
▁deyince	-11.1971
▁global	-11.1972
▁şanslı	-11.1975
▁Tür	-11.1975
▁Ercan	-11.1976
▁açabilir	-11.1978
kum	-11.1978
▁yiyecekler	-11.1979
▁mermer	-11.1979
▁atak	-11.198
▁aylarda	-11.198
▁Pakistan	-11.1982
▁mekanları	-11.1985
▁Porno	-11.1985
▁karıştırın	-11.1986
▁felsefesi	-11.1987
▁Spe	-11.1988
▁İşler	-11.1989
▁Kahvaltı	-11.199
▁OL	-11.199
▁bulunmuş	-11.199
PS	-11.1993
▁romantik	-11.1993
▁etrafı	-11.1994
▁elle	-11.1995
müştü	-11.1999
▁Vize	-11.2
▁ruhunu	-11.2
▁yapmaları	-11.2001
▁kurulduğu	-11.2002
▁umu	-11.2003
▁Plastik	-11.2003
▁ilişkiye	-11.2005
▁temeli	-11.2005
▁veritabanı	-11.2006
▁Ödül	-11.2007
▁edeceğim	-11.2009
▁çıkabilir	-11.201
emeyeceği	-11.201
liyoruz	-11.2011
old	-11.2011
▁üniversitesi	-11.2012
▁1-0	-11.2012
▁fır	-11.2013
▁Zirvesi	-11.2013
▁ısıt	-11.2014
▁bulunarak	-11.2015
▁Yeter	-11.2016
▁ehli	-11.2016
▁aleyhi	-11.2017
▁Yetki	-11.2018
▁faaliyetlerine	-11.2019
▁oturduğu	-11.202
▁yazdır	-11.202
oma	-11.202
▁Bilgisi	-11.202
▁kolon	-11.2021
▁Görsel	-11.2027
▁gelirse	-11.2027
▁bıraktıysa	-11.2028
cel	-11.2029
▁oluşma	-11.2029
▁polisi	-11.2029
▁74	-11.2029
▁olabilmektedir	-11.2029
▁sütun	-11.203
▁Sonunda	-11.2031
Bİ	-11.2031
▁Marmaris	-11.2033
▁heyecanlı	-11.2033
▁durdu	-11.2033
▁öğrencilerinin	-11.2034
▁saatlerde	-11.2035
▁makamında	-11.2037
▁üyelerine	-11.2039
▁hâlinde	-11.2039
▁geçtikçe	-11.2039
▁çekilmesi	-11.2039
ırsa	-11.204
sir	-11.204
▁uygulamak	-11.204
▁mübarek	-11.204
▁Bilindiği	-11.204
Gün	-11.2041
▁yapmaz	-11.2041
▁İcra	-11.2041
▁kast	-11.2042
▁vatandaşları	-11.2043
▁iptali	-11.2044
▁Robert	-11.2044
iyat	-11.2044
▁formunu	-11.2046
▁işlemlerinde	-11.2047
▁travma	-11.2047
▁süreleri	-11.2047
▁memleketi	-11.2047
▁giyen	-11.2048
atlı	-11.2049
▁listesine	-11.2049
lerse	-11.205
▁durağı	-11.2053
▁alışkanlık	-11.2053
▁uygulamasını	-11.2053
▁Kiralık	-11.2054
▁Cemil	-11.2056
▁seramik	-11.2058
rip	-11.2058
▁kızları	-11.2059
▁kırma	-11.206
izleyebilirsiniz	-11.206
▁Müdürlüğüne	-11.2062
▁değiştirilmesi	-11.2063
▁ambulans	-11.2065
▁görüşmek	-11.2068
▁Vücut	-11.2068
▁defteri	-11.2069
▁Ödülleri	-11.207
sür	-11.207
▁sön	-11.2071
▁işlerin	-11.2071
▁Otomotiv	-11.2071
▁mevduat	-11.2071
Ke	-11.2071
▁yenilgi	-11.2071
▁izah	-11.2072
Va	-11.2073
ish	-11.2074
▁Endüstriyel	-11.2074
▁And	-11.2074
▁tribün	-11.2075
▁rehberi	-11.2075
▁Tro	-11.2076
▁beste	-11.2076
▁olacağına	-11.2077
▁Programları	-11.208
ilemez	-11.208
▁önü	-11.208
LEN	-11.2082
▁miydi	-11.2085
▁Sürücü	-11.2086
▁hadi	-11.2087
▁elektro	-11.2087
▁7/24	-11.2088
▁hastalar	-11.2089
▁başvuruda	-11.209
▁sırf	-11.2092
TH	-11.2093
▁lens	-11.2094
▁hükme	-11.2095
▁tıkanıklığı	-11.2095
▁bendi	-11.2095
▁Yarı	-11.2095
▁Yasası	-11.2096
html	-11.2099
unca	-11.2101
TC	-11.2101
ülmüş	-11.2102
▁işsiz	-11.2103
▁vermekte	-11.2104
▁tim	-11.2104
▁yum	-11.2105
▁dolandırdığın	-11.2106
▁olduğumuzu	-11.2108
▁adaylığı	-11.2108
▁padişah	-11.2109
▁Sigara	-11.2109
▁belirtme	-11.2109
TB	-11.2109
▁Trakya	-11.2109
and	-11.211
▁Bireysel	-11.2111
▁etmekten	-11.2111
▁Ag	-11.2112
▁Michael	-11.2113
▁Bisiklet	-11.2113
laştığı	-11.2114
lıyım	-11.2115
▁çalışmış	-11.2116
▁canı	-11.2117
▁çekip	-11.2117
▁Üstün	-11.2118
▁tabanca	-11.2119
▁yayını	-11.212
▁yönetme	-11.2121
▁hesabına	-11.2122
▁çıkarıldı	-11.2123
▁derecesi	-11.2125
riye	-11.2128
▁sayısına	-11.2128
▁destan	-11.213
▁gıdalar	-11.2131
▁katılarak	-11.2131
▁yaşanma	-11.2132
▁sunulacak	-11.2133
▁Cha	-11.2135
▁Mars	-11.2135
▁durumdur	-11.2137
▁merkezde	-11.2137
▁dönüm	-11.2138
▁kullanacak	-11.2139
▁Dol	-11.214
▁sis	-11.2143
fı	-11.2143
▁filminin	-11.2144
lığında	-11.2145
trop	-11.2147
▁Uyku	-11.2148
▁çıkarır	-11.215
▁konuşmacı	-11.2152
▁Tay	-11.2153
▁Leyla	-11.2153
▁Alper	-11.2154
▁Hayatı	-11.2156
▁savunan	-11.2156
▁dolaylı	-11.2159
▁uğruna	-11.2161
▁beklemek	-11.2162
fak	-11.2162
adı	-11.2162
▁biriktir	-11.2163
▁teorik	-11.2164
▁Onay	-11.2165
▁müzisyen	-11.2165
▁Th	-11.2165
▁öğrendim	-11.2166
▁hani	-11.2166
▁şimdilik	-11.2167
▁hisseder	-11.2168
▁delik	-11.217
▁senden	-11.2171
▁seçeneğini	-11.2173
▁ikramiye	-11.2173
▁alıntı	-11.2174
▁eklenmiş	-11.2175
▁deneyin	-11.2176
▁kullandığınız	-11.2177
▁Aylık	-11.2178
▁okulların	-11.2179
▁KHK	-11.2179
▁oluruz	-11.218
▁karnı	-11.2183
▁rehberlik	-11.2186
laştırılması	-11.2188
▁Mus	-11.2189
▁perakende	-11.2189
▁Hesabı	-11.2189
▁istiyorlar	-11.219
▁kuruluşların	-11.2191
▁altyapısı	-11.2191
▁dikiş	-11.2192
▁Fas	-11.2192
▁otelleri	-11.2193
▁iniş	-11.2194
▁Buraya	-11.2194
▁geliştirilmiş	-11.2194
▁direnci	-11.2194
▁edebileceği	-11.2195
▁efendi	-11.2196
▁sektörüne	-11.2197
▁pre	-11.2199
▁edilmesine	-11.2199
▁eklemek	-11.2201
laşıyor	-11.2201
▁odasına	-11.2202
yurt	-11.2203
▁Yar	-11.2203
▁töreninde	-11.2205
▁Berk	-11.2205
▁manzarası	-11.2206
▁Ekip	-11.2206
zir	-11.2206
/11	-11.2206
▁05066	-11.2207
▁Tekstil	-11.2207
27231	-11.2207
▁DERS	-11.2209
▁Fark	-11.221
▁Home	-11.2211
▁çekimi	-11.2211
▁kablosuz	-11.2213
RO	-11.2215
yacağını	-11.2215
▁hazırladı	-11.2216
▁Alım	-11.2217
▁Pencere	-11.2218
▁parfüm	-11.2218
▁beşinci	-11.2219
▁Filmleri	-11.2219
▁Ulaşım	-11.222
▁olunur	-11.222
sî	-11.222
nızdaki	-11.222
▁yanma	-11.2223
▁törenine	-11.2223
kem	-11.2224
▁projeye	-11.2224
▁yakaladı	-11.2224
▁İdlib	-11.2225
▁çiçeği	-11.2225
▁kanlı	-11.2225
▁(18	-11.2226
yalı	-11.2226
▁hatırlat	-11.2227
gini	-11.2227
▁Cafe	-11.2228
▁kapsam	-11.2229
fel	-11.2229
▁evrim	-11.2229
▁hijyen	-11.223
şer	-11.223
▁gay	-11.2233
▁Kimlik	-11.2235
▁Katar	-11.2235
▁Anlat	-11.2237
▁yalıtım	-11.2238
▁CE	-11.2238
▁kuruluşlarının	-11.2239
▁Putin	-11.224
lmaz	-11.224
▁16.	-11.2241
▁uyumu	-11.2241
▁kanaat	-11.2242
▁AC	-11.2242
▁Hediye	-11.2243
▁turları	-11.2244
ary	-11.2244
Ser	-11.2246
▁David	-11.2247
▁içeriğini	-11.2247
▁kendim	-11.2248
▁sınırlama	-11.2249
▁gözaltı	-11.2251
▁seçmek	-11.2252
▁yılını	-11.2253
▁durdurul	-11.2254
▁Kızılay	-11.2255
▁zorluklar	-11.2255
▁çalışın	-11.2255
▁Okuma	-11.2256
▁zulüm	-11.2256
▁Buradaki	-11.2258
▁Devletin	-11.2263
▁olanakları	-11.2263
▁samimiyet	-11.2265
▁belirler	-11.2265
▁aramak	-11.2268
▁sahneye	-11.2268
▁yenilik	-11.2273
▁hay	-11.2275
▁BE	-11.2276
TS	-11.228
▁tasarımlar	-11.228
▁ülkelerden	-11.228
▁ayrılık	-11.2281
▁bireyin	-11.2282
DK	-11.2284
▁açacak	-11.2284
▁saptan	-11.2285
▁yediği	-11.2285
muza	-11.2285
▁değinen	-11.2285
▁sitemizden	-11.2285
▁miyim	-11.2286
▁oynar	-11.2286
▁73	-11.2286
▁yurtiçi	-11.2287
▁Gösteri	-11.2287
lanırken	-11.2287
▁Belli	-11.2287
▁Rektörü	-11.2288
▁dağıtımı	-11.2288
▁Ekrem	-11.229
▁haklar	-11.229
▁korkma	-11.229
▁olduğunuzu	-11.2292
cre	-11.2292
bon	-11.2295
▁82	-11.2298
▁alama	-11.2298
İn	-11.23
▁Ofisi	-11.23
▁araştırması	-11.23
▁Demokratik	-11.2301
tah	-11.2301
▁tümör	-11.2301
▁algılama	-11.2302
▁koltuğu	-11.2302
▁Konak	-11.2302
▁bölümler	-11.2303
▁çalı	-11.2303
▁rastlan	-11.2305
▁aradığı	-11.2306
▁bulunul	-11.2306
KE	-11.2308
▁Global	-11.2309
▁Sür	-11.2309
▁görüşlerini	-11.231
umuzu	-11.231
▁PA	-11.2313
▁rakamları	-11.2315
▁baska	-11.2316
▁Naz	-11.2316
▁tasarlanmıştır	-11.2317
▁ayrılması	-11.2317
▁heyecanla	-11.2317
▁direnç	-11.2318
▁oyu	-11.2318
▁Kıbrıslı	-11.2319
▁Dön	-11.232
▁benziyor	-11.232
IC	-11.2325
üğü	-11.2326
▁gerekiyordu	-11.2326
▁110	-11.2327
DS	-11.2327
▁Kedi	-11.2328
▁sarma	-11.2329
▁cin	-11.233
cıların	-11.2332
▁köpeği	-11.2332
▁misin	-11.2336
▁Görüş	-11.2336
abilirler	-11.2337
▁nevi	-11.2338
▁çukur	-11.2338
▁guzel	-11.2338
ZA	-11.2339
▁eliyle	-11.234
▁hayvanları	-11.2341
▁içermektedir	-11.2341
▁Korku	-11.2341
▁istemeyen	-11.2342
keş	-11.2342
▁olacaktı	-11.2343
▁soruyu	-11.2344
▁TEM	-11.2344
▁hikayeleri	-11.2348
▁kolaylaştır	-11.2349
▁versiyon	-11.2349
▁hibe	-11.235
▁güveni	-11.235
▁işletmelerin	-11.2351
▁sokağa	-11.2353
▁Vatandaş	-11.2353
▁google	-11.2354
▁alarm	-11.2356
▁isminin	-11.2357
yacağım	-11.2357
▁hepsinin	-11.2359
▁yönündeki	-11.2359
▁Yağmur	-11.2359
▁kavramları	-11.2361
▁dönmek	-11.2361
▁havası	-11.2362
▁doldurma	-11.2365
▁aralığında	-11.2365
▁kapsamına	-11.2367
insan	-11.2367
red	-11.2367
▁malzemelerin	-11.2369
▁yaparlar	-11.2371
▁Körfez	-11.2372
▁anıt	-11.2372
form	-11.2373
▁Öcalan	-11.2373
▁süresinin	-11.2375
▁ES	-11.2375
▁Yazıcı	-11.2376
▁bambaşka	-11.2377
ves	-11.2379
▁hırsız	-11.2379
▁Aklı	-11.238
araba	-11.2381
▁mensup	-11.2381
▁bişey	-11.2382
▁Beslenme	-11.2384
▁HP	-11.2385
▁öğüt	-11.2389
▁nikah	-11.2391
▁Bitlis	-11.2392
▁Endeksi	-11.2392
▁monte	-11.2393
▁Gelişim	-11.2393
▁şe	-11.2393
sah	-11.2394
▁SU	-11.2395
▁teknolojinin	-11.2395
▁Alanları	-11.2397
▁romanı	-11.2398
▁Win	-11.2398
▁kulübün	-11.2399
▁mp	-11.2399
▁manası	-11.24
IŞ	-11.24
masının	-11.2402
▁Ton	-11.2405
▁Tiyatrosu	-11.2406
▁aldat	-11.2406
▁parkı	-11.2408
▁Onlara	-11.241
▁kimya	-11.2411
▁güreş	-11.2413
▁q	-11.2413
2008	-11.2415
ılacağını	-11.2418
▁sonuca	-11.2419
tüğü	-11.2421
▁söylemişti	-11.2423
▁profili	-11.2423
▁anlaşılması	-11.2425
book	-11.2426
▁atıldı	-11.2426
▁topladı	-11.2427
▁denetleme	-11.2427
▁diğerleri	-11.2428
▁zihin	-11.2428
▁getireceği	-11.243
▁tev	-11.2431
ARI	-11.2431
▁markanın	-11.2433
▁Katılım	-11.2434
off	-11.2434
▁eleştir	-11.2435
Net	-11.2435
▁derinlik	-11.2436
cha	-11.2437
▁çıkarıp	-11.2437
▁çekmeye	-11.2437
ust	-11.2437
▁Klinik	-11.2438
▁Spi	-11.244
▁bulabilir	-11.2441
▁Avcılar	-11.2442
▁Bölgesel	-11.2442
iti	-11.2444
▁baktı	-11.2444
▁Kardeş	-11.2446
▁Köprü	-11.2446
▁alanların	-11.2446
▁ulaşır	-11.2447
▁İk	-11.2448
▁harfi	-11.2448
▁alanlara	-11.2449
▁Başarılı	-11.245
aktif	-11.245
▁Altay	-11.2451
▁radikal	-11.2452
ons	-11.2452
▁Yıllar	-11.2453
▁%10	-11.2455
▁fonksiyonu	-11.2455
▁fıkrası	-11.2456
▁350	-11.2456
ışık	-11.2457
▁hadise	-11.2458
▁bulmuş	-11.2458
▁yapabileceğiniz	-11.2459
▁teras	-11.2459
▁ılık	-11.246
▁eklenti	-11.246
▁şeylerin	-11.2461
▁Köpek	-11.2463
▁açıklayan	-11.2464
▁ülkesinde	-11.2466
▁haksızlık	-11.2466
▁bulunmuyor	-11.2468
▁if	-11.2468
yd	-11.2469
HAN	-11.247
▁belirleyen	-11.2472
▁linki	-11.2472
▁Villa	-11.2472
▁çabaları	-11.2473
▁suçlama	-11.2473
▁fidan	-11.2474
mışlar	-11.2477
▁İh	-11.2481
▁vah	-11.2482
rup	-11.2483
zz	-11.2483
▁işleyen	-11.2484
▁elverişli	-11.2484
▁Bitki	-11.2488
▁iddiaları	-11.2492
▁Oktay	-11.2492
▁geçirmiş	-11.2494
▁kapattı	-11.2494
▁hizmetlerinin	-11.2496
dos	-11.2497
▁ünitesi	-11.2497
▁göndermek	-11.25
▁ikincisi	-11.25
▁Gri	-11.2501
▁Finans	-11.2502
▁İlçemiz	-11.2503
▁vizesi	-11.2503
▁kuralı	-11.2503
▁Ekibi	-11.2503
▁ülkedeki	-11.2504
▁isimlerin	-11.2504
▁açın	-11.2505
▁Bre	-11.2507
▁direksiyon	-11.2507
EŞ	-11.2507
▁Yanı	-11.2507
▁fıkrasının	-11.2508
VA	-11.2508
▁alınacaktır	-11.2509
▁dalında	-11.251
▁ölç	-11.2511
▁yanından	-11.2511
▁bahçesinde	-11.2513
liyiz	-11.2514
▁Öğrencilerin	-11.2514
▁şerit	-11.2515
▁Il	-11.2516
/5	-11.2516
▁Black	-11.2517
▁tütün	-11.2517
▁bozuklukları	-11.2518
▁yaşlarda	-11.2521
▁yazının	-11.2521
▁hatalar	-11.2521
▁eğit	-11.2522
▁Mc	-11.2523
▁bayıl	-11.2524
▁özelliğine	-11.2524
▁kaçan	-11.2525
bilgi	-11.2525
▁Rabbim	-11.2526
ska	-11.2529
▁ağlar	-11.2529
▁Meral	-11.2529
▁eserlerin	-11.253
▁Kab	-11.253
▁Restoran	-11.2535
▁koleksiyonu	-11.2536
▁yürütülmesi	-11.2537
▁Pınar	-11.2542
Ah	-11.2544
tom	-11.2544
+1	-11.2545
mızdaki	-11.2545
▁Niğde	-11.2546
lanmıştı	-11.2546
▁YTL	-11.2547
▁birleşme	-11.2549
cilerin	-11.255
▁sürgün	-11.2553
▁kızar	-11.2554
▁Super	-11.2555
▁merkeze	-11.2555
İç	-11.2555
▁koş	-11.2556
▁Akar	-11.2556
▁Muş	-11.2556
▁boyutları	-11.2559
▁bayramı	-11.256
▁Oldu	-11.256
▁severek	-11.2562
SK	-11.2564
▁askerler	-11.2564
▁piş	-11.2565
evler	-11.2565
▁vazife	-11.2565
vey	-11.2565
▁Tarifi	-11.2565
▁okurken	-11.2566
▁sürdüğü	-11.2566
▁diploma	-11.2568
▁dinin	-11.2568
▁dinleyici	-11.2571
▁sizlerde	-11.2572
▁tarımsal	-11.2572
▁sıkış	-11.2575
rad	-11.2576
▁konuşması	-11.2578
▁Sabancı	-11.2579
▁yayımlandı	-11.2579
▁andan	-11.2581
.01	-11.2582
▁Engelliler	-11.2582
▁ileriye	-11.2583
liğimiz	-11.2583
▁atlat	-11.2583
Yıl	-11.2584
▁gündemde	-11.2585
ladığını	-11.2585
▁Yaşlı	-11.2587
▁kalmadan	-11.2589
▁uyruklu	-11.259
▁YENİ	-11.259
▁birbiri	-11.2592
▁Kâ	-11.2593
▁Onları	-11.2594
rum	-11.2595
▁Resmî	-11.2597
MET	-11.2597
▁oluyordu	-11.2598
▁rutin	-11.2598
▁izledi	-11.2599
▁afet	-11.26
gor	-11.2602
▁kazanacak	-11.2602
▁elindeki	-11.2604
▁yakışıklı	-11.2604
▁Yılın	-11.2608
▁lojistik	-11.2608
▁sorulara	-11.2608
▁inkâr	-11.2609
▁kabin	-11.261
nak	-11.2611
▁reddedil	-11.2612
▁bitirme	-11.2612
▁vermeyen	-11.2612
▁sektöre	-11.2612
▁ova	-11.2613
▁havlu	-11.2614
▁THY	-11.2615
▁Kaplama	-11.2616
▁ru	-11.2617
İl	-11.2617
▁çaresiz	-11.2617
▁Düşünce	-11.2618
İD	-11.2618
▁Dayanışma	-11.2619
▁kavuştur	-11.2621
▁alıyorum	-11.2621
▁96	-11.2623
▁gönderilmesi	-11.2624
▁şaka	-11.2627
▁çıkarıyor	-11.2628
▁İp	-11.2629
lığından	-11.2629
▁baharat	-11.2631
▁Kut	-11.2632
▁ayrım	-11.2634
▁yapamaz	-11.2634
▁öğrencilerine	-11.2636
▁Kuvvet	-11.2636
▁finansman	-11.2636
▁Göğüs	-11.2637
▁cebi	-11.2641
▁kayna	-11.2642
▁markaların	-11.2642
▁artışla	-11.2643
▁kapa	-11.2645
▁maliyetleri	-11.2645
▁fiili	-11.2645
▁Volkan	-11.2645
▁yayınladığı	-11.2646
▁sitelerinde	-11.2646
▁dilediği	-11.2647
pas	-11.2647
▁Lefkoşa	-11.2648
▁yansıtma	-11.2648
▁yapılma	-11.2649
vil	-11.2649
▁koruması	-11.2651
▁hamuru	-11.2652
▁Cevapları	-11.2654
osman	-11.2654
▁otelde	-11.2654
▁Yön	-11.2656
▁Kural	-11.2658
▁molekül	-11.2659
▁Hala	-11.2661
▁Arif	-11.2663
▁gücüne	-11.2665
▁olmayabilir	-11.2665
▁oral	-11.2666
▁kısıtlı	-11.2668
▁bölün	-11.2668
▁lehine	-11.2668
▁bırakarak	-11.2669
▁yapısal	-11.2669
▁evlat	-11.267
▁Yumurta	-11.267
▁tahrik	-11.267
ılım	-11.2671
▁lanet	-11.2673
▁gezdir	-11.2673
ning	-11.2673
▁haberleşme	-11.2673
▁gerçekleşme	-11.2674
▁soruya	-11.2675
▁hazırlamış	-11.2675
▁rejimi	-11.2676
▁görüştü	-11.2676
▁akan	-11.2676
▁hırsızlık	-11.2677
▁Annem	-11.2677
▁nihai	-11.2677
▁Deli	-11.2679
▁yükseköğretim	-11.2683
.05	-11.2683
▁sağlaması	-11.2684
▁Kandil	-11.2684
▁telefonun	-11.2684
▁98	-11.2685
▁unsurları	-11.2686
▁Özet	-11.2686
ladığınız	-11.2687
▁istasyon	-11.2688
▁koridor	-11.2688
sünü	-11.2689
▁Alüminyum	-11.2692
▁şekillendir	-11.2692
▁yatırımı	-11.2693
▁başbakan	-11.2693
mini	-11.2694
▁kurarak	-11.2695
Mi	-11.2696
▁kor	-11.2696
▁nur	-11.2696
▁günkü	-11.2697
▁sola	-11.2697
▁özelliklerine	-11.2698
▁ezber	-11.2698
▁farz	-11.2699
▁Rüzgar	-11.27
▁cesur	-11.27
▁evler	-11.2702
▁işlevi	-11.2702
▁BU	-11.2703
▁takviye	-11.2704
▁verilebilir	-11.2705
▁Gazeteciler	-11.2706
▁İsmi	-11.271
▁Arda	-11.2711
▁Topluluğu	-11.2712
cil	-11.2714
▁hammadde	-11.2714
▁Master	-11.2714
▁sin	-11.2716
▁Saldırı	-11.2717
AC	-11.2717
▁büyüklüğü	-11.2719
▁Lider	-11.272
▁Sizi	-11.2721
▁nakli	-11.2722
▁çıkarın	-11.2722
▁Muha	-11.2725
▁NOT	-11.2727
▁yazarak	-11.2729
▁Sigortası	-11.2729
fiye	-11.2729
▁olacağım	-11.2731
ruh	-11.2732
cileri	-11.2732
SAV	-11.2733
▁kurallarına	-11.2734
101	-11.2735
▁sevgisi	-11.2735
▁kazancı	-11.2735
▁eksiklik	-11.2736
▁ağzına	-11.2736
▁Öğrenme	-11.2736
▁ilçemiz	-11.2736
ılmasını	-11.2737
▁istiyorsunuz	-11.2737
ÜL	-11.2738
▁Sitemizde	-11.274
Avrupa	-11.274
▁Kesinlikle	-11.2742
▁130	-11.2743
▁yetim	-11.2743
▁anlamaya	-11.2744
▁çalıştığını	-11.2747
.02	-11.2747
▁kullanımını	-11.2747
▁çarşı	-11.2748
▁kocası	-11.2748
▁okuyun	-11.2749
ladık	-11.275
▁Herkese	-11.2751
▁birçoğu	-11.2752
▁cazip	-11.2752
▁dilerseniz	-11.2753
▁yorgun	-11.2753
▁sırrı	-11.2754
▁müttefik	-11.2755
VE	-11.2755
▁file	-11.2756
▁Bahçelievler	-11.2759
▁Albüm	-11.2759
▁başvuran	-11.276
▁sıralarda	-11.276
▁klip	-11.2763
▁BAŞ	-11.2764
▁ışın	-11.2766
vu	-11.2767
▁olmam	-11.2771
▁mez	-11.2772
▁hizmetlere	-11.2772
sha	-11.2772
▁grupların	-11.2772
▁Çalışmaları	-11.2773
▁kurulacak	-11.2773
sav	-11.2774
spir	-11.2775
▁Suresi	-11.2777
▁2023	-11.2779
▁önleme	-11.2782
▁yakınlarında	-11.2782
▁kendisiyle	-11.2782
▁yetenekleri	-11.2783
▁deposu	-11.2784
ecegi	-11.2785
▁Sahip	-11.2787
▁kriterleri	-11.2787
▁çizen	-11.2787
▁karşıtı	-11.2789
▁zarif	-11.2789
▁terim	-11.2789
▁Yemen	-11.279
▁farklıdır	-11.279
▁ailelerin	-11.2792
▁Odaları	-11.2792
▁Bırak	-11.2792
qui	-11.2793
▁boşluğu	-11.2793
▁birlikleri	-11.2793
ping	-11.2794
▁tamamlamış	-11.2795
▁üreticileri	-11.2795
▁YAPI	-11.2795
▁Macbook	-11.2796
GÜ	-11.2796
▁civarı	-11.2797
▁devamında	-11.2797
▁ulaşmış	-11.2797
▁Geçiş	-11.2798
▁yapmamız	-11.2799
▁içerdiği	-11.2801
▁Mak	-11.2802
▁nakil	-11.2802
▁düşünceler	-11.2802
▁pist	-11.2802
▁fikirler	-11.2803
▁müddet	-11.2803
▁sahaya	-11.2804
▁taleplerini	-11.2804
▁evren	-11.2805
▁arttığı	-11.2808
▁konuşmasını	-11.2808
▁güneyinde	-11.2813
▁yapılandırma	-11.2813
▁orda	-11.2814
▁mama	-11.2814
▁poli	-11.2816
▁Kök	-11.2816
▁bilmem	-11.2817
▁kelimeleri	-11.2818
▁yapısına	-11.2818
▁kah	-11.2819
▁ödemesi	-11.2819
▁uzakta	-11.282
▁âlim	-11.2821
▁tay	-11.2822
▁kıyamet	-11.2822
▁karsi	-11.2822
▁karma	-11.2825
▁edilip	-11.2827
▁yaşındayım	-11.2827
▁Sir	-11.2829
▁yıldızlı	-11.283
▁Melek	-11.283
▁biyolojik	-11.2831
▁ayarı	-11.2832
▁soluk	-11.2833
▁kullandığımız	-11.2834
sul	-11.2834
▁aletleri	-11.2834
pre	-11.2839
▁Yolcu	-11.2839
▁tedbirleri	-11.2841
▁Kablo	-11.2842
▁eklendi	-11.2843
▁müşterilerin	-11.2844
▁İlişki	-11.2845
sko	-11.2846
▁Sitemiz	-11.2846
▁vuruş	-11.2848
▁Hareketi	-11.2848
resi	-11.2848
▁mahkemeye	-11.2849
▁elimizden	-11.285
lilik	-11.2851
▁admin	-11.2851
▁ligin	-11.2853
▁res	-11.2853
style	-11.2854
▁hizmetlerimiz	-11.2854
▁simgesi	-11.2855
▁Misafir	-11.2856
▁galip	-11.2856
▁edebiyatı	-11.2859
▁Harika	-11.286
KAN	-11.286
▁içeride	-11.286
▁devredil	-11.2862
▁yerleşme	-11.2863
Nİ	-11.2864
▁oyununu	-11.2867
metrik	-11.2869
▁Engelli	-11.2869
▁2.5	-11.2872
▁edilmek	-11.2873
are	-11.2874
▁cevaplar	-11.2874
▁değerlendiren	-11.2874
▁konfor	-11.2877
▁ettikten	-11.2879
▁hukukun	-11.288
ılamaz	-11.288
▁Ban	-11.288
▁abla	-11.2881
▁sergisi	-11.2881
▁İsim	-11.2881
▁Bakanlığının	-11.2883
metre	-11.2884
rey	-11.2884
▁mil	-11.2884
kra	-11.2884
▁taktik	-11.2885
▁küp	-11.2885
▁ideoloji	-11.2888
▁gruba	-11.2889
▁yatırımcılar	-11.2892
▁gelişimini	-11.2893
▁burnu	-11.2893
▁beyni	-11.2895
▁Ailesi	-11.2896
▁paranın	-11.2897
▁tahlil	-11.2898
▁Amaçlı	-11.2898
▁göstermiştir	-11.2899
▁kura	-11.2899
▁getirdik	-11.29
▁sultan	-11.2901
▁Taşımacılık	-11.2901
▁yıllara	-11.2901
▁gerçeklik	-11.2902
▁ilgilenen	-11.2902
▁tarafın	-11.2903
▁sindirim	-11.2904
▁eğitimleri	-11.2905
▁ilçelerinde	-11.2907
▁gösterilme	-11.2907
göl	-11.2908
▁tozu	-11.2908
▁düşüncelerini	-11.2908
ack	-11.2909
▁sağlamaya	-11.2909
▁gebe	-11.291
▁derse	-11.291
▁izi	-11.291
2009	-11.2911
▁rahatsızlığı	-11.2911
▁Görü	-11.2912
▁eskort	-11.2912
▁Yanlış	-11.2912
▁dosyasını	-11.2912
▁ekibin	-11.2912
▁Kolları	-11.2912
▁ressam	-11.2913
▁with	-11.2913
▁tab	-11.2914
▁Hoş	-11.2914
gazi	-11.2921
▁dinlemek	-11.2923
▁baktığı	-11.2923
mor	-11.2925
▁sağlanmaktadır	-11.2925
▁dr	-11.2927
▁diyenler	-11.2928
▁Kulak	-11.2928
▁çözüme	-11.293
era	-11.293
▁soyun	-11.2932
▁firmasının	-11.2932
▁dizinin	-11.2933
▁Cezaevi	-11.2933
▁hü	-11.2936
▁tamamlan	-11.2936
▁Mikro	-11.2938
tığımız	-11.2939
▁17.	-11.294
▁çatısı	-11.294
fu	-11.2941
▁başlarında	-11.2941
mediğini	-11.2942
▁senedir	-11.2942
▁noter	-11.2943
▁yedir	-11.2943
▁dip	-11.2943
py	-11.2943
▁edilirken	-11.2944
▁şiddeti	-11.2944
▁sormak	-11.2945
▁dinlen	-11.2947
mamak	-11.2947
▁Yakası	-11.2948
▁türden	-11.2949
▁akademisyen	-11.295
▁atanan	-11.2952
▁yanısıra	-11.2953
▁Afet	-11.2954
▁kullanırken	-11.2956
▁tutulan	-11.2956
▁gönderilir	-11.2957
▁gözüküyor	-11.2957
şik	-11.2957
Evet	-11.2957
▁bebeği	-11.2958
Co	-11.2958
▁doğası	-11.2958
mıs	-11.2961
çılık	-11.2961
okul	-11.2962
▁çizgisi	-11.2962
cho	-11.2962
▁pozisyonu	-11.2963
▁çapraz	-11.2965
▁nüfusun	-11.2966
▁sök	-11.2967
▁almaz	-11.2968
▁kodları	-11.2968
▁Zengin	-11.2969
▁BO	-11.297
▁Uydu	-11.2972
▁kullandıkları	-11.2973
gli	-11.2974
▁oranını	-11.2976
▁arayın	-11.298
▁Duyuru	-11.2981
▁illerde	-11.2983
Hz	-11.2984
▁yıka	-11.2986
▁cinsi	-11.2986
▁dekoratif	-11.2988
▁kurallara	-11.2989
▁kule	-11.2989
▁Çukurova	-11.2991
üldüğü	-11.2992
▁vahşi	-11.2992
▁örgütün	-11.2992
▁krizin	-11.2993
▁Sendika	-11.2993
▁biçiminde	-11.2994
▁hesabını	-11.2996
▁tri	-11.2996
▁edebiliyor	-11.2997
▁Göztepe	-11.2998
▁Dua	-11.2998
▁fırsatlar	-11.2999
▁zenginlik	-11.2999
müyor	-11.2999
▁özetle	-11.3
▁projelerin	-11.3
▁kurmuş	-11.3002
▁ekleyerek	-11.3002
▁baþ	-11.3005
ÜR	-11.3007
▁girdim	-11.3011
▁İhracat	-11.3012
▁vatandaşlara	-11.3012
▁döndür	-11.3013
▁Hakim	-11.3014
▁Bilge	-11.3014
▁Bartın	-11.3015
▁Aşırı	-11.3015
▁adının	-11.3016
▁filminde	-11.3016
▁Oy	-11.3016
▁Adli	-11.3017
▁Obama	-11.3018
▁Organizasyon	-11.302
▁ekonomisine	-11.302
▁start	-11.3021
▁taktirde	-11.3022
fâ	-11.3022
uf	-11.3022
tıp	-11.3023
▁balıkçı	-11.3024
▁gibiydi	-11.3024
▁üretil	-11.3025
▁tümü	-11.3027
▁Alma	-11.3027
Na	-11.3028
▁müşteriler	-11.3029
▁cesedi	-11.3029
▁hayatlarını	-11.303
▁aralıklarla	-11.3031
▁sağa	-11.3032
▁partilerin	-11.3032
▁telefonlar	-11.3033
▁Tok	-11.3034
▁şirin	-11.3036
▁Bayrağı	-11.3037
▁odalar	-11.3038
▁güvenle	-11.3039
▁konsol	-11.3039
▁evlen	-11.3039
ÜM	-11.3041
▁ehil	-11.3042
▁ağlama	-11.3042
▁uzlaşma	-11.3043
▁zalim	-11.3043
▁tenis	-11.3044
▁adrese	-11.3045
▁senesinde	-11.3045
▁sorar	-11.3046
▁düşürme	-11.3047
▁kullanıcının	-11.3048
▁gömlek	-11.3049
▁kampanyaları	-11.305
▁Mesaj	-11.3051
▁versin	-11.3052
▁çarptı	-11.3052
▁PS	-11.3054
▁getirip	-11.3054
usu	-11.3055
▁hükümler	-11.3056
TK	-11.3057
▁diledi	-11.3057
▁geliştirici	-11.3059
▁2017’	-11.306
▁şiddetle	-11.3061
▁önergesi	-11.3064
▁Yüzde	-11.3064
▁Ele	-11.3064
▁bağlayan	-11.3065
nom	-11.3066
▁Divan	-11.3066
ÇE	-11.3066
▁Emine	-11.3067
rul	-11.3068
▁olmayacağı	-11.3068
▁Gümüşhane	-11.3069
▁kaynat	-11.3069
▁Doktora	-11.3069
▁öldürme	-11.3069
▁isteyenlerin	-11.3069
▁sürülen	-11.307
▁tartışıl	-11.3072
▁anlaşıl	-11.3075
▁İlan	-11.3075
▁anları	-11.3077
▁davetiye	-11.3077
▁yükselmesi	-11.3078
▁tüccar	-11.3079
▁Rabbi	-11.308
▁almaları	-11.308
▁Tapu	-11.308
▁alınıp	-11.308
ılırken	-11.3081
▁hakk	-11.3081
▁sorununu	-11.3081
▁oluşacak	-11.3081
▁çevrimiçi	-11.3083
▁Romanya	-11.3083
▁YGS	-11.3085
▁uygulay	-11.3086
▁etmemiz	-11.3088
▁yazımız	-11.3088
▁MO	-11.3089
▁dersiniz	-11.309
▁IV	-11.309
▁Eskiden	-11.309
▁olanları	-11.3091
▁4-5	-11.3091
ülen	-11.3091
▁zarı	-11.3092
lamıyor	-11.3092
▁kullanması	-11.3093
▁yaralanma	-11.3093
▁Müdürümüz	-11.3094
▁cenazesi	-11.3094
▁Maalesef	-11.3095
viz	-11.3096
▁88	-11.3097
▁yapılabilecek	-11.3097
▁Gazeteci	-11.3097
izmin	-11.3098
▁server	-11.3099
▁haklarına	-11.3099
▁bölgeler	-11.31
jan	-11.3101
▁reçete	-11.3102
▁dilde	-11.3102
▁geçmeden	-11.3103
▁tamamlanan	-11.3103
▁servisleri	-11.3104
▁çiçekler	-11.3104
▁seçerek	-11.3104
aka	-11.3106
▁İL	-11.3108
▁başkalarının	-11.3108
▁sitesini	-11.3108
▁karşısındaki	-11.3108
▁Şirin	-11.3108
▁çağın	-11.3111
mazsa	-11.3111
▁indirmek	-11.3112
▁grupta	-11.3113
▁tasfiye	-11.3114
▁yaya	-11.3114
▁söyledim	-11.3114
▁160	-11.3115
▁þ	-11.3115
▁polisin	-11.3116
▁yaşanıyor	-11.3116
[...]
