<unk>	0
<s>	0
</s>	0
.	-3.24994
,	-3.45235
▁ve	-4.14039
▁bir	-4.55342
▁	-4.70435
’	-4.93782
'	-5.11753
n	-5.16512
i	-5.36152
lar	-5.36696
a	-5.40496
ler	-5.42567
▁bu	-5.42737
▁için	-5.46249
▁ile	-5.53782
e	-5.54028
da	-5.55379
de	-5.59257
▁de	-5.60447
▁da	-5.64312
k	-5.64652
nin	-5.71921
m	-5.71984
ları	-5.74974
in	-5.78192
leri	-5.79659
)	-5.90311
▁olarak	-5.92222
-	-5.93805
ı	-5.96599
nın	-5.99492
▁(	-5.99843
ın	-5.99863
li	-6.01797
▁Bu	-6.04817
ya	-6.04868
▁çok	-6.10216
:	-6.12968
▁olan	-6.13801
si	-6.14393
na	-6.18902
la	-6.21636
ne	-6.22652
s	-6.24971
▁en	-6.25003
ye	-6.25885
le	-6.27798
▁daha	-6.30606
t	-6.30744
lı	-6.32308
▁“	-6.32965
...	-6.40032
▁gibi	-6.42377
dan	-6.4318
den	-6.46017
z	-6.48819
lerin	-6.51184
ni	-6.52747
”	-6.52807
l	-6.56551
;	-6.57905
sı	-6.59664
ların	-6.59783
▁kadar	-6.6051
▁her	-6.6076
ta	-6.62275
an	-6.62396
te	-6.62858
ma	-6.63962
u	-6.65798
▁"	-6.67342
dir	-6.70794
?	-6.71451
r	-6.71873
▁sonra	-6.72778
nda	-6.74577
y	-6.77719
lik	-6.779
▁ise	-6.78298
▁Türkiye	-6.80683
nde	-6.83103
▁-	-6.83586
▁ne	-6.83902
▁o	-6.84006
en	-6.84565
un	-6.84822
p	-6.8673
di	-6.87012
▁veya	-6.87582
"	-6.88244
▁yer	-6.88368
d	-6.8929
ki	-6.89709
larını	-6.91454
▁var	-6.92321
yi	-6.9365
lere	-6.93651
nı	-6.94745
dır	-6.95504
▁ya	-6.96722
lara	-6.97442
lerini	-6.97826
▁göre	-7.0063
▁ki	-7.0083
▁A	-7.01261
▁yeni	-7.01398
▁tarafından	-7.01567
▁1	-7.0177
▁büyük	-7.02841
me	-7.05808
▁2	-7.08528
/	-7.08599
sa	-7.09652
yı	-7.10308
▁iyi	-7.11409
▁zaman	-7.11757
▁olduğu	-7.12747
▁ilk	-7.14812
lık	-7.15698
▁3	-7.17524
lu	-7.17578
▁şekilde	-7.21916
▁ilgili	-7.22941
▁O	-7.23049
▁S	-7.2441
ca	-7.25715
▁ama	-7.25931
▁tüm	-7.26263
yla	-7.2656
er	-7.27717
▁Bir	-7.28242
ü	-7.29382
larının	-7.29492
yle	-7.29729
tan	-7.31093
▁son	-7.31776
f	-7.31811
se	-7.3419
▁iki	-7.3511
o	-7.35314
▁olduğunu	-7.35878
larda	-7.36214
nun	-7.36556
lerde	-7.37238
ş	-7.38532
▁iş	-7.38618
▁önce	-7.39257
!	-7.40122
▁gün	-7.40548
▁devam	-7.41561
▁içinde	-7.41638
ce	-7.41935
larına	-7.42209
lerinin	-7.42448
K	-7.42765
▁karşı	-7.42861
▁alan	-7.43101
▁arasında	-7.43325
▁Türk	-7.44064
ti	-7.4442
▁önemli	-7.45201
ini	-7.45612
▁yıl	-7.45668
▁değil	-7.45902
▁4	-7.46404
▁E	-7.46478
lerine	-7.46505
ten	-7.46556
al	-7.46594
dı	-7.47079
h	-7.47877
ir	-7.47916
▁K	-7.48368
S	-7.48453
ndan	-7.48998
▁birlikte	-7.49085
▁fazla	-7.49817
▁hem	-7.50489
▁İstanbul	-7.51545
▁diğer	-7.51555
b	-7.51952
c	-7.5204
mak	-7.52758
▁güzel	-7.52786
g	-7.53343
im	-7.53675
▁B	-7.54097
nden	-7.54123
▁aynı	-7.54442
▁5	-7.54614
ır	-7.54843
▁10	-7.55417
▁C	-7.56407
▁diye	-7.5644
▁kendi	-7.56789
▁sahip	-7.57116
ci	-7.58323
▁özel	-7.60746
▁yapılan	-7.60755
at	-7.61488
C	-7.62096
▁su	-7.62282
▁T	-7.62421
ine	-7.62552
▁eden	-7.63058
▁gelen	-7.63398
▁oldu	-7.63492
larında	-7.63539
lerden	-7.63803
tir	-7.6383
▁bin	-7.6412
tı	-7.64462
mi	-7.64714
miz	-7.64976
mış	-7.64986
▁farklı	-7.64994
B	-7.65053
T	-7.65743
ar	-7.65795
D	-7.66136
▁Başkanı	-7.66395
A	-7.66615
daki	-7.66966
ını	-7.67575
▁bulunan	-7.68816
▁tek	-7.69714
▁doğru	-7.70502
M	-7.70524
▁sadece	-7.70678
arak	-7.70691
lardan	-7.70776
▁19	-7.70943
▁olmak	-7.72656
▁yok	-7.72985
▁ben	-7.73157
▁M	-7.74454
du	-7.75015
▁hizmet	-7.75706
sini	-7.76631
ken	-7.77044
▁D	-7.77326
▁bile	-7.77539
ün	-7.77574
▁an	-7.77983
lama	-7.78236
el	-7.78872
▁şey	-7.78962
▁nasıl	-7.79159
▁dedi	-7.792
deki	-7.79397
v	-7.79444
▁başka	-7.80078
▁uygun	-7.80153
um	-7.8026
re	-7.80403
▁a	-7.80454
▁üzere	-7.80715
lerinden	-7.81781
lerinde	-7.81985
miş	-7.8212
tır	-7.82302
ç	-7.82321
▁bilgi	-7.82675
ra	-7.82715
niz	-7.83363
acak	-7.83963
sine	-7.84274
▁olması	-7.84297
▁az	-7.84694
▁Genel	-7.84854
lerle	-7.85129
▁6	-7.85333
man	-7.85494
▁G	-7.86641
▁yılında	-7.87074
ri	-7.87083
▁eğitim	-7.87203
▁üzerine	-7.87216
larla	-7.87234
▁yüksek	-7.87426
il	-7.87661
ur	-7.88415
cı	-7.88525
▁mi	-7.88771
▁e	-7.89092
su	-7.89498
2	-7.89638
▁üzerinde	-7.90217
▁ev	-7.9041
ması	-7.90431
▁al	-7.90583
G	-7.90843
mız	-7.91548
▁‘	-7.9166
inde	-7.92046
lü	-7.923
ka	-7.92586
▁biri	-7.92975
▁:	-7.92988
larından	-7.9344
sını	-7.941
▁etti	-7.94364
P	-7.94469
▁F	-7.94489
mek	-7.94673
▁hakkında	-7.95643
1	-7.96527
▁saat	-7.96776
▁7	-7.96818
liği	-7.97305
▁olur	-7.97555
ecek	-7.97756
▁bütün	-7.98546
▁P	-7.98563
lan	-7.98993
▁açık	-7.99057
ım	-7.99367
▁kişi	-7.99686
F	-8.00782
▁kabul	-8.00828
▁para	-8.00886
▁insan	-8.01076
▁ifade	-8.01336
▁ay	-8.01566
▁15	-8.01774
▁ortaya	-8.02404
▁Allah	-8.02487
▁süre	-8.02826
▁s	-8.02928
Y	-8.03285
com	-8.03439
siz	-8.0355
E	-8.03563
▁Her	-8.03731
▁uzun	-8.04016
ına	-8.04129
▁el	-8.04418
erek	-8.04672
▁hiç	-8.05124
ıyor	-8.05155
▁yüzde	-8.05201
lığı	-8.05301
ik	-8.05306
▁8	-8.05353
▁#	-8.05724
▁i	-8.05836
▁k	-8.05863
▁m	-8.06164
sinde	-8.06278
▁destek	-8.06281
▁edilen	-8.06647
inin	-8.06739
▁olacak	-8.06917
ip	-8.07303
ge	-8.07401
▁En	-8.07909
▁neden	-8.08367
sin	-8.08752
▁yol	-8.09016
x	-8.0905
nız	-8.09156
dur	-8.09285
▁karar	-8.09813
▁içerisinde	-8.10237
▁yapan	-8.10514
▁Ve	-8.10882
nu	-8.10904
▁H	-8.11955
▁geri	-8.12026
▁bazı	-8.12212
▁Ne	-8.12289
▁/	-8.12459
sız	-8.12535
H	-8.12978
iz	-8.13171
▁yakın	-8.13671
▁Ancak	-8.13846
O	-8.14239
▁şu	-8.14481
▁tam	-8.14625
▁–	-8.14707
▁yerine	-8.14905
İ	-8.15334
▁Y	-8.1537
çi	-8.15544
bi	-8.15745
▁konusunda	-8.15851
sına	-8.15856
▁söz	-8.16146
luk	-8.16159
▁20	-8.16537
▁ancak	-8.16895
▁Üniversitesi	-8.1694
▁sıra	-8.17006
▁ardından	-8.17241
sel	-8.17319
▁ara	-8.17369
ak	-8.17543
▁Eğitim	-8.17712
oğlu	-8.1779
▁in	-8.17953
▁günü	-8.18215
▁etmek	-8.18438
va	-8.19262
▁kat	-8.19288
3	-8.19525
▁'	-8.19686
▁at	-8.20027
iyor	-8.20077
▁Avrupa	-8.20154
ğ	-8.20404
▁yaptığı	-8.20564
▁Dr	-8.20569
▁göz	-8.20795
ul	-8.20884
▁2018	-8.2096
▁vardır	-8.20981
▁Yeni	-8.2124
▁ek	-8.21561
▁n	-8.22446
▁iç	-8.22629
▁ediyor	-8.22878
▁I	-8.23023
▁çalışma	-8.2367
5	-8.23693
sinin	-8.23732
ında	-8.23735
it	-8.2381
▁birçok	-8.23822
N	-8.24766
▁böyle	-8.24835
▁altında	-8.24915
▁mu	-8.24993
▁çıkar	-8.25015
▁kez	-8.25205
▁kısa	-8.25227
▁tercih	-8.25255
mesi	-8.25758
▁olabilir	-8.25941
tik	-8.26049
▁hava	-8.26096
▁dikkat	-8.26281
▁12	-8.26317
▁Ben	-8.26705
▁size	-8.27089
sal	-8.27444
maya	-8.27505
▁benim	-8.27534
▁olup	-8.27546
leme	-8.27628
▁artık	-8.27642
▁hafta	-8.27907
ba	-8.28326
ke	-8.28351
▁bağlı	-8.28365
ıp	-8.28508
yan	-8.2853
▁milyon	-8.28789
▁yine	-8.28896
▁geçen	-8.29275
▁hemen	-8.2939
▁Ankara	-8.29484
▁ABD	-8.29954
▁yapı	-8.30345
▁%	-8.30402
uz	-8.31378
î	-8.31444
gi	-8.31666
▁yaz	-8.31716
mektedir	-8.31746
▁yap	-8.31751
▁ait	-8.32011
▁18	-8.32049
▁9	-8.32136
ter	-8.32488
▁olsun	-8.32736
▁b	-8.32758
▁geldi	-8.33048
▁zamanda	-8.33189
maktadır	-8.33267
▁...	-8.33341
I	-8.33369
▁mı	-8.33442
▁gece	-8.33669
▁söyledi	-8.3388
▁TL	-8.34124
▁küçük	-8.3414
▁hazır	-8.34407
▁eski	-8.34434
is	-8.34724
▁|	-8.34998
on	-8.35026
▁Ama	-8.35125
▁Ak	-8.35262
▁kadın	-8.3543
V	-8.3554
▁gereken	-8.35689
▁hiçbir	-8.35882
▁Belediye	-8.36063
▁sosyal	-8.36168
▁olma	-8.36816
zi	-8.37195
▁İl	-8.37332
▁bunu	-8.37613
▁veren	-8.37642
▁İş	-8.37714
4	-8.37821
▁hareket	-8.37825
(	-8.37832
▁üzerinden	-8.37864
▁re	-8.37907
▁gelir	-8.38027
▁pek	-8.38179
	-8.38231
ve	-8.38553
▁Ayrıca	-8.38571
L	-8.38705
▁ön	-8.39314
U	-8.39461
▁oldukça	-8.39623
▁Kurulu	-8.39772
diği	-8.39962
▁Ç	-8.40203
▁yayın	-8.40966
be	-8.41233
unu	-8.41244
▁U	-8.41443
▁genel	-8.41524
▁görev	-8.41581
▁İ	-8.41638
▁konu	-8.41735
▁üç	-8.41742
ay	-8.41758
nizi	-8.41887
▁konusu	-8.4191
▁ilişkin	-8.41952
sında	-8.42117
.”	-8.42766
▁gerçek	-8.42777
▁üst	-8.42861
dığı	-8.43119
▁g	-8.43169
ha	-8.43575
ının	-8.43646
▁gerek	-8.43647
▁ürün	-8.43729
ga	-8.44043
▁yanı	-8.44109
▁yönelik	-8.44118
▁yapmak	-8.44209
▁tekrar	-8.44823
▁uygulama	-8.44823
▁nedeniyle	-8.45209
▁30	-8.4524
▁Son	-8.45551
▁zor	-8.45575
min	-8.45935
ran	-8.4601
▁1.	-8.46195
muş	-8.46392
et	-8.46394
▁Daha	-8.46395
▁takip	-8.4641
▁biraz	-8.46628
▁aile	-8.46951
▁14	-8.46971
­	-8.47029
▁kullan	-8.47037
▁ana	-8.47192
ebilir	-8.47268
▁başladı	-8.47321
yu	-8.47791
▁il	-8.47796
▁onu	-8.48036
▁biz	-8.48166
dim	-8.48229
▁ayrı	-8.4852
00	-8.48615
▁ikinci	-8.4865
R	-8.4874
Ş	-8.48803
▁kız	-8.49196
."	-8.49291
▁çocuk	-8.49337
kan	-8.49442
]	-8.49549
ılan	-8.49662
▁herhangi	-8.49701
▁elde	-8.50027
▁özellikle	-8.50033
▁sahibi	-8.50245
▁c	-8.50397
mı	-8.50432
lo	-8.50461
▁Re	-8.50476
▁bana	-8.50545
▁kolay	-8.50565
sın	-8.5065
▁tarihi	-8.50895
▁dünya	-8.51118
▁geç	-8.51213
▁2017	-8.5134
abilir	-8.51466
za	-8.51512
cu	-8.51524
▁16	-8.51581
▁temel	-8.51684
▁dolayı	-8.51711
çı	-8.5172
▁ziyaret	-8.5236
▁r	-8.52421
▁durum	-8.52515
ol	-8.52996
▁kontrol	-8.53054
▁olmayan	-8.53177
▁bugün	-8.53242
han	-8.53292
▁kaç	-8.53318
▁kapsamında	-8.53346
▁proje	-8.53418
ül	-8.53483
▁çıkan	-8.53875
▁bak	-8.54165
▁Dünya	-8.54177
larıyla	-8.5449
▁olsa	-8.54505
▁Bakanlığı	-8.54518
▁araç	-8.54671
▁derece	-8.5492
▁eder	-8.54996
▁Al	-8.55064
tu	-8.55197
ö	-8.55263
st	-8.55381
ro	-8.55451
▁gerekli	-8.55477
▁kar	-8.5559
Ç	-8.55698
▁yeniden	-8.55967
▁oyun	-8.56126
▁halinde	-8.56349
▁Belediyesi	-8.56361
bu	-8.56449
ek	-8.56581
▁onun	-8.5659
▁almak	-8.56939
▁yan	-8.57052
▁sağlık	-8.57101
len	-8.5711
▁Çünkü	-8.5731
leriyle	-8.57479
▁devlet	-8.57514
ver	-8.57637
sun	-8.57842
▁dışında	-8.57882
ıcı	-8.57982
▁değildir	-8.5799
▁yani	-8.58074
▁11	-8.5808
Bu	-8.5812
▁Müdürlüğü	-8.58194
iş	-8.58296
▁2.	-8.58317
▁Erdoğan	-8.58346
▁İlk	-8.58424
▁Ay	-8.58501
çe	-8.58646
to	-8.58709
▁Bunun	-8.5885
▁çeşitli	-8.5886
▁etme	-8.58866
abilirsiniz	-8.59089
us	-8.59262
ür	-8.59316
▁telefon	-8.5945
sının	-8.59473
▁R	-8.59715
▁genç	-8.59722
▁bi	-8.59783
▁Er	-8.59913
▁çalışan	-8.59956
▁sık	-8.60169
▁hak	-8.60318
▁izle	-8.60525
▁burada	-8.60602
san	-8.60834
▁ödeme	-8.60944
▁oluyor	-8.60978
▁Parti	-8.61034
▁Su	-8.61081
▁bizim	-8.61277
▁Biz	-8.61327
▁Se	-8.61512
▁mücadele	-8.61656
▁mümkün	-8.61723
▁De	-8.61751
do	-8.618
nızı	-8.61828
▁rağmen	-8.62033
▁durumda	-8.62106
7	-8.62114
▁adet	-8.62116
os	-8.62744
ev	-8.62745
▁alma	-8.62837
▁yardımcı	-8.62842
▁Kara	-8.62963
▁haber	-8.63145
sanız	-8.63378
▁Merkezi	-8.63563
ad	-8.63868
â	-8.63983
▁Ya	-8.64087
▁Ali	-8.64091
▁verdi	-8.64109
▁sürekli	-8.64267
▁17	-8.64298
▁müşteri	-8.64526
▁N	-8.6463
▁Başkan	-8.64704
▁aldı	-8.64779
▁adı	-8.64799
▁fark	-8.64841
8	-8.65075
▁tür	-8.65414
▁bunun	-8.65557
vi	-8.65635
▁t	-8.65714
▁baş	-8.65743
dım	-8.65859
▁sayesinde	-8.6595
▁13	-8.66033
▁Ma	-8.66201
▁ettiği	-8.66447
▁şehir	-8.66561
▁hızlı	-8.66591
▁sağ	-8.66602
▁değer	-8.66629
▁sene	-8.66632
▁internet	-8.66663
▁boyunca	-8.66798
▁Eğer	-8.6703
▁mü	-8.67318
▁türlü	-8.67492
ça	-8.67719
▁yatırım	-8.67734
▁L	-8.67757
▁sayılı	-8.67817
▁0	-8.67865
ý	-8.68084
▁ince	-8.68224
▁yanında	-8.68239
ydi	-8.68497
▁beraber	-8.68531
▁din	-8.68539
tur	-8.68577
),	-8.68767
▁dil	-8.69003
0	-8.69042
▁edin	-8.69046
▁24	-8.69252
▁yapma	-8.69328
▁güç	-8.6948
▁gerekir	-8.69545
▁seçim	-8.69568
▁adam	-8.69629
▁25	-8.69943
▁hangi	-8.69999
▁imza	-8.70201
▁anda	-8.70302
▁verilen	-8.70385
▁kötü	-8.70419
mıştır	-8.70701
▁yaklaşık	-8.70788
▁marka	-8.70813
ılır	-8.70934
iye	-8.70995
▁alt	-8.71016
▁sonucu	-8.71067
▁2016	-8.71124
▁et	-8.71213
▁aç	-8.71305
▁La	-8.71412
▁dakika	-8.71457
▁bize	-8.7159
▁sistemi	-8.71597
▁tarihinde	-8.71657
▁Ar	-8.71769
▁ederek	-8.71773
fa	-8.71837
▁bas	-8.71918
▁ülke	-8.72068
fi	-8.72635
▁takım	-8.72721
▁hale	-8.72803
miştir	-8.72873
▁başvuru	-8.73048
▁yardım	-8.73277
▁teknik	-8.73345
lük	-8.73356
ed	-8.73373
layan	-8.73598
▁beni	-8.73821
ılması	-8.74028
▁Milli	-8.7416
meye	-8.74332
▁ses	-8.74667
ıl	-8.74671
▁soru	-8.74936
ılmış	-8.75116
ık	-8.75125
▁yemek	-8.7517
ing	-8.75278
ız	-8.75365
or	-8.75549
▁Anadolu	-8.75553
▁erkek	-8.75594
iyet	-8.75595
▁yaptı	-8.75682
ağı	-8.75762
w	-8.75845
▁Özel	-8.75903
▁nedenle	-8.76155
▁olacaktır	-8.76253
▁p	-8.76349
▁talep	-8.76557
j	-8.76739
nün	-8.76911
▁hizmeti	-8.77008
▁yazı	-8.7707
▁hep	-8.77139
▁Te	-8.77173
▁sizin	-8.77223
▁Spor	-8.77312
▁ele	-8.77429
▁ilgi	-8.77447
▁*	-8.77538
▁hedef	-8.77676
Ü	-8.77739
ko	-8.77774
▁film	-8.77944
kar	-8.78002
▁ak	-8.7815
▁kalan	-8.78228
ndaki	-8.78294
▁yapılacak	-8.78313
▁zarar	-8.78344
▁Çok	-8.78445
▁er	-8.78483
▁canlı	-8.78493
▁araştırma	-8.78522
▁şeklinde	-8.78568
▁konuştu	-8.7861
▁kitap	-8.78618
▁İzmir	-8.78776
▁ortak	-8.78918
▁sorun	-8.7896
▁fiyat	-8.79037
▁te	-8.79089
▁Kasım	-8.79143
▁Temmuz	-8.79249
▁ona	-8.79344
▁sayfa	-8.79373
▁adına	-8.79432
▁kan	-8.7955
siniz	-8.79553
▁cevap	-8.79639
▁f	-8.79716
▁toplam	-8.79749
▁El	-8.79763
▁100	-8.79915
▁çıktı	-8.79941
▁Sa	-8.7999
up	-8.80016
▁hesap	-8.80137
▁üniversite	-8.80391
▁parça	-8.80658
▁d	-8.80671
ıldı	-8.80725
▁yaşam	-8.80725
▁kap	-8.80766
dik	-8.80778
▁Eylül	-8.80885
▁giriş	-8.80901
bir	-8.80908
▁Mehmet	-8.80929
tr	-8.8098
▁Tüm	-8.80981
▁bulunduğu	-8.81014
▁Öz	-8.81127
▁servis	-8.81153
▁olay	-8.81195
▁top	-8.81262
▁site	-8.8128
▁şöyle	-8.81331
▁l	-8.81426
▁yüz	-8.8147
▁gir	-8.8164
▁Me	-8.81672
▁kayıt	-8.81811
▁savaş	-8.81829
▁enerji	-8.81842
▁y	-8.82362
as	-8.82592
▁düzenlenen	-8.82622
▁spor	-8.82683
der	-8.82697
inden	-8.82701
▁sırasında	-8.82897
▁anne	-8.82919
6	-8.82971
▁izin	-8.8298
▁yorum	-8.82981
▁konuda	-8.8305
▁insanlar	-8.83089
▁siz	-8.83182
▁satış	-8.83236
ch	-8.83325
▁isteyen	-8.83455
▁etki	-8.83502
▁Ra	-8.83507
Ö	-8.83721
▁belli	-8.83743
▁açısından	-8.83867
▁kullanılan	-8.8387
▁parti	-8.83951
▁geniş	-8.84202
▁ta	-8.84263
▁V	-8.84354
▁ders	-8.84395
ber	-8.84744
▁oda	-8.84909
▁indir	-8.84944
▁otel	-8.85063
▁Ş	-8.85082
▁verdiği	-8.8529
iyle	-8.8546
▁Cumhurbaşkanı	-8.85633
▁sonunda	-8.85655
▁dahil	-8.85729
▁çevre	-8.85744
▁itibaren	-8.85896
▁sizi	-8.86234
▁tedavi	-8.86294
▁güven	-8.8638
am	-8.86707
▁z	-8.86726
lanan	-8.86748
bo	-8.86775
▁Devlet	-8.86794
nce	-8.86813
▁do	-8.86856
▁Ekim	-8.86975
▁saç	-8.87062
lanma	-8.87145
▁başarılı	-8.87369
▁yoğun	-8.87586
▁Di	-8.87703
▁gider	-8.87716
▁aldığı	-8.87946
▁ma	-8.8803
▁geliyor	-8.88057
▁teknoloji	-8.88064
▁Baş	-8.88165
▁Mustafa	-8.88179
▁anlat	-8.88216
▁vardı	-8.88218
▁teslim	-8.88253
▁yaş	-8.88289
spor	-8.88336
▁kişinin	-8.88597
▁yönetim	-8.88693
▁ba	-8.88702
▁tasarım	-8.88717
mizi	-8.88755
▁varsa	-8.88823
▁teşekkür	-8.88831
▁firma	-8.88995
▁Ka	-8.89066
▁faaliyet	-8.89106
lenen	-8.89122
▁Li	-8.89124
▁öyle	-8.89142
▁kal	-8.89223
▁edecek	-8.8938
dür	-8.89437
▁iddia	-8.89622
▁bulundu	-8.89714
▁2015	-8.89825
mez	-8.89843
ydı	-8.89994
▁Mart	-8.90013
▁yana	-8.90035
▁Bakanı	-8.90263
▁hayat	-8.90298
▁üye	-8.90458
▁doğal	-8.90487
ilen	-8.90553
▁maç	-8.90673
tim	-8.90674
▁dış	-8.90803
▁sistem	-8.91055
gu	-8.91088
▁üretim	-8.911
▁kredi	-8.91248
ze	-8.91344
▁amacıyla	-8.91453
▁dönem	-8.91583
ut	-8.91686
▁plan	-8.9169
larımız	-8.91765
▁orta	-8.9178
van	-8.91791
ot	-8.91806
▁Haziran	-8.91892
let	-8.91913
▁50	-8.91933
▁tespit	-8.9198
▁puan	-8.91989
▁Z	-8.92153
▁yıllık	-8.9219
▁3.	-8.92236
▁sat	-8.92314
▁AK	-8.92348
▁Ba	-8.92507
men	-8.92521
▁Büyük	-8.92556
▁merkezi	-8.92667
▁Yönetim	-8.92751
sınız	-8.92763
▁güvenlik	-8.92792
ici	-8.92842
▁edildi	-8.92908
▁yılı	-8.92945
▁kapı	-8.92998
▁arama	-8.93052
▁okul	-8.93062
▁meydana	-8.93075
ndeki	-8.93175
▁yağ	-8.93187
▁istiyorum	-8.93259
9	-8.93341
▁taş	-8.93463
▁paylaş	-8.93522
▁gerekiyor	-8.93552
▁Ev	-8.93567
▁web	-8.93793
▁kur	-8.94007
▁hasta	-8.94029
▁21	-8.9403
imi	-8.94087
ış	-8.94115
nca	-8.94136
▁ağır	-8.94162
▁güçlü	-8.945
▁dile	-8.94549
▁kas	-8.94642
▁çözüm	-8.94781
▁Mayıs	-8.94789
▁oluşan	-8.94806
▁yerde	-8.94876
maz	-8.94915
ist	-8.95239
▁ceza	-8.9525
▁durumu	-8.95262
▁işlem	-8.95278
▁Bey	-8.95316
▁An	-8.95451
▁Sosyal	-8.95627
yor	-8.95685
▁mutlu	-8.95697
▁içi	-8.95765
mu	-8.95767
▁tamamen	-8.958
▁video	-8.9589
▁ar	-8.95951
▁önem	-8.96036
▁bulunmaktadır	-8.96055
▁ciddi	-8.96057
▁adım	-8.96123
▁kamu	-8.96252
▁2014	-8.96451
▁arasındaki	-8.96482
şe	-8.96523
▁sohbet	-8.96698
▁[	-8.96858
go	-8.97084
▁mal	-8.97115
ünü	-8.97126
▁ayrıca	-8.97232
▁Kur	-8.97248
▁engel	-8.97306
▁ekonomik	-8.97312
es	-8.97477
▁dolu	-8.97571
▁yanlış	-8.97627
▁edilmesi	-8.97771
▁mevcut	-8.97823
▁say	-8.97885
▁gerçekleştir	-8.97913
▁yüzden	-8.97973
▁dizi	-8.98132
▁tarih	-8.98153
dığını	-8.98295
▁öğrenci	-8.98348
mızı	-8.98355
▁Mü	-8.98387
▁şimdi	-8.98435
▁bayan	-8.98456
▁yasa	-8.98475
▁örnek	-8.98701
▁uzman	-8.98813
▁sen	-8.9884
▁açıklama	-8.98988
▁gelecek	-8.99005
▁kaliteli	-8.99048
▁can	-8.99072
▁oy	-8.9923
▁çalış	-8.99272
▁çünkü	-8.99317
▁iletişim	-8.99333
▁Büyükşehir	-8.9934
▁sizlere	-8.99367
▁tak	-8.99373
▁sa	-8.99538
▁dönemde	-8.99682
▁Türkçe	-8.99771
▁Prof	-8.99944
▁Özellikle	-9.00045
▁esas	-9.00124
▁ka	-9.00154
▁yabancı	-9.00215
siyle	-9.00248
ktan	-9.00342
▁Kar	-9.00366
▁kon	-9.00604
▁fakat	-9.00785
▁madde	-9.00844
▁se	-9.00875
▁rahat	-9.01057
▁yoktur	-9.01121
▁satın	-9.01217
▁bahis	-9.013
▁Atatürk	-9.01337
▁haline	-9.01412
lanması	-9.01733
▁kararı	-9.01771
▁Na	-9.01797
▁bilgiler	-9.01805
▁edilir	-9.01948
▁yeterli	-9.01957
▁ulaş	-9.01958
▁başlayan	-9.02117
▁arkadaş	-9.02124
▁renk	-9.02161
▁on	-9.02209
▁Ara	-9.0221
imiz	-9.02259
▁kendini	-9.02301
▁işi	-9.02312
▁polis	-9.02384
50	-9.02425
nize	-9.02646
lerimiz	-9.02661
ey	-9.02714
▁günlük	-9.02824
diğini	-9.02839
▁sonrası	-9.02858
▁çek	-9.02919
▁birkaç	-9.02961
▁Şimdi	-9.03029
▁arada	-9.0303
ıyoruz	-9.03061
tü	-9.03097
▁23	-9.03162
lay	-9.0321
▁ayında	-9.03298
muz	-9.03372
▁İşte	-9.03451
е	-9.03529
▁bağ	-9.03533
▁ister	-9.03579
▁CHP	-9.0363
▁Kendi	-9.03695
▁yolu	-9.0374
▁Kültür	-9.03785
▁resmi	-9.03847
▁tavsiye	-9.03867
▁alınan	-9.03883
▁zaten	-9.0399
lak	-9.04119
▁Ocak	-9.04126
▁Nisan	-9.04185
▁kaldır	-9.04191
▁Cumhuriyet	-9.04197
▁kol	-9.04367
▁Ahmet	-9.04424
▁sebep	-9.04777
▁sayısı	-9.04796
▁na	-9.0485
ret	-9.05052
hi	-9.05084
▁önceki	-9.05107
▁vermek	-9.0511
▁ihtiyaç	-9.05116
▁fiyatları	-9.05122
▁bilgisayar	-9.05179
▁22	-9.05198
son	-9.05309
yim	-9.05348
▁model	-9.0536
pa	-9.05388
yen	-9.05461
▁işaret	-9.05645
▁Fakat	-9.05865
ebilirsiniz	-9.0595
ilmesi	-9.06092
▁insanların	-9.06129
▁alanı	-9.0615
▁Ha	-9.06219
▁kazan	-9.06236
▁milyar	-9.06261
▁aslında	-9.06306
▁kurum	-9.06345
▁İslam	-9.06345
W	-9.06374
▁Halk	-9.06387
▁verme	-9.06388
lığa	-9.06521
ll	-9.066
per	-9.06635
▁Yani	-9.0664
net	-9.06691
sinden	-9.06714
▁yere	-9.0672
▁araya	-9.06738
▁hatta	-9.06895
▁bırak	-9.0694
▁dört	-9.07039
▁alıyor	-9.07053
▁Le	-9.0713
▁gerçekten	-9.07182
▁hakkı	-9.07234
▁sınıf	-9.07242
▁ye	-9.07328
▁program	-9.07339
▁temiz	-9.07456
▁yapılması	-9.07527
▁müzik	-9.07611
gen	-9.07694
▁durumunda	-9.07777
▁değerlendirme	-9.07828
▁grup	-9.07865
▁görme	-9.07867
20	-9.08042
▁sabah	-9.08095
ton	-9.0835
▁İnsan	-9.08355
▁yaşayan	-9.08364
▁sol	-9.08375
▁medya	-9.08523
▁Ko	-9.08567
▁çalışmaları	-9.08689
lat	-9.08782
mayı	-9.08809
▁Başkanlığı	-9.08902
▁başına	-9.08906
▁dünyanın	-9.08914
nıza	-9.08936
▁altına	-9.08948
▁alanında	-9.0897
▁Birliği	-9.09024
no	-9.09072
Z	-9.09183
▁adlı	-9.09195
dü	-9.09263
▁fotoğraf	-9.09303
▁Sağlık	-9.09307
▁çift	-9.09483
▁veri	-9.0952
þ	-9.09557
▁belediye	-9.09576
ör	-9.09643
▁tur	-9.09692
▁sev	-9.09861
▁şeyler	-9.09949
▁Müdürü	-9.09991
pe	-9.09999
sen	-9.10039
▁W	-9.10088
▁Can	-9.10304
▁No	-9.1031
▁Ni	-9.10532
▁Mi	-9.10764
mo	-9.10784
▁kaynak	-9.10788
▁Osmanlı	-9.10857
suz	-9.10901
▁Orta	-9.10919
▁nokta	-9.10931
▁as	-9.10951
▁olmadığı	-9.10995
▁2013	-9.11014
met	-9.1106
lenmesi	-9.11076
▁dolar	-9.11186
▁bilgileri	-9.1119
▁Diğer	-9.11224
▁başında	-9.11242
▁Ro	-9.11295
▁ilçe	-9.11317
tal	-9.11336
▁defa	-9.11441
▁suç	-9.11484
▁önünde	-9.11571
▁ücretsiz	-9.11709
▁Rusya	-9.11722
bet	-9.11746
▁düşük	-9.11874
▁deniz	-9.11912
▁dair	-9.11953
yo	-9.12091
▁katkı	-9.12108
iniz	-9.12118
lanmış	-9.12253
▁me	-9.12266
lardır	-9.1235
▁Suriye	-9.12431
▁çoğu	-9.12474
▁kimse	-9.12514
▁bölge	-9.1253
kı	-9.12567
▁sonuç	-9.12731
can	-9.12738
▁uluslararası	-9.1274
▁gönder	-9.12861
▁sınav	-9.12937
▁gel	-9.12973
▁bölüm	-9.12994
▁Aynı	-9.13017
▁san	-9.13127
▁bulunuyor	-9.13224
▁toprak	-9.13267
▁bilim	-9.13293
▁sanat	-9.13321
▁kişiler	-9.13361
▁yazar	-9.13386
▁basın	-9.13477
▁kilo	-9.13518
▁buna	-9.13536
landı	-9.13606
▁u	-9.13682
nü	-9.13683
▁alın	-9.13696
▁konuşma	-9.13747
▁VE	-9.13761
▁di	-9.13773
▁Antalya	-9.13819
▁Ü	-9.13847
▁escort	-9.13889
▁Ta	-9.13905
▁Aralık	-9.13946
▁normal	-9.13961
▁halk	-9.14016
liğe	-9.14161
▁ilan	-9.14264
▁birinci	-9.1428
▁amacı	-9.14282
▁yeri	-9.1435
▁kurulu	-9.14391
co	-9.14421
▁olmuş	-9.14432
▁ediyorum	-9.14551
▁Çin	-9.1463
▁sitesi	-9.14688
ladı	-9.1481
▁kuru	-9.14812
tığı	-9.14839
▁oyunu	-9.14934
▁işçi	-9.14943
▁düşünce	-9.14951
▁başarı	-9.15011
▁olun	-9.15103
▁aday	-9.15139
ilir	-9.1518
▁banka	-9.15194
teki	-9.15253
mıştı	-9.1529
▁İlçe	-9.15359
▁görüş	-9.15378
hane	-9.15553
▁Gül	-9.15605
▁mutlaka	-9.15691
mda	-9.15702
▁As	-9.15711
▁uzak	-9.15748
▁To	-9.15763
▁40	-9.15812
▁[...]	-9.15866
▁acı	-9.1591
▁çık	-9.1591
ınız	-9.16098
▁etkili	-9.16314
▁alır	-9.16468
▁programı	-9.16611
▁verir	-9.16624
▁eş	-9.16703
luğu	-9.16749
mizin	-9.16805
▁alanda	-9.16817
▁kır	-9.16821
▁sayıda	-9.16906
ama	-9.16953
▁yarat	-9.16974
▁Mo	-9.17007
▁Derneği	-9.17093
sak	-9.17106
ap	-9.17295
▁siyasi	-9.1734
leşme	-9.17457
▁dava	-9.17515
▁oyuncu	-9.17562
▁akşam	-9.17679
▁sıcak	-9.17695
▁kullanım	-9.17699
taki	-9.17715
liğini	-9.17747
▁Ke	-9.17786
ından	-9.17898
▁Yüksek	-9.17899
ren	-9.17947
▁be	-9.1799
▁Teknik	-9.18004
▁olmadığını	-9.18069
▁lira	-9.18075
▁Ağustos	-9.18106
▁kafa	-9.18141
▁geçir	-9.18155
tür	-9.18169
acağı	-9.18183
▁Fakültesi	-9.18198
▁sonrasında	-9.18285
▁sağlar	-9.18295
▁zorunda	-9.18359
▁olmaz	-9.18491
▁beri	-9.1851
▁Ö	-9.18522
▁28	-9.18546
▁saldırı	-9.18797
▁sergi	-9.18844
▁der	-9.18864
▁araba	-9.18897
▁Bo	-9.18907
▁düzenleme	-9.18924
▁ayar	-9.19043
unun	-9.19238
▁yurt	-9.19285
▁terör	-9.19312
▁net	-9.19313
▁sözleşme	-9.19326
ılma	-9.19338
▁arka	-9.1935
▁duvar	-9.19361
▁Da	-9.19371
▁öğren	-9.19375
▁değerli	-9.19413
▁ürünleri	-9.1953
▁Çocuk	-9.19578
IN	-9.19692
▁Bugün	-9.19724
▁Tek	-9.198
а	-9.19821
▁kim	-9.19889
▁gerektiğini	-9.19967
▁liste	-9.19983
▁alacak	-9.19991
lerdir	-9.20073
▁Ek	-9.20183
▁yara	-9.20222
▁toplum	-9.203
▁arası	-9.20303
▁halde	-9.20455
▁Kemal	-9.20478
▁kendisine	-9.20516
▁bizi	-9.20517
▁pazar	-9.20543
▁bakım	-9.20607
▁ekran	-9.20617
▁Almanya	-9.20622
laşma	-9.20641
▁gerekmektedir	-9.20671
miyor	-9.2068
▁Bursa	-9.20699
▁tabi	-9.20746
▁beyaz	-9.20831
▁Araştırma	-9.2091
ah	-9.21013
▁diyor	-9.21108
▁beş	-9.21136
▁Sayın	-9.21147
▁)	-9.21234
▁Bil	-9.21306
▁ismi	-9.21384
▁ke	-9.21453
abilecek	-9.21483
▁ünlü	-9.21566
▁hala	-9.21594
lendirme	-9.21688
▁kara	-9.21733
▁yaşanan	-9.21757
▁2012	-9.21793
asyon	-9.21797
fe	-9.21869
▁baskı	-9.21966
▁İyi	-9.2202
▁değiştir	-9.22032
▁işlemi	-9.2205
▁inan	-9.22074
▁yazılı	-9.22103
mize	-9.22163
▁yandan	-9.2235
▁isim	-9.22374
yum	-9.22396
▁hayal	-9.22469
▁kay	-9.22491
▁herkes	-9.22499
▁sayı	-9.22512
▁kapat	-9.22592
▁Siz	-9.22609
▁Har	-9.22639
▁belirten	-9.22696
▁yapılır	-9.22723
tar	-9.22768
▁şirket	-9.22877
▁hayvan	-9.23
▁gösteren	-9.23166
▁aylık	-9.23292
▁Sonra	-9.233
una	-9.23419
▁Merkez	-9.23563
lüğü	-9.23692
▁düzen	-9.23728
_	-9.23785
▁sağlamak	-9.23792
lenme	-9.23853
▁hizmetleri	-9.23916
▁sağlıklı	-9.24048
Ha	-9.24068
▁Uluslararası	-9.24225
▁merkez	-9.24337
▁reklam	-9.2448
▁hata	-9.24516
▁İki	-9.24636
ger	-9.24675
▁hoş	-9.247
▁Madde	-9.24755
▁tut	-9.248
▁Ana	-9.2481
▁yada	-9.24871
X	-9.24912
▁iz	-9.24943
▁silah	-9.25026
▁sal	-9.25092
▁test	-9.25133
dık	-9.25176
▁27	-9.25201
▁Fa	-9.2522
▁Gün	-9.25387
acaktır	-9.25394
▁bunlar	-9.25431
▁4.	-9.25562
▁döneminde	-9.25644
▁yapacak	-9.2579
▁belki	-9.25834
kten	-9.25855
▁aracı	-9.2591
▁kart	-9.25922
▁kes	-9.25928
sü	-9.2596
▁dayan	-9.25976
iyoruz	-9.26025
▁görüntü	-9.26031
▁Bazı	-9.26037
▁Şu	-9.26125
ıldığı	-9.26222
id	-9.26225
ho	-9.26286
▁ileri	-9.26287
▁h	-9.26351
▁onlar	-9.26397
▁süresi	-9.26564
alım	-9.26698
▁X	-9.26775
▁olursa	-9.26844
▁dışı	-9.26897
▁onların	-9.26999
▁içine	-9.27134
köy	-9.27168
▁ayak	-9.272
▁is	-9.27214
▁zevk	-9.27329
▁tepki	-9.27424
▁yaparak	-9.27509
▁aşağıdaki	-9.27516
şi	-9.27556
▁Film	-9.27565
▁çalışmalar	-9.27584
▁Çalışma	-9.27687
ck	-9.27693
▁26	-9.27701
▁ürünler	-9.27707
▁inceleme	-9.27788
▁Lo	-9.27883
th	-9.28042
uyor	-9.28053
▁görmek	-9.28062
▁ilişki	-9.28063
▁başta	-9.2807
▁Şubat	-9.28111
▁benzer	-9.28441
▁istediğiniz	-9.28451
az	-9.28453
▁sezon	-9.28554
▁onları	-9.28636
av	-9.28692
▁seç	-9.28722
▁sağlayan	-9.288
sıyla	-9.28827
▁art	-9.28835
▁kullanıcı	-9.2889
▁sırada	-9.28903
▁baba	-9.29016
▁Ticaret	-9.29039
▁tane	-9.29141
▁Burada	-9.29148
▁eve	-9.29251
▁başlar	-9.29269
sek	-9.29316
▁dosya	-9.29339
▁tanım	-9.29357
amaz	-9.29387
▁hediye	-9.29412
larınızı	-9.29455
ru	-9.29455
▁alarak	-9.29525
▁şeyi	-9.2954
▁köy	-9.29592
▁29	-9.29654
10	-9.29778
▁ücret	-9.29801
▁yaptır	-9.30048
▁ver	-9.30073
▁yıllarda	-9.30077
aj	-9.30275
▁resim	-9.3028
İN	-9.30316
cık	-9.30368
▁yapar	-9.30398
▁eğer	-9.30405
lıyor	-9.30437
▁yük	-9.30446
sunuz	-9.30483
▁rapor	-9.30512
▁Kadın	-9.30632
ucu	-9.30656
▁belge	-9.30661
▁yak	-9.30739
▁saygı	-9.30751
gı	-9.30853
oz	-9.30966
▁oranı	-9.30977
▁mesaj	-9.31078
ımı	-9.3109
▁modelleri	-9.31147
▁taşıma	-9.31355
▁Kanun	-9.31544
▁Deniz	-9.31553
▁lisans	-9.3167
eceği	-9.317
▁So	-9.31702
lanır	-9.31913
▁alışveriş	-9.31932
▁Amerika	-9.31961
▁sektör	-9.31975
lerinizi	-9.32036
▁Sanayi	-9.32069
▁yavaş	-9.32087
▁lazım	-9.32152
po	-9.32303
▁J	-9.32463
▁büyü	-9.32533
▁dönüş	-9.32537
▁göster	-9.32573
ımız	-9.3258
▁ç	-9.32594
▁oluştur	-9.32605
▁&	-9.3263
▁kullanarak	-9.3265
las	-9.32722
▁güneş	-9.32741
▁ilçesinde	-9.32907
▁kalma	-9.32963
▁gerçekleştiril	-9.32993
mizde	-9.32995
▁Mar	-9.33036
▁sahne	-9.33043
tor	-9.33127
▁ağ	-9.33233
▁İç	-9.33304
▁mekan	-9.33341
mer	-9.33369
‘	-9.33397
▁kültür	-9.33502
seniz	-9.33506
▁Yap	-9.33535
Ä	-9.33539
üm	-9.33576
cü	-9.3359
▁Bilgi	-9.33625
dikleri	-9.33627
▁Milletvekili	-9.33646
▁sorunu	-9.3368
▁dünyada	-9.33757
ğa	-9.33768
▁kanun	-9.33818
İM	-9.33818
▁Doğu	-9.33896
▁veriyor	-9.339
gün	-9.33953
▁Proje	-9.33972
malıdır	-9.34
madan	-9.3406
▁Eski	-9.34062
▁özellikleri	-9.34084
▁birisi	-9.34095
ıyla	-9.34096
▁uç	-9.34104
▁hayatını	-9.34149
lendi	-9.34197
▁́	-9.34202
▁kullanımı	-9.343
mıza	-9.34449
000	-9.34523
rak	-9.34524
▁faiz	-9.3454
▁darbe	-9.34579
▁numara	-9.34688
şa	-9.34744
▁geçmiş	-9.34799
▁tatil	-9.34814
▁sanayi	-9.34828
▁ediyoruz	-9.34848
▁öğretmen	-9.34867
▁olmuştur	-9.35019
▁profesyonel	-9.35029
▁güncel	-9.35032
▁yerinde	-9.35065
cak	-9.35138
▁özelliği	-9.35254
yız	-9.35315
▁eşya	-9.35316
▁hayata	-9.35389
▁bebek	-9.3541
▁den	-9.35561
▁çocuklar	-9.35626
▁belirtilen	-9.35686
▁Do	-9.35688
▁dağ	-9.35705
makta	-9.36013
AK	-9.36071
▁vergi	-9.36241
▁yapıyor	-9.36255
▁tanı	-9.36292
▁meslek	-9.3633
▁bol	-9.3636
▁karşısında	-9.36555
▁sıkıntı	-9.36626
▁Mahallesi	-9.36695
liğin	-9.36768
▁sonucunda	-9.3683
▁daire	-9.36842
▁Ön	-9.36908
▁31	-9.36928
▁koruma	-9.36981
û	-9.37035
▁sahiptir	-9.3704
lendir	-9.37081
▁etmektedir	-9.37154
ic	-9.37169
▁belirtti	-9.37327
▁üçüncü	-9.37368
Sa	-9.3743
▁am	-9.37441
▁hal	-9.37501
▁korku	-9.37523
▁malzeme	-9.37551
▁of	-9.37717
tin	-9.37736
▁kesin	-9.37941
mekte	-9.37959
▁merak	-9.38013
▁metre	-9.38028
▁etmesi	-9.38045
▁eşi	-9.38056
ley	-9.38086
▁gol	-9.38123
▁em	-9.38164
▁açıklamada	-9.38422
▁dur	-9.38465
▁altı	-9.38485
▁toplantı	-9.38543
▁zengin	-9.38556
▁sefer	-9.38562
▁asla	-9.38576
ildi	-9.38607
▁İn	-9.38702
ılarak	-9.38729
▁doldur	-9.38752
▁İngilizce	-9.38756
ıyorum	-9.38903
▁Yardımcısı	-9.38949
▁isimli	-9.39039
▁Fi	-9.39065
▁etmiş	-9.39118
▁artır	-9.39299
▁ederim	-9.39306
meyen	-9.39357
Ğ	-9.39408
gan	-9.39421
elim	-9.39443
▁aktar	-9.3952
ry	-9.39597
▁geliştir	-9.39609
▁katıldı	-9.39618
▁gören	-9.39669
▁vb	-9.39719
▁diş	-9.39729
▁kesinlikle	-9.39784
▁ekibi	-9.39808
▁geçti	-9.39894
▁inşa	-9.39918
▁Hz	-9.39945
15	-9.39976
▁=	-9.39999
▁Söz	-9.40045
▁yapmış	-9.40138
▁Hava	-9.40175
▁İran	-9.40235
ebilecek	-9.40276
▁insanın	-9.40314
iyorum	-9.4038
+	-9.40407
▁henüz	-9.40412
▁dün	-9.40487
▁doğa	-9.40489
taş	-9.40523
▁yönetimi	-9.40525
▁işletme	-9.40526
▁Güzel	-9.40608
▁yıldır	-9.40643
▁kullanma	-9.40736
▁eylem	-9.40817
LER	-9.40827
AR	-9.40844
▁park	-9.40936
sh	-9.40992
▁yaşama	-9.41065
din	-9.41207
▁önüne	-9.41291
▁girdi	-9.41339
▁San	-9.41355
▁ha	-9.41444
▁elektrik	-9.41447
▁Aile	-9.41495
lim	-9.41495
▁Benim	-9.41497
evi	-9.41524
ince	-9.41533
▁Lig	-9.41583
lığını	-9.41618
lenmiş	-9.41628
▁nedir	-9.4169
yım	-9.41692
▁yaşında	-9.41726
▁hukuk	-9.41781
ER	-9.41784
▁getir	-9.41785
▁+	-9.41925
▁Konya	-9.42001
masını	-9.42007
▁işe	-9.42037
▁modern	-9.42077
▁Başbakan	-9.42129
▁yapıldı	-9.42147
▁bina	-9.42189
op	-9.42201
gin	-9.42258
▁müdahale	-9.42294
▁Bölüm	-9.42307
ası	-9.42339
▁yaka	-9.42363
▁dik	-9.42366
ünün	-9.42381
sından	-9.42409
▁içerik	-9.42471
▁risk	-9.42488
▁ateş	-9.42544
▁asker	-9.42549
▁anlamda	-9.4259
▁personel	-9.42672
▁Be	-9.42752
▁kendine	-9.42786
tör	-9.42811
▁to	-9.42836
▁giren	-9.42918
mişti	-9.43006
▁artış	-9.43105
▁sürede	-9.43138
if	-9.4316
tiği	-9.43205
hir	-9.43231
▁iste	-9.43296
nızda	-9.4332
▁sar	-9.43332
▁kaza	-9.43339
▁ihtiyacı	-9.43378
▁seks	-9.43384
▁sonraki	-9.43407
▁Aydın	-9.4344
▁2011	-9.4349
▁bağlantı	-9.43558
diğiniz	-9.43577
30	-9.4367
▁görüşme	-9.43708
▁AB	-9.4374
▁kullandı	-9.4374
▁sevgi	-9.43813
▁basit	-9.43816
yon	-9.43936
▁onay	-9.43998
▁cam	-9.44042
izm	-9.44071
▁bundan	-9.44084
▁yaşadığı	-9.44099
mızın	-9.44223
▁gücü	-9.44266
EN	-9.44279
▁Konu	-9.44324
▁ekonomi	-9.44362
rken	-9.4439
11	-9.44391
▁ekipleri	-9.44451
Bir	-9.44455
▁bil	-9.44468
dar	-9.44513
▁kişisel	-9.44566
müş	-9.44595
▁yoksa	-9.44729
▁üret	-9.44779
▁Kat	-9.44874
▁demek	-9.45029
nizin	-9.45031
▁Sayfa	-9.45068
▁Sen	-9.45164
ecektir	-9.45187
▁öne	-9.45275
▁günlerde	-9.45286
▁yerel	-9.45319
▁sert	-9.45446
▁tamam	-9.45492
▁Bunu	-9.45512
▁belirterek	-9.45538
▁harika	-9.45623
▁edilmiş	-9.45693
▁modeli	-9.45725
▁yapmaya	-9.45739
▁Cumhuriyeti	-9.45753
ji	-9.45808
▁sınır	-9.45818
▁alıp	-9.45818
▁kalite	-9.45937
▁onlara	-9.45942
MA	-9.46003
▁?	-9.46037
▁doğum	-9.46041
▁öğretim	-9.4607
meyi	-9.4609
▁si	-9.46122
▁not	-9.46221
±	-9.4623
▁v	-9.46337
cılık	-9.46347
▁gör	-9.46407
▁ad	-9.46437
▁alınması	-9.4654
▁teklif	-9.46644
▁fiyatı	-9.46647
▁eğitimi	-9.46669
▁ortalama	-9.46705
▁asıl	-9.46808
YA	-9.46852
ku	-9.46876
▁Uygulama	-9.46996
▁askeri	-9.47002
he	-9.4704
▁Taş	-9.47092
ks	-9.47125
leyen	-9.47181
▁60	-9.47194
▁etkisi	-9.47224
ner	-9.47236
▁oku	-9.47266
▁Ders	-9.47282
sta	-9.47378
▁davet	-9.47388
▁kendisini	-9.47389
üs	-9.47435
▁Kürt	-9.47442
▁Genç	-9.47515
▁bey	-9.4753
landır	-9.47621
▁Ku	-9.47646
▁fırsat	-9.47669
LAR	-9.47765
mde	-9.47767
▁ada	-9.47791
lamak	-9.47846
▁projesi	-9.4787
▁Bak	-9.47999
▁okuma	-9.48106
▁geçiş	-9.48172
tım	-9.48178
▁ayı	-9.48211
▁uygulaması	-9.48265
▁yarı	-9.4827
▁kaynağı	-9.48337
▁Man	-9.48397
▁dua	-9.48482
▁Demir	-9.48545
▁bunların	-9.48669
▁kaldı	-9.48692
▁aşk	-9.48699
▁av	-9.487
▁milli	-9.48706
ket	-9.48706
▁otomobil	-9.48746
▁Uzun	-9.48746
▁giden	-9.48831
ster	-9.48857
unda	-9.48865
▁yararlan	-9.4889
ılacak	-9.48894
▁yapılma	-9.48911
▁aş	-9.48971
▁ölüm	-9.49017
üyor	-9.49119
▁işte	-9.49185
▁Co	-9.49197
sam	-9.49241
rı	-9.49351
▁cinsel	-9.49433
▁Fenerbahçe	-9.49446
▁konut	-9.49518
▁sona	-9.49562
▁Sadece	-9.49581
▁bildir	-9.49658
▁(1)	-9.49705
▁ticaret	-9.49738
▁kira	-9.49739
▁geldiği	-9.49815
yiz	-9.49851
▁yaşındaki	-9.49874
▁Hi	-9.49889
▁yetkili	-9.49964
▁suyu	-9.49973
lerimizi	-9.49986
▁Yer	-9.50014
har	-9.50014
▁lider	-9.50026
▁km	-9.50032
▁meyve	-9.50035
▁çizgi	-9.50108
▁yargı	-9.50127
▁Bölge	-9.50129
▁Tarihi	-9.50228
▁dahi	-9.50335
▁mahkeme	-9.50378
▁edip	-9.5047
=	-9.50474
AT	-9.5049
▁bilinen	-9.50602
lardı	-9.50628
▁senin	-9.50638
▁sipariş	-9.50644
dum	-9.50645
RA	-9.50702
▁edil	-9.50719
leştir	-9.50775
▁doktor	-9.50785
▁anlaşma	-9.50814
▁bazen	-9.50848
ırken	-9.50918
▁kişilerin	-9.50953
▁Ol	-9.50953
▁yöntem	-9.50963
▁sistemleri	-9.50964
▁Güvenlik	-9.50988
▁uçak	-9.5102
ilmiş	-9.51033
▁pa	-9.5104
▁derin	-9.51086
Lİ	-9.51141
▁Mu	-9.51148
▁Vi	-9.51151
▁serbest	-9.51175
▁yola	-9.51209
▁çaba	-9.51262
▁Adana	-9.51309
nizde	-9.51327
▁çeken	-9.51355
▁orada	-9.51369
ılmıştır	-9.51402
▁boş	-9.51449
2018	-9.51488
▁kapalı	-9.51513
duğu	-9.51553
▁turizm	-9.51581
layarak	-9.51586
ker	-9.51637
://	-9.51647
▁Buna	-9.51654
ılıyor	-9.51673
▁erken	-9.51696
▁Ca	-9.51708
▁kampanya	-9.51741
▁ışık	-9.51781
▁evde	-9.51811
25	-9.51872
▁yazılım	-9.5193
abı	-9.51934
▁ol	-9.52059
▁Hem	-9.52081
▁yay	-9.52088
▁paket	-9.52113
▁hayatı	-9.52122
▁yılda	-9.52233
▁genellikle	-9.52244
▁kısmı	-9.52246
▁TV	-9.52249
ron	-9.52301
nd	-9.52328
▁siteleri	-9.5242
▁Ga	-9.52511
▁sana	-9.5261
mıyor	-9.52734
ük	-9.52742
▁so	-9.52748
▁etmeye	-9.52784
▁desteği	-9.52789
▁karakter	-9.52874
▁fikir	-9.52881
▁kamera	-9.52918
larımızı	-9.52927
▁kitabı	-9.52935
diğimiz	-9.52947
▁ter	-9.52997
eği	-9.53098
▁yapımı	-9.53113
je	-9.53159
Ya	-9.53182
▁çağrı	-9.53205
▁ci	-9.53248
▁Böylece	-9.53266
▁Göz	-9.53291
▁kendisi	-9.53357
▁Beşiktaş	-9.53402
ng	-9.53405
▁çıkma	-9.53426
▁Pi	-9.53439
dıkları	-9.53443
▁çiçek	-9.53446
▁İngiltere	-9.53471
kin	-9.53515
▁deneyim	-9.53553
▁altın	-9.53649
ok	-9.53671
▁olmasına	-9.53701
ova	-9.53725
▁saha	-9.5389
▁mükemmel	-9.54004
▁işlemleri	-9.54005
LERİ	-9.54026
▁kent	-9.54118
▁Batı	-9.54123
malı	-9.54152
▁ödül	-9.54163
üp	-9.54185
abiliyor	-9.54218
▁:)	-9.5424
▁bulun	-9.54318
▁çay	-9.54359
▁Küçük	-9.54404
ilme	-9.54465
▁çalışması	-9.54477
masına	-9.54486
▁gıda	-9.54542
▁>	-9.54553
▁temsil	-9.54588
▁bul	-9.54659
▁Pa	-9.54678
▁AKP	-9.54709
▁Po	-9.54751
▁öncesi	-9.54754
▁Sanat	-9.54767
▁almış	-9.54816
▁üyesi	-9.54816
▁olumsuz	-9.54819
▁Yine	-9.54876
▁öz	-9.54936
inci	-9.55007
▁Kıbrıs	-9.55012
▁bunları	-9.55084
var	-9.55098
▁oldukları	-9.55123
ben	-9.55138
▁Google	-9.55141
▁biçimde	-9.55155
▁Kanunu	-9.55182
lâ	-9.5526
▁yeşil	-9.55268
▁yetki	-9.5527
▁bitki	-9.55307
▁Va	-9.55365
▁Yaz	-9.55376
▁Örneğin	-9.55451
▁fi	-9.55489
▁yaygın	-9.55492
inizi	-9.55589
40	-9.55608
▁2010	-9.55647
:00	-9.55651
▁tip	-9.55676
▁nedeni	-9.55718
aç	-9.55767
ban	-9.55795
▁Yılmaz	-9.55909
başı	-9.55913
leyici	-9.55938
▁Kal	-9.55968
▁Bar	-9.55989
▁Pro	-9.56006
▁getiren	-9.56018
▁rol	-9.56033
▁servisi	-9.5604
▁Ed	-9.56139
EL	-9.5615
▁Bi	-9.56172
▁Program	-9.5622
▁doğrultusunda	-9.56224
▁kelime	-9.56254
▁hisse	-9.56254
▁bar	-9.56309
bey	-9.56412
▁bağımsız	-9.56415
▁değişim	-9.56425
▁yat	-9.56482
▁Haber	-9.56529
▁mah	-9.5661
▁gez	-9.56615
lek	-9.5672
▁tartışma	-9.56741
▁•	-9.5675
▁İsrail	-9.56825
▁Si	-9.56883
▁yapılmış	-9.56887
pi	-9.56937
▁Kon	-9.5695
▁işbirliği	-9.56983
▁im	-9.56991
▁firması	-9.57012
J	-9.57084
▁süreç	-9.57099
▁lise	-9.57102
▁olduğuna	-9.57117
▁gizli	-9.57143
12	-9.5715
▁ülkenin	-9.57215
▁değeri	-9.57238
ser	-9.57325
▁tahmin	-9.57395
▁giderek	-9.57523
▁savunma	-9.57533
`	-9.57542
▁önemlidir	-9.57548
▁ton	-9.57705
▁politika	-9.57709
▁istiyor	-9.57764
mon	-9.57803
lem	-9.5787
▁şehit	-9.57875
lığın	-9.57894
▁oyna	-9.5792
▁olumlu	-9.57926
▁online	-9.57931
	-9.57949
▁transfer	-9.57959
▁The	-9.57992
layıp	-9.58015
▁Okul	-9.58096
▁Otel	-9.58114
▁çocukların	-9.58123
nuz	-9.58124
▁hikaye	-9.5814
▁gezi	-9.58284
▁performans	-9.58381
▁	-9.58396
▁oğlu	-9.58411
▁çıkıyor	-9.5846
▁sonu	-9.58474
ly	-9.58504
▁otobüs	-9.58603
▁kadınlar	-9.58607
mar	-9.58712
▁diyerek	-9.58779
▁tesis	-9.58781
▁hazırlık	-9.58852
▁sonuçları	-9.58862
AL	-9.58874
▁Ho	-9.58901
▁kesim	-9.58908
▁Sultan	-9.58946
▁içeren	-9.59025
laştır	-9.59054
▁çıkart	-9.5906
kat	-9.59084
▁Yapı	-9.591
▁verildi	-9.59104
▁seyahat	-9.59189
▁hafif	-9.59283
▁belirli	-9.59285
▁Tam	-9.59432
▁kadro	-9.59466
landığı	-9.59531
▁İkinci	-9.59614
▁üzerindeki	-9.59637
▁bölümü	-9.59668
▁yalnız	-9.59711
▁kalp	-9.59727
▁öğrenciler	-9.59741
acağını	-9.59775
▁kişilik	-9.59798
▁po	-9.59878
▁Meclis	-9.59956
▁çal	-9.60047
▁koy	-9.6008
yse	-9.60104
▁kartı	-9.60106
▁Bunlar	-9.60113
▁kış	-9.60117
laş	-9.60123
mızda	-9.60139
▁başı	-9.60154
tepe	-9.60166
Ma	-9.60247
▁İçin	-9.60256
▁olmasını	-9.60304
▁getirdi	-9.60312
lt	-9.6033
gar	-9.6035
▁çerçevesinde	-9.60353
▁tutar	-9.60363
▁motor	-9.6043
▁ihale	-9.60433
▁arkadaşı	-9.60602
▁Bütün	-9.6062
ğı	-9.60661
▁vakit	-9.60664
▁kıl	-9.60664
▁geçerli	-9.60726
▁sarı	-9.60731
AN	-9.60743
▁Şa	-9.60772
▁televizyon	-9.60833
▁Pe	-9.6085
▁ortadan	-9.60945
▁şarkı	-9.60958
▁süreci	-9.60965
▁belir	-9.61035
larımızın	-9.61039
UR	-9.61085
▁büyüme	-9.61113
hat	-9.61119
▁Rus	-9.61132
▁boya	-9.61143
▁Ürün	-9.6116
▁gitme	-9.61224
eri	-9.61229
▁sor	-9.61232
▁tatlı	-9.61346
▁bakış	-9.61397
▁hız	-9.61447
▁Recep	-9.61472
▁cm	-9.61479
▁yanıt	-9.61506
▁taraf	-9.61564
▁indirim	-9.61618
▁500	-9.61668
80	-9.61695
▁düzenli	-9.61712
▁Din	-9.61752
em	-9.61776
▁Tarih	-9.61798
yken	-9.61804
▁Top	-9.61807
▁tarafı	-9.61827
▁doğrudan	-9.61828
▁imkanı	-9.61853
▁Ata	-9.61861
▁ilaç	-9.61874
▁Fransa	-9.6188
▁güvenli	-9.61893
ans	-9.61902
▁düşün	-9.6195
▁ş	-9.62024
▁gazete	-9.62091
▁şiir	-9.62136
▁sinema	-9.62139
▁değişiklik	-9.62144
▁Kan	-9.62147
ladığı	-9.62178
▁Çevre	-9.62206
lenir	-9.6221
▁yapısı	-9.62211
▁Galatasaray	-9.62259
▁öde	-9.62276
▁mahalle	-9.6229
lerimizin	-9.62309
▁uyu	-9.62376
▁emin	-9.62393
fer	-9.62416
kal	-9.62438
▁ulaşım	-9.62459
▁Or	-9.62501
▁atan	-9.62509
AY	-9.62529
▁üyeleri	-9.62549
bar	-9.62564
▁Bal	-9.62597
▁aşırı	-9.62605
▁Peki	-9.62643
▁olmaya	-9.62703
▁arkadaşlar	-9.62747
▁5.	-9.62753
▁At	-9.62793
▁yerini	-9.62815
▁Bizim	-9.62828
yü	-9.62848
▁düş	-9.62956
▁gaz	-9.62986
meden	-9.62989
▁filmi	-9.63116
▁aktif	-9.63124
▁kırmızı	-9.63193
▁hepsi	-9.63244
▁cümle	-9.63272
▁açıkladı	-9.63332
▁kullanılır	-9.63356
▁pro	-9.63394
▁bende	-9.63412
▁yılın	-9.63467
▁iptal	-9.63478
▁görsel	-9.63558
▁adını	-9.63592
▁mobil	-9.63629
▁tanıt	-9.63652
%	-9.63653
▁kurtar	-9.63661
irken	-9.63679
▁çıkış	-9.6369
iç	-9.63806
▁yasal	-9.63817
▁Av	-9.63875
ON	-9.63994
▁kul	-9.63997
▁bölgede	-9.64004
▁piyasa	-9.6402
▁tarihli	-9.64151
-1	-9.64153
mesini	-9.64207
▁Kız	-9.64227
▁kod	-9.64259
▁Fatih	-9.64269
▁Per	-9.64311
▁Kay	-9.644
Ka	-9.64525
90	-9.64549
▁başlat	-9.64551
▁Zaman	-9.64657
▁lütfen	-9.6476
İZ	-9.6482
▁isteme	-9.64845
▁yalnızca	-9.64866
▁diyen	-9.64867
alı	-9.64908
▁futbol	-9.64921
▁şekil	-9.64942
▁sanatçı	-9.65004
▁uyar	-9.65052
aş	-9.65138
▁sağlığı	-9.65146
▁»	-9.65192
▁In	-9.65204
uk	-9.65316
▁Pazar	-9.65359
▁gitti	-9.65379
▁ortam	-9.65463
▁hastane	-9.65489
tık	-9.65499
Türkiye	-9.65657
ıt	-9.65679
▁ofis	-9.65785
▁kurulan	-9.65845
rek	-9.65889
▁almaktadır	-9.65891
▁Günü	-9.65893
▁başkanı	-9.65897
▁kendilerine	-9.6594
▁fayda	-9.65979
▁süt	-9.66108
İK	-9.66148
▁memnun	-9.66221
ab	-9.66334
▁ucuz	-9.66341
emez	-9.66351
▁bölgesinde	-9.66357
LA	-9.66391
▁Hasan	-9.66392
▁Et	-9.66463
AM	-9.66541
larınız	-9.66558
▁Yıldırım	-9.66564
▁ticari	-9.66571
▁üretimi	-9.66635
▁denge	-9.66636
▁yön	-9.66644
oloji	-9.66647
▁İnternet	-9.6666
▁arttır	-9.66669
▁sebebi	-9.66702
▁boy	-9.66749
ih	-9.66811
▁standart	-9.66834
▁soğuk	-9.66843
▁düşünüyorum	-9.66873
ral	-9.66909
▁Web	-9.671
▁örgüt	-9.67106
liyor	-9.67107
▁otomatik	-9.67108
▁Bankası	-9.67114
▁boz	-9.67144
▁Murat	-9.67154
▁yaparken	-9.6717
▁Kitap	-9.67205
acağız	-9.67238
▁verilmesi	-9.67313
▁neler	-9.6733
▁gösteri	-9.67337
19	-9.67426
▁Teknoloji	-9.67432
▁Samsun	-9.67447
▁Hastanesi	-9.67482
▁grubu	-9.67485
ff	-9.67489
rat	-9.67515
eli	-9.67571
▁sap	-9.67592
▁Ter	-9.67627
ebiliyor	-9.67671
▁Ver	-9.67678
baş	-9.67717
▁hi	-9.67762
▁Odası	-9.67772
▁makine	-9.67791
▁başlıyor	-9.67894
▁Bölümü	-9.67932
▁operasyon	-9.67938
▁istediği	-9.6807
ss	-9.68096
DE	-9.6816
▁ettir	-9.68199
▁güvenilir	-9.68242
▁the	-9.68281
lin	-9.68341
▁Irak	-9.68361
▁usta	-9.68376
▁Kurumu	-9.6839
24	-9.68412
▁vurgu	-9.6843
▁bit	-9.68441
lanıyor	-9.68463
▁anlam	-9.68579
▁sorumluluk	-9.68584
▁bal	-9.68628
▁Güney	-9.68788
lam	-9.68805
Sİ	-9.68838
▁yasak	-9.68876
▁Tayyip	-9.68915
▁aşama	-9.68974
▁kazandır	-9.68978
▁Oyun	-9.69054
▁kızı	-9.69092
▁Programı	-9.69095
hu	-9.69168
▁kurul	-9.69168
▁idare	-9.69201
16	-9.69252
▁mağaza	-9.6928
▁dönemi	-9.69311
▁dağıt	-9.69508
▁zemin	-9.69559
▁talebi	-9.69566
▁Sistemi	-9.69567
▁Para	-9.69571
▁Artık	-9.6964
▁ser	-9.69644
▁gözü	-9.69741
▁cihaz	-9.69783
Ben	-9.69799
▁olmadan	-9.6981
eceğini	-9.6984
▁Süper	-9.69863
▁sorumlu	-9.69932
▁futbolcu	-9.69952
▁''	-9.69995
▁İs	-9.70031
▁takımı	-9.70085
▁ağrı	-9.70088
▁Es	-9.70206
▁Partisi	-9.70226
▁seni	-9.70266
▁gereği	-9.70267
▁oyunları	-9.7027
LARI	-9.70274
▁kullanmak	-9.70317
▁dedim	-9.7033
altı	-9.70341
▁Böyle	-9.7035
▁taşın	-9.70356
▁detaylı	-9.70395
ciler	-9.70398
▁Üniversite	-9.70405
tma	-9.70443
ste	-9.70476
▁Bakan	-9.70481
uş	-9.70492
▁akıllı	-9.70502
▁Önce	-9.70549
▁ölçü	-9.70552
▁inşaat	-9.70553
▁alındı	-9.70604
▁anlamına	-9.70725
▁düşman	-9.70736
▁bekliyor	-9.70749
mal	-9.70784
▁katılan	-9.70805
hal	-9.70831
▁dikkate	-9.70854
▁telefonu	-9.70954
▁gelin	-9.70962
▁Gazete	-9.7099
▁trafik	-9.71031
sem	-9.71047
▁yangın	-9.71062
▁olmalı	-9.71064
▁adresi	-9.71163
▁edebilirsiniz	-9.71215
mis	-9.71246
▁günde	-9.71251
▁bulunur	-9.71262
▁kategori	-9.71298
▁içindeki	-9.71394
▁millet	-9.71416
▁cezası	-9.71479
▁Kuzey	-9.71505
▁İbrahim	-9.71524
▁değerlendir	-9.7153
▁gelişme	-9.71545
▁öğret	-9.71557
▁amaçlı	-9.7156
▁kere	-9.71627
▁algı	-9.71633
▁Güneş	-9.71638
arı	-9.71644
▁80	-9.7166
▁verecek	-9.71675
rt	-9.71695
layıcı	-9.71696
ücü	-9.71711
▁uyku	-9.71712
▁Açık	-9.71722
▁and	-9.71763
▁kalın	-9.7182
▁taşıyan	-9.71829
OR	-9.71848
05	-9.71867
▁yarış	-9.71873
▁he	-9.719
▁bo	-9.72105
syon	-9.72124
▁kardeş	-9.72181
▁amaç	-9.72279
▁hoca	-9.72322
▁herkesin	-9.72332
▁Müslüman	-9.72353
▁önceden	-9.72377
▁90	-9.72394
▁almaya	-9.72423
▁sevgili	-9.72434
▁gelmiş	-9.72443
▁tarihleri	-9.72452
sizlik	-9.72504
ET	-9.72524
▁Tarım	-9.72524
tti	-9.72584
ilecek	-9.72636
▁hakları	-9.72691
▁bitir	-9.72695
▁parçası	-9.72716
▁analiz	-9.72717
cılar	-9.72788
▁hastalık	-9.72807
▁Hakkında	-9.72811
EK	-9.72831
▁söyleyen	-9.72837
▁örgütü	-9.72837
▁hazırlanan	-9.7288
▁şeker	-9.72885
lardaki	-9.72893
▁halı	-9.72926
▁idi	-9.7302
▁tel	-9.73059
▁Ham	-9.73092
▁şekli	-9.73119
▁şık	-9.73189
▁sermaye	-9.73205
▁hat	-9.73213
▁açma	-9.73242
▁Site	-9.73403
▁yolcu	-9.73414
▁şartları	-9.73438
▁olacağını	-9.73451
▁insanları	-9.7352
▁Yıl	-9.73526
▁Ülke	-9.73605
▁noktada	-9.7361
cik	-9.73754
▁fe	-9.73764
▁olanak	-9.73798
▁ülkede	-9.73845
▁35	-9.7386
▁Sev	-9.73876
▁cami	-9.73883
süz	-9.73893
isi	-9.73903
▁Sınıf	-9.73938
▁Grup	-9.73946
▁Turizm	-9.73952
DA	-9.73991
▁Şube	-9.74009
▁taşı	-9.74013
cilik	-9.74044
zer	-9.74068
▁mezun	-9.74069
▁bahçe	-9.74078
▁değişik	-9.74087
▁rengi	-9.74108
▁üzeri	-9.74161
▁anlayışı	-9.74176
▁yaptıkları	-9.74187
▁takdirde	-9.74199
▁Altın	-9.74215
▁gemi	-9.74227
ent	-9.74251
▁çalışıyor	-9.7431
ağa	-9.74378
▁kahve	-9.74378
▁Oku	-9.74436
▁Enerji	-9.7457
ize	-9.74587
üz	-9.74589
▁karşılaşma	-9.74724
▁la	-9.74759
▁va	-9.74827
▁yerli	-9.74903
BA	-9.7492
▁borç	-9.74949
▁ayır	-9.75067
▁bütçe	-9.7508
21	-9.75213
▁öner	-9.75285
▁zamanlarda	-9.75293
▁ho	-9.75352
▁Tar	-9.75352
▁işler	-9.75367
▁ilanı	-9.75397
▁ulaşabilirsiniz	-9.75493
▁deneme	-9.75524
▁binlerce	-9.75532
▁sik	-9.75575
▁yaşat	-9.75585
▁Tur	-9.75585
mayan	-9.75587
abileceği	-9.75623
▁Gür	-9.75651
yet	-9.75756
▁gazeteci	-9.75759
▁kaydetti	-9.75769
▁Bay	-9.75769
▁olduğundan	-9.75793
▁ısı	-9.7588
▁dili	-9.75891
▁yükle	-9.75895
▁Vali	-9.75903
▁ürünü	-9.75922
eti	-9.75983
▁ilave	-9.75998
▁edebilir	-9.7606
▁yatak	-9.7607
yar	-9.76075
▁tarz	-9.76138
▁tablo	-9.76212
▁gidiyor	-9.76214
▁karşılaş	-9.76246
dığımız	-9.76249
60	-9.76297
▁edildiği	-9.76306
▁yöntemi	-9.76315
▁İşletme	-9.76423
▁sivil	-9.7643
sil	-9.76453
▁Ser	-9.76476
▁geleceği	-9.7648
ES	-9.76483
▁sorunları	-9.76532
▁alım	-9.76577
▁kanal	-9.76583
▁Anayasa	-9.76602
▁denetim	-9.76626
▁Sarı	-9.76629
▁Kamu	-9.76634
▁toplumsal	-9.76647
▁uygulan	-9.76665
▁tarım	-9.76771
▁kendilerini	-9.76776
▁elektronik	-9.76813
▁belgesi	-9.76875
▁kuvvet	-9.76909
▁www	-9.76912
▁II	-9.77024
▁istedi	-9.77026
▁alternatif	-9.77028
▁200	-9.77039
▁siyah	-9.77134
▁yıllar	-9.77143
▁kimi	-9.77176
▁sür	-9.77193
▁Onun	-9.77219
▁sigorta	-9.7725
▁Emniyet	-9.77253
▁dinle	-9.77262
▁Var	-9.77278
zı	-9.77281
▁anlama	-9.77292
▁vermeye	-9.77342
▁Yapılan	-9.77377
▁sonuna	-9.77438
▁Oda	-9.77451
LE	-9.77471
▁sektöründe	-9.77479
tra	-9.77484
?”	-9.77491
▁70	-9.77554
▁itibariyle	-9.77555
▁demektir	-9.77584
▁ge	-9.7759
▁Nasıl	-9.77662
lanmıştır	-9.77719
▁girme	-9.77775
IM	-9.77781
▁toplu	-9.77818
▁olmayı	-9.77896
▁görevi	-9.77948
▁Za	-9.78014
▁beslenme	-9.78107
lari	-9.78173
▁Gör	-9.78188
▁bulunma	-9.78213
▁kullanılması	-9.78286
leş	-9.78352
▁işin	-9.78368
▁olanlar	-9.78385
▁ediliyor	-9.78397
ation	-9.78411
▁He	-9.78504
▁dünyaya	-9.78547
▁Ri	-9.78586
▁yalan	-9.78626
▁iken	-9.78709
layın	-9.78723
▁Şehir	-9.7875
02	-9.78756
▁çekti	-9.78826
düğü	-9.78831
▁seviye	-9.78849
▁Merhaba	-9.78958
*	-9.78994
▁güvenliği	-9.79037
▁Yayın	-9.79067
eceğiz	-9.79106
▁seçenekleri	-9.79134
▁Ge	-9.79145
for	-9.79176
ılıp	-9.79182
23	-9.79203
▁babası	-9.79205
▁dolayısıyla	-9.79212
ebileceği	-9.79261
▁Anne	-9.79268
▁uğraş	-9.79306
▁görülen	-9.79397
▁kişiye	-9.79402
▁cilt	-9.79405
▁benzeri	-9.79415
▁durumlarda	-9.79494
▁Öğretim	-9.79495
▁Han	-9.79529
ledi	-9.79545
▁tüketici	-9.79672
leştirme	-9.7969
▁cok	-9.79755
18	-9.7976
▁kitle	-9.79778
▁gelmesi	-9.79837
▁tuz	-9.79863
▁Ege	-9.79896
▁pay	-9.79901
▁dini	-9.79922
▁bilir	-9.79924
▁edilmiştir	-9.79927
▁2009	-9.7994
▁balık	-9.79984
melidir	-9.79984
▁verilir	-9.80033
▁rahatsız	-9.80041
▁yedi	-9.8007
▁başladığı	-9.8011
▁genelinde	-9.80147
muştur	-9.8018
▁beğen	-9.80183
mayın	-9.80202
▁dal	-9.80224
▁neredeyse	-9.80255
▁öğrenme	-9.80263
▁Hatta	-9.80268
▁bırakma	-9.80269
▁Osman	-9.80281
leniyor	-9.80327
yorum	-9.80355
▁öncelikle	-9.80371
zar	-9.80383
▁hızla	-9.80392
▁tehdit	-9.80412
▁şikayet	-9.80484
▁yumurta	-9.80559
ân	-9.80577
▁akıl	-9.80581
▁gelme	-9.80621
▁verilme	-9.80635
▁Grubu	-9.80668
▁ruh	-9.80719
▁Hizmetleri	-9.80725
▁Evet	-9.80727
▁karşılık	-9.80745
▁çöz	-9.80821
▁6.	-9.80834
▁Eş	-9.80893
▁orman	-9.80904
kon	-9.80929
▁konuş	-9.80938
layabilirsiniz	-9.80946
▁faydalan	-9.80954
dağ	-9.80963
▁devre	-9.80973
ilerek	-9.81038
abilmek	-9.81049
▁ekip	-9.81097
▁uygulamaları	-9.81176
▁PKK	-9.81224
45	-9.81234
▁yapıldığı	-9.81243
▁dost	-9.81259
▁pe	-9.8129
▁ettiğini	-9.81441
▁başar	-9.81469
▁cep	-9.81482
gel	-9.81572
14	-9.81649
▁geliştirme	-9.81651
▁huzur	-9.81658
uru	-9.81667
▁ortamda	-9.81682
▁Yıldız	-9.81754
▁maddesi	-9.81763
▁olacağı	-9.81768
▁şa	-9.81787
esi	-9.81854
▁Kurul	-9.8186
▁bünyesinde	-9.81889
▁bulma	-9.81921
▁oran	-9.81933
kleri	-9.8194
▁Peygamber	-9.8195
dığınız	-9.81967
▁tecrübe	-9.82059
▁miktar	-9.821
▁davranış	-9.82108
▁has	-9.82114
▁pi	-9.82157
▁konser	-9.82161
ıyordu	-9.82176
şehir	-9.82177
Ba	-9.82279
▁mutfak	-9.82298
UN	-9.82339
▁alanları	-9.82359
imizin	-9.82359
şı	-9.82373
▁sizler	-9.82396
▁misafir	-9.82482
▁Jo	-9.82493
▁boyu	-9.82519
▁Cuma	-9.82574
▁har	-9.82613
▁popüler	-9.8263
▁iktidar	-9.8265
bil	-9.82668
▁şiddet	-9.82684
ite	-9.82696
▁olmalıdır	-9.82707
ov	-9.82807
▁alış	-9.82842
▁gittiği	-9.82853
sunu	-9.82899
▁etkin	-9.82941
▁söylüyor	-9.82961
▁şirketi	-9.82976
>	-9.83067
▁Doç	-9.83078
▁birbirinden	-9.83089
nci	-9.83109
leriniz	-9.83136
nızın	-9.83162
▁sokak	-9.83198
▁sok	-9.83302
▁öğrencilerin	-9.8346
▁okun	-9.83469
▁çocuğun	-9.8351
▁düzey	-9.83526
▁eşit	-9.83571
▁Kent	-9.83615
▁Paşa	-9.83625
▁aklı	-9.83681
paşa	-9.83695
▁seri	-9.83712
▁Kişi	-9.8372
▁x	-9.83732
▁eksik	-9.83743
▁Mersin	-9.83752
▁gösterir	-9.83753
▁Car	-9.83769
mik	-9.83776
▁çocuğu	-9.83814
▁tipi	-9.83826
ant	-9.83875
▁Aslında	-9.83923
▁açılan	-9.84008
▁edilme	-9.84011
her	-9.84021
▁tarzı	-9.84052
mesine	-9.84055
▁MADDE	-9.84083
gü	-9.84142
▁Çelik	-9.84145
▁aşağıda	-9.84195
▁hakim	-9.84222
|	-9.84259
▁köşe	-9.84266
▁gösteriyor	-9.84291
▁Bilim	-9.8432
▁ülkemizde	-9.84368
ysa	-9.84436
▁fa	-9.84465
▁yapabilirsiniz	-9.84535
▁soy	-9.84621
▁final	-9.84683
yıp	-9.84716
▁nakliyat	-9.84721
so	-9.84765
▁uyarı	-9.84793
▁es	-9.84804
▁istiyoruz	-9.84903
▁süren	-9.8496
inize	-9.84974
▁kalbi	-9.84988
▁Facebook	-9.85099
▁paylaşım	-9.85099
ilebilir	-9.85113
▁kurumsal	-9.85164
▁eriş	-9.85179
▁kullandığı	-9.85208
70	-9.85214
▁Ki	-9.85299
▁Euro	-9.85306
▁tasarımı	-9.85321
▁renkli	-9.85366
▁ayet	-9.85445
kları	-9.85465
▁ederken	-9.85549
▁ede	-9.85579
▁işleri	-9.85604
kur	-9.8563
▁evi	-9.85655
▁soruşturma	-9.85761
▁AL	-9.85762
▁siyaset	-9.85778
о	-9.85802
acağım	-9.85832
▁2008	-9.85872
▁Beyaz	-9.8588
▁firmalar	-9.85882
▁fatura	-9.85884
▁duygu	-9.85896
yarak	-9.85899
meli	-9.85928
▁kullanan	-9.85952
▁duy	-9.85993
▁hücre	-9.86024
▁sevk	-9.86044
▁Yönetimi	-9.86065
▁olduğumuz	-9.8607
▁Bel	-9.8607
▁Ömer	-9.86091
▁bakan	-9.86129
EM	-9.86132
75	-9.86148
▁ö	-9.86164
▁hükümet	-9.86167
▁vs	-9.86172
▁sabit	-9.86206
▁Ramazan	-9.86245
▁Alman	-9.86245
tay	-9.86291
▁Je	-9.86303
▁masa	-9.86345
car	-9.86366
liğine	-9.86388
▁davran	-9.86435
▁nefes	-9.86446
▁Adı	-9.86449
dikten	-9.86497
▁blog	-9.86508
▁şifre	-9.86575
▁gül	-9.86579
▁kuş	-9.86592
liler	-9.86614
▁tanesi	-9.86622
nik	-9.86641
▁verimli	-9.86697
▁Go	-9.86707
▁batı	-9.86761
▁Hizmet	-9.86793
▁adayı	-9.86794
03	-9.86812
▁katıl	-9.86972
müz	-9.86985
▁terk	-9.86992
▁Öğrenci	-9.87005
ılabilir	-9.87075
▁sürücü	-9.87153
▁düşünme	-9.87173
▁araştır	-9.87195
vo	-9.87216
ð	-9.87224
▁sonuçlar	-9.87236
▁Hüseyin	-9.87236
▁istiyorsanız	-9.87318
▁kiralama	-9.87324
▁Ab	-9.87326
▁vermiş	-9.87333
▁yen	-9.87438
▁Escort	-9.87519
▁Baba	-9.87547
▁Bur	-9.87638
▁temizlik	-9.87729
&	-9.87813
▁olmaktadır	-9.87818
▁heyecan	-9.87877
▁salon	-9.87896
▁giy	-9.87926
ME	-9.87986
▁mesafe	-9.88006
▁Dil	-9.88024
▁karıştır	-9.88033
▁Dolayısıyla	-9.88058
▁varlık	-9.88088
SA	-9.88107
▁ücreti	-9.88143
▁katı	-9.88153
ment	-9.88156
▁gözaltına	-9.88161
dil	-9.88163
▁kilometre	-9.88183
▁bakımından	-9.88189
lanarak	-9.88209
▁ca	-9.88238
▁ra	-9.88251
▁Tan	-9.88279
▁erkekler	-9.88373
13	-9.88412
▁Karşı	-9.88456
TE	-9.88459
-2	-9.88464
▁düşen	-9.88474
ct	-9.88507
▁getirme	-9.88532
landırma	-9.88538
▁bilimsel	-9.88561
▁Van	-9.88659
▁45	-9.88674
gerçekleştirilen	-9.88681
ğe	-9.88683
lanacak	-9.8873
▁New	-9.88736
ft	-9.88745
▁kimlik	-9.88805
▁hali	-9.88847
▁yıldız	-9.88874
▁İletişim	-9.88876
▁kurtul	-9.88915
layacak	-9.88919
kaya	-9.89003
▁sağlam	-9.8904
▁aykırı	-9.89103
LAN	-9.892
▁kalk	-9.89248
▁problem	-9.89255
▁vi	-9.89402
lerimize	-9.89433
▁temin	-9.89465
▁gözlem	-9.89533
ği	-9.89547
▁sürü	-9.89586
▁vermektedir	-9.89727
AS	-9.89739
▁deri	-9.89867
▁ağaç	-9.89899
▁muhteşem	-9.89911
▁insanı	-9.89922
▁oranında	-9.90005
▁fabrika	-9.90025
▁Dışişleri	-9.9003
▁demir	-9.90039
▁katılım	-9.90145
▁Onlar	-9.90152
▁Dış	-9.90192
▁Kır	-9.90232
abilen	-9.90238
▁adalet	-9.90292
▁çalıştır	-9.90335
larındaki	-9.90335
▁w	-9.9043
▁par	-9.90471
lerdeki	-9.90472
▁Nur	-9.90531
▁MHP	-9.9054
22	-9.90555
▁İşleri	-9.90614
▁Az	-9.90718
leyerek	-9.90725
▁iyice	-9.90767
▁Ce	-9.90855
▁vatandaşlar	-9.90875
▁kaybı	-9.9088
▁Gençlik	-9.90881
▁gelip	-9.90917
▁arz	-9.90957
▁Lisans	-9.90993
▁başkan	-9.91025
▁sunan	-9.91078
▁hasar	-9.91108
▁Kim	-9.91119
▁çatışma	-9.91127
35	-9.91173
▁kısım	-9.91208
▁yarın	-9.91251
▁İngiliz	-9.91279
▁alınma	-9.91319
▁Hayat	-9.91366
İL	-9.9143
▁Malatya	-9.91443
▁demokrasi	-9.91474
▁sözü	-9.91578
set	-9.91582
▁edilecek	-9.91585
▁kuruluş	-9.91592
▁Gök	-9.91646
17	-9.91686
▁olduğunuz	-9.91695
▁engelli	-9.91702
▁Ligi	-9.9171
yın	-9.9171
uncu	-9.91728
▁Muhammed	-9.91738
▁yaşlı	-9.91745
▁bekle	-9.91766
▁arazi	-9.91796
▁teşvik	-9.91864
▁barış	-9.91873
▁yüzey	-9.91904
▁acil	-9.91909
▁çe	-9.91964
▁hastalığı	-9.91983
▁Tıp	-9.92001
▁devletin	-9.92044
▁zamanı	-9.92046
▁kültürel	-9.92061
▁yayım	-9.92073
▁sorunlar	-9.92084
iyeti	-9.92121
▁tutul	-9.9214
▁gösterdi	-9.92143
Ta	-9.92157
▁kurma	-9.92189
ınca	-9.92197
▁buraya	-9.92205
04	-9.92219
▁Gece	-9.92228
▁Windows	-9.92269
▁makinesi	-9.92284
lamış	-9.92323
diğim	-9.92331
▁söyle	-9.92369
duk	-9.92386
▁Gerçek	-9.92539
▁dalga	-9.9257
gal	-9.92585
▁Ad	-9.92598
▁Müşteri	-9.92624
▁açı	-9.92648
▁çeşit	-9.92662
yin	-9.92677
▁yayınlanan	-9.92679
▁Kaya	-9.92692
▁istihdam	-9.92694
▁aralarında	-9.92728
▁Kocaeli	-9.92736
likleri	-9.9278
En	-9.92806
oto	-9.92831
▁yılından	-9.9284
yip	-9.92906
▁sunuyor	-9.92919
▁Asya	-9.92945
▁yaklaşım	-9.92955
dıklarını	-9.9297
mdan	-9.9298
▁alabilirsiniz	-9.92982
olojik	-9.92989
▁bayram	-9.93018
▁karşıya	-9.93019
▁yolunda	-9.93039
▁Temel	-9.93067
▁dijital	-9.93098
▁Fer	-9.93133
▁FETÖ	-9.93134
▁yarar	-9.932
▁hattı	-9.93203
▁rekabet	-9.93239
▁Giriş	-9.9325
▁Gaziantep	-9.93251
▁koru	-9.93294
▁Çek	-9.93329
▁çıkması	-9.93342
▁Elektrik	-9.93371
▁sağlan	-9.93394
▁tamamı	-9.93395
▁geliş	-9.93403
2017	-9.93461
▁St	-9.9348
▁aşağı	-9.93509
▁Süleyman	-9.93583
▁it	-9.93598
til	-9.93608
▁dar	-9.93616
▁açtı	-9.93636
▁Kredi	-9.93646
▁zayıf	-9.93654
▁izleme	-9.93779
▁kavram	-9.9379
umuz	-9.93817
▁çekme	-9.93835
▁kalitesi	-9.93866
▁düşür	-9.93905
posta	-9.93923
dıktan	-9.93965
▁yemeği	-9.93985
▁sağlayacak	-9.93996
sat	-9.93996
▁Olay	-9.94096
▁emekli	-9.94169
▁koltuk	-9.94173
▁annesi	-9.94187
lidir	-9.94226
▁bölümünde	-9.94258
▁uyumlu	-9.94295
▁türü	-9.94301
▁olmaması	-9.9431
▁esnasında	-9.9432
▁uyum	-9.94347
▁anlattı	-9.94355
▁görün	-9.94368
▁uyan	-9.94374
▁Belki	-9.94389
▁konularda	-9.94454
▁halkın	-9.94471
▁yedek	-9.94476
▁programları	-9.94484
▁şehri	-9.94507
▁Araç	-9.94519
les	-9.94521
▁ilginç	-9.946
▁makale	-9.94629
▁inci	-9.9464
▁git	-9.94643
▁sinir	-9.94727
AP	-9.94743
ia	-9.94811
▁Saat	-9.94855
dığım	-9.94861
▁ulusal	-9.94872
larım	-9.94879
dem	-9.94897
▁Bilgisayar	-9.9491
▁kanıt	-9.94943
▁Ulusal	-9.94977
▁kahraman	-9.94981
▁bence	-9.94999
▁;	-9.95008
▁iade	-9.95015
▁konuşan	-9.95032
▁Destek	-9.95053
▁Etiketler	-9.95101
▁kargo	-9.95105
▁hekim	-9.95106
▁bulmak	-9.95106
▁toplumun	-9.95153
riz	-9.95214
▁sebebiyle	-9.95227
▁geçme	-9.95232
▁vatan	-9.95247
▁değişikliği	-9.95279
▁bulunması	-9.95298
▁yapabilir	-9.95305
▁belirlenen	-9.95314
▁bugüne	-9.95342
dy	-9.95361
▁Karadeniz	-9.95387
diklerini	-9.95397
▁kapan	-9.95403
▁Projesi	-9.95406
▁kayıp	-9.95417
▁Futbol	-9.95472
▁özen	-9.95515
▁32	-9.95521
▁rüya	-9.95595
▁kadının	-9.95604
▁no	-9.95614
▁ilerle	-9.95655
▁üstünde	-9.95672
▁vücut	-9.95725
▁öncesinde	-9.95732
ow	-9.95836
yat	-9.95846
▁karış	-9.95857
lığına	-9.95883
▁ko	-9.95901
▁hanım	-9.95936
▁Resmi	-9.95946
üstü	-9.96042
▁raporu	-9.96063
▁yoluyla	-9.9607
▁seven	-9.96177
▁gen	-9.96215
▁doğu	-9.96223
▁cihazı	-9.96232
▁haz	-9.96236
sk	-9.96253
▁Lisesi	-9.96278
▁dönüştür	-9.96283
▁Kor	-9.96298
▁kolayca	-9.9633
▁geçtiğimiz	-9.96355
▁itiraz	-9.96463
lerindeki	-9.96466
▁Ja	-9.96495
oğu	-9.96538
▁evden	-9.96538
01	-9.96611
▁Tabi	-9.96622
▁platform	-9.96667
▁ör	-9.96682
▁attı	-9.96682
▁isteği	-9.96684
▁Not	-9.96685
▁Şirket	-9.96719
▁götür	-9.96753
▁çocukları	-9.96755
bin	-9.9681
▁Apple	-9.96828
üne	-9.9685
▁yarışma	-9.96852
istan	-9.96859
eme	-9.96862
▁girdiği	-9.96895
NA	-9.96959
ımızın	-9.96969
▁aldım	-9.96973
▁bilgisi	-9.96974
▁Koca	-9.97006
▁adres	-9.97007
▁elbise	-9.9701
▁çıktığı	-9.97016
▁olmadı	-9.97025
▁kulak	-9.97052
amayan	-9.97059
▁don	-9.97068
▁bilgiye	-9.9708
▁adeta	-9.97101
zan	-9.97199
▁maçı	-9.97217
gun	-9.97242
▁açıdan	-9.97265
▁şansı	-9.97274
yoruz	-9.97299
▁yeme	-9.97336
▁biridir	-9.9734
▁sıkı	-9.97414
▁ideal	-9.97491
▁gitmek	-9.97494
▁ku	-9.9756
▁Kulübü	-9.97561
▁Fe	-9.97574
▁kanser	-9.9759
▁şart	-9.97592
▁mali	-9.97616
▁aşı	-9.9762
▁kadınların	-9.97642
çu	-9.97649
▁hızı	-9.97664
▁Mal	-9.97666
▁Kısa	-9.977
▁Bundan	-9.97704
ışı	-9.97713
lamaya	-9.97761
▁miktarı	-9.97764
ildiği	-9.97787
▁Dev	-9.9781
▁düz	-9.97837
ham	-9.97882
İR	-9.97885
▁üstün	-9.97889
lendiği	-9.97923
▁maliyet	-9.97965
▁Arap	-9.9798
▁pozisyon	-9.98012
▁Kapı	-9.98018
▁geçici	-9.98034
▁Hafta	-9.98037
▁Tah	-9.98051
▁yaşamak	-9.98052
▁geçirme	-9.98075
lılar	-9.98106
erken	-9.98148
tt	-9.9817
▁kı	-9.98171
▁ga	-9.98216
▁Orman	-9.98236
om	-9.98262
▁farkı	-9.98306
▁odası	-9.98311
▁pencere	-9.98355
▁Meclisi	-9.98359
▁ata	-9.98363
ard	-9.98365
▁man	-9.9839
26	-9.98436
▁saf	-9.98437
▁köpek	-9.98532
▁birbirine	-9.98573
▁eser	-9.98605
larımıza	-9.98621
▁koşulları	-9.98629
kim	-9.98648
▁kök	-9.98691
▁makam	-9.98694
▁yürü	-9.98714
▁Havalimanı	-9.98727
▁sporcu	-9.98749
▁alınarak	-9.98766
iği	-9.98824
ud	-9.98898
▁kaynakları	-9.98943
▁Gu	-9.98964
▁hüküm	-9.98968
lma	-9.99026
▁numarası	-9.9903
▁Akdeniz	-9.99046
▁Yazı	-9.99083
rim	-9.9913
▁mevsim	-9.9914
bel	-9.99155
▁Seçim	-9.99167
▁kalır	-9.99192
▁hesabı	-9.99247
▁katılımcı	-9.99274
▁endişe	-9.99297
▁oto	-9.9933
top	-9.9934
▁Gazi	-9.99342
▁maddi	-9.99344
28	-9.99357
▁kaybetti	-9.99395
▁yazma	-9.99403
▁göç	-9.99416
▁organizasyon	-9.99417
▁Doğru	-9.99463
Tİ	-9.9951
▁co	-9.99517
▁sanki	-9.99632
▁imkan	-9.99645
▁namaz	-9.99654
q	-9.99695
▁alınır	-9.99724
▁selam	-9.99753
AZ	-9.99859
▁vatandaş	-9.99878
▁düğün	-9.99928
▁tedavisi	-9.99946
▁öldür	-10.0001
Ne	-10.0003
▁beden	-10.0004
bek	-10.0006
07	-10.0008
▁umut	-10.0008
▁fon	-10.0008
▁içeriği	-10.001
▁Aşk	-10.0012
▁Mısır	-10.0016
▁isterseniz	-10.0019
▁ürünlerin	-10.002
cek	-10.002
▁yanına	-10.002
▁sayede	-10.0027
▁Vakfı	-10.0029
▁Koç	-10.003
tif	-10.0036
▁işleme	-10.0041
▁Kap	-10.0043
▁gerektiği	-10.0046
▁yerlerde	-10.0048
atör	-10.005
▁porno	-10.0051
▁çekici	-10.0051
bra	-10.0052
▁Du	-10.0056
▁olduklarını	-10.0062
▁Millet	-10.0063
▁Savaşı	-10.0065
▁Amerikan	-10.0068
▁birer	-10.0072
miyorum	-10.0074
▁fikri	-10.0075
res	-10.0076
▁noktası	-10.0078
▁çiz	-10.0081
AH	-10.0085
af	-10.0085
▁birden	-10.009
▁Yol	-10.0092
▁gü	-10.0095
bur	-10.0099
▁özellik	-10.0101
▁Üye	-10.0103
▁husus	-10.0108
▁banyo	-10.0109
lanabilir	-10.0112
▁eğlence	-10.0114
▁metin	-10.0115
▁yar	-10.0115
▁meclis	-10.0118
▁Ceza	-10.012
▁Mahkemesi	-10.0122
▁günümüzde	-10.0124
▁Başvuru	-10.0125
ksiyon	-10.0128
▁yüzü	-10.0131
06	-10.0131
▁küresel	-10.0135
[	-10.0138
▁dakikada	-10.0138
indeki	-10.0138
▁malzemeleri	-10.0139
▁Bayan	-10.014
▁anlatan	-10.014
TO	-10.0147
▁yolda	-10.0148
▁sıvı	-10.0153
▁uçuş	-10.0154
▁sınırları	-10.0154
▁donanım	-10.0154
▁farkında	-10.0158
▁olaylar	-10.0163
▁Hu	-10.0173
▁elbette	-10.0175
Ge	-10.0178
▁tiyatro	-10.0185
veya	-10.0186
atı	-10.0187
▁men	-10.0193
▁bedeli	-10.0194
manız	-10.0198
dal	-10.0199
fo	-10.02
▁yönel	-10.02
▁ifadelerini	-10.0202
bb	-10.0203
▁05	-10.0204
pan	-10.0205
▁01	-10.0208
▁tabii	-10.0213
▁İnşaat	-10.0216
yerek	-10.0223
▁Yatırım	-10.0223
▁Am	-10.0224
▁firmamız	-10.0228
şan	-10.0228
▁doku	-10.0229
▁Meslek	-10.0229
▁alması	-10.023
▁Der	-10.0232
▁etmiştir	-10.0236
▁herkese	-10.0238
İT	-10.0244
▁Park	-10.0245
▁arıza	-10.0251
▁mezar	-10.0252
▁ameliyat	-10.0253
▁yerden	-10.0254
▁başlayacak	-10.0257
▁değerleri	-10.026
▁ce	-10.026
imizi	-10.0264
▁Trabzon	-10.0265
▁değiş	-10.0266
AB	-10.0267
▁bilme	-10.0271
kte	-10.0272
▁insanlara	-10.0272
▁civarında	-10.0273
▁vererek	-10.0277
▁dolaş	-10.0283
▁ayakkabı	-10.0283
▁sağlıyor	-10.0288
▁duyma	-10.0289
laştırma	-10.0294
▁anlaşıl	-10.0295
▁koku	-10.0295
▁getirmek	-10.0296
ram	-10.0297
▁memur	-10.0299
▁bilen	-10.0302
▁firmaları	-10.0305
▁düzeyde	-10.0305
▁Android	-10.0307
▁ip	-10.0315
▁bazıları	-10.0318
abil	-10.0323
▁ihracat	-10.0326
▁Öğretmen	-10.0333
▁Sınav	-10.0334
▁edilmektedir	-10.0338
EV	-10.0338
ılmaktadır	-10.0342
▁keyifli	-10.0342
▁çalışır	-10.0347
▁konuk	-10.035
▁kalem	-10.0351
▁yüksel	-10.0358
▁moda	-10.0358
▁yüzünden	-10.0359
▁birini	-10.036
▁işgal	-10.0364
▁böylece	-10.0364
▁|--	-10.0371
▁faydalı	-10.0373
▁Çay	-10.0373
manın	-10.0374
lis	-10.0374
▁Eskişehir	-10.0375
▁günün	-10.0376
likler	-10.0379
▁planı	-10.0383
▁Trump	-10.0387
▁Em	-10.0388
don	-10.0389
▁nesil	-10.0393
▁bulabilirsiniz	-10.0395
▁beyan	-10.0396
▁önde	-10.0396
RE	-10.0399
abilmesi	-10.0401
32	-10.0405
▁Doğan	-10.0414
▁yaşa	-10.0414
▁Yeşil	-10.0414
▁Alan	-10.0423
tme	-10.0424
▁zorunlu	-10.0432
0.000	-10.0436
▁şunları	-10.0441
▁ettim	-10.0444
▁kağıt	-10.0446
▁8.	-10.0449
▁garanti	-10.0452
üş	-10.0453
▁Polis	-10.0458
▁ayr	-10.0459
▁duyduğu	-10.0461
▁arzu	-10.0461
▁diz	-10.0462
▁fiziksel	-10.047
▁Ulu	-10.0471
▁işlemler	-10.0476
▁Par	-10.0478
▁ufak	-10.0481
▁300	-10.0482
▁ondan	-10.0482
▁aracılığıyla	-10.0485
yer	-10.0489
▁ok	-10.049
▁merkezinde	-10.049
▁1-	-10.0491
▁etkinliği	-10.0492
lıdır	-10.0492
▁söylen	-10.0493
▁un	-10.0495
▁birinin	-10.0499
kü	-10.0506
▁du	-10.0514
ece	-10.0517
▁sunucu	-10.0517
▁yetiştir	-10.0518
▁sunulan	-10.0519
▁halka	-10.0522
▁Bayramı	-10.0523
tel	-10.053
▁değiştirme	-10.053
▁Kurum	-10.0531
▁kumaş	-10.0531
▁yoktu	-10.0533
▁biliyor	-10.0533
▁Birinci	-10.0534
▁Diyarbakır	-10.0535
▁pazarlama	-10.0536
▁7.	-10.0538
▁dışarı	-10.0539
rit	-10.0539
▁kaldığı	-10.0541
▁adamı	-10.0542
▁Neden	-10.0543
▁Tasarım	-10.0545
düğünü	-10.0548
fet	-10.0549
ana	-10.0564
▁kazanan	-10.0567
▁etkinlik	-10.057
08	-10.0571
▁bomba	-10.0575
▁yönetici	-10.0575
▁sunduğu	-10.0579
LI	-10.0583
▁cephe	-10.0589
▁sürdür	-10.0589
▁gelişmiş	-10.0593
▁anlamı	-10.0593
▁süreçte	-10.0596
31	-10.0601
ven	-10.0602
▁Roma	-10.0609
stan	-10.0614
▁gelişim	-10.0618
▁esnaf	-10.062
▁Amaç	-10.0621
▁çalıştığı	-10.0626
▁edilebilir	-10.0627
▁Ber	-10.0635
▁rakam	-10.0637
▁meydan	-10.0639
▁ölçüde	-10.0642
▁·	-10.0646
gül	-10.0647
▁kalıcı	-10.0647
▁şehrin	-10.0648
▁mutluluk	-10.065
▁kale	-10.0652
rem	-10.0656
ac	-10.0657
▁düşünül	-10.0659
▁komşu	-10.0664
▁belirt	-10.0666
▁gidip	-10.0666
umu	-10.0667
▁buradan	-10.067
val	-10.0671
▁faaliyetleri	-10.0673
▁yapın	-10.0684
Kİ	-10.0684
▁anı	-10.0685
▁alanlarda	-10.0686
anlar	-10.0687
eceğiniz	-10.0688
▁maruz	-10.069
▁kardeşi	-10.0691
▁çekim	-10.0692
tion	-10.0693
▁gelişmeler	-10.0695
27	-10.0695
▁pratik	-10.0695
▁nerede	-10.0696
ümüz	-10.0698
▁üstüne	-10.0698
▁Daire	-10.0699
▁hayran	-10.07
unuz	-10.0702
▁görüşü	-10.0705
fil	-10.071
▁(1	-10.0711
▁üretici	-10.0712
▁gündeme	-10.0712
▁kazandı	-10.0712
▁bilet	-10.0715
▁2007	-10.0717
ep	-10.0718
▁Ti	-10.0718
▁dev	-10.0722
Biz	-10.0724
▁Sayı	-10.0725
▁tanıma	-10.0726
▁gönül	-10.0728
türk	-10.0728
▁söyleme	-10.073
yacak	-10.073
▁hatırlat	-10.0732
▁hayatta	-10.0733
▁İsmail	-10.0734
▁çevir	-10.0735
▁sözleri	-10.0737
▁getirdiği	-10.0738
ts	-10.0741
▁genelde	-10.0741
▁Şahin	-10.0744
▁radyo	-10.075
▁alanlar	-10.075
▁mevcuttur	-10.0756
▁dönüşüm	-10.0757
▁Hak	-10.0758
▁Toplam	-10.076
ebilen	-10.0763
▁falan	-10.0764
▁mesele	-10.0766
od	-10.0768
▁açıklaması	-10.0771
▁geleneksel	-10.0772
▁suretiyle	-10.0779
bay	-10.078
ris	-10.0781
▁günler	-10.0784
▁açılış	-10.0786
log	-10.0788
▁eleştiri	-10.0797
▁yakından	-10.0798
▁döviz	-10.0804
▁deprem	-10.0804
▁Komisyonu	-10.0807
▁gurur	-10.0809
78	-10.0812
öl	-10.0817
laması	-10.0818
▁lezzet	-10.0818
▁uğra	-10.0821
▁Çanakkale	-10.0823
▁Ekonomi	-10.0824
▁görevli	-10.0824
▁fırsatı	-10.0828
dî	-10.0829
UM	-10.083
▁hayırlı	-10.083
▁belirtildi	-10.0832
cılığı	-10.0832
▁metal	-10.0833
mden	-10.0834
65	-10.0836
▁kolaylaştır	-10.0837
▁seçimi	-10.0839
sidir	-10.0843
▁yağmur	-10.0843
▁nda	-10.0844
▁Dur	-10.0848
▁çıkmış	-10.0851
▁dök	-10.0851
sý	-10.0853
▁sesi	-10.0861
▁forma	-10.0864
▁hayır	-10.0865
malısınız	-10.0868
▁klima	-10.0869
öz	-10.0869
▁ortamı	-10.0875
▁Kayseri	-10.0876
raf	-10.0877
▁sınırlı	-10.0883
▁Tem	-10.0884
09	-10.0886
▁satışı	-10.0886
art	-10.0888
AŞ	-10.0892
tre	-10.0893
Al	-10.0896
▁Veri	-10.0897
▁başlangıç	-10.0897
▁Alt	-10.0897
▁bekleme	-10.09
▁kahvaltı	-10.0901
▁içer	-10.0901
zen	-10.0912
▁sigara	-10.0914
imize	-10.0914
OS	-10.0914
▁araçları	-10.092
aba	-10.0922
▁ez	-10.0924
▁mavi	-10.0925
▁kamp	-10.0929
▁36	-10.093
▁Kazan	-10.0932
▁sun	-10.0932
▁depo	-10.0934
▁Satış	-10.0935
▁Fen	-10.0935
▁kimyasal	-10.0935
ile	-10.0937
ara	-10.094
▁Nakliyat	-10.0941
▁Gıda	-10.0948
▁Üç	-10.095
▁icin	-10.0953
▁tamamladı	-10.0954
▁çalışmalarını	-10.0957
org	-10.0958
www	-10.0961
▁Güven	-10.0961
şar	-10.0962
▁gösterdiği	-10.0963
▁Öte	-10.0966
▁alacağı	-10.0968
▁Geçen	-10.0972
▁unutma	-10.0973
lerce	-10.0975
ez	-10.0981
▁mümkündür	-10.0983
lenerek	-10.0984
▁güçlendir	-10.0987
rin	-10.0988
▁Fotoğraf	-10.099
▁ilçesi	-10.0993
▁avantaj	-10.0997
ina	-10.0999
▁Boz	-10.1017
▁Firma	-10.1023
▁prim	-10.1028
▁gerçekleşen	-10.1032
Me	-10.1034
▁halkı	-10.1036
▁dön	-10.1037
▁isteyenler	-10.104
▁görür	-10.1044
KA	-10.1044
▁abi	-10.1044
▁ölü	-10.1048
▁noktasında	-10.1049
lerim	-10.1049
▁izni	-10.105
▁İnce	-10.1053
▁alıcı	-10.1053
▁Banka	-10.1054
▁milletvekili	-10.1055
▁duruma	-10.1056
▁duyuru	-10.1059
▁link	-10.1059
▁Kol	-10.1059
▁çıkacak	-10.1061
maları	-10.1062
▁koca	-10.1067
▁kesil	-10.1072
▁Sal	-10.1072
▁uygulamalar	-10.1072
▁temsilcileri	-10.1076
mur	-10.108
▁ahlak	-10.1082
▁yönünde	-10.1082
▁tık	-10.1085
▁yapmanız	-10.1085
bat	-10.1087
ig	-10.1095
▁Hukuk	-10.1096
▁2000	-10.1099
▁Bölgesi	-10.1106
▁Eğitimi	-10.1109
ünde	-10.1114
▁ederiz	-10.1118
▁Köyü	-10.112
iliyor	-10.1121
eş	-10.1124
tro	-10.113
sızlık	-10.1135
▁Yan	-10.1135
▁ili	-10.1138
▁eğlenceli	-10.114
▁şube	-10.1143
▁saniye	-10.1144
▁uzat	-10.1148
▁tat	-10.1153
leşen	-10.1159
▁kıs	-10.1162
▁hakkını	-10.1162
ali	-10.1164
tasyon	-10.1164
▁kuzey	-10.1166
yol	-10.1166
▁varlığı	-10.1166
▁sizleri	-10.1171
▁Toplantı	-10.1172
▁Afrika	-10.1172
▁Öncelikle	-10.1173
▁uygulay	-10.1175
▁yarım	-10.1179
▁mm	-10.1184
▁başlığı	-10.1187
likle	-10.1191
▁arı	-10.1191
▁yazdığı	-10.1191
83	-10.1192
▁roman	-10.1194
▁bayanlar	-10.1196
LİK	-10.1204
▁klasik	-10.1205
▁araçlar	-10.1206
▁nüfus	-10.1208
▁köprü	-10.1213
▁üstü	-10.1214
▁azalt	-10.1215
▁içeri	-10.1218
▁seksi	-10.1223
76	-10.1224
▁fuar	-10.1224
▁turist	-10.123
▁geçer	-10.1247
▁kum	-10.1247
▁Köy	-10.1249
▁krem	-10.1249
Allah	-10.1252
▁rahmet	-10.1256
▁Fransız	-10.1259
▁bes	-10.126
▁Zaten	-10.1266
▁boyut	-10.1272
▁vize	-10.1273
▁olayı	-10.1275
▁kriz	-10.1277
▁temas	-10.1282
▁yönet	-10.1284
▁ilke	-10.1284
eceksiniz	-10.1285
▁form	-10.1288
▁Hal	-10.1288
▁Oto	-10.1289
▁isten	-10.1291
▁çıkarma	-10.1294
ebilmek	-10.1301
▁numaralı	-10.1304
▁Aç	-10.1306
▁beyin	-10.1307
▁yaptığımız	-10.1309
▁topla	-10.1309
rma	-10.1309
tis	-10.131
▁Üyesi	-10.1312
Dİ	-10.1316
▁http	-10.1317
▁vur	-10.1323
sp	-10.1323
▁çök	-10.1326
▁konular	-10.1331
▁Müzik	-10.1341
lenebilir	-10.1341
▁İtalya	-10.1345
▁ülkelerin	-10.1345
▁seçeneği	-10.135
▁kaybetme	-10.135
▁bedel	-10.1352
▁Yazar	-10.1352
▁yatır	-10.1355
▁Servis	-10.1357
▁anında	-10.1359
▁olunca	-10.1361
▁gerekse	-10.1361
▁sorgu	-10.1368
▁sakin	-10.1368
▁tarihinden	-10.1375
▁kedi	-10.1378
▁çekiyor	-10.138
▁ettik	-10.1381
▁Yılı	-10.1383
▁hapis	-10.1386
▁arkadaşları	-10.1386
leyin	-10.1387
kta	-10.1387
▁pat	-10.1389
▁anla	-10.139
▁sürecinde	-10.1391
▁dergi	-10.1391
▁Uzman	-10.1395
ydu	-10.1397
▁toplantısı	-10.1397
▁icra	-10.14
▁görünüm	-10.1401
▁kurban	-10.1401
▁Bunların	-10.1403
▁çelik	-10.1403
medi	-10.1407
▁oyunlar	-10.1407
▁parmak	-10.1407
▁önümüzdeki	-10.1407
▁elinde	-10.1408
▁deney	-10.1416
99	-10.1419
▁İslâm	-10.1419
▁yöntemleri	-10.1423
▁denir	-10.1423
▁Bodrum	-10.1423
▁Okulu	-10.1427
De	-10.1428
▁Yaşam	-10.1429
▁ölümü	-10.1429
▁Çe	-10.1432
▁Görev	-10.1432
▁çeviri	-10.1434
▁güncelleme	-10.1434
▁sorular	-10.1439
▁Men	-10.145
▁zamanında	-10.1453
▁şeyin	-10.1457
▁iman	-10.146
SK	-10.1461
▁sertifika	-10.1462
CE	-10.1463
▁süredir	-10.1463
tek	-10.1464
mayacak	-10.1466
▁düzenlediği	-10.1468
▁kazanç	-10.1469
▁peygamber	-10.1469
▁sunar	-10.1471
▁yapması	-10.1472
▁yapmayı	-10.148
36	-10.1483
▁2019	-10.1484
arken	-10.1489
▁kimsenin	-10.1494
lıklar	-10.1496
vet	-10.1498
▁yukarı	-10.1501
▁yık	-10.1504
▁Sey	-10.1504
▁Kaza	-10.1504
▁günden	-10.1505
nç	-10.1506
▁kaçır	-10.1507
▁yaptık	-10.1508
▁çarp	-10.1513
▁nakliye	-10.1513
▁bireysel	-10.1514
▁petrol	-10.1515
▁Tü	-10.1524
▁tarifi	-10.1526
abileceğiniz	-10.1528
▁şüphe	-10.1532
▁hizmetler	-10.1534
▁altını	-10.1536
▁gücünü	-10.1538
▁gizle	-10.1539
▁gayret	-10.1539
▁aracın	-10.154
▁unut	-10.1541
▁ürünün	-10.1543
lerdi	-10.1544
▁çağır	-10.1544
Se	-10.1548
US	-10.1551
▁haberleri	-10.1553
İş	-10.1553
▁isimler	-10.1553
EY	-10.1553
▁saati	-10.1554
▁Ağır	-10.1555
▁döndü	-10.1556
▁güne	-10.1556
▁gördü	-10.156
▁pişir	-10.1562
▁kab	-10.1563
bank	-10.1565
▁mar	-10.1566
▁ziyaretçi	-10.1566
َ	-10.1568
▁okur	-10.1569
▁Erkek	-10.1575
▁Kanunun	-10.1575
▁bahsed	-10.1577
▁kalmış	-10.1578
ire	-10.1579
ınızı	-10.1581
ime	-10.1585
▁ac	-10.1589
▁hariç	-10.159
▁girişimi	-10.1591
mail	-10.1592
▁Başka	-10.1593
▁kut	-10.1597
rik	-10.1602
▁On	-10.1611
lediği	-10.1615
▁ilişkiler	-10.1616
▁(2)	-10.1616
ıyorsunuz	-10.1616
▁diy	-10.1617
▁Mer	-10.1622
▁aktivite	-10.163
▁durma	-10.1633
▁Kral	-10.1634
▁bakın	-10.1635
▁katıldığı	-10.1635
▁kazanma	-10.1637
bul	-10.1637
▁oluşturma	-10.1641
▁Hazır	-10.1644
▁soruları	-10.1647
▁Sar	-10.1648
▁başvur	-10.1648
mü	-10.165
rk	-10.1651
▁tepe	-10.1653
▁Ağ	-10.1655
fak	-10.1659
▁vazgeç	-10.1659
▁Kullanıcı	-10.166
▁Gö	-10.1662
▁kendimi	-10.1662
▁yaptım	-10.167
▁yaşan	-10.167
▁Gerek	-10.1671
▁istifa	-10.1679
▁Şen	-10.168
▁tehlike	-10.168
▁tanıtım	-10.1684
▁görünüyor	-10.1684
▁kenar	-10.1685
▁yükselt	-10.1686
idir	-10.1687
▁dayalı	-10.1691
▁33	-10.1693
▁kısmında	-10.1694
▁Bahçe	-10.1694
▁sağlanması	-10.1701
▁Gel	-10.1702
▁j	-10.1702
duğunu	-10.1703
▁biçim	-10.1703
▁stres	-10.1704
▁albüm	-10.1705
▁aran	-10.1707
ıldığını	-10.171
▁miktarda	-10.1712
▁birliği	-10.1715
▁Rum	-10.1715
cil	-10.1722
▁ailesi	-10.1724
▁Üst	-10.1725
bal	-10.1729
▁arayan	-10.1729
sto	-10.1731
▁Kontrol	-10.1734
▁İste	-10.1736
▁meme	-10.174
▁ulaşma	-10.174
▁Sakarya	-10.1745
yordu	-10.1745
▁sitesinde	-10.1748
▁Sabah	-10.1749
▁koş	-10.175
▁bağış	-10.175
İS	-10.1751
▁korumak	-10.1754
▁Con	-10.1756
ili	-10.1758
▁çatı	-10.1759
▁yaklaş	-10.1759
▁tescil	-10.1761
▁abone	-10.1761
TA	-10.1774
▁yaratıcı	-10.1774
Cumhurbaşkanlığı	-10.1779
ight	-10.178
▁verici	-10.1782
▁yapılmaktadır	-10.1784
▁nesne	-10.1787
che	-10.1788
▁Festivali	-10.179
▁derecede	-10.1791
▁mobilya	-10.1792
▁harcama	-10.1797
par	-10.1798
▁olmaları	-10.1802
lerimi	-10.1803
▁bağlan	-10.1803
39	-10.1804
▁geldiğini	-10.1804
▁(19	-10.1804
madı	-10.1804
▁sunmaktadır	-10.1805
mm	-10.1808
ebilmesi	-10.1811
▁for	-10.1814
lıkla	-10.1822
▁ayda	-10.1824
kın	-10.183
▁dönemin	-10.1831
▁keyif	-10.1837
▁sıfır	-10.1841
▁saatlerinde	-10.1843
▁Oysa	-10.1854
▁Bas	-10.1854
▁gördüğü	-10.1856
▁sordu	-10.1857
▁kav	-10.1858
▁kavga	-10.1859
▁enflasyon	-10.1861
▁mer	-10.1861
▁bölgesi	-10.1862
▁Ah	-10.1863
Te	-10.1864
▁oldum	-10.1865
▁bildirim	-10.1866
▁atma	-10.1867
▁otur	-10.1867
▁yansıt	-10.1871
▁süs	-10.1874
▁atık	-10.1875
▁09	-10.1876
▁kurumlar	-10.1882
▁Tanrı	-10.1882
▁sürece	-10.1882
▁müze	-10.1883
▁uy	-10.1883
▁lo	-10.1885
▁öğrencileri	-10.1889
▁yapım	-10.1892
▁ah	-10.1892
▁Ye	-10.1893
ıdır	-10.1895
▁yi	-10.1895
▁duyur	-10.1896
▁payı	-10.1897
29	-10.1898
▁istanbul	-10.1899
▁tutan	-10.19
sey	-10.1906
ligi	-10.1907
▁istek	-10.1907
▁artan	-10.1908
▁restoran	-10.1911
▁toz	-10.1913
▁etmeniz	-10.1915
▁Servisi	-10.1917
▁özgür	-10.1919
▁yıllardır	-10.1924
mir	-10.1927
▁kültürü	-10.193
▁uygulanan	-10.1932
▁takımın	-10.1936
iyordu	-10.1936
▁katılma	-10.1939
▁vermesi	-10.194
▁projeler	-10.1945
şen	-10.1945
yecek	-10.1945
▁şiş	-10.1945
str	-10.1946
▁Yunanistan	-10.1946
▁eleştir	-10.1947
▁ayağı	-10.1959
▁inanç	-10.196
mb	-10.1963
▁Sür	-10.1967
meyecek	-10.1969
▁buldu	-10.197
▁ağzı	-10.197
/1	-10.197
▁acaba	-10.1971
▁iPhone	-10.1973
▁kopya	-10.1976
▁düştü	-10.1976
▁geçiyor	-10.1978
▁yaşıyor	-10.1978
▁Is	-10.1979
▁yılları	-10.1981
yal	-10.1981
siyon	-10.1981
▁maaş	-10.1982
▁kilit	-10.1984
▁tez	-10.1986
▁Adam	-10.1986
▁teknolojisi	-10.1987
▁Abdullah	-10.1987
▁34	-10.1989
▁düşünüyor	-10.1998
▁kork	-10.2002
sar	-10.2007
?"	-10.2008
teri	-10.2008
▁Yurt	-10.2008
lıkları	-10.2008
▁Saç	-10.2009
▁sınıfı	-10.201
▁kasa	-10.2013
▁İle	-10.2015
▁mak	-10.2016
▁Marka	-10.2016
ât	-10.2018
üt	-10.202
▁kulüp	-10.2023
▁Dönem	-10.2024
▁harf	-10.2026
▁TBMM	-10.2026
eğe	-10.2027
▁sitemiz	-10.2027
44	-10.2028
▁savun	-10.2028
▁Sektör	-10.2031
okul	-10.2034
▁sizlerle	-10.2038
▁Dünyanın	-10.2041
▁kutu	-10.2044
▁Caddesi	-10.2048
▁ten	-10.2048
▁görüyor	-10.205
▁Ci	-10.2051
mas	-10.2054
amıyor	-10.2056
▁namazı	-10.2056
kara	-10.2057
GE	-10.2058
▁kullanılabilir	-10.206
▁günah	-10.2062
▁ger	-10.2064
▁Soru	-10.207
▁yapıp	-10.2072
▁le	-10.2076
▁görül	-10.2081
SI	-10.2082
▁Düzen	-10.2082
▁Yunan	-10.2083
▁haberi	-10.2085
▁değildi	-10.2092
▁kaplama	-10.2092
▁organ	-10.2093
mın	-10.2096
fat	-10.21
▁anahtar	-10.21
▁yönde	-10.2101
@	-10.2102
▁sebeple	-10.2105
▁ilişkileri	-10.2105
▁MA	-10.2106
▁dernek	-10.2106
larken	-10.2112
▁emniyet	-10.2117
▁gerçekleş	-10.2123
▁markası	-10.2123
▁Şehit	-10.2124
▁Digiturk	-10.2125
▁maddesinin	-10.2127
▁Sigorta	-10.2128
▁Hasta	-10.2128
▁Müdür	-10.2131
▁geldik	-10.2135
▁iklim	-10.2139
▁Tu	-10.214
▁tarif	-10.214
ja	-10.2145
▁ordu	-10.215
Türk	-10.2152
▁hatun	-10.216
▁artması	-10.2162
yr	-10.2162
▁Adalet	-10.2164
▁muayene	-10.2164
▁Federasyonu	-10.2165
▁panel	-10.2166
▁edilerek	-10.2167
▁ihlal	-10.2174
▁olabilirsiniz	-10.2175
▁Ses	-10.2176
▁Resim	-10.2177
▁gelişimi	-10.2179
▁Alevi	-10.2181
▁gidil	-10.2186
▁işyeri	-10.2189
▁gayet	-10.2191
▁kad	-10.2193
▁Hemen	-10.2194
▁evlilik	-10.2197
▁kodu	-10.2207
34	-10.2208
37	-10.2209
▁yükleme	-10.2211
▁Hakan	-10.2211
▁55	-10.2213
▁dedektiflik	-10.2213
▁göğüs	-10.2215
▁Tel	-10.2216
▁ulaşmak	-10.2216
▁sessiz	-10.2217
▁Etki	-10.2219
luğa	-10.2219
▁ters	-10.2221
ex	-10.2223
ebilme	-10.2223
▁yılının	-10.2229
▁şüpheli	-10.2233
▁festival	-10.2235
▁Pan	-10.2241
▁başlıklı	-10.2241
79	-10.2242
▁kazı	-10.2244
▁Tabii	-10.2244
▁oluşturan	-10.2251
▁ulaştı	-10.2255
▁gelmektedir	-10.2256
▁açıkça	-10.2259
!”	-10.2261
▁sak	-10.2262
▁Telefon	-10.2265
▁isimleri	-10.2266
▁150	-10.2271
▁Kas	-10.2275
▁Personel	-10.2275
▁dikkatli	-10.2275
rd	-10.2276
▁tüket	-10.228
▁Günümüzde	-10.228
▁ağız	-10.2289
▁kaybol	-10.2291
yüz	-10.2296
▁yukarıda	-10.2296
IR	-10.2298
▁etiket	-10.2298
▁ülkeler	-10.23
▁sebze	-10.2302
▁halen	-10.2303
▁olduk	-10.2304
▁tan	-10.2308
gın	-10.2308
▁serisi	-10.2312
▁taze	-10.2313
▁arkasında	-10.2314
▁onunla	-10.2315
lon	-10.232
est	-10.2326
▁konaklama	-10.2327
▁yıla	-10.2329
▁korunması	-10.2333
73	-10.2334
leyecek	-10.2334
▁projeleri	-10.2335
▁Maliye	-10.2335
▁aşkın	-10.2336
▁Dol	-10.2338
▁göstermek	-10.2338
▁performansı	-10.234
▁yapılıyor	-10.234
▁dizisi	-10.2342
▁söylemek	-10.2345
▁bisiklet	-10.2348
▁ekmek	-10.2349
▁Yusuf	-10.2354
asyonu	-10.2355
▁bonus	-10.2356
▁gelince	-10.2357
Sen	-10.2357
▁Mutfak	-10.2361
▁tadı	-10.2362
▁strateji	-10.2363
▁maçında	-10.2363
▁perde	-10.2364
▁personeli	-10.2367
aret	-10.2368
bri	-10.2369
▁Sistem	-10.2371
▁şirketin	-10.2373
▁adli	-10.2379
▁yerleştir	-10.2381
likte	-10.2382
▁evin	-10.2384
▁bel	-10.2389
larca	-10.2392
▁Marmara	-10.2394
abilmektedir	-10.2394
meleri	-10.2395
55	-10.2395
▁vesile	-10.2396
▁deneyimi	-10.2398
▁şah	-10.2399
▁dayanıklı	-10.2399
▁Geri	-10.2402
▁2006	-10.2405
▁olduğum	-10.2406
▁Mah	-10.2413
▁evinde	-10.2413
▁yolculuk	-10.2413
#	-10.2415
ers	-10.2417
ýn	-10.2417
▁sağlama	-10.2418
▁Cumartesi	-10.2418
▁alımı	-10.242
ps	-10.2429
▁güzellik	-10.2429
▁itibar	-10.2429
▁anlayış	-10.2435
▁fer	-10.2435
▁yönetmen	-10.244
33	-10.2441
mut	-10.2447
oo	-10.2455
▁Ermeni	-10.2455
▁Savaş	-10.2459
çü	-10.246
▁temizliği	-10.2461
▁Tra	-10.2464
▁seçenek	-10.2465
mp	-10.2466
▁Sel	-10.2468
▁saatleri	-10.2468
sti	-10.2469
leyebilirsiniz	-10.247
▁güney	-10.2473
▁Bana	-10.2474
▁olmasa	-10.2475
▁48	-10.2475
▁üretilen	-10.2481
▁öğle	-10.2481
▁oynama	-10.2481
▁ettikleri	-10.2482
▁çevril	-10.2483
land	-10.2491
▁devri	-10.2492
UL	-10.2493
▁oluşur	-10.2494
▁çalışmak	-10.2497
ilmiştir	-10.2503
▁Kayıt	-10.2504
▁HA	-10.2504
▁Video	-10.2507
▁Bayram	-10.2508
▁tasar	-10.251
▁süper	-10.2511
▁kombi	-10.2515
▁usul	-10.2516
MAN	-10.2516
▁koydu	-10.252
▁göstermektedir	-10.2524
▁zamanlar	-10.2524
▁iletişime	-10.2528
▁Hiç	-10.2529
▁beğeni	-10.2529
OL	-10.2534
▁kıyafet	-10.2539
ib	-10.254
▁Dağ	-10.2543
▁sahil	-10.2545
▁merhaba	-10.2545
▁kurs	-10.2548
▁politikası	-10.2549
lemek	-10.2553
▁oturma	-10.2554
▁Şi	-10.2554
mat	-10.2554
▁Paris	-10.2561
▁Dalı	-10.2564
▁öden	-10.2565
▁yazık	-10.2569
▁Kore	-10.2569
dere	-10.257
▁konferans	-10.2573
ED	-10.2574
▁Farklı	-10.2574
▁erişim	-10.2576
▁çözümü	-10.2577
▁Denizli	-10.258
▁Sevgili	-10.2581
▁özgürlük	-10.2587
▁tutma	-10.2589
▁baz	-10.259
▁kendinizi	-10.2595
▁Mobil	-10.2595
▁coğrafya	-10.2598
leyip	-10.2598
mil	-10.2598
▁anti	-10.2599
eb	-10.2601
▁tehlikeli	-10.2601
ktedir	-10.2602
▁Takımı	-10.261
kol	-10.2613
▁kaydı	-10.2616
ble	-10.2617
▁yaşadı	-10.2617
▁değin	-10.2618
▁Gar	-10.2622
▁Bağ	-10.2622
▁Öyle	-10.2623
▁Karar	-10.2628
▁yıkama	-10.2628
▁mail	-10.263
▁çalışmaya	-10.2634
ebe	-10.2639
▁sanırım	-10.264
▁yerler	-10.2641
rah	-10.2644
▁etmeyi	-10.2646
▁isti	-10.2647
▁tamamlan	-10.2649
▁dediği	-10.2649
▁tören	-10.2654
-19	-10.2656
▁boyutu	-10.2661
Do	-10.2665
▁Barış	-10.2672
▁beklenen	-10.2674
▁Yabancı	-10.2678
şık	-10.2681
we	-10.2684
CI	-10.2696
▁Pat	-10.2698
▁söylediği	-10.2703
▁Sağ	-10.2706
▁bakımı	-10.2706
▁çağ	-10.2707
sindeki	-10.2713
▁$	-10.2713
▁kimliği	-10.2717
▁uygulanması	-10.2717
▁girişim	-10.272
▁kavuş	-10.2721
acağınız	-10.2722
lenecek	-10.2722
kâr	-10.2724
▁etkileri	-10.2724
▁pas	-10.2728
▁ibadet	-10.2734
▁bakma	-10.2736
▁bıraktı	-10.2736
▁lideri	-10.2743
▁gerçeği	-10.2744
▁ikili	-10.2745
▁yürüyüş	-10.2747
▁üyelik	-10.2748
▁konuları	-10.2749
▁doğan	-10.2756
2014	-10.2757
▁Sak	-10.2758
▁ayrılma	-10.2759
▁sıcaklık	-10.2759
▁verileri	-10.276
▁Hali	-10.2764
▁hayatın	-10.2764
▁disiplin	-10.2765
tıkları	-10.277
enler	-10.2777
▁gördüm	-10.2785
ds	-10.2786
▁bah	-10.279
▁delil	-10.2793
▁aylarında	-10.2794
DI	-10.2794
▁yerleşim	-10.2795
▁Sivas	-10.2797
ef	-10.2797
2016	-10.2799
sunda	-10.28
▁uzay	-10.2801
▁olmuştu	-10.2805
▁tutarı	-10.2806
▁bilinci	-10.2808
zel	-10.2808
▁damar	-10.2813
ESİ	-10.2822
▁harita	-10.2831
▁rahatlıkla	-10.2831
▁Devleti	-10.2833
▁sektörü	-10.2834
▁taraftan	-10.2834
▁eli	-10.2838
ayım	-10.2843
wa	-10.2844
▁Gi	-10.2846
mizden	-10.2846
▁idari	-10.2847
mediği	-10.2847
▁anlar	-10.2848
▁Yemek	-10.2849
▁maçta	-10.285
▁şeyleri	-10.2851
▁Şanlıurfa	-10.2853
▁Geç	-10.2855
diler	-10.2859
▁tuş	-10.286
▁döner	-10.286
▁Hoca	-10.286
abilme	-10.2862
▁Dün	-10.2862
▁çıkardı	-10.2864
▁gök	-10.2866
▁Twitter	-10.2866
▁oranları	-10.2873
▁önemi	-10.2873
▁sendika	-10.2875
38	-10.2875
▁havuz	-10.2876
zu	-10.288
▁veriler	-10.2885
98	-10.2887
▁Yaş	-10.2892
▁tah	-10.2892
▁Kalite	-10.2892
▁Mus	-10.2895
▁tl	-10.2897
ürü	-10.2898
▁yavru	-10.2898
▁kapısı	-10.2899
▁Yüz	-10.29
larınızın	-10.2903
▁kurulması	-10.2903
▁Kaynak	-10.2905
▁kurmak	-10.2907
▁yöneticileri	-10.2907
▁Art	-10.2909
-3	-10.2911
AD	-10.2913
▁yolunu	-10.2914
▁söyler	-10.2914
▁Eve	-10.2917
▁Birçok	-10.292
muştu	-10.2921
▁açtığı	-10.2922
meyin	-10.2925
▁Doğum	-10.2926
yacaktır	-10.2926
▁Diş	-10.2927
▁yerleri	-10.2929
▁ir	-10.2932
▁beklen	-10.2934
▁bölümde	-10.2934
▁korun	-10.2935
▁11.	-10.2936
▁görülür	-10.2941
▁grafik	-10.2941
▁topu	-10.2941
▁sil	-10.2943
▁Ey	-10.2943
▁Erzurum	-10.2944
▁çanta	-10.2946
of	-10.2947
mit	-10.2951
▁Pazartesi	-10.2955
53	-10.2956
kiralama	-10.2956
▁makyaj	-10.2959
▁kop	-10.2959
uç	-10.2959
▁İmam	-10.2967
▁sahipliği	-10.297
mun	-10.297
▁olamaz	-10.2972
▁harekete	-10.2972
▁olu	-10.2973
▁olası	-10.2976
▁süreli	-10.2977
LU	-10.2978
▁İlgili	-10.2986
▁görüyoruz	-10.2988
▁Emre	-10.2989
▁Online	-10.2991
▁İşlem	-10.2992
müştür	-10.2993
▁hac	-10.2998
▁Yakın	-10.2998
▁azından	-10.3004
▁maalesef	-10.3004
lıyoruz	-10.3004
▁Hollanda	-10.3004
muzda	-10.3005
▁teşekkürler	-10.3005
▁Kitabı	-10.3007
inizin	-10.301
Si	-10.301
▁düşünür	-10.301
▁Kupası	-10.3011
SS	-10.3013
▁gösterme	-10.3015
▁KA	-10.3016
ýný	-10.3019
▁özellikler	-10.302
ras	-10.3022
▁muhafaza	-10.3022
gre	-10.3022
▁ik	-10.303
▁müziği	-10.3032
▁”	-10.3033
▁Ze	-10.3034
▁demokratik	-10.3035
▁bildirdi	-10.3036
46	-10.3039
▁Bununla	-10.304
▁HDP	-10.304
▁bilgilendirme	-10.304
“	-10.3041
▁köyü	-10.3047
▁içme	-10.3047
▁sisteminin	-10.3047
▁sunmak	-10.3049
memiş	-10.3049
▁ti	-10.305
▁oluşturduğu	-10.306
▁ulaştır	-10.3061
▁şirketleri	-10.307
▁Ardından	-10.3075
▁Kılıçdaroğlu	-10.3077
▁tren	-10.3083
ullah	-10.3084
▁olabilecek	-10.3085
▁gelerek	-10.3089
▁etkinlikler	-10.3091
▁avukat	-10.3093
▁başlamış	-10.3094
▁verilecek	-10.3095
▁kontrolü	-10.3095
nder	-10.31
▁bekleniyor	-10.3101
lacak	-10.3102
▁duyu	-10.3105
▁kesme	-10.3105
▁izlemek	-10.3107
▁Fran	-10.3111
▁olmaktan	-10.3112
Re	-10.3117
▁kullanıcılar	-10.3118
▁detay	-10.312
▁örneği	-10.3123
▁Çarşamba	-10.3125
baba	-10.3127
▁satışa	-10.3127
leşmiş	-10.3127
ice	-10.3127
ting	-10.3128
▁toplama	-10.3128
▁birşey	-10.3128
cağı	-10.313
▁Üretim	-10.3131
▁Değer	-10.3135
▁masraf	-10.3137
▁kullanıcıların	-10.314
▁olgun	-10.3144
▁Hayır	-10.3147
▁merkezine	-10.3148
Her	-10.3148
▁büyüsü	-10.3149
tem	-10.315
▁haklı	-10.3153
ata	-10.3154
▁Enstitüsü	-10.3162
hâ	-10.3164
▁af	-10.3168
▁seçme	-10.3169
▁formu	-10.317
pol	-10.3171
▁gar	-10.3173
pp	-10.3174
vel	-10.3175
▁Salonu	-10.3177
▁kullanıldığı	-10.3186
▁başladım	-10.3187
▁planlama	-10.319
▁buluşma	-10.3191
usu	-10.3193
▁takdir	-10.3194
mıyorum	-10.3197
▁bulunmak	-10.32
iyorsunuz	-10.3201
▁düşme	-10.3202
▁Basın	-10.3205
▁kaba	-10.3206
▁milletin	-10.321
▁kü	-10.3213
▁parlak	-10.322
stik	-10.322
tum	-10.3222
▁arasına	-10.3222
▁Mücadele	-10.3223
▁evine	-10.3227
▁bizlere	-10.3229
▁hareketi	-10.3232
hit	-10.3233
▁Sıra	-10.3233
▁Zira	-10.3242
▁çapında	-10.3246
.10	-10.3247
▁emek	-10.3251
▁Ger	-10.3254
ld	-10.3262
▁öneri	-10.3264
▁Takım	-10.3266
▁ilerleme	-10.3269
▁Kadınlar	-10.327
▁hatır	-10.327
▁ih	-10.3271
dılar	-10.3272
▁tamir	-10.3278
▁Evi	-10.3278
TL	-10.3279
▁kıyı	-10.3282
▁mesajı	-10.3283
▁Cam	-10.3283
▁Günlük	-10.3285
rü	-10.3286
▁edeceğiz	-10.3287
▁ahşap	-10.3287
57	-10.3294
▁değişiklikler	-10.3299
▁dans	-10.33
▁besin	-10.3302
ST	-10.3306
ife	-10.3308
lerinize	-10.3309
▁yüzyıl	-10.331
gh	-10.3312
▁ilgilen	-10.3314
pınar	-10.3315
▁direk	-10.3315
ılmaz	-10.3316
▁SA	-10.3318
▁yüzlerce	-10.3323
▁teklifi	-10.3328
ıyorlar	-10.333
İŞ	-10.333
▁onur	-10.333
▁bilinç	-10.3332
nizle	-10.3339
▁sanal	-10.3339
lıyorum	-10.334
▁alana	-10.3342
dro	-10.3342
▁firmaların	-10.3344
▁eleman	-10.3344
▁alabilir	-10.3347
▁yağı	-10.335
▁İm	-10.3353
▁adamın	-10.3353
▁Terör	-10.3356
▁attığı	-10.3357
▁Toplum	-10.3358
resi	-10.336
▁Çift	-10.3361
▁Kanal	-10.3364
▁Geçtiğimiz	-10.3365
▁kayıtlı	-10.3366
▁uyarınca	-10.3368
▁yapıyoruz	-10.3368
▁fiyatlar	-10.3371
▁yolları	-10.3371
emi	-10.3373
▁kalması	-10.3373
▁vakti	-10.3377
▁Jandarma	-10.3383
OK	-10.3386
▁yazarı	-10.339
IK	-10.339
▁Hanım	-10.339
▁Dairesi	-10.3396
▁akademik	-10.3398
▁65	-10.34
▁etrafında	-10.34
▁sey	-10.34
▁masaj	-10.3402
▁olduğunda	-10.3405
mus	-10.3409
▁Balıkesir	-10.3411
▁isterim	-10.3417
▁düzenlenecek	-10.3419
diğinde	-10.3421
▁bilin	-10.3421
dük	-10.3423
▁sü	-10.3431
▁bay	-10.3432
▁tema	-10.3436
bak	-10.3438
▁Maç	-10.3442
▁rüzgar	-10.3443
▁Ada	-10.3444
▁değişimi	-10.3445
▁alınacak	-10.3447
2)	-10.345
▁Yorum	-10.345
▁sp	-10.3451
NE	-10.3454
▁değerlendiril	-10.3456
▁BM	-10.3458
▁Ordu	-10.3461
▁günleri	-10.3462
▁burs	-10.3464
▁birlik	-10.3464
▁Manisa	-10.3467
▁Bebek	-10.347
▁Çocuklar	-10.3471
47	-10.3472
▁altyapı	-10.3475
name	-10.3476
▁yeter	-10.3482
88	-10.3483
▁sorunun	-10.3484
▁gelmiştir	-10.3484
▁kararlı	-10.3488
▁maddeler	-10.3492
▁hassas	-10.3494
▁durumun	-10.3498
▁getiriyor	-10.3499
madığı	-10.35
▁komut	-10.35
▁08	-10.3501
üre	-10.3501
▁ettiğiniz	-10.3502
▁zirve	-10.3502
▁dokun	-10.3502
▁kendileri	-10.3505
▁zam	-10.3505
▁yumuşak	-10.3517
▁yönlendir	-10.3518
▁tanış	-10.3519
ekli	-10.3524
▁38	-10.3525
▁eşliğinde	-10.353
▁manevi	-10.3533
▁Ru	-10.3541
▁herkesi	-10.3541
96	-10.3541
LIK	-10.3542
▁istikrar	-10.3544
▁savcı	-10.3549
malar	-10.3552
▁Savunma	-10.3552
eceğim	-10.3552
▁sağladığı	-10.3553
▁istedim	-10.3557
▁ekle	-10.3558
yn	-10.3559
ırlar	-10.3559
▁Beş	-10.3562
▁yürürlüğe	-10.3562
▁edici	-10.3563
▁yor	-10.3567
▁75	-10.3568
95	-10.3568
▁Yağ	-10.3569
ebil	-10.3571
▁Yasa	-10.3574
▁açılması	-10.3575
86	-10.3578
▁Lu	-10.3579
mekteyiz	-10.358
▁vefat	-10.3584
ımızı	-10.3587
imizde	-10.3594
sever	-10.3594
▁maliyeti	-10.3595
▁Sistemleri	-10.3596
▁öğrencilere	-10.3599
▁Metin	-10.3599
▁bozul	-10.3602
▁9.	-10.3604
▁bildiği	-10.3608
▁bulur	-10.361
▁kavramı	-10.3615
▁kaçak	-10.3616
▁duyarlı	-10.3617
amadığı	-10.362
:)	-10.362
▁rezervasyon	-10.3621
▁oranda	-10.3621
▁geldiğinde	-10.3622
▁ilanları	-10.3623
▁katkıda	-10.3625
49	-10.3626
▁kişiyi	-10.3632
▁eğlen	-10.3641
▁yitir	-10.3642
▁yardımı	-10.3643
luğunu	-10.3647
▁komisyon	-10.3647
▁işletim	-10.365
▁ettiler	-10.3651
▁mesleki	-10.3652
▁Sağlığı	-10.3654
▁çekin	-10.3655
nizden	-10.3656
▁Aday	-10.3658
▁Hangi	-10.3659
▁Yaklaşık	-10.3659
▁400	-10.366
▁Sol	-10.366
▁mes	-10.3661
TM	-10.3663
▁sevme	-10.3665
▁artışı	-10.3666
▁Fiyat	-10.367
▁mevzuat	-10.3672
▁Sun	-10.3674
▁adıyla	-10.3674
▁evet	-10.3678
▁tarafında	-10.368
▁zararlı	-10.3684
▁Oyunu	-10.3684
▁Bolu	-10.3688
▁arkadaşım	-10.3691
▁cinayet	-10.3691
▁Kaç	-10.3692
▁şans	-10.3698
▁karşımıza	-10.3701
▁Hotel	-10.3703
▁fonksiyon	-10.3705
▁kalıp	-10.3706
emeyen	-10.3707
▁düzeni	-10.3708
likten	-10.3708
lanmaktadır	-10.3711
▁bacak	-10.3713
hil	-10.3715
Kur	-10.3717
▁buyur	-10.372
▁sabır	-10.3724
▁hedefi	-10.3734
▁sürpriz	-10.3736
▁2005	-10.3738
lip	-10.3743
▁Dizi	-10.3744
▁arşiv	-10.3749
▁düşüş	-10.3751
▁ismini	-10.3751
▁suyun	-10.3751
▁kor	-10.3754
▁Konseyi	-10.3754
luyor	-10.3756
leyebilir	-10.3757
▁Fo	-10.376
larımı	-10.3761
▁İsti	-10.3761
▁giyim	-10.3765
▁Arkadaş	-10.3767
ılım	-10.377
▁olmanın	-10.3772
▁kalacak	-10.3774
▁hükmü	-10.3776
▁Üstelik	-10.3776
şim	-10.3776
mıştım	-10.3779
iyo	-10.3779
▁Hat	-10.3784
liğinde	-10.3786
▁kaya	-10.3789
▁Haz	-10.3791
▁filmin	-10.3796
âh	-10.3803
▁HD	-10.3804
▁sex	-10.3806
▁cennet	-10.3806
IL	-10.3807
▁gençler	-10.3808
▁öğrenmek	-10.3808
▁göl	-10.3809
ty	-10.3809
▁ikisi	-10.3809
▁açıldı	-10.3812
▁bulundur	-10.3812
.[	-10.3815
▁söylem	-10.3816
▁haftada	-10.3818
▁Ac	-10.3823
mle	-10.3824
▁sahte	-10.3831
▁güçleri	-10.3832
▁Motor	-10.3833
▁öğrenim	-10.3836
▁denk	-10.3836
▁başlık	-10.3838
▁şunu	-10.3839
▁Konut	-10.3839
yalım	-10.3841
▁Suudi	-10.3847
▁konulu	-10.3854
liğinin	-10.3855
▁psikolojik	-10.386
▁Bakım	-10.3862
▁belirti	-10.3862
▁ayrıntılı	-10.3862
▁Haberleri	-10.3862
▁Orhan	-10.3866
▁dışındaki	-10.3867
aklı	-10.3871
▁izleyici	-10.3875
▁tazminat	-10.3876
SO	-10.388
▁kullanılarak	-10.3885
ril	-10.3886
▁tok	-10.3892
▁girer	-10.3893
▁kadrosu	-10.3893
▁(2	-10.3894
sıdır	-10.3895
▁oluşturmak	-10.3895
▁Ju	-10.3898
▁istenen	-10.3899
kül	-10.3901
▁Selçuk	-10.3904
▁ab	-10.3904
▁derken	-10.3906
48	-10.3907
▁anayasa	-10.3909
▁dışına	-10.3913
▁Mühendisliği	-10.3913
kor	-10.3916
▁çeşitleri	-10.3916
):	-10.3917
▁Bakanlık	-10.392
▁bunlara	-10.3924
malıyız	-10.3929
muyor	-10.393
▁gerçekleşti	-10.3931
▁birim	-10.3932
▁bakar	-10.3934
▁konum	-10.3935
▁yapılabilir	-10.3935
▁tasarruf	-10.3936
lor	-10.3937
ebilmektedir	-10.3937
▁bizler	-10.3937
▁temizleme	-10.3941
▁Hareket	-10.3944
▁öte	-10.3947
▁Mac	-10.3951
▁sözler	-10.3952
▁üretil	-10.3952
fl	-10.3953
▁duruyor	-10.3953
▁asit	-10.3958
ettin	-10.3959
▁kuruluşu	-10.3959
▁başvurusu	-10.396
▁alanına	-10.3961
▁imkân	-10.3963
▁vereceği	-10.3964
▁Perşembe	-10.3964
▁Hayvan	-10.3965
▁DE	-10.3969
▁vatandaşların	-10.3971
▁bileti	-10.3976
▁Işık	-10.3978
▁sayısının	-10.3981
▁lüks	-10.3981
▁kare	-10.3982
▁malzemeler	-10.3983
▁gelişen	-10.3984
DEN	-10.3984
▁getirir	-10.3984
▁TE	-10.3987
▁bilmiyorum	-10.3988
lenmiştir	-10.3989
▁amaçla	-10.3991
IZ	-10.3994
▁ayakta	-10.3997
▁çöp	-10.4001
▁araştırmalar	-10.4001
▁ilişkisi	-10.4002
▁geçmesi	-10.4003
▁egzersiz	-10.4004
▁beklenti	-10.4004
eğin	-10.4006
▁kalıyor	-10.4007
cam	-10.4008
▁hissetme	-10.4008
▁kapsamlı	-10.4009
82	-10.4011
▁blok	-10.4014
▁Kış	-10.4015
mel	-10.4017
melisiniz	-10.4017
▁işle	-10.4018
▁gidecek	-10.4022
▁2-	-10.4023
▁diyet	-10.4023
▁Selam	-10.4024
▁ham	-10.4024
▁örtü	-10.4027
▁yetiş	-10.4031
▁Pek	-10.4033
▁dir	-10.4034
▁250	-10.4039
▁Yok	-10.4039
▁market	-10.4042
chi	-10.4043
▁çalışmalarına	-10.4043
▁kurdu	-10.4045
▁cadde	-10.4049
▁yayımlanan	-10.4053
▁alanlarında	-10.4056
▁başkenti	-10.4057
▁dönemlerde	-10.4058
cal	-10.4058
mızdan	-10.4059
▁Kalkınma	-10.4064
▁işveren	-10.4066
▁pasta	-10.4069
▁arasından	-10.4072
▁Borsa	-10.4077
▁ihtimali	-10.4079
+1	-10.4085
▁aksesuar	-10.4087
▁Kullan	-10.4091
▁York	-10.4092
▁kral	-10.4092
▁konuyu	-10.4093
▁kongre	-10.4094
▁ölçüm	-10.4096
suzluk	-10.4099
işi	-10.4101
▁kapasitesi	-10.4109
▁bilgilere	-10.4109
▁atama	-10.411
▁yaptığınız	-10.411
doğan	-10.411
▁senaryo	-10.4113
▁Uğur	-10.4113
▁emri	-10.4113
▁etmez	-10.4117
▁devleti	-10.4117
▁yürüt	-10.4121
kent	-10.4121
▁sunum	-10.4124
▁şirketler	-10.4124
▁kullanılma	-10.4124
▁Mas	-10.4128
▁alakalı	-10.4129
▁karakteri	-10.4134
▁kanat	-10.4138
▁görünce	-10.4138
77	-10.4141
EC	-10.4145
OP	-10.4146
▁hitap	-10.4147
▁geride	-10.4147
hr	-10.4151
▁buluştur	-10.4153
▁muhalefet	-10.4157
▁tahsil	-10.4158
▁uzan	-10.4159
▁şartlar	-10.4159
sün	-10.416
▁verilmiştir	-10.4163
▁vizyon	-10.4164
▁bilgilerin	-10.4166
▁detayları	-10.4166
▁yapılmıştır	-10.417
lenmektedir	-10.4172
▁port	-10.4173
▁evrak	-10.4173
▁kiralık	-10.4173
▁Birleşik	-10.4174
▁Yardımcı	-10.4174
▁Salı	-10.4175
▁aşamasında	-10.4178
▁TÜ	-10.4179
▁Com	-10.418
▁İŞ	-10.4181
▁gününde	-10.4185
▁birimleri	-10.4187
▁yürütülen	-10.4188
▁almıştır	-10.419
▁yaşamını	-10.419
▁hareketli	-10.419
▁ri	-10.4191
▁alırken	-10.4191
▁başladık	-10.4193
nuzu	-10.4193
▁Mimar	-10.4198
ski	-10.4198
-20	-10.42
▁sıcaklığı	-10.4203
sul	-10.4208
▁tüketimi	-10.4211
▁yağış	-10.4211
ub	-10.4213
▁gram	-10.4213
▁silin	-10.4213
▁Ortak	-10.4214
ang	-10.4216
▁kuralları	-10.4218
▁birimi	-10.4219
▁özgü	-10.422
▁resimleri	-10.4226
▁Sözleşme	-10.4226
ımıza	-10.4238
▁harca	-10.4238
▁maden	-10.4238
▁ağırlık	-10.424
▁aza	-10.4242
▁kaygı	-10.4248
▁tra	-10.425
▁bat	-10.4252
▁canlandır	-10.4253
▁şirketlerin	-10.4253
▁satır	-10.4254
▁İlçesi	-10.4256
kça	-10.4256
▁kullanıyor	-10.4257
tığını	-10.4258
▁mühendis	-10.4259
▁kadını	-10.4259
▁Örnek	-10.4259
▁laf	-10.4264
▁verdim	-10.4266
▁tablet	-10.4266
▁ze	-10.4268
▁enfeksiyon	-10.4269
▁verdik	-10.4274
▁karanlık	-10.4276
▁tutuklu	-10.4276
▁vücudun	-10.4277
vat	-10.428
ong	-10.4281
▁çiftçi	-10.4285
-10	-10.4285
▁hayatına	-10.429
▁Müzesi	-10.4291
▁sınavı	-10.4293
▁aldık	-10.4293
▁taksi	-10.4298
▁Dar	-10.4301
luğun	-10.4302
▁dü	-10.4303
▁sonsuz	-10.4303
ulduğu	-10.4304
▁Nu	-10.4306
2015	-10.4309
67	-10.431
71	-10.4311
▁kemik	-10.4312
▁Â	-10.4312
▁ruhsat	-10.4313
acaksınız	-10.4314
ülü	-10.4315
▁rekor	-10.4317
▁Belir	-10.4317
▁beraberinde	-10.4318
▁gr	-10.4321
▁öğrenildi	-10.4321
▁kaybeden	-10.4323
▁37	-10.4326
▁devir	-10.4328
▁uyuşturucu	-10.4331
▁Mahkeme	-10.4335
ağın	-10.4337
meniz	-10.4338
▁ülkelerde	-10.4341
▁Sizin	-10.4341
fes	-10.4345
▁ila	-10.4345
▁eseri	-10.4351
▁odaları	-10.4352
▁farklılık	-10.4354
ırım	-10.4354
▁yetkilileri	-10.4356
▁Kav	-10.4359
▁sistemin	-10.4359
▁organize	-10.436
▁istatistik	-10.436
digi	-10.4362
▁olmuyor	-10.4364
▁Medya	-10.4365
▁direkt	-10.4365
▁unutmayın	-10.4372
▁Arı	-10.4372
▁sorumluluğu	-10.4373
▁bizimle	-10.4373
▁bekleyen	-10.4373
An	-10.4375
▁tohum	-10.438
▁aksine	-10.4385
irler	-10.4386
▁stok	-10.4386
▁getirilmesi	-10.4388
▁Size	-10.4391
▁sim	-10.4395
kür	-10.4395
▁Ala	-10.4397
▁gerilim	-10.4398
▁patlama	-10.4398
▁bölgeye	-10.4399
▁yorumlar	-10.4403
▁kayna	-10.4404
▁parçaları	-10.4405
59	-10.4405
▁Herkes	-10.4406
▁emeği	-10.4413
▁pahalı	-10.4413
▁seviyorum	-10.4413
»	-10.4414
68	-10.4416
▁per	-10.4418
▁Yönetmelik	-10.4419
▁boru	-10.4423
▁gözleri	-10.4426
▁BÖLÜM	-10.4426
▁seçil	-10.4427
▁toplantısında	-10.4427
fon	-10.4431
81	-10.4432
▁ordusu	-10.4433
▁öğrencisi	-10.4435
▁kutlama	-10.4437
▁albümü	-10.4439
▁manzara	-10.4439
▁bilmiyor	-10.4444
▁ruhu	-10.4448
▁sürüyor	-10.4449
▁anlatıyor	-10.445
▁kamuoyu	-10.4451
cuk	-10.4451
66	-10.4451
▁oynadığı	-10.4452
▁bulan	-10.4452
▁yo	-10.4452
▁görevini	-10.4454
shi	-10.4458
▁bulduğu	-10.4462
▁02	-10.4464
▁onarım	-10.4465
1)	-10.4466
Ko	-10.4469
fen	-10.4471
▁metrekare	-10.4475
▁koyun	-10.4476
▁görülmektedir	-10.4478
▁plastik	-10.4482
cisi	-10.4483
▁Mali	-10.4485
▁Sohbet	-10.4485
▁salonu	-10.4486
▁03	-10.4487
▁devrim	-10.4487
▁dökül	-10.4489
▁dostu	-10.4489
▁mo	-10.4491
▁kural	-10.4492
▁doktora	-10.4492
kullanılmaktadır	-10.4495
▁sayfasında	-10.4498
▁gördük	-10.4498
▁ortasında	-10.4504
▁Cami	-10.4504
▁galibiyet	-10.4507
100	-10.4509
▁açan	-10.451
gil	-10.451
▁macera	-10.4515
▁geçirdiği	-10.4515
▁peynir	-10.4516
▁desen	-10.4517
▁kalabalık	-10.4518
▁sıralama	-10.4519
arım	-10.452
amadı	-10.4521
▁kafe	-10.4522
▁kablo	-10.4523
sur	-10.4525
landığını	-10.4527
64	-10.4527
▁za	-10.4533
▁teker	-10.4535
meyeceği	-10.4537
▁oturum	-10.4539
▁Mesela	-10.4546
▁sanık	-10.4551
▁plana	-10.4552
▁cihazlar	-10.4555
fir	-10.4556
▁yaşı	-10.4557
demir	-10.4561
▁gazetesi	-10.4564
▁sevdiği	-10.4567
▁istemiyor	-10.4567
▁anlamında	-10.4568
▁Mes	-10.4568
▁başlamıştır	-10.4574
eyim	-10.4574
▁kısaca	-10.4576
vr	-10.4577
▁İspanya	-10.458
▁Rize	-10.4581
▁teknolojik	-10.4581
▁raf	-10.4582
▁yetersiz	-10.4582
▁altındaki	-10.4584
▁ıs	-10.4585
▁değişken	-10.4586
▁listesi	-10.4586
iki	-10.4587
▁ro	-10.4587
▁nitelik	-10.4589
89	-10.4592
▁dersleri	-10.4592
▁Q	-10.4593
▁derdi	-10.4595
▁etkinlikleri	-10.4599
iyorlar	-10.4604
▁finansal	-10.4604
ulur	-10.4606
▁ışığı	-10.461
▁hangisi	-10.461
İstanbul	-10.4611
▁ÜNİVERSİTESİ	-10.4613
▁Görüntü	-10.4614
▁yaptığını	-10.4615
▁Londra	-10.4616
200	-10.4616
ilmektedir	-10.4619
▁Hay	-10.4623
▁hatırla	-10.4624
memesi	-10.4625
burg	-10.4626
▁Sonuç	-10.4631
▁bildirildi	-10.4642
▁gözden	-10.4642
zon	-10.4643
▁liman	-10.4644
▁evli	-10.4645
▁dersi	-10.4647
▁Sin	-10.4647
yolu	-10.4649
▁kalmak	-10.465
▁ap	-10.4652
stra	-10.4654
▁eşlik	-10.4655
▁çalıştı	-10.4659
soy	-10.466
▁İlişkin	-10.466
▁kuruluşları	-10.4661
ði	-10.4663
6)	-10.4663
▁hu	-10.4666
▁Wi	-10.4671
leştirilmesi	-10.4673
▁Kartal	-10.4678
▁belgeler	-10.4682
▁mini	-10.4682
▁Ruh	-10.4682
▁kitapları	-10.4683
▁DA	-10.4685
▁İnan	-10.4689
▁hayatında	-10.4689
▁koyma	-10.4691
▁yılına	-10.4691
▁dönme	-10.4691
▁hakem	-10.4692
▁kişilere	-10.4694
▁sizden	-10.4695
▁denilen	-10.4696
Q	-10.4697
▁Çiçek	-10.47
▁efsane	-10.47
▁bizzat	-10.47
▁rakip	-10.4702
▁yolculuğu	-10.4705
▁borcu	-10.4705
▁vali	-10.4707
▁kategorisinde	-10.4708
ısı	-10.4708
He	-10.4708
▁koyu	-10.4708
ag	-10.4709
▁sınırı	-10.4711
▁eri	-10.4711
zo	-10.4712
▁riski	-10.4715
▁duyar	-10.4716
▁öğe	-10.4719
▁Mor	-10.472
imde	-10.4724
gör	-10.4724
▁Ürünleri	-10.4726
93	-10.4727
▁faktör	-10.4727
▁Cem	-10.4728
gra	-10.4728
yacağı	-10.4732
osu	-10.4732
▁anlamlı	-10.4734
▁seviyede	-10.4735
▁oyunun	-10.4735
▁aydın	-10.4735
.(	-10.4738
▁çözümler	-10.4739
▁benimle	-10.474
ÜN	-10.4742
▁girişimci	-10.4744
▁şeye	-10.4745
▁belirlenmesi	-10.4748
▁koruyucu	-10.475
▁Evden	-10.4752
▁bayrak	-10.4754
▁tab	-10.4756
▁yapacağı	-10.4761
▁haberler	-10.4762
▁beyler	-10.4765
42	-10.4768
▁devreye	-10.4769
▁Tedavi	-10.4774
▁tar	-10.4775
▁durumlar	-10.4775
ort	-10.4777
▁İşçi	-10.4783
lüğünü	-10.4784
56	-10.4784
▁odaklı	-10.4787
▁davası	-10.4794
▁Medi	-10.4795
▁düzgün	-10.48
▁ihti	-10.48
▁karşılıklı	-10.4801
▁Kızıl	-10.4805
dis	-10.4805
▁Bazen	-10.4805
▁oynanan	-10.4806
▁oluşturur	-10.4807
▁Çalış	-10.4808
▁düzenlendi	-10.481
▁sığın	-10.4811
▁Kom	-10.4811
▁edenler	-10.4812
43	-10.4814
▁tu	-10.4815
▁tarihine	-10.4816
▁Vergi	-10.4818
▁cesaret	-10.482
▁sizlerin	-10.4823
▁forum	-10.4824
key	-10.4827
lit	-10.4829
▁Ünlü	-10.4829
▁sektörde	-10.4833
▁noktaları	-10.4833
▁ortada	-10.4834
84	-10.484
▁Kategori	-10.484
▁şair	-10.4841
▁mağdur	-10.4845
▁terörist	-10.4846
▁kapasite	-10.485
zim	-10.4854
▁zeka	-10.4855
▁42	-10.4856
▁mektup	-10.4857
▁kurulmuş	-10.4862
▁seyirci	-10.4865
▁belgeleri	-10.4866
▁eşsiz	-10.487
▁geçirmek	-10.4871
kul	-10.4872
matik	-10.4873
▁sağladı	-10.4874
▁inancı	-10.4874
▁Star	-10.4877
▁Tatil	-10.4877
Be	-10.4878
▁takibi	-10.4879
▁zorundadır	-10.4881
▁beceri	-10.4881
▁Arabistan	-10.4883
▁tutun	-10.4887
▁yaralandı	-10.489
mam	-10.4893
87	-10.49
▁Esas	-10.4903
▁taşıyor	-10.4903
▁ederler	-10.4904
▁diyorum	-10.4905
▁çalıştık	-10.4906
▁ölç	-10.4909
▁go	-10.4912
zir	-10.4913
▁annem	-10.4914
▁yollar	-10.4916
▁çak	-10.4916
▁asgari	-10.4921
sit	-10.4923
üncü	-10.4923
▁Yu	-10.4924
▁değişen	-10.4929
▁Kerim	-10.4934
▁Uzmanı	-10.4935
▁AR	-10.4938
▁Sır	-10.4939
list	-10.494
▁dinamik	-10.4941
97	-10.4942
nızdan	-10.4944
istik	-10.4945
▁sağlamaktadır	-10.4946
▁verilmiş	-10.4949
▁taksit	-10.4952
▁yakıt	-10.4952
port	-10.4952
▁tartış	-10.4953
▁kazanmak	-10.4953
▁estetik	-10.4955
MI	-10.4959
▁ülkeye	-10.4962
▁çıkıp	-10.4963
gram	-10.4964
▁anlamak	-10.4965
▁sözleşmesi	-10.4966
▁kuruluşlar	-10.4967
▁Radyo	-10.4968
▁sorunların	-10.4968
ön	-10.4969
▁ısrar	-10.4974
▁protein	-10.4974
▁hay	-10.4976
▁örneğin	-10.4977
YK	-10.498
▁adaylar	-10.498
▁Tak	-10.4981
SE	-10.4981
▁slogan	-10.4982
▁ocak	-10.4983
▁hukuki	-10.4983
▁yapmaktadır	-10.4985
▁mimari	-10.4986
▁görüşmeler	-10.4988
69	-10.4992
▁protesto	-10.4994
▁İhale	-10.4994
▁verildiği	-10.4995
VA	-10.4996
▁Koruma	-10.4996
▁Arka	-10.4997
▁virüs	-10.4998
▁Yahudi	-10.5
▁oluş	-10.5001
ebileceğiniz	-10.5003
▁bebeği	-10.5006
▁sorgulama	-10.5007
▁sel	-10.5009
▁Hastane	-10.501
▁teşkil	-10.5013
mem	-10.5014
▁motoru	-10.5016
▁olmayacak	-10.5017
▁çocuklara	-10.5021
▁Doğal	-10.5023
▁paralel	-10.5023
▁um	-10.5024
▁ağırlığı	-10.5026
lah	-10.5027
kil	-10.5027
▁boyun	-10.5028
ılmasını	-10.5028
gon	-10.5029
▁doğur	-10.5031
▁alınmış	-10.5031
–	-10.5032
▁atölye	-10.5034
▁etmekte	-10.5035
▁sorunsuz	-10.5035
▁44	-10.5035
ışma	-10.5037
▁cevabı	-10.504
▁Gazetesi	-10.504
ibe	-10.5041
▁52	-10.5043
▁Bin	-10.5044
say	-10.5045
▁teminat	-10.5048
▁Komutanlığı	-10.5052
▁rahatsızlık	-10.5052
▁Hükümet	-10.5053
▁kitaplar	-10.5054
▁aydınlatma	-10.5055
▁set	-10.5056
▁tv	-10.5057
rif	-10.5058
▁kül	-10.5058
▁Plan	-10.506
pt	-10.506
▁biliyoruz	-10.5061
▁saldır	-10.5065
imin	-10.5066
▁hü	-10.5066
▁görünme	-10.5066
▁biliyorum	-10.5067
▁Kart	-10.5067
▁beton	-10.5069
▁benden	-10.5073
▁tekne	-10.5074
▁bulut	-10.5074
ümü	-10.5074
▁Dergisi	-10.5075
▁Hacı	-10.5076
▁kısmını	-10.5076
▁başlama	-10.5077
▁paylaşmak	-10.5078
▁Kuvvetleri	-10.5082
▁zamanla	-10.5084
▁öncü	-10.5084
▁tanışma	-10.5085
▁gecesi	-10.5085
▁uygula	-10.5087
▁içerir	-10.5088
▁demiş	-10.5088
▁Hep	-10.5089
▁Efendi	-10.5089
ika	-10.5092
▁Kurt	-10.5092
▁yazısı	-10.5093
▁kendisinin	-10.5093
ray	-10.51
▁ucu	-10.5101
▁Kes	-10.5102
şu	-10.5104
DER	-10.5105
▁mikro	-10.5106
▁bayi	-10.5107
▁Ayşe	-10.5109
▁Kadıköy	-10.5111
▁tutmak	-10.5112
larınıza	-10.5114
▁1000	-10.5115
iyat	-10.5117
▁sır	-10.5119
▁hakkındaki	-10.512
▁sistemini	-10.5122
▁siyasal	-10.5122
▁fırın	-10.5123
ciliği	-10.5124
▁bedava	-10.5129
sunun	-10.5131
▁potansiyel	-10.5132
ses	-10.5132
▁İnsanlar	-10.5132
▁gönüllü	-10.5133
▁problemi	-10.5136
54	-10.514
▁pan	-10.5142
▁edeceği	-10.5142
▁zafer	-10.5143
▁Belge	-10.5144
:30	-10.5144
▁logo	-10.5145
▁2004	-10.5148
▁or	-10.5148
▁gündemi	-10.5148
▁ülkemiz	-10.5151
▁hissi	-10.5153
nes	-10.5153
▁Model	-10.5157
72	-10.5157
ASI	-10.5158
▁merdiven	-10.5158
▁saatte	-10.5159
kış	-10.5159
▁yaşar	-10.516
▁kurduğu	-10.516
▁üzül	-10.5162
▁piyasaya	-10.5164
▁verebilir	-10.5164
▁Şah	-10.5167
▁ülkemizin	-10.5168
BB	-10.517
▁sistemine	-10.5171
▁ot	-10.5174
▁milletvekilleri	-10.5176
▁vazgeçilmez	-10.5176
alan	-10.5178
▁Sitesi	-10.5181
▁insana	-10.5183
▁soğu	-10.5183
ktif	-10.5185
▁anket	-10.5189
yak	-10.519
▁sahipleri	-10.519
maktan	-10.5191
▁mekân	-10.5192
94	-10.5194
▁okuyucu	-10.5198
▁kanalı	-10.5198
▁47	-10.5202
▁kelimesi	-10.5204
▁ülkeleri	-10.5211
uzu	-10.5213
▁dekorasyon	-10.5214
▁referans	-10.5215
▁çevresinde	-10.522
▁hâl	-10.522
▁Lise	-10.5222
▁medyum	-10.5227
▁hükümleri	-10.5228
bü	-10.5232
▁muh	-10.5232
▁olayın	-10.5232
▁Ortadoğu	-10.5232
▁kurgu	-10.5234
▁Sü	-10.5235
▁karşın	-10.5235
meliyiz	-10.5237
sındaki	-10.5237
▁başla	-10.5238
▁kolaylıkla	-10.5245
▁doğdu	-10.5245
▁randevu	-10.5246
ura	-10.5248
▁etkiler	-10.5248
▁yarısı	-10.5249
▁dünyasında	-10.5249
▁olmakla	-10.5249
▁irade	-10.525
▁Ste	-10.525
▁ayrıntı	-10.5251
▁Renk	-10.5253
▁Kuru	-10.5255
AV	-10.5255
▁Şarkı	-10.5255
▁işini	-10.5256
▁edebiyat	-10.5262
▁vatandaşlarımız	-10.5263
▁gönderme	-10.5263
▁açıklandı	-10.5263
92	-10.5265
▁itibarıyla	-10.5266
▁çekmek	-10.5266
▁2002	-10.5268
▁başlaması	-10.5269
▁Bor	-10.5271
ılacaktır	-10.5276
▁girmesi	-10.5277
▁gündüz	-10.5278
ğu	-10.5279
▁düşer	-10.5279
que	-10.5279
▁metro	-10.5282
▁Canlı	-10.5286
UT	-10.5286
▁yerlere	-10.5287
▁içerisine	-10.5288
▁Samsung	-10.5289
▁sız	-10.5289
▁taraftar	-10.5289
▁çabuk	-10.5292
▁@	-10.5296
▁Yayınları	-10.5296
▁medyada	-10.5296
▁krizi	-10.5298
▁Hindistan	-10.5298
üşü	-10.53
▁mensupları	-10.5303
▁olmanız	-10.5308
▁TA	-10.5309
Dr	-10.531
▁çektiği	-10.5316
▁hastalıklar	-10.5316
▁değişme	-10.5317
▁uygulamaya	-10.5318
▁12.	-10.5323
▁Sınavı	-10.5324
▁verilmektedir	-10.5324
▁sever	-10.5331
▁bulunduğunu	-10.5331
Ar	-10.5332
▁kaşığı	-10.5332
▁Yönetici	-10.5333
▁istediğini	-10.5333
▁geçtiği	-10.5333
▁emir	-10.5333
.30	-10.5333
▁bulunul	-10.5337
▁Sinema	-10.5337
▁3-	-10.5342
▁bilgilerini	-10.535
▁format	-10.5351
▁filmleri	-10.5351
63	-10.5353
▁yarattığı	-10.5353
▁mor	-10.5355
▁ardı	-10.5358
▁tatmin	-10.5359
▁yaralı	-10.5359
▁Oyunları	-10.5362
▁evre	-10.5362
▁testi	-10.5363
▁başarılar	-10.5367
▁hepimiz	-10.5367
▁sayfası	-10.5368
▁uygulanır	-10.5373
▁merkezleri	-10.5376
▁Hakları	-10.538
▁görmüş	-10.538
▁göm	-10.5381
▁değilim	-10.5382
85	-10.5383
YO	-10.5385
▁ER	-10.5386
▁Doktor	-10.5389
▁ayrıldı	-10.5394
▁hizmete	-10.54
sion	-10.5403
mizle	-10.5404
▁hocam	-10.5404
▁ilaçlar	-10.5404
▁Acil	-10.5408
▁almayı	-10.541
▁Eli	-10.5411
▁kg	-10.5412
▁tev	-10.5412
uc	-10.5413
▁uydu	-10.5414
şit	-10.5417
▁ker	-10.5418
▁hastalıkları	-10.5421
ört	-10.5423
▁kapak	-10.5423
layabilir	-10.5426
HA	-10.5427
▁olayları	-10.5427
RO	-10.5428
▁sektörünün	-10.5428
▁06	-10.5431
▁yaşamı	-10.5432
▁göze	-10.5436
▁orijinal	-10.544
▁Öl	-10.5444
52	-10.5445
▁yem	-10.5446
▁Sokak	-10.5449
▁Masa	-10.5449
▁leke	-10.5452
▁seyred	-10.5455
▁geriye	-10.5458
▁geliştirmek	-10.5463
▁zorla	-10.5463
▁Un	-10.5463
▁kızın	-10.5466
▁yas	-10.5471
▁temsilcisi	-10.5471
▁Fuarı	-10.5473
▁çıkarak	-10.5474
▁kanseri	-10.5475
▁değerler	-10.5475
▁biber	-10.5476
▁Mekan	-10.5479
öv	-10.5482
▁Ülkemizde	-10.5482
▁şampiyon	-10.5485
▁ortamında	-10.5487
▁gerekçe	-10.5488
▁Usta	-10.5491
▁hazırlanmış	-10.5493
▁mide	-10.5495
ÜZ	-10.5496
abiliriz	-10.55
▁Hiçbir	-10.5501
▁Trabzonspor	-10.5501
▁makinası	-10.5503
uldu	-10.5505
geç	-10.5505
undan	-10.5507
▁sunul	-10.5511
▁Çık	-10.5512
▁konuya	-10.5512
▁istediğim	-10.5513
▁yıllarında	-10.5516
▁aldıkları	-10.5518
58	-10.5523
▁zorlan	-10.5524
▁şarj	-10.5525
▁bunlardan	-10.5532
▁yeterince	-10.5534
▁şimdiden	-10.5535
IS	-10.5537
▁alkol	-10.5538
form	-10.5538
▁yapılarak	-10.5538
▁geçirdi	-10.5539
▁çözül	-10.5539
▁Sayılı	-10.5541
▁İlişkiler	-10.5542
lığının	-10.5548
▁kılın	-10.5548
▁Af	-10.5552
ا	-10.5553
SAN	-10.5555
▁Balık	-10.5556
▁hikayesi	-10.5557
▁olgu	-10.5558
▁tebrik	-10.556
▁hükümeti	-10.5561
lerinizin	-10.5562
allah	-10.5563
▁çıkarmak	-10.5563
▁oynan	-10.5564
▁bekliyoruz	-10.5566
▁ekonomisi	-10.5566
TI	-10.5567
▁Japonya	-10.5567
▁kokusu	-10.5568
▁edecektir	-10.5569
▁haftalık	-10.557
▁kasaba	-10.5572
fik	-10.5572
▁odaklan	-10.5572
▁çap	-10.5573
vir	-10.5578
Er	-10.558
▁tutku	-10.5581
▁gelişmesi	-10.5581
▁Makine	-10.5582
▁seviyesinde	-10.5584
tıcı	-10.5584
▁Valisi	-10.5585
▁Giresun	-10.5588
▁medeniyet	-10.5593
▁kapsamda	-10.5594
▁başarısız	-10.5594
▁hepsini	-10.5595
pro	-10.5596
▁fotoğrafları	-10.5598
▁nin	-10.5598
▁Beni	-10.5605
gur	-10.561
LO	-10.5612
dor	-10.5613
▁Çağ	-10.5614
▁vekil	-10.5616
▁müdür	-10.5616
▁olurdu	-10.5617
▁Gir	-10.5618
▁st	-10.562
▁Mil	-10.562
▁mod	-10.5621
CA	-10.5623
▁dükkan	-10.5624
▁temsilci	-10.5624
maması	-10.5625
▁geçmek	-10.5625
▁dinleme	-10.5625
▁Microsoft	-10.5627
▁sinyal	-10.5628
▁Instagram	-10.5631
leyeceği	-10.5633
▁turu	-10.5633
▁çalışıyoruz	-10.5634
▁Bülent	-10.5636
hur	-10.5637
▁yazdı	-10.5637
▁öykü	-10.5642
▁elinden	-10.5646
▁şaşır	-10.5647
▁sekiz	-10.5647
▁okulu	-10.5648
▁okumak	-10.5649
tom	-10.5649
▁duygusal	-10.5651
göz	-10.5652
61	-10.5654
▁yeteneği	-10.5655
▁bizleri	-10.5657
/2	-10.566
▁seminer	-10.5662
▁kayded	-10.5664
▁39	-10.5665
▁okuyan	-10.5669
laşmış	-10.5671
▁Elektronik	-10.5672
▁hafıza	-10.5672
▁katliam	-10.5673
▁vurgulayan	-10.5673
▁kampanyası	-10.5673
▁Azerbaycan	-10.5675
▁Gelir	-10.5677
▁etmiyor	-10.568
▁sah	-10.5682
ction	-10.5686
▁trend	-10.5691
maktır	-10.5695
larımızda	-10.5696
▁Tür	-10.5696
▁akım	-10.5697
▁inşallah	-10.5704
▁Büyü	-10.5705
lıktan	-10.5706
▁ihtiyaçlarını	-10.5707
▁kusur	-10.5707
▁Örgütü	-10.5708
▁geliştirilmesi	-10.5713
▁sikiş	-10.5713
▁eline	-10.5714
fra	-10.5715
51	-10.5717
▁değiştiril	-10.5718
▁bez	-10.5718
▁We	-10.5718
▁41	-10.5722
▁yaşamın	-10.5723
▁Lütfen	-10.5724
▁oraya	-10.5726
▁AD	-10.5727
▁direktör	-10.5731
▁damla	-10.5732
lanmaya	-10.5732
▁geçerek	-10.5733
▁olabileceği	-10.5735
▁misiniz	-10.5739
▁yuva	-10.574
▁Biraz	-10.5743
2013	-10.5745
▁ihraç	-10.5746
▁Yolu	-10.5747
▁Yardım	-10.5747
▁Vatandaş	-10.5747
▁li	-10.5748
▁ağı	-10.5749
gir	-10.575
▁tanrı	-10.5751
▁Aksi	-10.5753
▁gerektir	-10.5755
▁Meydanı	-10.5755
ros	-10.5755
▁belirleme	-10.5757
makla	-10.5757
▁bağır	-10.5758
▁Edirne	-10.5761
▁karşılığı	-10.5763
▁Bilimleri	-10.5765
▁Yara	-10.5766
▁yürüme	-10.5766
▁ettiğimiz	-10.5766
▁barındır	-10.5768
▁plaj	-10.5768
▁kızlar	-10.577
ığı	-10.5771
▁mücadelesi	-10.5772
▁gerçekleştirdi	-10.5772
▁(3)	-10.5772
▁Alanya	-10.5773
▁hormon	-10.5776
▁ikamet	-10.5776
▁olsaydı	-10.5779
▁semt	-10.5783
▁Reklam	-10.5784
▁çorba	-10.5786
▁yerleştiril	-10.5789
▁filtre	-10.5791
▁ittifak	-10.5794
▁Oğuz	-10.5796
▁Devamını	-10.5797
ılmalıdır	-10.5803
▁girmek	-10.581
▁tavan	-10.581
▁limit	-10.5814
▁Tut	-10.5823
▁ihmal	-10.5824
▁yetişkin	-10.5824
▁vadeli	-10.5826
▁Orada	-10.5827
▁heykel	-10.583
söz	-10.5832
▁Camii	-10.5837
atif	-10.5838
▁ambalaj	-10.584
▁ME	-10.5843
▁Sinan	-10.5844
▁disk	-10.5844
daş	-10.5848
lus	-10.5849
▁beklentileri	-10.5849
▁daima	-10.585
▁getiril	-10.5852
▁İçişleri	-10.5853
▁Şeker	-10.5855
bağ	-10.5855
▁Kişisel	-10.5856
▁meselesi	-10.5857
▁okula	-10.5857
▁örnekleri	-10.5858
ari	-10.5861
tri	-10.5862
▁tuvalet	-10.5863
▁peşinde	-10.5866
▁imalat	-10.5866
▁çekil	-10.5869
▁açılışı	-10.5871
▁dilim	-10.5874
▁karşısına	-10.5877
▁programlar	-10.5878
▁posta	-10.588
▁hamile	-10.588
▁izleyen	-10.5881
▁hazırladığı	-10.5884
▁tutuklan	-10.5884
fre	-10.5885
▁bakalım	-10.5886
▁Etkinlik	-10.5895
▁yiyecek	-10.5896
▁Özgür	-10.5898
▁kullanır	-10.59
▁binası	-10.59
▁geçmişte	-10.59
▁operasyonu	-10.5903
▁Şubesi	-10.5905
▁Kad	-10.5906
▁rastlan	-10.5908
▁rota	-10.5909
▁mezunu	-10.5909
dışı	-10.5914
▁Emlak	-10.5915
▁Kongresi	-10.5915
▁rica	-10.5917
▁maddeleri	-10.5918
▁biçimi	-10.5918
▁araçların	-10.5919
▁KO	-10.5921
▁gerekirse	-10.5923
▁ihtimal	-10.5923
masının	-10.5926
Yeni	-10.5926
▁sakat	-10.5926
▁bölgelerde	-10.5926
▁robot	-10.5927
▁uzmanı	-10.5929
▁karın	-10.5931
menin	-10.5933
▁durumunu	-10.5935
▁keyfi	-10.5935
▁İtalyan	-10.5936
▁maddesinde	-10.594
diye	-10.594
▁Değerlendirme	-10.5941
▁yaptırım	-10.5942
▁karşılığında	-10.5943
▁Piyasa	-10.5944
line	-10.5945
▁diploma	-10.5946
tes	-10.5947
▁bağlantısı	-10.5947
▁tezgah	-10.5947
▁başlattı	-10.5947
▁120	-10.5948
▁çıkmak	-10.5948
▁sektörün	-10.5952
▁kütüphane	-10.5952
bre	-10.5956
▁Mini	-10.5958
miştim	-10.5958
▁talimat	-10.5959
▁Onu	-10.596
▁Gider	-10.5961
uyla	-10.5962
ther	-10.5965
▁isyan	-10.5967
▁Hayatı	-10.5968
▁tutum	-10.5968
▁Göl	-10.5968
rar	-10.597
▁2003	-10.5972
▁alet	-10.5973
▁Sim	-10.5974
▁Selim	-10.5974
▁inanılmaz	-10.5974
▁akraba	-10.5974
cel	-10.5974
▁gidiş	-10.5976
▁deli	-10.5977
▁Kuş	-10.5978
bah	-10.5978
▁Yavuz	-10.5979
▁Yeter	-10.598
▁skor	-10.5981
rus	-10.5982
▁oyuncular	-10.5983
▁tavır	-10.5983
▁vicdan	-10.5985
▁53	-10.5985
▁kitabın	-10.5987
▁lezzetli	-10.5991
▁ü	-10.5991
▁olmazsa	-10.5994
▁kullanmaya	-10.5996
▁duyurdu	-10.5996
▁talepleri	-10.5998
▁rakibi	-10.6
▁sığ	-10.6001
medim	-10.6002
psi	-10.6002
amayacağı	-10.6003
▁üreten	-10.6004
▁kek	-10.6005
▁İz	-10.6005
▁Op	-10.6005
bol	-10.6006
ülmesi	-10.6009
▁akla	-10.6015
▁parçalar	-10.6016
▁kaydeden	-10.6018
▁Çözüm	-10.602
▁sürdü	-10.602
▁kaynaklanan	-10.602
▁ağrısı	-10.602
rent	-10.6022
▁Yo	-10.6023
gs	-10.6023
▁sırt	-10.6025
▁Cha	-10.6027
▁bakteri	-10.6027
▁zorlu	-10.603
▁müte	-10.603
▁gölge	-10.6031
▁tarafta	-10.6031
ünüz	-10.6033
▁takı	-10.6033
suna	-10.6036
▁neticesinde	-10.6038
▁nem	-10.6039
▁Has	-10.6039
▁yöre	-10.6042
▁tarihte	-10.6043
▁hayvanlar	-10.6044
▁beklediği	-10.6048
tmek	-10.6056
kir	-10.6056
▁gereklidir	-10.6057
dığında	-10.6058
▁diliyorum	-10.606
▁istenilen	-10.6061
larımızla	-10.6062
▁gelişmeleri	-10.6063
▁saray	-10.6065
ıldığında	-10.6067
Dünya	-10.6067
▁dilekçe	-10.6068
Fi	-10.6069
▁seyir	-10.6071
▁baştan	-10.6072
7)	-10.6073
▁projenin	-10.6074
▁paylaştı	-10.6074
▁yararlı	-10.6075
▁esnek	-10.608
▁yeti	-10.6082
med	-10.6084
▁Mutlu	-10.6085
▁sesli	-10.6085
▁duru	-10.6087
▁Parkı	-10.6089
Bo	-10.609
▁Bah	-10.6091
▁çoğal	-10.6094
▁lig	-10.6099
▁Hızlı	-10.61
▁koşul	-10.6103
▁ayna	-10.6103
▁arkadaşlık	-10.6106
çılar	-10.6107
▁fazlası	-10.611
▁Def	-10.6111
▁sure	-10.6112
amayacak	-10.6113
▁saklan	-10.6113
▁ihtiyacınız	-10.6115
▁samimi	-10.6116
▁yıkıl	-10.612
▁Tiyatro	-10.6125
uğu	-10.6126
laşan	-10.6128
▁görebilirsiniz	-10.6129
▁Ekonomik	-10.6129
▁if	-10.6131
▁olağanüstü	-10.6132
▁girişi	-10.6132
▁Hatay	-10.6132
▁yazan	-10.6133
▁tarihlerinde	-10.6138
Son	-10.614
▁taban	-10.6143
▁babam	-10.6146
▁bugünkü	-10.6147
▁Kılıç	-10.6151
▁sigortalı	-10.6151
▁vurguladı	-10.6154
▁hadis	-10.6155
▁utan	-10.6156
▁şahıs	-10.6157
▁Ateş	-10.6164
tuğu	-10.6164
▁öldü	-10.6166
▁Sizler	-10.6166
▁dikkati	-10.6167
▁tıklayın	-10.6167
▁katlı	-10.617
leşmesi	-10.6179
üsü	-10.6179
▁devamlı	-10.6182
▁yaprak	-10.6182
▁Malzeme	-10.6184
▁oradan	-10.6185
▁oluşması	-10.6185
▁platformu	-10.6185
▁Gerçekten	-10.6187
▁bölgenin	-10.6188
▁sürme	-10.6189
▁bildiri	-10.6193
ttiği	-10.6194
ılmaya	-10.6194
▁bulunmakta	-10.6195
▁hassasiyet	-10.6196
▁Halil	-10.6197
▁Tekirdağ	-10.6201
▁Yerel	-10.6204
▁girecek	-10.6204
▁bıçak	-10.6205
▁Filistin	-10.6205
▁verdikleri	-10.6205
▁sürükle	-10.6205
▁uza	-10.6207
▁Ajansı	-10.6207
ERİ	-10.6207
▁kararlar	-10.6208
ebiliriz	-10.6208
abildiği	-10.6209
▁akışı	-10.6212
▁sade	-10.6212
▁Seç	-10.6213
▁TC	-10.6215
▁00	-10.6217
ımın	-10.6219
▁açıklamalarda	-10.6221
▁öğretmenler	-10.6224
▁Pu	-10.6224
▁tarihten	-10.6224
▁gövde	-10.6226
▁kaydedil	-10.6227
muzun	-10.6228
▁şuan	-10.6229
▁olurken	-10.6229
▁düzenledi	-10.623
ity	-10.6231
▁Öztürk	-10.6232
▁Ücretsiz	-10.6234
lilik	-10.6234
Ve	-10.6236
▁Aslan	-10.6238
▁özgün	-10.6238
▁yakalan	-10.6239
▁fo	-10.624
▁aittir	-10.624
por	-10.6241
Baş	-10.6245
▁boğaz	-10.6245
ood	-10.6247
eç	-10.6253
▁olduğunun	-10.6255
▁İdaresi	-10.6257
▁adamları	-10.6259
▁sisteme	-10.6263
▁kaynaklı	-10.6264
▁halkının	-10.6266
taj	-10.6272
▁depolama	-10.6273
▁savaşı	-10.6274
▁Gal	-10.6276
▁dediler	-10.6278
▁siteler	-10.628
lanıp	-10.6284
▁kova	-10.6287
▁kir	-10.6287
▁Şekil	-10.6287
▁adlandır	-10.6291
▁vücudu	-10.6293
▁ithal	-10.6293
▁omuz	-10.6298
▁yoluna	-10.6299
▁olmasının	-10.6301
▁çalışanları	-10.6302
▁dâhil	-10.6304
▁düşünen	-10.6304
Fa	-10.6304
▁sunma	-10.6308
TÜ	-10.6309
▁buluş	-10.6309
▁cerrahi	-10.631
▁öğrencilerimiz	-10.631
▁kaldırılması	-10.6312
▁mecbur	-10.6312
▁antik	-10.6313
▁bor	-10.6314
▁bireyler	-10.6315
▁oluşturulan	-10.6317
▁kaş	-10.6321
▁Ağrı	-10.6323
▁Mat	-10.6323
▁sizinle	-10.6328
▁tesisleri	-10.6329
▁ısıt	-10.6329
▁gecikme	-10.633
▁iftar	-10.6331
▁Belgesi	-10.6332
üzü	-10.6337
▁Modern	-10.6337
dikçe	-10.6341
▁konularında	-10.6344
▁özür	-10.6345
ilmelidir	-10.6345
▁imar	-10.6346
▁Suriyeli	-10.6346
▁gittik	-10.6349
▁casino	-10.6351
▁pil	-10.6354
yâ	-10.6355
▁silahlı	-10.6359
▁seçimleri	-10.6361
▁Emir	-10.6363
▁yürek	-10.6366
▁gittim	-10.6368
▁kendime	-10.6369
▁..	-10.6371
▁Forum	-10.6371
▁Cor	-10.6371
▁buluyor	-10.6372
pu	-10.6373
▁Nedir	-10.6375
▁Tanıtım	-10.6379
▁Oyuncu	-10.6383
▁planda	-10.6386
▁yürütül	-10.6387
yel	-10.6388
▁Dan	-10.6388
▁Kaymakamı	-10.6389
▁satılık	-10.6394
▁öp	-10.6395
▁Denetim	-10.64
acağımız	-10.64
▁tıp	-10.64
▁buz	-10.64
▁alama	-10.6402
vas	-10.6403
▁yardımıyla	-10.6404
▁Yazılım	-10.6406
▁hakaret	-10.6411
red	-10.6411
▁getirilen	-10.6411
▁Ziraat	-10.6417
▁seviyesi	-10.6419
▁zamanlı	-10.6422
▁etmişti	-10.6425
▁Dön	-10.6428
ılmasına	-10.6428
▁Tablo	-10.6429
yeceğini	-10.6431
▁yatırımcı	-10.6431
▁anlaş	-10.6438
▁seçin	-10.6439
62	-10.6439
▁Sık	-10.6439
▁madalya	-10.6441
▁13.	-10.6441
▁yapılacaktır	-10.6445
▁Bet	-10.6446
▁600	-10.6446
▁finans	-10.6447
▁örgü	-10.6447
▁karşılaştır	-10.6448
▁programında	-10.6448
▁gönderilen	-10.6451
▁Tor	-10.6453
▁gözet	-10.6457
▁dudak	-10.6459
▁yazıyor	-10.646
▁hizmetlerini	-10.6465
▁Emin	-10.6466
▁ic	-10.6467
▁duran	-10.6468
▁durdur	-10.6468
▁şahit	-10.6469
jo	-10.6471
▁Ağa	-10.6471
▁sitede	-10.6472
ÖR	-10.6472
▁Doğa	-10.6472
ami	-10.6473
Mİ	-10.6474
kçe	-10.6476
▁Matematik	-10.6477
mekle	-10.6479
seydi	-10.6479
part	-10.6479
▁filmler	-10.6481
▁uyma	-10.6481
▁‘’	-10.6482
▁Dal	-10.6483
▁gor	-10.6484
▁kalitesini	-10.6484
▁Kazakistan	-10.6486
▁grubun	-10.6487
▁profil	-10.6492
▁kurumları	-10.6494
▁üz	-10.6495
▁renkler	-10.6496
▁Sıcak	-10.6497
▁Yüksel	-10.6502
▁tahta	-10.6502
▁topluluk	-10.6502
▁Kongre	-10.6502
âb	-10.6505
baz	-10.6505
▁bastır	-10.6506
▁Ex	-10.6513
rum	-10.6513
▁07	-10.6514
▁Yük	-10.6514
▁yaşandığı	-10.6514
▁açar	-10.6516
▁belirgin	-10.6517
▁Ele	-10.6519
ayet	-10.6521
pon	-10.6522
▁Sil	-10.6522
Ey	-10.6525
500	-10.6526
▁Türkmen	-10.6527
▁Kurumsal	-10.6528
tesi	-10.6529
▁kalkınma	-10.653
Di	-10.6531
▁Dili	-10.6533
para	-10.6534
-5	-10.6535
maktayız	-10.6538
olog	-10.6539
▁içinden	-10.654
▁çerçeve	-10.654
▁veriyoruz	-10.6542
mışlardır	-10.6542
▁boşalt	-10.6542
▁antrenman	-10.6544
▁Şampiyonası	-10.6546
▁tabir	-10.6549
3)	-10.655
▁matematik	-10.6556
lıkta	-10.6557
eddin	-10.6557
abileceğini	-10.6558
▁girmiş	-10.656
▁havalimanı	-10.6562
▁göreve	-10.6564
▁kom	-10.6564
▁Aşağıdaki	-10.6565
▁Gaz	-10.6566
▁konuşul	-10.6568
▁modeller	-10.6572
▁yapay	-10.6573
▁Aziz	-10.6574
▁Rektör	-10.6575
▁tespiti	-10.6576
▁gönderdi	-10.6577
▁Sorun	-10.6579
▁töreni	-10.6579
▁hakikat	-10.658
▁dedektif	-10.6581
▁çevirme	-10.6582
toloji	-10.6582
Siz	-10.6588
▁açısı	-10.6589
ılacağı	-10.6595
▁toplamda	-10.6597
▁başardı	-10.6598
▁gruplar	-10.6598
ticaret	-10.66
▁girip	-10.6602
▁bitme	-10.6604
▁eksikliği	-10.6604
tırma	-10.6608
▁Bunlardan	-10.6608
▁John	-10.661
41	-10.6612
▁olacağız	-10.6612
▁Olma	-10.6613
▁müracaat	-10.6613
▁sunuyoruz	-10.662
▁niteliği	-10.6621
▁enerjisi	-10.6622
cc	-10.6622
KAN	-10.6623
▁yönetme	-10.6625
EP	-10.6625
▁dahilinde	-10.6627
▁Hepsi	-10.6628
▁birine	-10.6629
▁musunuz	-10.663
▁Uygun	-10.6633
▁mesela	-10.6633
▁pozitif	-10.6635
▁Adnan	-10.6635
▁Toprak	-10.6636
▁çikolata	-10.6637
▁aldığını	-10.6637
▁Dağı	-10.6639
haf	-10.6641
▁burun	-10.6643
.6	-10.6644
▁sütü	-10.6646
▁Süt	-10.6646
▁Toplantısı	-10.6648
▁müsabaka	-10.6649
▁gri	-10.665
▁stratejik	-10.6652
-0	-10.6653
▁Çoğu	-10.6653
▁başından	-10.6654
▁karışık	-10.6655
▁54	-10.6656
.12	-10.6657
▁Dost	-10.6657
▁istekleri	-10.6658
▁Dönemi	-10.6661
NET	-10.667
▁hükümetin	-10.667
▁maksimum	-10.6671
▁baktığı	-10.6672
▁çin	-10.6673
çer	-10.6673
▁uzaklaştır	-10.6673
▁56	-10.6674
▁zeytin	-10.6675
▁tüy	-10.6675
▁gelmek	-10.6677
▁Adres	-10.6678
çek	-10.6681
▁Kadir	-10.6682
▁özelliklerini	-10.6684
▁tank	-10.6686
âm	-10.6686
mekten	-10.6688
▁fakülte	-10.6688
-15	-10.669
▁ihtiyaçları	-10.6691
▁Dav	-10.6691
▁rolü	-10.6693
▁Play	-10.6695
▁birleştir	-10.6696
▁adayların	-10.6697
▁opsiyon	-10.6697
yüzü	-10.6698
▁Hastalıkları	-10.6701
▁oyuncak	-10.6701
rî	-10.6704
▁yakalama	-10.6705
▁zorluk	-10.6708
▁Elbette	-10.671
▁dert	-10.671
hip	-10.6711
dra	-10.6711
yacağını	-10.6714
vur	-10.6716
▁Ziyaret	-10.6717
▁bağlama	-10.6718
▁Araba	-10.672
tığımız	-10.672
TK	-10.672
irsiniz	-10.6721
▁istedikleri	-10.6722
▁Kurban	-10.6722
▁gösterilen	-10.6724
▁grupları	-10.6727
▁sundu	-10.6727
▁kademe	-10.6727
▁Kudüs	-10.6729
▁vermeyi	-10.6729
wi	-10.673
▁komutan	-10.6731
▁https	-10.6731
▁verin	-10.6736
▁For	-10.6736
ted	-10.6739
▁çat	-10.674
▁gündem	-10.674
▁memnuniyeti	-10.6743
▁mesleği	-10.6743
▁öfke	-10.6745
▁günümüz	-10.6747
▁Mardin	-10.6747
▁kilise	-10.6748
▁ajans	-10.6749
▁evvel	-10.6751
uyorum	-10.6752
▁zamandır	-10.6753
çılık	-10.6758
▁fıkra	-10.6759
▁EK	-10.6764
ys	-10.6764
▁sahası	-10.6765
▁oluşmaktadır	-10.6766
bas	-10.6767
▁Mev	-10.6767
▁pop	-10.6768
▁niye	-10.6772
Po	-10.6777
▁yaptığım	-10.6778
▁Gezi	-10.6779
▁Gra	-10.678
▁tahsis	-10.6782
▁ülkesi	-10.6784
▁tamamlama	-10.6784
▁işlev	-10.6784
▁getirildi	-10.6786
diniz	-10.6787
▁çıkışı	-10.6788
yabilir	-10.6791
larý	-10.6792
▁Hedef	-10.6792
▁ilahi	-10.6792
▁ço	-10.6792
▁Arslan	-10.6794
▁Kardeş	-10.6794
▁başa	-10.6797
▁Ukrayna	-10.6797
▁türleri	-10.6798
yordum	-10.6799
▁kür	-10.6799
▁çalışmaların	-10.6799
GS	-10.6801
▁ekledi	-10.6802
liyim	-10.6804
▁Başkanımız	-10.6805
▁hesaplama	-10.6807
▁Karaman	-10.6809
▁puanı	-10.681
▁Sınır	-10.6811
▁partisi	-10.6816
▁paketi	-10.6816
▁bırakın	-10.6816
▁şeyden	-10.6816
▁Bayrak	-10.6817
▁edi	-10.6817
▁çamaşır	-10.6821
▁birey	-10.6824
emediği	-10.6825
▁Göster	-10.6826
▁kutsal	-10.6832
▁abla	-10.6832
▁düzeltme	-10.6833
▁hızlandır	-10.6833
▁vermeden	-10.6833
▁belirlendi	-10.6834
▁58	-10.6835
▁Kut	-10.6835
▁EĞİTİM	-10.6836
amıyorum	-10.6837
vaz	-10.6838
▁çalışanların	-10.684
▁aldığınız	-10.684
▁haksız	-10.6843
▁Muğla	-10.6844
▁sayılır	-10.6844
▁niyet	-10.6848
▁düzeyi	-10.685
▁ilim	-10.6852
▁düzenlemeler	-10.6852
ütü	-10.6853
izasyon	-10.6856
▁görevleri	-10.686
▁ÖZ	-10.6862
▁Bilimler	-10.6862
▁ifadesi	-10.6864
▁turnuva	-10.6864
abilirler	-10.6864
emeyeceği	-10.6868
▁taahhüt	-10.6872
▁Alınır	-10.6873
one	-10.6876
▁gibidir	-10.6877
▁Kampanya	-10.6879
▁fırça	-10.688
▁dördüncü	-10.6881
▁vergisi	-10.6881
yazı	-10.6882
▁Göre	-10.6882
larınızda	-10.6883
▁bahar	-10.6883
▁AY	-10.6884
▁elini	-10.6886
▁tıklayınız	-10.6887
▁Mavi	-10.6887
▁arkadaşlarımız	-10.6887
▁sınırsız	-10.6888
çok	-10.6889
▁önemlisi	-10.689
▁aşık	-10.6891
▁içe	-10.6892
br	-10.6892
AA	-10.6892
▁Raporu	-10.6893
MO	-10.6894
TV	-10.6896
▁pre	-10.6899
▁dolarlık	-10.6902
▁güzelliği	-10.6903
tic	-10.6903
▁ey	-10.6905
▁santral	-10.6907
▁yaratma	-10.6908
▁Japon	-10.6909
▁pompa	-10.6909
▁Siyah	-10.6911
▁his	-10.6914
▁balkon	-10.6914
▁muhtar	-10.6915
▁Hü	-10.6916
▁seçilen	-10.6919
▁önlem	-10.6919
og	-10.692
▁bayrağı	-10.6921
▁canım	-10.6923
▁vitamin	-10.6924
▁örgütleri	-10.6924
abi	-10.6925
▁kurulum	-10.6925
sor	-10.6927
avi	-10.6929
kum	-10.6929
▁EN	-10.6929
bit	-10.6931
▁Güvenliği	-10.6931
▁Kimi	-10.6934
▁Rah	-10.6935
▁Toto	-10.6936
▁tedbir	-10.6941
ence	-10.6944
▁çeker	-10.6944
leşti	-10.6946
UZ	-10.6947
▁Yaşar	-10.6949
▁kimseye	-10.6954
▁uğur	-10.6955
▁Normal	-10.6957
doğu	-10.696
▁Birlik	-10.6961
▁heyet	-10.6962
▁Bahar	-10.6965
▁okudu	-10.6968
▁yetkisi	-10.6968
▁ömür	-10.6971
▁SE	-10.6972
▁hikâye	-10.6973
dıkça	-10.6975
▁uzaklıkta	-10.6976
▁Zafer	-10.6977
ick	-10.6978
TS	-10.6979
▁Test	-10.698
▁ötürü	-10.6981
▁görünen	-10.6982
gr	-10.6984
▁Yoksa	-10.6985
▁Diyanet	-10.6985
▁cenaze	-10.6986
▁kritik	-10.6989
▁!	-10.6989
▁Metal	-10.6989
▁Hekim	-10.6992
▁Katılım	-10.6994
▁adresine	-10.6997
▁rehber	-10.6998
▁Adıyaman	-10.6998
▁Qu	-10.6999
▁İlaç	-10.7
▁ispat	-10.7001
▁imam	-10.7001
▁nişan	-10.7001
-4	-10.7001
▁Kırmızı	-10.7001
▁kolu	-10.7004
▁yüzünü	-10.7007
▁çoğunluğu	-10.7007
▁gümrük	-10.7008
▁zincir	-10.7008
▁Çam	-10.7011
▁borsa	-10.7011
▁pu	-10.7012
▁cemaat	-10.7013
▁süresince	-10.7014
Bil	-10.7016
▁sıradan	-10.702
▁tesisi	-10.7022
▁Alanı	-10.7023
▁Herhangi	-10.7023
▁Kullanım	-10.7023
▁haklarını	-10.7024
▁sofra	-10.7024
▁âyet	-10.7025
▁referandum	-10.7025
▁olursunuz	-10.7025
▁giriyor	-10.7026
miyoruz	-10.7029
▁denen	-10.7031
▁Boy	-10.7033
▁Trafik	-10.7035
unuzu	-10.7036
▁Tay	-10.7037
▁bedeni	-10.704
▁ilerleyen	-10.7043
▁Kargo	-10.7044
Gün	-10.7046
▁hastaneye	-10.7046
kit	-10.7046
▁Kapsam	-10.7046
▁kursu	-10.7048
▁sayfada	-10.7048
raz	-10.7048
▁ankara	-10.705
▁Önemli	-10.705
▁konuyla	-10.705
▁şehirde	-10.7052
▁gönderi	-10.7054
book	-10.7056
▁oynayan	-10.7057
uyoruz	-10.7057
▁Uç	-10.7058
▁04	-10.7059
▁kullanılacak	-10.7059
▁yaşta	-10.7059
▁43	-10.706
▁türkçe	-10.7061
▁uçağı	-10.7061
▁adımlar	-10.7061
▁yükseliş	-10.7062
hem	-10.7063
▁46	-10.7063
▁olmasından	-10.7065
▁kaçın	-10.7068
▁Akşam	-10.7071
▁Dünyada	-10.7074
▁layık	-10.7075
▁hastalığın	-10.7076
sol	-10.7077
▁ekim	-10.7078
Kar	-10.7078
▁Strateji	-10.708
▁kupa	-10.7081
▁problemleri	-10.7082
▁gerekçesiyle	-10.7083
▁noktaya	-10.7084
▁Gelin	-10.7085
▁gelecekte	-10.7086
▁sözcük	-10.7088
▁şartı	-10.7091
▁Düğün	-10.7092
▁yıldan	-10.7092
emedi	-10.7097
▁görünümü	-10.7105
▁dolgu	-10.7106
▁keyfini	-10.7107
▁Güç	-10.7109
metre	-10.7109
dol	-10.7111
▁aldığım	-10.7111
▁fiil	-10.7113
▁yaratan	-10.7116
YE	-10.7117
▁Suç	-10.7118
▁bizden	-10.7118
91	-10.7119
ımızda	-10.7119
▁oyuncusu	-10.712
İST	-10.7123
▁Hakkı	-10.7126
▁Paket	-10.713
▁şok	-10.713
pas	-10.7134
▁varlığını	-10.7135
▁ibaret	-10.7135
▁eyalet	-10.7136
▁ora	-10.7136
▁Durum	-10.7144
▁dünyayı	-10.7144
▁tüketim	-10.7147
▁yüzme	-10.7149
▁Sch	-10.7155
▁entegre	-10.7157
▁mimar	-10.7157
▁Saray	-10.7158
▁budur	-10.7159
ografi	-10.716
▁Kuruluş	-10.716
ladığınız	-10.7161
!..	-10.7163
eceğimiz	-10.7164
▁yazın	-10.7164
▁â	-10.7165
▁sandalye	-10.7167
▁protokol	-10.7168
▁anlatım	-10.7168
▁değ	-10.7168
▁işçiler	-10.7168
▁okulda	-10.7175
▁kardeşim	-10.7175
TC	-10.7178
Mo	-10.718
DİR	-10.7181
kay	-10.7181
âr	-10.7183
▁pilot	-10.719
yacağız	-10.7191
▁BİR	-10.7192
▁toplantıda	-10.7193
jen	-10.7195
▁doğalgaz	-10.7195
▁önlemek	-10.7196
▁Yönetmeliği	-10.7197
▁limon	-10.72
▁fotoğrafı	-10.7201
▁Onur	-10.7202
▁açmak	-10.7203
▁Rapor	-10.7203
▁Bina	-10.7203
Rİ	-10.7208
▁kalori	-10.7211
▁burcu	-10.7211
ümüzü	-10.7212
▁onlarca	-10.7213
▁Veli	-10.7216
▁euro	-10.7217
IT	-10.7217
hid	-10.7219
▁maddenin	-10.7219
▁nereye	-10.7219
önü	-10.722
▁rejimi	-10.7221
▁deme	-10.7223
▁menü	-10.7223
dd	-10.7224
▁çağın	-10.7225
▁Salih	-10.7225
mes	-10.7225
▁kurumların	-10.7226
▁Far	-10.7232
▁ödülü	-10.7235
▁Kum	-10.7235
llah	-10.7237
▁yapıldığını	-10.7238
▁akış	-10.7239
▁Bakanlar	-10.724
▁sevin	-10.724
▁bekliyorum	-10.7244
▁Kale	-10.7246
▁Ödülü	-10.7247
▁hane	-10.7247
▁denize	-10.725
ilip	-10.725
▁emanet	-10.7252
park	-10.7253
▁Konuşma	-10.7255
▁aracılığı	-10.726
▁meşru	-10.7261
sco	-10.7261
rap	-10.7262
hut	-10.7263
▁tartışıl	-10.7264
lerimizde	-10.7265
▁64	-10.7266
▁somut	-10.7267
▁ömrü	-10.7268
▁Haberler	-10.7268
▁ekipman	-10.7269
▁üyeliği	-10.7269
▁Rüyada	-10.7271
▁bilmek	-10.7272
▁ilham	-10.7274
▁sürdürüyor	-10.7277
▁boşluk	-10.728
Mü	-10.728
▁dönemine	-10.728
amp	-10.7282
zik	-10.7285
▁sonradan	-10.7286
ruk	-10.7286
▁ikna	-10.7294
▁Gökçe	-10.7294
▁sünnet	-10.7295
▁Turkcell	-10.7295
▁yazmak	-10.7297
gor	-10.7298
▁Politika	-10.7298
▁Eser	-10.7299
▁herşey	-10.7302
▁gürültü	-10.7303
▁tarayıcı	-10.7303
▁oturan	-10.7303
▁sevdikleri	-10.7303
▁Duvar	-10.7304
▁51	-10.7308
▁ekranı	-10.7308
▁litre	-10.731
▁yönetmelik	-10.7311
öğrenebilirsiniz	-10.7311
▁vuruş	-10.7312
▁karmaşık	-10.7315
▁görevlileri	-10.7317
▁duruşma	-10.7317
▁nefret	-10.7317
ling	-10.7318
▁görülüyor	-10.7318
▁aşamada	-10.7318
▁IP	-10.7319
▁görüntüsü	-10.732
▁Parça	-10.7322
▁firmanın	-10.7323
▁Boya	-10.7323
▁başkanlığı	-10.7323
▁yetenek	-10.7326
▁Saf	-10.7326
▁tekniği	-10.7327
▁Ödeme	-10.7329
▁sek	-10.733
▁Wa	-10.733
▁günümüze	-10.733
▁korunma	-10.7332
▁eserleri	-10.7333
▁Çar	-10.7333
uklu	-10.7335
▁yorumları	-10.7337
ağan	-10.7338
▁rev	-10.7339
▁arayıp	-10.7339
▁milyonlarca	-10.7341
▁Standart	-10.7342
▁vitamini	-10.7343
▁geçiren	-10.7345
▁olmasıdır	-10.7349
ebileceğini	-10.735
▁%100	-10.7351
▁sitemizde	-10.7355
▁görülme	-10.7356
▁bakmak	-10.7359
▁etkileşim	-10.7359
ANI	-10.7362
▁politikaları	-10.7363
▁inanıyorum	-10.7363
▁potansiyeli	-10.7364
▁salata	-10.7364
uştur	-10.7365
▁tamamını	-10.7366
törü	-10.7368
▁dünyası	-10.7368
▁kariyer	-10.7368
▁gözler	-10.737
▁süreçleri	-10.737
▁49	-10.7374
kap	-10.7376
▁deneyimli	-10.7378
▁Hukuku	-10.7378
▁ithalat	-10.7379
▁önerileri	-10.738
nüz	-10.7383
▁ihracatı	-10.7384
▁aldığımız	-10.7384
▁dosyası	-10.7386
▁Ücret	-10.7386
▁ırk	-10.7386
▁bitti	-10.7386
▁montaj	-10.7388
▁uyandır	-10.7389
▁kime	-10.7389
▁çağdaş	-10.7392
▁kuvvetli	-10.7393
.01	-10.7393
▁giderken	-10.7395
▁tıkla	-10.7395
▁satıcı	-10.7399
▁ayrılan	-10.7402
▁ortağı	-10.7407
▁Muha	-10.7408
▁çizim	-10.741
▁zehir	-10.7411
▁Kombi	-10.7414
▁koşu	-10.7415
▁ilgisi	-10.7415
▁kıy	-10.7418
▁etkileme	-10.7418
▁edeceğini	-10.7419
▁Boğaz	-10.7419
▁meşhur	-10.7419
▁niteliğinde	-10.7419
▁atılan	-10.7421
▁belgesel	-10.7421
▁koltuğu	-10.7423
▁ziyade	-10.7427
▁kurtarma	-10.7428
Teşekkür	-10.7429
▁arsa	-10.743
▁katılımıyla	-10.7431
sav	-10.7432
▁Ebu	-10.7434
▁Turan	-10.7437
▁Klima	-10.7438
râ	-10.7439
▁tarife	-10.744
▁geçecek	-10.7443
▁Değerli	-10.7444
▁sin	-10.7444
▁etkileyen	-10.745
▁politik	-10.745
-12	-10.7452
▁suçlu	-10.7454
▁türk	-10.7454
▁hareketleri	-10.7455
▁Hazine	-10.7462
▁şifa	-10.7462
▁değerini	-10.7464
▁minik	-10.7464
▁anlatmak	-10.7466
iyer	-10.7467
hak	-10.7467
▁şeref	-10.7467
astro	-10.7467
▁önemini	-10.7469
▁verip	-10.7469
ÜL	-10.7469
▁yapacağız	-10.747
▁şiirleri	-10.747
▁yaşadıkları	-10.7472
▁Sermaye	-10.7473
▁artar	-10.7476
▁oluşumu	-10.7478
▁sürümü	-10.7478
▁Gönder	-10.7478
▁Geliştirme	-10.7479
▁Mahmut	-10.7479
▁geçmişi	-10.7487
▁bardak	-10.7487
▁Bol	-10.7488
▁Tim	-10.749
▁gay	-10.7492
▁mülkiyet	-10.7492
▁telefondan	-10.7493
▁eserler	-10.7494
▁etmeleri	-10.7494
▁dosyaları	-10.7494
▁zan	-10.7495
▁kesinti	-10.7497
▁dinlenme	-10.75
▁onlardan	-10.7501
yorsunuz	-10.7504
▁gönderildi	-10.7505
▁belde	-10.7507
▁yapıyorum	-10.7507
▁Balkan	-10.7507
▁görüldü	-10.7507
▁göçmen	-10.7512
▁dönüşü	-10.7516
▁insanlık	-10.7516
▁Dersin	-10.7519
▁İdare	-10.7521
▁tanık	-10.7523
▁Dava	-10.7523
▁yüklü	-10.7524
▁Olan	-10.7527
▁Net	-10.7528
▁kopar	-10.7529
▁yapacağınız	-10.7531
▁bölümleri	-10.7532
▁ediyorlar	-10.7533
Pro	-10.7534
▁istemez	-10.7535
▁sizde	-10.7535
▁hemde	-10.7536
▁bilgisayarınız	-10.7537
▁Arkadaşlar	-10.7538
▁tıbbi	-10.7538
▁kutusu	-10.7539
▁Cemal	-10.7539
▁sürüm	-10.7539
▁Açıklama	-10.7545
▁bununla	-10.7545
▁Kurs	-10.7545
tina	-10.7546
▁Elazığ	-10.7548
▁kimseler	-10.755
▁olmasın	-10.755
▁kelimeler	-10.755
▁Düz	-10.7551
▁İh	-10.7551
▁cihazları	-10.7552
▁Halı	-10.7552
kre	-10.7554
▁Nitekim	-10.7555
▁Sevgi	-10.7555
▁etken	-10.7557
▁hamur	-10.7558
▁ilaçlama	-10.756
▁başlıkları	-10.756
▁şef	-10.756
▁sahada	-10.7561
▁miras	-10.7564
low	-10.7564
▁mas	-10.7566
▁Türkler	-10.7566
▁Dikkat	-10.7567
▁bebeğin	-10.7567
sir	-10.7568
▁ağırlıklı	-10.7568
▁nitelikte	-10.7569
▁elma	-10.757
lamaktadır	-10.7572
▁ekstra	-10.7574
▁trans	-10.7576
▁ulaşan	-10.7578
▁gümüş	-10.7579
▁post	-10.7582
▁tabaka	-10.7582
masıyla	-10.7584
▁Toplu	-10.7584
stat	-10.7585
▁sarf	-10.7585
▁ediyordu	-10.7586
▁Adli	-10.7587
▁ni	-10.7588
▁başlangıcı	-10.7589
▁geliştirilen	-10.759
lerimizden	-10.7592
▁başlan	-10.7595
As	-10.7597
▁köylü	-10.7597
▁Sam	-10.7598
▁Düş	-10.7601
▁Rehberi	-10.7602
▁Peygamberimiz	-10.7606
▁yemin	-10.7606
▁sürdürülebilir	-10.7607
▁gerektiren	-10.7608
▁cinsiyet	-10.7609
age	-10.7609
▁şiddetli	-10.7609
▁Sekreteri	-10.7612
▁programına	-10.7613
iv	-10.7614
▁Fet	-10.7614
Ama	-10.7615
▁okulun	-10.7616
▁kala	-10.7617
▁hamle	-10.7617
▁sözlerine	-10.7617
▁defter	-10.7619
▁ekleme	-10.7619
▁dis	-10.762
▁getirerek	-10.7621
▁ünite	-10.7621
▁ikram	-10.7624
▁Direktörü	-10.7626
amadım	-10.7632
ding	-10.7632
2012	-10.7633
▁formül	-10.7634
▁hile	-10.7635
Ak	-10.7635
▁Üsküdar	-10.7637
▁gidebil	-10.7638
▁teşhis	-10.7639
▁atış	-10.764
8)	-10.7642
leştirilmiş	-10.7642
▁heyeti	-10.7645
▁mat	-10.7647
▁hayatım	-10.7648
▁organik	-10.7649
▁müdürlüğü	-10.7651
▁personelin	-10.7651
▁kamyon	-10.7654
▁eğ	-10.7654
▁Avusturya	-10.7655
▁soğan	-10.7656
▁mağlup	-10.7657
▁yöntemler	-10.7658
▁Pen	-10.7659
▁devrimci	-10.7659
▁gayrimenkul	-10.7661
▁direniş	-10.7663
▁coşku	-10.7668
lerinizde	-10.7669
▁dürüst	-10.7672
▁diğeri	-10.7675
▁yazılmış	-10.7679
▁sakın	-10.7679
▁Holding	-10.768
▁Dernek	-10.7681
▁detaylar	-10.7683
▁basınç	-10.7684
▁Tamam	-10.7685
▁zamana	-10.7686
▁müzakere	-10.7686
▁danışmanlık	-10.7687
▁egemen	-10.7687
▁Çalışan	-10.769
▁merkezli	-10.7692
▁Baskı	-10.7692
▁hayli	-10.7694
▁Fırat	-10.7694
ğını	-10.7698
▁dünyadaki	-10.7699
▁hacmi	-10.7699
▁Çal	-10.7701
▁edilmelidir	-10.7701
▁Özet	-10.7703
▁evlenme	-10.7705
▁gösterge	-10.7709
▁Kür	-10.7713
cısı	-10.7715
▁Pazarlama	-10.7717
▁durumuna	-10.7717
▁Dijital	-10.7718
DK	-10.772
▁muhabir	-10.772
▁Tal	-10.7723
larıdır	-10.7723
▁açıklamalar	-10.7728
con	-10.7728
▁tatili	-10.7732
ışık	-10.7732
▁Mak	-10.7733
▁Kab	-10.7735
▁doğrusu	-10.7736
▁Evde	-10.7736
▁NATO	-10.7737
▁Şiir	-10.7737
▁Edebiyat	-10.7739
▁oyunda	-10.7741
▁yükselen	-10.7743
▁uzaktan	-10.7744
▁uydur	-10.7748
▁beslen	-10.7748
▁2001	-10.775
lemesi	-10.7752
▁bulunmadığı	-10.7754
MP	-10.7756
▁faaliyetlerini	-10.7757
▁kaynaklar	-10.7758
▁Mühendis	-10.7762
▁Ker	-10.7764
▁Söyle	-10.7765
!"	-10.7766
▁olabil	-10.777
▁bizde	-10.7771
▁Yüce	-10.7771
▁kentin	-10.7772
ümüzde	-10.7772
▁boyunda	-10.7772
▁sürdüren	-10.7773
▁hap	-10.7777
▁uzanan	-10.7779
▁açığı	-10.7781
▁maçın	-10.7785
▁Dis	-10.7785
▁döndür	-10.7785
▁Sayısı	-10.7787
▁müslüman	-10.7788
▁Gre	-10.7789
▁Memur	-10.7789
▁tencere	-10.779
▁dönen	-10.779
▁yaşandı	-10.7791
▁milleti	-10.7795
▁işten	-10.7795
▁çocuklarımız	-10.7796
▁dolara	-10.7796
▁aleyhi	-10.7797
$	-10.7797
▁toplanan	-10.7799
▁konusundaki	-10.7805
▁verdiğimiz	-10.7807
öğretim	-10.7809
▁vade	-10.7809
▁tadını	-10.781
▁Sur	-10.7811
TR	-10.7814
▁kullanıcıları	-10.7814
▁kaybettiği	-10.7814
anne	-10.7815
▁sözlü	-10.7815
▁adresinden	-10.7816
▁yükseldi	-10.7817
▁koyduğu	-10.7818
▁üretme	-10.7819
iğe	-10.782
▁paylaşma	-10.782
▁Kanada	-10.7822
▁sevdiğim	-10.7823
▁görevlisi	-10.7825
▁kanama	-10.7827
▁Faaliyet	-10.7827
▁dizayn	-10.783
▁Dolar	-10.783
▁Eşya	-10.7834
▁Fu	-10.7834
▁keşfe	-10.7839
▁sur	-10.7842
ori	-10.7843
▁görüntüler	-10.7843
▁Dair	-10.7843
▁konumunda	-10.7844
▁biten	-10.7844
▁yaptırmak	-10.7845
out	-10.7845
emiyor	-10.7846
▁Kendisi	-10.7846
▁Gelen	-10.7848
▁Hürriyet	-10.7852
▁oluşuyor	-10.7853
▁Yrd	-10.7853
▁Bahçeli	-10.7854
▁işareti	-10.7855
▁yerinden	-10.7856
lenmek	-10.7857
▁pasaport	-10.7858
ring	-10.7863
▁kanı	-10.7864
▁Hac	-10.7864
uf	-10.7866
UK	-10.7867
▁görüldüğü	-10.7867
▁Air	-10.7875
TER	-10.7883
ast	-10.7884
▁2-3	-10.7886
▁Tepe	-10.7888
▁Mesaj	-10.7889
▁eti	-10.7889
ladığımız	-10.7889
ore	-10.7893
▁Değişiklik	-10.7894
▁terim	-10.7894
▁TRT	-10.7895
▁duş	-10.7897
▁taşımacılık	-10.7901
▁yirmi	-10.7904
hen	-10.7904
▁ailenin	-10.7904
ysanız	-10.7907
TP	-10.7907
▁sayısını	-10.7908
▁sevilen	-10.7911
▁Boş	-10.7912
▁Mesleki	-10.7912
▁gerçekleşecek	-10.7912
▁nice	-10.7915
liyoruz	-10.792
▁tebliğ	-10.7921
▁müdürü	-10.7923
lığında	-10.7925
kra	-10.7926
-8	-10.7927
▁Zeytin	-10.793
▁Özellikleri	-10.7931
▁kimin	-10.7931
▁Tanı	-10.7931
▁Bes	-10.7932
▁organizasyonu	-10.7934
▁kapağı	-10.7935
▁Min	-10.7936
▁Savcı	-10.7939
▁yazıları	-10.794
▁onlarla	-10.794
▁chat	-10.7941
▁standartları	-10.7942
▁belirsiz	-10.7942
▁çalışırken	-10.7945
▁trafiği	-10.7945
larımızdan	-10.7947
▁yazılımı	-10.7947
▁edilecektir	-10.7947
▁faktörler	-10.7949
▁mekanizma	-10.795
▁hedefleri	-10.7951
▁dönük	-10.7952
▁muhasebe	-10.7952
▁mutfağı	-10.7952
▁dediğimiz	-10.7953
▁belirtmek	-10.7954
▁Planı	-10.7955
▁gec	-10.7956
▁sembol	-10.7957
▁kına	-10.7958
▁duruşu	-10.796
▁Bek	-10.7961
▁suya	-10.7961
▁edildiğini	-10.7962
▁başarıyla	-10.7962
▁tarla	-10.7963
ARI	-10.7965
▁Roman	-10.7965
▁Tesis	-10.7967
▁tef	-10.7968
▁tavuk	-10.7968
▁yayınlandı	-10.7968
▁eşyaları	-10.7968
▁tıklayarak	-10.7968
▁Cengiz	-10.7968
▁efendi	-10.7969
▁gideceği	-10.7969
İs	-10.7969
▁Rabbi	-10.797
▁Bizler	-10.7971
ELİ	-10.7971
▁olabileceğini	-10.7974
▁haş	-10.7974
▁melek	-10.798
▁artırmak	-10.798
▁Tören	-10.798
▁ideoloji	-10.7981
ÜM	-10.7984
▁aralık	-10.7985
▁Yapımı	-10.7986
▁kızım	-10.7986
▁Banyo	-10.7989
▁hic	-10.7989
▁bilgilendir	-10.799
▁arttı	-10.7993
▁kurucu	-10.7993
▁seyret	-10.7995
▁ex	-10.7996
▁yenileme	-10.7996
▁razı	-10.7999
▁yapmakta	-10.8001
▁Ekran	-10.8002
▁Milletler	-10.8002
lý	-10.8004
▁KKTC	-10.8004
muzu	-10.8008
▁hidro	-10.8009
▁modu	-10.8014
▁sürdürdü	-10.8015
lüğe	-10.8016
▁kendinize	-10.8017
▁satan	-10.8018
elli	-10.8018
▁topar	-10.802
▁etek	-10.8021
lemiş	-10.8022
▁ölme	-10.8024
▁sag	-10.8027
▁sıklıkla	-10.8031
▁iğne	-10.8031
ýþ	-10.8033
▁erdi	-10.8035
▁domates	-10.8036
▁içerisindeki	-10.8039
▁koşullar	-10.804
▁Bize	-10.804
▁yapış	-10.8044
▁bakıldığında	-10.8044
Ay	-10.8048
EŞ	-10.8049
▁katma	-10.805
▁Bra	-10.8053
▁Pas	-10.8054
bed	-10.8054
FA	-10.8055
▁gereğince	-10.8057
▁Genellikle	-10.8058
▁Yarışma	-10.8062
▁İhracat	-10.8063
...”	-10.8064
▁yapılacağı	-10.8065
▁63	-10.8067
ladım	-10.8067
▁Fiyatları	-10.8068
▁otopark	-10.8068
▁gelenek	-10.8068
▁birbirlerine	-10.807
▁erkeklerin	-10.8072
-7	-10.8073
▁Güncel	-10.8073
▁ag	-10.8073
▁foto	-10.8073
RS	-10.8074
ulan	-10.8077
▁işlemci	-10.8079
mâ	-10.8081
pen	-10.8083
▁garip	-10.8083
▁III	-10.8085
yoloji	-10.8085
▁Sürekli	-10.8087
▁memleket	-10.8087
▁düşüncesi	-10.8088
▁olayların	-10.809
▁alındığı	-10.8096
▁dersler	-10.8097
▁Ölüm	-10.8099
▁uz	-10.8101
▁askerlik	-10.8101
▁sürül	-10.8101
▁sisteminde	-10.8106
▁Onların	-10.8107
▁çeyrek	-10.8107
uşu	-10.8109
▁lan	-10.8113
▁yapabilecek	-10.8115
▁gelebilir	-10.8117
▁seviyor	-10.8119
▁ceviz	-10.812
▁gelmez	-10.812
▁taşınmaz	-10.812
▁tarihinin	-10.812
▁IŞİD	-10.8122
▁tesisat	-10.8123
▁olabiliyor	-10.8123
▁mesai	-10.8124
gaz	-10.8128
▁fotoğraflar	-10.8132
▁bölümünü	-10.8136
▁özgürlüğü	-10.8136
şer	-10.8137
▁tas	-10.8139
▁yoğunluğu	-10.8139
▁Ona	-10.8139
▁AS	-10.814
ırsa	-10.8142
▁Il	-10.8143
▁belirlenir	-10.8144
▁Kir	-10.8145
lendirilmesi	-10.8146
▁piyasada	-10.8147
ılmak	-10.8148
biz	-10.8151
▁arkadaşlarım	-10.8153
▁sağlayacaktır	-10.8153
4)	-10.8154
▁çare	-10.8154
▁patates	-10.8155
▁bıraktığı	-10.8155
▁kurumu	-10.8157
▁patron	-10.8161
▁Tv	-10.8162
▁kazandığı	-10.8162
▁oluşturulması	-10.8164
▁haberine	-10.8168
şik	-10.817
▁etkisini	-10.817
74	-10.8171
sizliği	-10.8173
yalı	-10.8173
▁izmir	-10.8176
▁kuran	-10.8176
▁taşıt	-10.8177
▁lastik	-10.8179
▁sözlerini	-10.8179
▁öldürme	-10.8179
DP	-10.8182
▁TR	-10.8185
▁Musa	-10.8185
off	-10.8185
▁GB	-10.8186
▁maske	-10.8187
▁bardağı	-10.8187
likli	-10.8188
▁kullanıma	-10.8188
▁intihar	-10.8188
▁şekeri	-10.8194
▁fizik	-10.8194
▁Eren	-10.8194
▁boğ	-10.8195
▁Biri	-10.8196
▁hâkim	-10.8197
▁üyelerinin	-10.8197
▁gereksiz	-10.8204
tiğini	-10.8204
▁katil	-10.8205
▁yolun	-10.8206
▁karısı	-10.8208
▁bek	-10.8208
▁Kanununun	-10.8209
ınızın	-10.8209
▁Devamı	-10.8211
▁işlemlerini	-10.8211
▁elektro	-10.8211
▁renkleri	-10.8212
▁katılmak	-10.8215
ÜK	-10.8215
▁meta	-10.8216
▁kurabiye	-10.8216
▁Pay	-10.8218
GA	-10.822
▁Tüketici	-10.8225
▁dağıtım	-10.8227
▁yenilikçi	-10.8227
lanmasını	-10.8228
maksızın	-10.8229
ılış	-10.8229
riye	-10.8232
▁Finans	-10.8232
tüğü	-10.8233
▁Otobüs	-10.8236
▁Bro	-10.8236
IŞ	-10.8236
▁şişe	-10.8241
▁Inter	-10.8241
▁bölgedeki	-10.8242
üğü	-10.8243
▁sandık	-10.8244
▁verdiğini	-10.8245
▁mantar	-10.8245
▁vaka	-10.8247
▁yoldan	-10.8249
▁Mon	-10.8253
▁hissettir	-10.8253
▁AN	-10.8253
LEN	-10.8254
▁bölgesel	-10.8255
▁yönlendirme	-10.8263
▁düzenlen	-10.8264
▁dünyasının	-10.8265
▁tasarlanmış	-10.8266
▁büro	-10.8269
inizde	-10.8273
▁Say	-10.8273
Nİ	-10.8275
▁isterse	-10.8276
▁röportaj	-10.8276
kale	-10.8277
▁Açma	-10.8277
▁kâ	-10.8277
▁toplumu	-10.8278
▁zira	-10.8278
▁başlamak	-10.8279
▁dek	-10.828
▁çırp	-10.8283
▁hastanede	-10.8284
▁Bekir	-10.8286
▁gelmeye	-10.8287
▁Mahalle	-10.8289
▁Kira	-10.8289
▁Hesap	-10.8289
▁soyun	-10.829
▁boşa	-10.829
▁Mem	-10.8292
Ara	-10.8292
▁suçlama	-10.8295
▁sön	-10.8296
▁Kodu	-10.8298
ğini	-10.8306
▁tamamlandı	-10.8307
irse	-10.8307
▁yüzyılda	-10.8312
▁öğrencinin	-10.8315
▁Alp	-10.8316
▁görevlendiril	-10.8318
▁Anti	-10.8319
müştü	-10.832
▁açılma	-10.8321
▁1,5	-10.8322
▁oldugu	-10.8323
▁Yalnız	-10.8326
.19	-10.8326
OĞLU	-10.8326
▁tüzel	-10.8326
▁kurucusu	-10.8329
▁teslimat	-10.833
des	-10.8331
ora	-10.8331
PS	-10.8332
▁ayının	-10.8333
▁kuruluşların	-10.8335
▁öğretmeni	-10.8336
▁almanız	-10.8337
▁yılların	-10.8338
▁müjde	-10.8339
▁Aracı	-10.834
▁yüce	-10.8341
TAN	-10.8341
▁mülteci	-10.8341
▁Brezilya	-10.8341
▁May	-10.8344
cm	-10.8344
▁görünür	-10.8344
▁gezegen	-10.8346
▁ettiklerini	-10.8348
▁Erdem	-10.8348
▁ürünlerini	-10.8349
RI	-10.8352
▁Vekili	-10.8353
▁ekleyin	-10.8353
masından	-10.8354
▁fakir	-10.8354
üç	-10.8356
▁yatağı	-10.8356
▁emre	-10.8361
▁Bilişim	-10.8362
cıların	-10.8362
▁İSTANBUL	-10.8362
▁olanların	-10.8362
▁İsveç	-10.8363
▁şer	-10.8363
gat	-10.8365
▁Başarı	-10.8365
sch	-10.8365
▁61	-10.8367
rac	-10.837
▁kanaat	-10.837
▁çoğunlukla	-10.8373
▁geçin	-10.8373
▁beyni	-10.8375
▁kenti	-10.8376
▁RE	-10.8377
ildiğinde	-10.8377
▁sonuçlarını	-10.8383
▁unsur	-10.8384
▁57	-10.8385
▁eksiksiz	-10.8387
▁doküman	-10.8387
▁TÜRK	-10.8388
▁sezonu	-10.8389
▁resmen	-10.8389
▁saçma	-10.839
▁yönlü	-10.839
▁Yangın	-10.8391
▁ticareti	-10.8392
▁degil	-10.8393
▁oluşturuyor	-10.8395
▁Arapça	-10.8395
vâ	-10.8397
MS	-10.84
mişlerdir	-10.8403
ünüzü	-10.8404
▁edilemez	-10.8407
▁esir	-10.8408
▁özet	-10.8408
Cİ	-10.841
▁nükleer	-10.8413
▁anlamıyla	-10.8414
▁görüşmeleri	-10.8415
▁Durumu	-10.8417
▁etrafı	-10.8417
▁kaldık	-10.8417
▁benze	-10.8418
▁okuyun	-10.8419
▁teknolojileri	-10.8419
▁kapsam	-10.8419
▁etmeden	-10.842
▁--	-10.8422
▁başkanlık	-10.8424
▁yapılmasını	-10.8425
▁ücretleri	-10.8428
▁peri	-10.8431
▁savaşın	-10.8434
nizdeki	-10.8434
▁Gümrük	-10.844
▁Bizans	-10.844
▁öldürül	-10.8441
▁tarihe	-10.8442
▁çağrısı	-10.8443
▁düzeyinde	-10.8444
▁Temiz	-10.8444
laşması	-10.8444
-6	-10.8445
▁gençlerin	-10.8446
lanmak	-10.8447
▁başını	-10.8451
▁yarışı	-10.8451
▁eksiklik	-10.8452
örü	-10.8455
▁ilçesine	-10.8456
▁istismar	-10.8457
Bİ	-10.8457
▁çadır	-10.8458
▁tanımlama	-10.8459
▁Ahşap	-10.8459
row	-10.846
▁Çatı	-10.8461
▁Başbakanı	-10.8462
▁oyuna	-10.8464
▁Amacı	-10.8464
▁huzuru	-10.8465
▁liraya	-10.8468
▁Televizyon	-10.8468
▁yaptıklarını	-10.8469
▁81	-10.8475
▁Port	-10.8476
▁bankalar	-10.8477
▁Firmamız	-10.8478
▁cumhuriyet	-10.8479
ğında	-10.8481
▁Hikaye	-10.8482
▁Kahve	-10.8483
▁döküm	-10.8484
▁hususlar	-10.8485
▁mana	-10.8486
▁reform	-10.8487
▁tarama	-10.8487
▁üste	-10.8491
▁demişti	-10.8491
▁nüfusu	-10.8493
▁meş	-10.8494
▁kararları	-10.8495
▁sürdürül	-10.8497
▁verilerin	-10.8498
efendi	-10.8499
▁KPSS	-10.8499
▁girerek	-10.8502
▁Olarak	-10.8502
▁Selçuklu	-10.8503
▁ölen	-10.8506
▁Öğr	-10.8506
▁Seri	-10.8507
▁Öğrenciler	-10.8509
▁ihbar	-10.8509
▁yaşamış	-10.8511
▁tahliye	-10.8512
▁sıkış	-10.8512
SU	-10.8512
▁İN	-10.8514
▁haricinde	-10.8515
his	-10.8516
ook	-10.8517
▁Yetkili	-10.8521
▁felsefe	-10.8523
▁aldat	-10.8523
evî	-10.8525
▁Anlat	-10.8527
▁otorite	-10.8528
▁yolla	-10.8531
▁asansör	-10.8532
▁elemanları	-10.8532
▁uygulanma	-10.8534
▁sök	-10.8534
▁MÜ	-10.8536
▁stand	-10.8538
▁tamamlanması	-10.8539
▁yağlı	-10.8542
▁bulunmayan	-10.8542
▁baraj	-10.8542
cilerin	-10.8543
▁Muharrem	-10.8543
▁ilimiz	-10.8544
▁yapıştır	-10.8547
▁Muh	-10.8547
▁Üçüncü	-10.855
▁köyünde	-10.8554
▁atmak	-10.8557
▁UEFA	-10.8561
▁beklet	-10.8562
▁bozma	-10.8562
▁yıka	-10.8562
▁kapatma	-10.8563
▁çevresi	-10.8567
▁Bö	-10.8568
▁uzaklaş	-10.8569
▁nereden	-10.8569
▁Yanı	-10.8569
▁çalışanlar	-10.857
▁özü	-10.857
▁durak	-10.8571
▁Asker	-10.8571
lâm	-10.8571
▁(3	-10.8573
▁Sha	-10.8573
ılabilecek	-10.8574
star	-10.8574
▁yazılan	-10.8575
BE	-10.8576
▁nerde	-10.8576
▁aşkı	-10.8578
ift	-10.8578
▁müthiş	-10.8579
▁Kul	-10.8581
▁emlak	-10.8582
saydı	-10.8587
▁Basketbol	-10.8588
▁ibaresi	-10.8588
▁Avustralya	-10.859
▁Yönetmeliğin	-10.859
▁Birleşmiş	-10.8591
▁kaleci	-10.8592
▁ulus	-10.8595
yseniz	-10.8598
▁doz	-10.8598
lî	-10.86
▁ışın	-10.86
▁Amerikalı	-10.86
▁atar	-10.8603
▁göstergesi	-10.8606
▁İndir	-10.8606
▁Fil	-10.861
▁vurdu	-10.8611
▁küme	-10.8611
▁grev	-10.8612
▁nci	-10.8612
▁kentinde	-10.8614
▁okullar	-10.8617
▁ulaştığı	-10.8617
▁bitirdi	-10.8618
▁villa	-10.862
▁hain	-10.862
seri	-10.862
▁gönderdiği	-10.862
▁kendimizi	-10.8621
yeni	-10.8622
▁Valiliği	-10.8623
▁Ban	-10.8626
▁hâlâ	-10.8626
▁kâr	-10.8627
▁öl	-10.8628
▁birbirini	-10.8633
▁Pri	-10.8634
▁Moda	-10.8634
▁faaliyetler	-10.8634
▁işkence	-10.8634
▁sorunlarını	-10.8635
▁Kırım	-10.8637
▁felaket	-10.8643
▁Talep	-10.8644
▁ES	-10.8644
▁imkansız	-10.8645
▁sab	-10.8646
▁1999	-10.8646
▁değilse	-10.8648
▁dedik	-10.865
▁kok	-10.865
▁Del	-10.8651
▁kendisinden	-10.8653
▁oynamak	-10.8654
▁yazılar	-10.8655
ülasyon	-10.8655
▁Analiz	-10.8655
▁Pir	-10.8656
▁Cihaz	-10.8656
ÜR	-10.8657
DU	-10.8658
▁gerçekleştirmek	-10.8658
▁versiyonu	-10.8659
▁Geliş	-10.866
▁şüphesiz	-10.8661
▁95	-10.8662
▁kıymet	-10.8662
▁taşır	-10.8668
▁Sergi	-10.8668
▁Mühendislik	-10.8669
▁duyulan	-10.8669
▁Lider	-10.867
▁Vakıf	-10.8672
▁adayları	-10.8673
▁con	-10.8676
▁bağlıdır	-10.8679
▁edebil	-10.868
▁yüreği	-10.8681
▁oruç	-10.8682
▁getirecek	-10.8684
▁devamı	-10.8685
▁Kuran	-10.8688
SL	-10.8689
▁nolu	-10.8692
▁açığa	-10.8695
▁çekerek	-10.8696
▁sponsor	-10.8697
▁koyup	-10.8697
▁bölgelerinde	-10.8701
vil	-10.8707
▁Pil	-10.8709
▁mahkum	-10.871
kuş	-10.8711
▁öngörül	-10.8714
▁artıyor	-10.8715
▁fl	-10.8716
▁haftasında	-10.8719
▁Müslümanlar	-10.8719
▁mineral	-10.872
▁gereksinim	-10.872
▁Uz	-10.872
▁nitelikli	-10.872
ıştır	-10.8721
▁stil	-10.8722
▁kupon	-10.8723
▁Efendimiz	-10.8723
oyun	-10.8724
Li	-10.8725
bî	-10.8725
▁Konser	-10.8726
batı	-10.8732
yelim	-10.8732
▁Yalçın	-10.8733
▁Dede	-10.8737
ero	-10.8738
▁yapıya	-10.8738
▁Kiralama	-10.8738
▁öncelikli	-10.8739
▁üzüntü	-10.874
▁aktarma	-10.8744
▁İnşallah	-10.8747
▁kaldırıldı	-10.8747
▁kağıdı	-10.8749
▁eğilim	-10.8754
Kon	-10.8757
▁kolon	-10.8758
▁başlayarak	-10.8759
▁Polat	-10.876
▁kazanır	-10.8761
▁videosu	-10.8762
▁Dört	-10.8762
▁görmeye	-10.8765
▁değiştirmek	-10.8768
him	-10.8772
▁Yunus	-10.8772
▁pis	-10.8773
daha	-10.8773
▁Col	-10.8774
▁Çetin	-10.8776
▁Ekip	-10.8776
▁Dik	-10.8776
▁KUR	-10.8779
▁sistemler	-10.8779
▁Tez	-10.8781
▁rejim	-10.8783
▁nak	-10.8783
▁OL	-10.8792
▁hizmetlerin	-10.8792
▁Kolay	-10.8792
▁başlandı	-10.8793
▁elektrikli	-10.8793
▁Taşıma	-10.8793
mektir	-10.8793
▁kaleme	-10.8793
▁Ço	-10.8794
Su	-10.8796
▁nimet	-10.8797
KO	-10.8798
▁bayıl	-10.8798
▁sanatı	-10.8798
▁muhabbet	-10.8799
▁kemer	-10.8801
berg	-10.8803
▁milliyetçi	-10.8803
▁Turgut	-10.8804
▁kurallar	-10.8817
▁kapsayan	-10.8817
▁duyan	-10.8817
▁72	-10.8818
▁başrol	-10.8821
▁bilmeyen	-10.8825
▁Galaxy	-10.8826
▁Profesyonel	-10.8826
▁mesafede	-10.883
▁Kimse	-10.8831
▁hijyen	-10.8831
İB	-10.8834
▁beraberlik	-10.8835
▁tecavüz	-10.8835
▁vol	-10.8836
▁yurtdışında	-10.8837
▁araştırmacı	-10.8843
▁hayali	-10.8844
▁diren	-10.8844
▁Sezon	-10.8846
▁NE	-10.8847
▁Çak	-10.8849
▁ı	-10.885
▁arkada	-10.885
▁nelerdir	-10.8851
▁aya	-10.8853
Tek	-10.8856
▁Konak	-10.8857
▁pazarı	-10.8857
▁sınava	-10.8859
▁yenilikler	-10.8861
zam	-10.8864
▁vermekte	-10.8867
▁kurulmuştur	-10.8867
▁içten	-10.8867
▁1980	-10.8872
liğimiz	-10.8872
▁neyse	-10.8873
2011	-10.8874
▁ÖN	-10.8874
▁lif	-10.8875
şır	-10.8877
▁tarihsel	-10.8879
▁davranışları	-10.888
▁bırakıp	-10.888
▁Taraf	-10.8881
▁ülkeyi	-10.8882
▁Seks	-10.8882
▁kullanın	-10.8882
▁dokunma	-10.8883
▁Komutanı	-10.8886
▁şehrinde	-10.8888
▁nöbet	-10.8888
▁fantezi	-10.8888
▁Cilt	-10.8889
▁kişiden	-10.8889
şir	-10.8889
▁düşündü	-10.8891
▁Afrin	-10.8896
nur	-10.8898
▁diyorlar	-10.8899
▁pişman	-10.8899
▁1.5	-10.89
▁hakkına	-10.8901
▁kurşun	-10.8902
▁başlatılan	-10.8904
▁saatlik	-10.8904
gazi	-10.8904
ÖZ	-10.8909
▁Şam	-10.8911
▁bı	-10.8913
▁tecrübeli	-10.8914
▁haberdar	-10.8917
▁Fuar	-10.8918
▁düşmesi	-10.8918
▁ifadesini	-10.8922
▁tıpkı	-10.8922
9)	-10.8922
▁Kök	-10.8922
kapı	-10.8922
▁kıyasla	-10.8923
GB	-10.8925
dö	-10.8927
▁us	-10.8927
▁rahatlat	-10.8929
.1.	-10.8931
işim	-10.8932
▁yüksekliği	-10.8937
▁memuru	-10.8938
▁Yeri	-10.8939
▁Şeyh	-10.8941
▁tuttu	-10.8943
▁rivayet	-10.8943
▁kurumun	-10.8943
▁ederse	-10.8946
hra	-10.8947
▁yıkan	-10.8949
▁Yay	-10.8949
▁ayırma	-10.8949
El	-10.8953
▁çürü	-10.8955
▁Anabilim	-10.8955
▁Sta	-10.8956
tici	-10.8956
dos	-10.8957
▁edebilecek	-10.8957
▁Yukarıda	-10.8959
▁KDV	-10.8959
▁İmparatorluğu	-10.896
▁Th	-10.8962
▁sıkça	-10.8962
▁yurtdışı	-10.8963
▁çekilen	-10.8964
arac	-10.8965
▁Nerede	-10.8965
▁etkisiyle	-10.8968
▁çalın	-10.8973
lanmasına	-10.8976
▁bulundukları	-10.8978
▁toptan	-10.898
▁Operasyon	-10.8981
▁kenarında	-10.8981
▁karbon	-10.8983
▁midir	-10.8983
▁konumu	-10.8984
▁bazında	-10.8985
bes	-10.8987
▁Teknolojileri	-10.8987
▁nar	-10.8988
▁çözme	-10.8989
▁yarısında	-10.899
▁Tatlı	-10.899
SEL	-10.899
/19	-10.8991
▁değerlendirilme	-10.8993
▁Korku	-10.8997
duğunuz	-10.8997
▁halkımız	-10.8997
sür	-10.8998
düm	-10.9
▁dayanışma	-10.9
▁Tab	-10.9001
▁Sad	-10.9005
▁Cevap	-10.9007
▁yorumu	-10.9007
lıyım	-10.9007
▁amca	-10.9008
▁kısmına	-10.9009
▁gebelik	-10.901
▁Mobilya	-10.9014
▁Yaşa	-10.9015
▁GENEL	-10.9015
rul	-10.9018
▁salgı	-10.9018
▁gündür	-10.9025
▁Zi	-10.9026
!!!	-10.9027
▁köle	-10.9027
▁planlanan	-10.9027
▁işlemini	-10.9027
lerarası	-10.9027
▁aksa	-10.903
▁GÜN	-10.9031
rad	-10.9031
▁85	-10.9031
lamıyor	-10.9031
-18	-10.9031
▁olmamak	-10.9035
▁sıkıntılar	-10.9038
▁Makina	-10.904
▁İsviçre	-10.904
▁başlamıştı	-10.9042
▁çalışmalarının	-10.9043
▁Antik	-10.9044
▁mıdır	-10.9046
▁tüp	-10.9047
ture	-10.9049
▁kullanabilir	-10.9051
▁başlıca	-10.9054
▁USB	-10.9055
oğulları	-10.9056
▁Hav	-10.9058
▁kalmadı	-10.9059
▁netice	-10.9059
lemeye	-10.9061
▁Soy	-10.9064
ildiğini	-10.9065
ılırken	-10.9065
▁karşılama	-10.9066
▁izledi	-10.9067
▁katılacak	-10.9068
▁vurul	-10.9068
▁konuşuyor	-10.9069
▁dk	-10.9071
▁Dosya	-10.9071
▁İp	-10.9071
▁Eyüp	-10.9072
▁Hız	-10.9072
▁lamba	-10.9073
▁Mevcut	-10.9075
▁kadına	-10.9077
▁çıkarılan	-10.9078
▁asi	-10.9084
▁gençlik	-10.9085
▁olursak	-10.9086
▁kitapta	-10.9087
▁Garanti	-10.909
▁bakıyor	-10.909
meksizin	-10.909
▁olacaksınız	-10.9091
▁Üzerine	-10.9092
▁uygundur	-10.9093
▁indirme	-10.9093
▁düşündüğü	-10.9095
▁kalça	-10.9095
▁fazlasıyla	-10.9097
ID	-10.9097
▁kumanda	-10.91
İn	-10.9101
▁suyunu	-10.9102
▁analizi	-10.9102
▁Kiralık	-10.9104
▁car	-10.9104
▁boyutlu	-10.9104
▁tırman	-10.9105
▁bozulma	-10.9106
▁Ap	-10.9108
▁akşamı	-10.9108
▁yahut	-10.9113
▁malzemesi	-10.9116
Ra	-10.9116
▁kabin	-10.9116
▁kör	-10.9117
▁piş	-10.9117
▁konforlu	-10.9118
▁kö	-10.9119
ney	-10.9121
▁bitkiler	-10.9123
▁açıklamaya	-10.9123
▁TEM	-10.9126
RU	-10.9128
sâ	-10.9128
▁artarak	-10.913
▁onayı	-10.913
▁ısınma	-10.913
ure	-10.9131
▁Şirketi	-10.9132
▁Tri	-10.9135
▁alev	-10.9135
▁Bulun	-10.9136
▁Gelişim	-10.9136
▁Maden	-10.9137
▁takımları	-10.9137
▁inanma	-10.9138
▁aksi	-10.9143
▁Usul	-10.9146
▁istasyon	-10.9146
▁katılımı	-10.9151
▁Belçika	-10.9153
▁hayatının	-10.9155
▁olanı	-10.9158
umuza	-10.9158
▁durumları	-10.9159
ıştırma	-10.9159
▁İbn	-10.9161
▁oğlum	-10.9161
▁ettiğim	-10.9162
▁işçilerin	-10.9164
▁oynuyor	-10.9165
▁saptan	-10.9165
TAŞ	-10.9165
▁Bunları	-10.9166
▁arıyorum	-10.9166
▁düşünün	-10.9166
▁başkanları	-10.9167
ladık	-10.9167
▁menfaat	-10.9167
▁Sir	-10.9167
▁kullanıl	-10.9167
▁gelmişti	-10.9168
▁çeşidi	-10.9169
▁bağlamda	-10.9169
▁makina	-10.9172
▁geleceğini	-10.9172
▁Burak	-10.9173
▁gazi	-10.9176
▁mevki	-10.9176
▁karşılaştığı	-10.9178
▁Geniş	-10.9181
▁karşılamak	-10.9182
▁çıkardığı	-10.9185
▁vakıf	-10.9186
▁çalışacak	-10.9186
▁yumuşa	-10.919
▁yardımcısı	-10.919
üldü	-10.919
▁Sem	-10.9193
tah	-10.9194
▁Arama	-10.9201
▁Adet	-10.9202
▁almıştı	-10.9203
▁ekibimiz	-10.9205
▁mükellef	-10.9207
▁mülk	-10.9208
▁Naz	-10.9211
▁yapımcı	-10.9213
▁Tebliğ	-10.9213
▁Piyasası	-10.9218
▁engelleme	-10.9218
kes	-10.9219
▁geçerlidir	-10.9221
emeyecek	-10.9221
LARIN	-10.9222
/3	-10.9225
▁dergisi	-10.9226
▁artırma	-10.9228
▁hazırlama	-10.9231
▁idrar	-10.9231
▁yerleştirme	-10.9231
laşır	-10.9234
▁laboratuvar	-10.9236
▁şarkısı	-10.9237
▁Erkekler	-10.9237
iğin	-10.9238
▁birinde	-10.9244
▁180	-10.9245
▁istisna	-10.9245
▁oluşu	-10.9245
▁varmış	-10.9247
İYE	-10.925
letme	-10.9254
▁çalışmalara	-10.9254
▁ürettiği	-10.9255
▁Çeşitli	-10.9255
▁artı	-10.9255
▁yönü	-10.9255
▁kombin	-10.9256
▁yum	-10.9257
▁asır	-10.9259
▁diyebiliriz	-10.926
▁Bat	-10.926
▁geldim	-10.9261
▁sec	-10.9263
▁havuzu	-10.9264
▁açılmış	-10.9264
▁1990	-10.9264
by	-10.9267
▁Hel	-10.9267
▁kullanışlı	-10.9268
▁ileti	-10.9269
▁iri	-10.9276
▁Fatma	-10.9277
kov	-10.928
▁motosiklet	-10.9281
▁basketbol	-10.9283
▁feda	-10.9285
▁Berlin	-10.9286
▁Yarışması	-10.9288
yy	-10.929
tığınız	-10.9298
▁Kahramanmaraş	-10.93
▁PC	-10.9302
▁müşterilerine	-10.9302
▁güler	-10.9302
▁taşıdığı	-10.9302
▁havada	-10.9307
▁kıymetli	-10.931
▁soğutma	-10.9311
▁Kıs	-10.9311
dınız	-10.9316
▁İYİ	-10.9319
▁ekleyip	-10.9326
▁parayı	-10.9326
▁oynadı	-10.9327
▁nadir	-10.9332
zaman	-10.9334
▁böcek	-10.9334
▁halini	-10.9336
lerimizle	-10.9337
▁Alın	-10.9337
▁tanınan	-10.9337
▁başvuruları	-10.9338
▁dolap	-10.9338
▁Şey	-10.934
▁Sitemizde	-10.9341
▁800	-10.9342
▁konuşmada	-10.9343
▁Ofis	-10.9343
▁Yüksekokulu	-10.9344
▁yapmıştır	-10.9345
▁Uyg	-10.9345
**	-10.9346
▁kusursuz	-10.9347
▁ebeveyn	-10.9348
▁Körfez	-10.9348
▁makineleri	-10.9348
▁kesintisiz	-10.9349
▁yaratmak	-10.9349
▁yapılabil	-10.9349
▁pl	-10.9349
▁açıklamasında	-10.935
ço	-10.9352
hisar	-10.9353
▁Muhasebe	-10.9355
▁imalatı	-10.9357
▁tayin	-10.9358
▁bilinçli	-10.936
▁Saha	-10.936
▁tetik	-10.9361
▁elimde	-10.9362
▁dayanan	-10.9364
▁İsa	-10.9365
▁oranla	-10.9368
▁ihtiyacını	-10.937
▁buradaki	-10.9371
▁yerin	-10.9372
▁hastaların	-10.9373
büs	-10.9373
laştı	-10.9373
▁ailesinin	-10.9374
▁Formu	-10.9375
▁Blog	-10.9376
▁Akıllı	-10.9379
▁filmde	-10.938
lenip	-10.9385
RT	-10.9386
▁seçmen	-10.9386
üdür	-10.9387
▁küp	-10.9387
▁yaşamaya	-10.9391
▁gübre	-10.9392
▁seti	-10.9392
▁baktığımızda	-10.9395
yonu	-10.9395
▁Ayak	-10.9396
▁doğumlu	-10.9396
▁frekans	-10.9398
▁Tuğ	-10.9402
▁hatıra	-10.9405
▁vermiştir	-10.9406
LAMA	-10.9406
▁Kaymakam	-10.9408
ack	-10.9409
▁maddelerin	-10.941
▁evlat	-10.9411
▁kuruldu	-10.9411
▁kaydedildi	-10.9413
▁ötesinde	-10.9414
▁veriliyor	-10.9416
▁poli	-10.9416
▁amel	-10.9417
▁sürecek	-10.9418
▁sos	-10.9419
▁Faruk	-10.942
▁Sekreter	-10.9424
▁masal	-10.9426
▁sevgilisi	-10.9427
▁kucak	-10.9427
▁duyguları	-10.9429
▁Yönetmen	-10.9429
▁Mekke	-10.943
▁uzmanlar	-10.9432
▁hesabınız	-10.9432
▁modül	-10.9434
▁Bende	-10.9441
▁itiraf	-10.9442
İP	-10.9444
müyor	-10.9446
▁olurlar	-10.9448
▁sayıları	-10.9451
▁yemekleri	-10.9452
▁satılan	-10.9453
gerçekleştirdiği	-10.9453
▁özelliğini	-10.9455
▁hazırlanıyor	-10.9457
▁Mira	-10.946
▁tüketil	-10.9461
urken	-10.9462
▁Sn	-10.9463
pazar	-10.9467
▁yaşayabil	-10.9467
▁gene	-10.9467
▁Che	-10.9471
rol	-10.9472
sınıf	-10.9472
▁teknikleri	-10.9473
▁cuma	-10.9474
▁şeytan	-10.9474
tuğ	-10.9475
▁oluşum	-10.9476
▁geleceğe	-10.9476
kası	-10.9476
▁siki	-10.9477
▁kaldırma	-10.9477
yıl	-10.9478
yeceğim	-10.9478
▁ilçemiz	-10.9478
▁Öğretmenleri	-10.9479
▁yoksul	-10.9488
▁istediklerini	-10.9488
▁buhar	-10.949
▁dokusu	-10.9491
mizdeki	-10.9493
▁olanağı	-10.9499
▁Bitki	-10.95
▁kararını	-10.9502
▁Iş	-10.9502
PA	-10.9502
▁Komitesi	-10.9503
▁nihayet	-10.9505
5)	-10.9505
▁ağacı	-10.9506
▁apartman	-10.9508
▁ün	-10.9508
isti	-10.9513
▁görüntüleri	-10.9515
▁üncü	-10.9517
▁istediğimiz	-10.9517
▁anlatır	-10.9519
▁açıp	-10.9523
▁tarifleri	-10.9523
▁Kursu	-10.9524
▁Güler	-10.9529
▁psikoloji	-10.9534
▁dokuz	-10.9535
▁tanıtımı	-10.9537
▁sırasıyla	-10.9537
▁buluştu	-10.9538
RAN	-10.9539
▁fiş	-10.9541
▁ülkelerinde	-10.9545
İHA	-10.9545
▁eksen	-10.9549
▁Karşıyaka	-10.9549
▁çektir	-10.9549
▁Sivil	-10.955
▁açılır	-10.955
▁etsin	-10.9552
▁redded	-10.9553
▁Belediyespor	-10.9555
ju	-10.9556
cor	-10.9556
▁bireylerin	-10.9557
▁büyüyen	-10.9559
▁Şer	-10.956
▁kırsal	-10.9561
▁çılgın	-10.9561
▁Fazla	-10.9566
▁gö	-10.9567
▁takvim	-10.9568
▁sürecini	-10.9568
La	-10.9569
▁bulunmamaktadır	-10.9569
▁yapmadan	-10.957
▁yakalandı	-10.9571
▁taciz	-10.9572
▁Kilis	-10.9573
nfeksiyon	-10.9574
ess	-10.9574
▁sürecinin	-10.9574
▁Muhtar	-10.9575
▁sitesinden	-10.9577
kom	-10.9578
▁yapılmalıdır	-10.9582
▁Bilgiler	-10.9582
ound	-10.9583
▁yönünden	-10.9584
▁Hakkari	-10.9584
▁Kütahya	-10.9586
▁epey	-10.9586
İnsan	-10.9589
▁belirlemek	-10.959
▁tercüme	-10.9591
▁materyal	-10.9592
▁sürdürme	-10.9598
▁branş	-10.9598
▁Ayrı	-10.9602
▁gu	-10.9603
üf	-10.9603
cent	-10.9603
▁kırık	-10.9608
▁videoları	-10.961
▁simge	-10.9611
▁koymak	-10.9612
▁kendiniz	-10.9613
▁59	-10.9613
▁bot	-10.9615
▁kuruş	-10.9616
▁planları	-10.9616
▁fikirleri	-10.9619
▁Saygı	-10.9619
▁fare	-10.9619
▁çıkarılması	-10.9621
▁hastanın	-10.9621
duğumuz	-10.9622
▁rastla	-10.9622
▁Bütçe	-10.9623
▁ru	-10.9624
▁sorusu	-10.9624
▁Cep	-10.9624
tigi	-10.9625
▁düzenlenmesi	-10.9626
çak	-10.9629
▁güvence	-10.9629
▁uygulanacak	-10.9629
blo	-10.9636
▁ilkokul	-10.9637
sis	-10.9637
ilmez	-10.9638
▁Silahlı	-10.9639
▁söyleyerek	-10.9639
▁konak	-10.9639
▁terapi	-10.9641
▁adlandırılan	-10.9643
▁arayarak	-10.9645
▁Başakşehir	-10.9645
gerçekleştirildi	-10.9648
enek	-10.9649
▁staj	-10.9649
▁duygusu	-10.965
PO	-10.9651
▁Ur	-10.9654
▁memnuniyet	-10.9655
▁torba	-10.9655
▁Otomobil	-10.9655
▁kaldım	-10.9659
▁çıkaran	-10.9662
▁Nar	-10.9664
ART	-10.9665
▁Kafkas	-10.9665
zyon	-10.9666
▁Sarayı	-10.9667
▁pembe	-10.9668
gg	-10.9669
▁Şef	-10.967
▁İstiklal	-10.967
▁babasının	-10.9671
▁hükme	-10.9671
▁aslı	-10.9672
▁muhtemelen	-10.9673
▁Kars	-10.9674
▁nite	-10.9677
▁BİRİNCİ	-10.9677
▁BO	-10.9678
▁ücretli	-10.9679
▁yönetil	-10.9679
ülmüş	-10.9685
▁Metro	-10.9685
▁paylaştığı	-10.9685
▁Karaca	-10.9686
▁istemiyorum	-10.9686
▁yuvarlak	-10.9687
▁serin	-10.9689
▁minimum	-10.969
▁önlemler	-10.9691
stre	-10.9692
▁durur	-10.9693
▁kaplı	-10.9694
▁Deri	-10.9694
▁azalma	-10.9696
koç	-10.9696
▁diyoruz	-10.9699
▁Demokrasi	-10.9699
▁atarak	-10.9702
▁sezonun	-10.9705
▁Fre	-10.9709
Ev	-10.971
▁Ümit	-10.9712
▁Levent	-10.9715
▁burda	-10.9718
▁koyul	-10.9721
▁başkanlığında	-10.9723
▁sulama	-10.9724
▁Eğ	-10.9725
▁Engin	-10.9725
▁aynen	-10.9726
▁Um	-10.9729
YS	-10.9729
▁Cerrahi	-10.973
▁karışımı	-10.973
▁gülümse	-10.973
▁tapu	-10.9731
yacağım	-10.9731
▁katkısı	-10.9735
▁aydınlat	-10.9736
▁ilkesi	-10.9737
ska	-10.9737
▁almadan	-10.9739
▁çalışmalarında	-10.9742
/12	-10.9744
hor	-10.9745
IC	-10.9746
▁sayılan	-10.9748
▁kirli	-10.9748
▁oturdu	-10.9749
▁vak	-10.9749
▁Yargıtay	-10.975
▁büyüklüğü	-10.975
▁bilinmektedir	-10.9752
▁Milyon	-10.9753
▁dışarıdan	-10.9755
▁(4)	-10.9756
vin	-10.9758
▁kalkış	-10.9758
▁Önceki	-10.9759
▁62	-10.976
▁Komisyon	-10.976
▁adında	-10.9761
▁sağlanır	-10.9762
▁67	-10.9762
▁Ör	-10.9763
cha	-10.9765
▁ekipler	-10.9765
▁finansman	-10.9766
▁katında	-10.9767
▁000	-10.9767
▁cumhurbaşkanı	-10.9767
▁Değişim	-10.9767
▁ikiye	-10.9767
ceği	-10.9768
▁seviyesine	-10.9768
ýnda	-10.9769
▁Ünal	-10.9769
▁kuyu	-10.9769
▁Özdemir	-10.9772
▁kanalları	-10.9773
▁ja	-10.9773
▁dr	-10.9773
iyye	-10.9776
▁sevinirim	-10.9777
▁eşim	-10.9778
-11	-10.9781
▁çekirdek	-10.9782
▁etmesini	-10.9782
▁bilgiyi	-10.9783
gür	-10.9783
.11.2018	-10.9787
layacağı	-10.9791
cy	-10.9792
▁usulü	-10.9793
▁görmesi	-10.9795
▁1-2	-10.9798
▁böl	-10.98
duktan	-10.98
▁Don	-10.9801
▁birtakım	-10.9805
▁tüken	-10.9811
▁malı	-10.9811
▁muhalif	-10.9812
liğinden	-10.9812
▁eğitime	-10.9813
▁nakit	-10.9813
▁Bulgaristan	-10.9815
▁İpek	-10.9816
▁iyileştirme	-10.9817
küler	-10.9822
çay	-10.9822
▁elçi	-10.9822
▁İster	-10.9823
Mar	-10.9824
▁İmar	-10.983
▁Demirtaş	-10.9831
▁sürecin	-10.9831
▁türkiye	-10.9832
▁çete	-10.9833
▁Sovyet	-10.9835
lenmeye	-10.9836
▁huzurlu	-10.9836
▁hı	-10.9836
▁resimler	-10.9837
jik	-10.9838
▁Teşkilatı	-10.9838
▁verilerine	-10.9841
▁ileride	-10.9842
▁Bence	-10.9843
▁Temizlik	-10.9843
▁Serdar	-10.9843
▁buldum	-10.9844
▁bozukluğu	-10.9845
▁Gemi	-10.9845
▁kaçınılmaz	-10.9846
▁beste	-10.9846
gov	-10.9847
▁oksijen	-10.9848
▁yepyeni	-10.9848
▁seçimlerde	-10.985
▁gitmiş	-10.9851
▁bilinme	-10.9853
▁karnı	-10.9853
▁alkış	-10.9854
▁Kural	-10.9859
▁sigortası	-10.9861
▁edilmesini	-10.9861
▁fil	-10.9863
▁yaşantı	-10.9863
etme	-10.9864
▁kültürünü	-10.9865
▁belirtileri	-10.9867
▁tutuyor	-10.9871
▁Böylelikle	-10.9873
▁açıklanan	-10.9873
▁işlerini	-10.9875
▁gelsin	-10.9876
▁Yükseköğretim	-10.9877
ilecektir	-10.9878
▁Kâ	-10.9878
▁pantolon	-10.988
▁66	-10.9882
▁kaçırma	-10.9882
▁Kastamonu	-10.9883
İH	-10.9884
hel	-10.9885
▁BAŞ	-10.9885
▁hazırlanması	-10.9889
▁daim	-10.9891
▁sözcüğü	-10.9893
▁çayı	-10.9895
▁başlı	-10.9895
▁Alım	-10.9898
▁göreceksiniz	-10.9899
▁Cafe	-10.99
▁köpeği	-10.9901
▁emekçi	-10.9901
▁bilinir	-10.9902
▁döneme	-10.9902
▁silme	-10.9903
▁zorunludur	-10.9904
zz	-10.9904
▁türkü	-10.9904
▁Akça	-10.9904
TB	-10.9905
▁görüşleri	-10.9907
lantı	-10.9908
the	-10.991
▁kolaylık	-10.9911
▁kıvam	-10.9911
▁imkanları	-10.9913
▁askı	-10.9914
SM	-10.9918
▁gerçekleştiren	-10.9919
▁durdu	-10.992
▁Borç	-10.9921
▁konunun	-10.9921
▁numaraları	-10.9922
▁şekillendir	-10.9923
Zİ	-10.9926
▁Bank	-10.9927
laştığı	-10.993
▁tamiri	-10.9934
▁çalışıyorum	-10.9937
▁çıkmaya	-10.9937
▁Ziya	-10.9941
▁ÖSYM	-10.9944
win	-10.9944
▁eğit	-10.9946
▁Form	-10.9946
▁çıkmaktadır	-10.9946
▁önlemleri	-10.9947
▁yürütme	-10.9949
▁Kütüphane	-10.9949
▁Hayvancılık	-10.9953
▁başarısı	-10.9956
▁yukarıdaki	-10.9957
▁ilişkilerin	-10.996
▁istedik	-10.9962
▁hizmetini	-10.9962
▁titiz	-10.9963
▁binalar	-10.9963
▁ödev	-10.9963
▁İçinde	-10.9964
▁Merhabalar	-10.9964
▁teşkilat	-10.9965
çeşme	-10.9965
▁karayolu	-10.9966
KE	-10.9969
▁listesinde	-10.9971
▁Okuma	-10.9971
▁getirmiş	-10.9971
??	-10.9973
▁küçül	-10.9975
▁hatları	-10.9977
▁Batman	-10.9977
▁videoyu	-10.9978
▁suçu	-10.9981
▁Haftası	-10.9981
▁bilinmeyen	-10.9984
▁Sonrasında	-10.9985
▁Kurtuluş	-10.9985
▁yaklaşımı	-10.9985
▁bakarak	-10.9985
▁buğday	-10.9988
▁Yat	-10.999
▁kıta	-10.999
▁getiri	-10.999
▁Birkaç	-10.999
▁baskın	-10.999
▁kavuştur	-10.9994
▁anılan	-10.9996
▁pamuk	-10.9996
▁olmaksızın	-10.9996
▁imkânı	-10.9998
▁düştüğü	-10.9999
▁verirken	-10.9999
▁Telekom	-11
SP	-11.0001
▁LED	-11.0002
▁haliyle	-11.0003
▁solunum	-11.0003
▁Ahmed	-11.0004
▁Derin	-11.0004
▁Zonguldak	-11.0008
▁İS	-11.0009
▁göstererek	-11.0009
▁çıktık	-11.001
▁alınmıştır	-11.001
▁ambulans	-11.001
▁faydası	-11.0014
ung	-11.0015
▁dilediğiniz	-11.0017
▁bölgeleri	-11.0017
▁SEO	-11.0021
yacaksınız	-11.0023
▁Altı	-11.0023
▁sürücüsü	-11.0025
▁Hocam	-11.003
ladıkları	-11.003
▁yüzüne	-11.003
aktif	-11.0031
▁düşmüş	-11.0032
▁kısmen	-11.0032
▁Gülen	-11.0033
sınlar	-11.0033
▁belirttiği	-11.0034
▁genişlet	-11.0036
▁ziyareti	-11.0037
▁diyecek	-11.0039
▁gözle	-11.004
▁bağlantılı	-11.0042
▁zel	-11.0043
▁Moskova	-11.0044
ÇE	-11.0048
pati	-11.0049
▁kaybetmiş	-11.005
▁Gökhan	-11.005
▁muhtemel	-11.0051
▁büyüt	-11.0053
▁siteye	-11.0053
has	-11.0055
lendiğini	-11.0055
▁Sat	-11.0057
▁sarışın	-11.0057
▁Karabük	-11.0063
▁direnç	-11.0064
▁tutulması	-11.0065
▁projelerin	-11.0068
▁ayın	-11.0069
▁güzergah	-11.007
▁seçti	-11.007
zet	-11.007
▁Serbest	-11.0072
▁şimdiye	-11.0073
▁sağlayabil	-11.0073
▁itfaiye	-11.0075
▁biyo	-11.0077
▁Gölü	-11.0077
▁Kasa	-11.008
▁komp	-11.0082
dýr	-11.0082
▁anımsa	-11.0082
▁Bağımsız	-11.0085
▁istasyonu	-11.0088
▁anal	-11.0091
▁Kalın	-11.0092
▁Kabul	-11.0093
▁gördüğünüz	-11.0094
▁sitenin	-11.0096
▁cari	-11.0097
▁işsizlik	-11.0098
▁İnsanların	-11.0099
NG	-11.0101
▁Gümüş	-11.0106
▁tarafa	-11.011
▁Market	-11.0111
▁Den	-11.0113
▁Ümraniye	-11.0114
adet	-11.0114
landırılması	-11.0115
nuzda	-11.0115
▁Maltepe	-11.0123
▁ambar	-11.0125
▁çıkmıştır	-11.0126
▁Çorum	-11.0127
▁gun	-11.0129
▁Kızılay	-11.0129
▁telefonunuz	-11.013
▁yıldızı	-11.013
▁bulduk	-11.0131
▁Abdül	-11.0132
▁sahibinin	-11.0133
▁Görüşme	-11.0134
▁pozisyonu	-11.0134
▁Kalp	-11.0137
▁feth	-11.0137
▁mağara	-11.0137
▁dul	-11.0137
▁mucize	-11.014
▁yazdır	-11.0141
▁Nakliye	-11.0145
▁fazlasını	-11.0146
YON	-11.0146
▁birikimi	-11.015
▁Ayar	-11.015
▁parsel	-11.0152
▁yazmış	-11.0152
▁saldırısı	-11.0152
▁kulübü	-11.0157
▁görüştü	-11.016
▁Hâ	-11.016
qua	-11.0162
etti	-11.0163
▁böbrek	-11.0166
▁figür	-11.0167
▁Val	-11.0167
▁detaylara	-11.0167
▁insanlarla	-11.0168
▁pano	-11.0168
▁müşterilerimize	-11.017
▁İlgi	-11.017
▁yasağı	-11.0171
▁üretilmiş	-11.0172
▁fu	-11.0172
▁hav	-11.0176
▁giderilmesi	-11.0176
▁tabanlı	-11.0176
▁Elma	-11.0178
▁vah	-11.0179
▁kule	-11.0183
ULU	-11.0183
▁SU	-11.0184
▁önünü	-11.0184
▁istekli	-11.0187
▁etraf	-11.0196
kut	-11.0198
▁Şehircilik	-11.0199
▁Bahis	-11.0199
▁Rıza	-11.02
▁Zeki	-11.0201
▁tap	-11.0202
İl	-11.0203
bl	-11.0204
▁organları	-11.0206
▁seçildi	-11.021
▁Düzce	-11.021
▁Hele	-11.0211
▁yazımızda	-11.0214
irim	-11.0215
▁1)	-11.0215
▁konuşmasında	-11.0216
▁Askeri	-11.0216
▁plakalı	-11.0216
▁aklıma	-11.0218
▁karışım	-11.0219
▁haram	-11.022
▁cebi	-11.022
▁Full	-11.0221
▁ilde	-11.0222
▁kurtuluş	-11.0222
▁iyileşme	-11.0224
▁kabar	-11.0227
▁(%	-11.0229
▁War	-11.0229
▁far	-11.0229
▁düşüyor	-11.0229
▁sahasında	-11.0231
▁Alışveriş	-11.0231
▁vazife	-11.0231
▁amatör	-11.0233
▁dere	-11.0234
▁klasör	-11.0236
ülür	-11.0237
lığından	-11.0238
▁karşılaştırma	-11.0238
▁Platformu	-11.0239
▁kötülük	-11.0243
SAL	-11.0246
▁Vergisi	-11.0247
▁taşımak	-11.0248
▁alerji	-11.0249
▁kullanılıyor	-11.0251
▁yaptıktan	-11.0254
▁umu	-11.0254
sko	-11.0257
▁SP	-11.0257
▁olduktan	-11.0257
ymiş	-11.0259
▁Ertuğrul	-11.026
▁toprağa	-11.026
▁yarışması	-11.0261
▁mantığı	-11.0261
▁çalışmalarımız	-11.0265
leştiği	-11.0265
▁yakında	-11.0266
▁takviye	-11.0268
loji	-11.027
▁kaybeder	-11.0271
▁sorularını	-11.0271
▁vasıtasıyla	-11.0274
ons	-11.0274
▁Çavuşoğlu	-11.0274
▁üzüm	-11.0275
▁statüsü	-11.0275
yebilir	-11.0276
▁toplumda	-11.0278
▁Yöntem	-11.0279
▁gide	-11.0284
▁bakımdan	-11.0285
▁kariyeri	-11.0286
▁geleneği	-11.0288
▁yırt	-11.029
▁bırakmak	-11.0294
▁düzelt	-11.0296
▁mantık	-11.0298
▁Senin	-11.0298
▁cevabını	-11.0299
▁getirdik	-11.0302
▁kadınlara	-11.0302
▁dönüm	-11.0302
▁idam	-11.0303
▁BU	-11.0304
▁Cer	-11.0305
▁bulmuş	-11.0306
▁yoğurt	-11.0307
bor	-11.0308
general	-11.0308
Bugün	-11.0309
▁dileriz	-11.0309
▁baktı	-11.0309
-16	-11.031
▁Gelecek	-11.0311
▁unutulmaz	-11.0311
ALI	-11.0313
▁miting	-11.0316
▁derneği	-11.0316
LL	-11.0316
▁Sipariş	-11.0318
▁İdari	-11.0323
▁düşünüyoruz	-11.0324
ahmet	-11.0325
▁Çelebi	-11.0329
▁atıyor	-11.0331
▁tamamlayan	-11.0331
▁Kaş	-11.0335
▁tepsi	-11.0335
▁jandarma	-11.0336
▁AVM	-11.0337
▁etmeyin	-11.0337
▁ateşli	-11.0342
▁hayati	-11.0344
-30	-11.0348
ies	-11.035
▁adresini	-11.035
▁destekleme	-11.0351
▁Burcu	-11.0351
▁çalışmaktadır	-11.0352
▁Neyse	-11.0352
tuk	-11.0353
▁ortaklık	-11.0354
▁edelim	-11.0355
▁mesleğin	-11.0356
▁bağımlı	-11.0357
▁Isparta	-11.0358
▁ayına	-11.0358
▁bahane	-11.0359
laşım	-11.036
vizyon	-11.0361
▁Kaba	-11.0362
▁700	-11.0363
▁kalmaz	-11.0364
▁Beden	-11.0365
▁yelpaze	-11.0366
cre	-11.0369
Şu	-11.0371
▁dilek	-11.0372
▁ayrılmış	-11.0375
▁iştirak	-11.0376
▁keskin	-11.0376
▁ulaşması	-11.0377
ATI	-11.0382
▁Büyükelçi	-11.0386
▁yapabilme	-11.0389
▁açılacak	-11.0391
▁giysi	-11.0393
▁çözümleri	-11.0395
Gel	-11.0396
▁hükümlerine	-11.0399
▁sayın	-11.0399
▁müddet	-11.0401
▁Gez	-11.0402
▁ilgisini	-11.0403
Mu	-11.0403
ates	-11.0405
▁başlattığı	-11.0406
▁uzmanlık	-11.0406
▁eklem	-11.0406
▁olduğumu	-11.0407
▁kurulumu	-11.0409
▁dişi	-11.041
izmin	-11.0411
▁kadınları	-11.0415
▁erkeğin	-11.0416
▁Oyna	-11.0417
▁unsurlar	-11.0418
▁Bulut	-11.0418
▁oynat	-11.0418
▁yaşına	-11.0421
▁atmosfer	-11.0421
▁haritası	-11.0423
▁yöneticisi	-11.0425
▁Sert	-11.0425
▁tabanı	-11.0427
▁insani	-11.0427
▁geçirildi	-11.0428
▁başlamadan	-11.043
▁Kamp	-11.0432
▁seans	-11.0433
▁çerçevede	-11.0433
▁sensör	-11.0433
lmaz	-11.0436
▁Önder	-11.0437
▁burası	-11.0439
▁Kararı	-11.0441
▁doğra	-11.0441
▁yönelt	-11.0442
▁taşımacılığı	-11.0443
▁görülebilir	-11.0444
▁fırtına	-11.0446
▁operatör	-11.0447
cra	-11.0448
▁transferi	-11.0448
▁yargılama	-11.0449
▁sürüş	-11.0449
▁oyuncuları	-11.0451
▁etkileyici	-11.0452
▁vermez	-11.0452
▁gördüğüm	-11.0453
▁korkusu	-11.0454
▁vatandaşı	-11.0454
▁karşılaştı	-11.0455
latma	-11.0458
▁Vatan	-11.0458
▁bulunmuş	-11.0458
▁Avukat	-11.0459
▁mutlak	-11.0459
▁işletmeler	-11.0463
▁endeksi	-11.0463
▁kazanım	-11.0463
▁masum	-11.0466
▁geçirilen	-11.0467
▁Hükümeti	-11.0469
▁Sözleşmesi	-11.047
▁Rüya	-11.0471
▁derhal	-11.0471
sinler	-11.0472
▁Divan	-11.0474
▁güvenliğini	-11.0475
▁sözünü	-11.0475
▁öncelik	-11.0475
▁keşif	-11.0475
▁Şampiyonlar	-11.0476
▁İçi	-11.0476
▁teması	-11.0477
▁İspanyol	-11.0478
▁Adem	-11.0479
▁borçlu	-11.0482
Par	-11.0482
▁yetkililer	-11.0483
▁Evleri	-11.0486
▁takdim	-11.0487
▁ısıtma	-11.0487
▁My	-11.0487
▁negatif	-11.0491
▁internette	-11.0492
▁aydır	-11.0493
▁cildi	-11.0496
▁birikim	-11.0498
▁Soğuk	-11.05
▁ülkeden	-11.0502
▁düzel	-11.0503
▁çim	-11.0505
▁tutuklandı	-11.0505
▁İskender	-11.0508
▁kabuk	-11.0509
▁favori	-11.051
▁içki	-11.0514
▁yapabileceği	-11.0514
▁etkisiz	-11.0515
▁Yoğun	-11.0518
▁şartlarda	-11.0519
▁68	-11.052
▁İzle	-11.0521
▁afet	-11.0522
▁peşin	-11.0523
▁facebook	-11.0524
▁başbakan	-11.0524
▁yapısını	-11.0524
▁Varlık	-11.0526
▁merhamet	-11.0526
aydın	-11.0528
ato	-11.053
▁kaydıyla	-11.0532
▁Siyaset	-11.0532
leştirmek	-11.0532
▁Met	-11.0534
ırız	-11.0537
▁Nuri	-11.054
▁tanımı	-11.0541
severler	-11.0544
▁sokakta	-11.0544
▁faydaları	-11.0545
▁seslendir	-11.0546
▁Zey	-11.0547
▁PA	-11.0549
ojen	-11.0551
trol	-11.0551
▁bulabil	-11.0552
▁Şeh	-11.0552
▁helikopter	-11.0554
▁noktasına	-11.0555
▁kurtulmak	-11.0555
▁ilkeleri	-11.0556
▁perakende	-11.0556
pre	-11.0558
▁aktaran	-11.0558
not	-11.0558
Çok	-11.0558
PE	-11.0558
▁hayvanların	-11.0561
▁Anlaşma	-11.0565
▁fan	-11.0565
▁tasarımcı	-11.0569
▁abart	-11.0571
▁Tas	-11.0574
▁gitar	-11.0576
▁fiziki	-11.0577
▁cins	-11.0578
▁Sözleri	-11.0579
▁olmakta	-11.0579
▁açlık	-11.058
▁sağlanan	-11.0582
▁cehennem	-11.0583
▁etmedi	-11.0585
▁Seyahat	-11.0589
▁Organizasyon	-11.0589
▁temenni	-11.0592
▁notu	-11.0592
▁Çağrı	-11.0592
▁dışarıda	-11.0594
▁müşterilerimiz	-11.0594
YET	-11.0595
▁patent	-11.0596
▁talebinde	-11.0597
▁Küresel	-11.0597
▁Dekorasyon	-11.0597
trik	-11.0599
yağ	-11.06
▁etmeyen	-11.0601
▁okudum	-11.0602
▁başlayıp	-11.0603
ülen	-11.0605
▁kullanmayı	-11.0609
▁yazıyı	-11.0611
▁eğitimini	-11.0612
▁ertesi	-11.0614
▁edilmek	-11.0615
▁Kapalı	-11.0616
▁Yazıcı	-11.0616
▁askerleri	-11.0617
▁Tren	-11.0618
MASI	-11.0619
▁tempo	-11.0619
▁Tekrar	-11.0621
▁öteki	-11.0621
▁topluma	-11.0625
▁Özcan	-11.0627
▁Bilecik	-11.0627
▁izliyor	-11.0628
▁bakanlık	-11.0633
▁uzatma	-11.0635
▁problemler	-11.0637
▁bünye	-11.0637
▁merci	-11.0637
▁kökenli	-11.0638
▁unsurları	-11.0638
▁soluk	-11.0638
TİK	-11.064
▁severler	-11.0643
▁konumda	-11.0644
▁İsmet	-11.0645
▁vadede	-11.0645
▁Duygu	-11.0646
▁Cephe	-11.0647
▁başladığını	-11.0648
▁Endüstri	-11.0649
▁bölgesindeki	-11.065
▁yetenekleri	-11.065
larýn	-11.0651
▁Havuz	-11.0652
âl	-11.0653
▁Artvin	-11.0655
▁Yedi	-11.0656
▁Ölçü	-11.0656
▁tahmini	-11.0658
▁tanıştı	-11.0659
▁Erol	-11.066
▁kuşak	-11.0661
▁mev	-11.0665
▁götürdü	-11.0667
▁denildi	-11.0667
▁yazıda	-11.0668
LÜ	-11.0668
▁gidin	-11.0669
▁belgelerin	-11.067
▁yut	-11.0676
bro	-11.0676
▁yükü	-11.0677
los	-11.0678
▁sesleri	-11.0678
▁aktardı	-11.0681
▁Trans	-11.0682
▁koyuyor	-11.0683
▁söyleşi	-11.0684
▁kazanmış	-11.0684
▁İçeri	-11.0686
▁defalarca	-11.0687
Or	-11.0688
▁seçimlerinde	-11.069
▁sesini	-11.069
▁Mimarlık	-11.0691
▁cezalandırıl	-11.0692
▁gerçekçi	-11.0694
▁Aşağıda	-11.0699
▁heyecanı	-11.07
▁sistemde	-11.07
▁edemez	-11.0702
▁3-4	-11.0706
▁Yargı	-11.0707
▁teori	-11.0707
▁görülmesi	-11.0709
labilir	-11.071
▁bilmediği	-11.0713
▁Yolcu	-11.0714
yurt	-11.0716
▁bitkisel	-11.0719
▁tedarik	-11.072
▁saklı	-11.0722
▁yaşadığımız	-11.0723
▁AA	-11.0725
GÜ	-11.0725
▁kısmının	-11.0725
▁zeytinyağı	-11.0726
▁yetmez	-11.0728
▁by	-11.073
▁basamak	-11.0731
▁duman	-11.0734
▁barındıran	-11.0734
▁Bit	-11.0738
ics	-11.074
▁ulaşabil	-11.074
▁Bursaspor	-11.0743
▁sorma	-11.0743
IP	-11.0744
▁İlan	-11.0746
laştırılması	-11.0748
▁mani	-11.0749
▁mutluluğu	-11.0752
▁yorul	-11.0753
TIR	-11.0754
▁Finansal	-11.0755
▁rakamlar	-11.0757
lâl	-11.0757
▁bereket	-11.0762
▁hd	-11.0763
▁Genelkurmay	-11.0767
landığında	-11.0768
▁eylemi	-11.0769
▁NO	-11.0769
▁değişiklikleri	-11.077
▁Yıllar	-11.077
▁memleketi	-11.0771
▁sitesine	-11.0771
▁Afyonkarahisar	-11.0773
▁imal	-11.0774
▁Akademi	-11.0774
▁özlem	-11.0776
▁deyip	-11.0778
▁çarpı	-11.0778
▁paylaşımı	-11.0781
▁işlemlerinin	-11.0781
▁unuttu	-11.0781
▁iOS	-11.0782
▁parametre	-11.0783
▁eminim	-11.0784
umuzu	-11.0786
▁diri	-11.0787
▁gösterim	-11.0789
▁koleksiyon	-11.079
▁çalışmanın	-11.079
▁komik	-11.0794
▁sağlayarak	-11.0795
▁Esnaf	-11.0795
▁bulunacak	-11.0798
▁Final	-11.0799
▁almakta	-11.0803
▁kimdir	-11.0806
▁Zeynep	-11.0809
▁1998	-11.081
▁zihni	-11.081
▁bulgular	-11.0811
▁Erzincan	-11.0811
▁Yalova	-11.0811
▁deplasmanda	-11.0813
▁Tokat	-11.0813
▁Düzenleme	-11.0814
▁ANKARA	-11.0814
▁şarkıları	-11.0816
YAR	-11.0816
▁gerektiğinde	-11.0819
amamış	-11.0823
▁göstermesi	-11.0829
leşir	-11.083
▁Kelime	-11.083
▁başvurma	-11.083
▁coğrafi	-11.0831
▁ailesine	-11.0832
▁düşünmek	-11.0833
üldüğü	-11.0836
▁Klasik	-11.0837
▁yıllarca	-11.0838
▁kuruluşun	-11.0841
tive	-11.0841
▁fena	-11.0842
▁aktör	-11.0845
▁tadilat	-11.0845
▁Tuna	-11.0846
▁ekrana	-11.0848
▁arayışı	-11.0848
▁değişir	-11.085
▁tuşuna	-11.0853
▁bahsettiği	-11.0855
▁Mars	-11.0858
▁karara	-11.0858
▁partner	-11.0859
▁kavur	-11.0859
box	-11.0859
▁olasılığı	-11.0861
▁Avcı	-11.0867
▁ndan	-11.0868
mazsa	-11.0868
▁yıkım	-11.0868
lamıştır	-11.087
Eğer	-11.087
▁iskele	-11.087
▁oturuyor	-11.087
▁atom	-11.0872
▁üretmek	-11.0873
▁duygular	-11.0874
aza	-11.0875
▁Red	-11.0876
▁yönetiminde	-11.0877
▁bant	-11.0877
▁dostluk	-11.0877
▁dolma	-11.0878
▁keşfetme	-11.0878
▁kuram	-11.0881
▁iseniz	-11.0881
▁sevimli	-11.0882
▁sitesinin	-11.0883
▁Çakır	-11.0883
SD	-11.0884
▁mühendislik	-11.0886
LİĞİ	-11.0887
▁Mc	-11.0888
▁bulundurul	-11.0888
▁davranma	-11.0889
▁bölümünden	-11.089
▁koyan	-11.089
▁Komp	-11.0894
▁Müdürlük	-11.0894
▁köklü	-11.0895
▁yapalım	-11.0896
▁Celal	-11.0901
▁full	-11.0901
▁ülkemize	-11.0902
▁konuşması	-11.0904
▁Heyet	-11.0905
▁hikmet	-11.0912
▁arayın	-11.0913
▁besinler	-11.0913
▁buzdolabı	-11.0915
trop	-11.0918
▁Amatör	-11.0919
▁düğme	-11.0919
▁Sahil	-11.0919
▁izlenme	-11.092
▁evrensel	-11.092
▁kuşat	-11.0924
▁programda	-11.0924
/4	-11.0924
▁şarkıcı	-11.0926
▁yayla	-11.0926
▁Sahip	-11.0928
▁Dakika	-11.0929
▁topluluğu	-11.093
▁kıyafetleri	-11.093
▁Isı	-11.0931
▁Malzemeleri	-11.0931
▁gerçekleşmesi	-11.0932
▁şebeke	-11.0932
▁lazer	-11.0935
▁haftanın	-11.0941
▁dönüp	-11.0945
▁Mark	-11.0945
▁okulların	-11.0946
▁genetik	-11.0946
So	-11.0946
YD	-11.0947
▁boşal	-11.0948
▁Özer	-11.095
▁boynu	-11.0954
▁Max	-11.0955
▁yaşıyoruz	-11.0955
▁Spa	-11.0956
▁parası	-11.0957
▁yatırma	-11.096
dâ	-11.096
▁mesajları	-11.096
▁saldırgan	-11.0962
▁niyeti	-11.0963
▁yaban	-11.0967
▁dilerim	-11.0967
▁hazırlanmıştır	-11.0967
▁günlerinde	-11.0968
▁yaşanma	-11.0969
▁sürecine	-11.097
▁bitirme	-11.097
▁okullarda	-11.0971
▁işlemlerin	-11.0974
▁arkadas	-11.0975
▁Tom	-11.0976
▁kurutma	-11.0979
▁çıktığını	-11.098
▁Birbiri	-11.0985
Kara	-11.0987
▁kocaman	-11.0988
▁Geçmiş	-11.0992
▁zihniyet	-11.0992
▁alacağınız	-11.0994
▁prensip	-11.0995
▁yollarını	-11.0995
▁yatırımcılar	-11.0996
▁alman	-11.0996
▁görüyorum	-11.0998
▁şeklindeki	-11.0999
▁içecek	-11.1001
▁menüsü	-11.1002
▁endüstriyel	-11.1002
▁meşgul	-11.1002
▁ayrılır	-11.1005
bilim	-11.1016
▁konusunu	-11.1016
▁Millî	-11.1017
▁Üzerinde	-11.1019
▁Sözcüsü	-11.102
▁derler	-11.1022
▁depresyon	-11.1022
▁Kağıt	-11.1022
▁seviyeye	-11.1025
unuzun	-11.1025
▁mac	-11.1026
▁aşan	-11.1026
▁saldırılar	-11.1026
▁Tuzla	-11.1034
▁fiyatlarla	-11.1035
DO	-11.1042
▁romanı	-11.1044
▁hazırlamak	-11.1045
▁Risk	-11.1045
▁yapama	-11.1046
▁istikbal	-11.1048
▁elden	-11.1048
▁Hani	-11.1049
▁hemşire	-11.1051
▁yil	-11.1053
▁doğmuş	-11.1054
▁yeterlidir	-11.1054
▁tava	-11.1055
▁Merkezleri	-11.1055
▁asfalt	-11.1056
▁yiyecekler	-11.1059
▁çocuğunuz	-11.1062
▁kayak	-11.1062
▁zihinsel	-11.1064
▁Ulaştırma	-11.1065
▁öngörülen	-11.1066
▁edebiyatı	-11.1067
▁Bre	-11.1067
▁SORU	-11.1068
▁ümit	-11.1069
▁atlat	-11.107
yınca	-11.1073
▁veriyorum	-11.1074
▁moral	-11.1075
▁sayısında	-11.1075
▁propaganda	-11.1076
▁Pınar	-11.1077
▁dileği	-11.108
▁dondurma	-11.1081
▁yararlanmak	-11.1084
tekin	-11.1091
sağ	-11.1092
▁salonunda	-11.1093
▁önder	-11.1094
▁yoksun	-11.1094
▁nur	-11.1097
ebildiği	-11.1098
▁göt	-11.1099
▁binanın	-11.11
▁maaşı	-11.1102
▁Makinesi	-11.1105
▁Depo	-11.1106
▁Internet	-11.1107
▁Dünyası	-11.1107
2008	-11.1108
▁taşımaktadır	-11.1109
▁inanan	-11.111
▁ihanet	-11.1111
▁kentsel	-11.1113
▁eklenti	-11.1113
▁Büro	-11.1115
▁diyalog	-11.1119
▁üreticileri	-11.112
jan	-11.112
▁Seçme	-11.112
Ah	-11.1121
▁Hayal	-11.1128
▁Devam	-11.113
▁şeffaf	-11.1131
▁Başsavcılığı	-11.1131
MM	-11.1132
wer	-11.1135
▁karaciğer	-11.1136
▁sıralarında	-11.1137
▁Yıllık	-11.1137
▁Sağlıklı	-11.1137
▁Server	-11.1138
▁CD	-11.1138
▁Sana	-11.114
▁Yürü	-11.1142
▁sevda	-11.1144
▁Gen	-11.1147
düz	-11.1147
▁motivasyon	-11.1148
▁liralık	-11.1149
Ro	-11.1149
orta	-11.1151
▁sevinç	-11.1154
▁adil	-11.1155
▁sıkıştır	-11.1155
▁Numaralı	-11.1155
▁istikamet	-11.1156
▁kullanılabil	-11.1159
▁prosedür	-11.1159
▁sevişme	-11.116
▁hırsız	-11.1162
▁isabet	-11.1162
/5	-11.1166
▁taşınması	-11.1168
▁gerektirir	-11.1169
▁derinlik	-11.1169
▁akımı	-11.1171
▁gökyüzü	-11.1172
istanbul	-11.1172
▁çekiliş	-11.1172
▁vermişti	-11.1173
▁döşeme	-11.1173
▁Cinsel	-11.1174
GO	-11.1175
▁sağlayacağı	-11.1176
▁yürüten	-11.1179
▁bağırsak	-11.1179
▁Petrol	-11.1179
▁kömür	-11.1183
▁Paylaş	-11.1184
▁artırılması	-11.1185
▁kardeşleri	-11.1188
▁Mağaza	-11.1188
II	-11.1188
2009	-11.1188
▁duruş	-11.1189
▁ediniz	-11.1193
KI	-11.1193
▁iddialı	-11.1197
▁Zor	-11.1197
▁hele	-11.1199
Bak	-11.1199
▁elit	-11.12
▁99	-11.12
▁düşürme	-11.12
▁Terim	-11.1201
▁gözlerini	-11.1202
▁Berk	-11.1204
▁Öneri	-11.1205
▁farkına	-11.1207
▁denli	-11.1207
▁Kamera	-11.1209
▁zamanki	-11.1209
▁Fark	-11.121
▁Nüfus	-11.1211
▁hastalıkların	-11.1212
▁Mikro	-11.1212
▁sicil	-11.1213
▁ihtiyacımız	-11.1214
▁iyilik	-11.1214
▁Hor	-11.1215
press	-11.1215
▁tablosu	-11.1215
▁Göç	-11.1215
layalım	-11.1216
▁görüp	-11.1218
▁sorusuna	-11.1219
▁kişileri	-11.1219
▁ürünlerinin	-11.1219
▁Kahraman	-11.122
▁yüzeyi	-11.1226
EZ	-11.1226
beş	-11.1226
▁çile	-11.1227
▁sıfat	-11.1228
▁herhalde	-11.1232
▁mis	-11.1234
▁vermekteyiz	-11.1235
▁sitelerinde	-11.1236
▁oluşturmaktadır	-11.124
▁çalışmasını	-11.124
▁ağa	-11.1242
▁nüfusun	-11.1244
▁kılan	-11.1245
▁SGK	-11.1246
grafi	-11.1247
▁Ph	-11.1247
▁anlık	-11.1248
▁kullanımına	-11.1249
▁seçenekler	-11.1249
▁adımı	-11.1251
▁şaşkın	-11.1252
▁Amasya	-11.1253
▁varan	-11.1253
▁oylama	-11.1253
▁sorununu	-11.1254
▁işlevi	-11.1254
▁özelliklere	-11.1255
▁Kıy	-11.1256
▁DO	-11.1257
▁eserlerin	-11.1258
▁belirlediği	-11.1265
▁belirtiyor	-11.1265
▁Girişimci	-11.1267
▁etnik	-11.1267
▁Hatip	-11.1267
▁vücutta	-11.1267
▁ÖZEL	-11.1268
▁hazine	-11.1269
olsun	-11.1271
▁Gündem	-11.1271
▁inç	-11.1272
▁mektubu	-11.1272
▁gebe	-11.1272
▁kocası	-11.1273
way	-11.1273
▁kullanılmak	-11.1274
▁âlem	-11.1276
▁editör	-11.1276
▁bela	-11.1277
▁hususunda	-11.1279
▁bırakan	-11.128
▁Danışma	-11.1283
▁yürüttüğü	-11.1284
▁davranışlar	-11.129
▁City	-11.1291
▁Kilo	-11.1291
▁Kararname	-11.1292
▁tanıdığı	-11.1293
▁tedavisinde	-11.1296
▁kenara	-11.1303
2010	-11.1307
miyordu	-11.1307
▁deyim	-11.1311
▁Hint	-11.1311
▁evren	-11.1312
nivers	-11.1313
▁benzin	-11.1316
▁Anlam	-11.1317
▁gelişi	-11.1317
▁Sorumlu	-11.1319
▁Poli	-11.1319
▁oturup	-11.132
gah	-11.1322
cker	-11.1322
▁sağlayıcı	-11.1323
▁Taksim	-11.1323
▁Chi	-11.1325
▁söyledikleri	-11.1328
ıyordum	-11.1328
▁düşürül	-11.1329
▁Sertifika	-11.133
▁gelmiyor	-11.1331
▁etik	-11.1332
▁sezonunda	-11.1333
▁ajan	-11.1333
▁eskiden	-11.1336
▁promosyon	-11.1336
▁Binali	-11.1337
▁Çeşme	-11.1337
▁altyapısı	-11.1338
▁birebir	-11.1338
▁ödenmesi	-11.1339
▁fiyata	-11.1339
▁gördüğümüz	-11.134
hl	-11.1344
▁İddia	-11.1345
▁nasip	-11.1346
▁durdurma	-11.1346
▁Hadi	-11.1354
▁sınıfta	-11.1354
▁farklılıklar	-11.1354
▁ayırt	-11.1354
▁koşullarda	-11.1357
▁oluştuğu	-11.1358
▁arasındadır	-11.1361
▁gazı	-11.1364
▁güzellikleri	-11.1365
▁İstatistik	-11.1366
▁çalışmalarda	-11.1366
▁konuşur	-11.1367
▁mekanik	-11.1367
▁bölümüne	-11.1367
▁Akademik	-11.1368
▁Biyo	-11.1368
oma	-11.1368
▁Şart	-11.1369
▁Ticari	-11.1369
▁Yel	-11.1371
▁fotoğrafçı	-11.1371
▁BİLGİ	-11.1372
▁uzunluğu	-11.1372
▁tekstil	-11.1377
▁iktidarın	-11.1377
▁İlköğretim	-11.1377
▁kütle	-11.1378
▁kalitede	-11.1379
▁evlen	-11.1379
▁engellemek	-11.138
▁klinik	-11.1381
▁görüntüleme	-11.1383
▁Başta	-11.1386
▁umudu	-11.1387
▁kardeşlerimiz	-11.1388
▁gönlü	-11.1389
▁hepimizin	-11.1389
▁İb	-11.139
▁Sizlere	-11.139
▁tedbirler	-11.1391
▁destekleyen	-11.1391
▁avantajlı	-11.1393
nızdaki	-11.1394
▁Patent	-11.1394
▁Of	-11.1394
▁kandır	-11.1395
▁TSK	-11.1399
▁Bakırköy	-11.1401
▁diyebilirim	-11.1401
▁Ortaokulu	-11.1401
▁Fon	-11.1401
▁buyurdu	-11.1402
▁gitmesi	-11.1404
▁sürdüğü	-11.1405
▁sağlığını	-11.1405
▁tedbirleri	-11.1406
▁kendim	-11.1407
▁Rehber	-11.1407
▁geçim	-11.1408
▁Yukarıdaki	-11.1408
▁Kaliteli	-11.1409
▁zorunluluğu	-11.1409
▁Akademisi	-11.141
ust	-11.141
far	-11.1411
▁Puan	-11.1411
▁ettirme	-11.1413
▁pist	-11.1414
▁Ayakkabı	-11.1416
▁İL	-11.1416
▁tırnak	-11.1422
▁vermiyor	-11.1422
özü	-11.1426
▁zayıflama	-11.1428
▁Yerli	-11.1428
▁minibüs	-11.1428
▁golü	-11.1429
▁oluşturulmuş	-11.143
▁Abi	-11.1436
▁alanındaki	-11.1436
▁Fas	-11.1436
▁çıplak	-11.1437
vit	-11.1439
ömür	-11.1441
▁Köprüsü	-11.1441
▁Umut	-11.1441
-25	-11.1442
▁büyüklüğünde	-11.1442
▁arıyor	-11.1442
hh	-11.1444
▁kitabında	-11.1445
▁Üniversitemiz	-11.1446
▁kendinden	-11.1448
▁Stok	-11.145
▁ا	-11.1451
▁Devletleri	-11.1452
▁değerlendirmek	-11.1453
▁konuşmasını	-11.1455
▁Başkent	-11.1456
▁sürer	-11.1457
101	-11.1459
TSO	-11.1459
▁Beyoğlu	-11.1462
▁önerisi	-11.1462
yurdu	-11.1463
▁grubunda	-11.1463
▁Seni	-11.1463
▁oranının	-11.1464
▁yatay	-11.1466
▁koşulu	-11.1467
▁Sanatlar	-11.147
▁Bugüne	-11.1471
NC	-11.1472
▁uygulamasını	-11.1474
▁ilacı	-11.1474
▁muhtaç	-11.1475
▁odak	-11.1476
▁tanınma	-11.1477
▁unutulma	-11.1478
▁1995	-11.1479
▁Kürdistan	-11.1481
▁sonlandır	-11.1481
▁bag	-11.1481
▁alıyoruz	-11.1482
▁Yolları	-11.1483
bilir	-11.1486
▁Filmin	-11.1487
▁yönden	-11.1488
▁gülü	-11.1488
▁düzenleyen	-11.1489
▁Evli	-11.1489
▁Alex	-11.1489
▁değişti	-11.1491
▁Kurumları	-11.1491
▁Hizmetler	-11.1492
ABD	-11.1492
twitter	-11.1493
▁%50	-11.1494
▁verim	-11.1495
▁ingilizce	-11.1496
▁Ataşehir	-11.1498
▁besleme	-11.15
▁bekler	-11.1501
uyordu	-11.1504
▁Yaka	-11.1505
▁şi	-11.1506
▁adama	-11.1507
▁(4	-11.1508
▁denetimi	-11.1508
▁Şüphesiz	-11.1509
▁klavye	-11.1511
▁fiyatlarını	-11.1512
▁Şırnak	-11.1514
▁verimliliği	-11.1514
▁Modelleri	-11.1515
▁ilinde	-11.1518
▁bayanım	-11.1519
▁Adası	-11.1522
▁kirliliği	-11.1523
▁kullanılmıştır	-11.1524
▁levha	-11.1526
▁Açılış	-11.1526
▁yarattı	-11.1527
▁geçip	-11.1528
▁Edinilen	-11.1532
▁Pendik	-11.1535
▁belirlenmiş	-11.1537
▁ışığında	-11.1538
▁Özkan	-11.1539
▁bulamadı	-11.1539
▁Dolandırıcı	-11.1541
▁istihbarat	-11.1541
▁tuttuğu	-11.1541
▁hesabından	-11.1542
▁Yen	-11.1543
yecektir	-11.1547
▁basıncı	-11.1548
▁yetiştiril	-11.1548
Gİ	-11.1549
▁dışından	-11.1549
▁poşet	-11.155
▁Teklif	-11.1555
▁çirkin	-11.1556
▁tecrübesi	-11.1556
etli	-11.1557
▁imparator	-11.1559
▁çekilme	-11.1561
▁müste	-11.1561
▁işyerleri	-11.1561
▁şükür	-11.1562
▁Uşak	-11.1562
▁grupların	-11.1562
▁ortalaması	-11.1563
▁kurulduğu	-11.1563
▁aldıktan	-11.1564
▁yüzyılın	-11.1564
tiv	-11.1564
▁dikkatini	-11.1565
▁gerektiğine	-11.1566
bilgi	-11.1567
▁Mezun	-11.1567
▁cüzdan	-11.1568
▁döv	-11.1572
▁Alınan	-11.1574
▁izlediği	-11.1575
▁karşınıza	-11.1577
▁desteğini	-11.1578
▁Emekli	-11.1579
▁varken	-11.158
▁edebilme	-11.158
▁işsiz	-11.1583
▁Down	-11.1583
▁Vir	-11.1584
▁mantıklı	-11.1584
▁yapının	-11.1584
▁Papa	-11.1584
▁korkunç	-11.1585
▁Başbakanlık	-11.1585
NİN	-11.1587
▁Harita	-11.1587
▁hamam	-11.1587
Benim	-11.1589
İSİ	-11.1591
▁atın	-11.1591
▁Siyasi	-11.1595
▁bilerek	-11.1597
viz	-11.1598
▁Koşul	-11.1598
▁Hıristiyan	-11.1601
▁belirledi	-11.1601
lock	-11.1602
▁Milliyetçi	-11.1604
▁Sahne	-11.1604
▁Organize	-11.1604
▁büyümesi	-11.1604
▁nefis	-11.1608
▁OKU	-11.1608
▁maddesine	-11.1609
▁irtibat	-11.1609
▁Yatak	-11.1612
▁balıkçı	-11.1612
mor	-11.1612
▁yayınladı	-11.1612
▁yaşından	-11.1613
▁muamele	-11.1616
▁oturt	-11.1617
▁kuzeyinde	-11.1617
▁oyuncuların	-11.1621
▁ruhsal	-11.1623
▁önlenmesi	-11.1625
▁emeklilik	-11.1626
rist	-11.1626
▁sunumu	-11.1627
▁hacim	-11.1632
old	-11.1632
▁kriter	-11.1636
▁elinizde	-11.1636
lanırken	-11.1636
▁Yaptığı	-11.1638
▁Erken	-11.1638
▁giyin	-11.1638
▁Yetki	-11.1643
▁eğitmen	-11.1643
▁Akın	-11.1644
▁Afyon	-11.1645
▁seçilmiş	-11.1645
▁İzmit	-11.1647
▁Eylem	-11.1647
ören	-11.1648
▁ödün	-11.1649
▁Fiyatı	-11.1653
▁Ucuz	-11.1655
▁Cihan	-11.1656
▁başlayacağı	-11.1657
▁Akif	-11.1657
▁kot	-11.1657
▁vermedi	-11.1658
▁dekorasyonu	-11.1658
▁kullanımını	-11.1659
▁açıyor	-11.166
Çocuk	-11.1662
▁kontenjan	-11.1664
▁mesajlar	-11.1664
▁sırtı	-11.1666
▁vazgeçme	-11.1666
▁Tipi	-11.1667
▁yaptılar	-11.1667
▁okumaya	-11.1668
▁VI	-11.1669
▁Meyve	-11.167
▁cev	-11.1671
▁gelecektir	-11.1674
spir	-11.1678
▁verdiğiniz	-11.1678
▁kullanıcılara	-11.1678
▁önündeki	-11.168
▁orda	-11.168
dý	-11.1681
▁Üyeleri	-11.1681
▁kaynat	-11.1681
Kendi	-11.1682
▁gerçekleştirdik	-11.1682
▁Wal	-11.1682
▁kurt	-11.1685
▁yerlerinde	-11.1686
Le	-11.1686
Ankara	-11.1687
▁dekor	-11.1689
▁Müze	-11.169
▁zorluklar	-11.1691
▁Gayrimenkul	-11.1691
▁makul	-11.1692
▁idaresi	-11.1693
▁bozuk	-11.1693
▁yıldönümü	-11.1694
▁tabela	-11.1695
▁Cas	-11.1698
▁kurtulma	-11.1699
▁sirke	-11.1701
▁çıkacağı	-11.1701
▁burnu	-11.1702
▁birisidir	-11.1703
▁soruların	-11.1706
roid	-11.1706
▁atmış	-11.1706
▁you	-11.1707
▁Bosna	-11.1707
▁yapıyorlar	-11.1707
▁polisi	-11.1712
▁etmenin	-11.1714
▁hatırlatan	-11.1715
▁fındık	-11.1716
▁programa	-11.1718
▁birbirlerini	-11.1718
▁Ebû	-11.1719
▁Tık	-11.1719
rup	-11.1719
sha	-11.172
▁aradığınız	-11.1721
▁göstermiş	-11.1723
▁çalışarak	-11.1724
ledim	-11.1725
▁söyleyebiliriz	-11.1725
▁davetli	-11.1726
▁Polonya	-11.1728
▁Vodafone	-11.1728
▁nce	-11.173
Daha	-11.173
▁tarafına	-11.173
▁köfte	-11.1731
▁değiliz	-11.1732
▁Tanımlar	-11.1734
▁gezme	-11.1734
▁71	-11.1734
göl	-11.1736
▁Umarım	-11.1737
▁muhakkak	-11.174
▁İleri	-11.1742
▁havale	-11.1743
▁tavrı	-11.1743
▁buçuk	-11.1743
▁yanınızda	-11.1745
▁Flor	-11.1746
▁Washington	-11.1746
▁çalışmayı	-11.1747
haber	-11.1749
▁yatan	-11.1749
▁Firmaları	-11.175
-14	-11.175
▁İnönü	-11.175
▁Fayda	-11.1753
▁yönetiminin	-11.1753
▁odasında	-11.1755
▁77	-11.1756
▁danışman	-11.1761
▁Tasarımı	-11.1762
▁kanalında	-11.1762
▁Tanım	-11.1764
bahçe	-11.1766
▁harç	-11.1767
▁Nihat	-11.1767
▁düşünerek	-11.1767
▁1.1	-11.1768
▁baya	-11.1772
▁olmayacaktır	-11.1772
▁nedenlerle	-11.1774
▁aramızda	-11.1775
▁bulup	-11.1775
▁beklemek	-11.1777
▁dağılımı	-11.1777
▁muaf	-11.178
▁hatası	-11.1781
▁havaalanı	-11.1783
▁alındığında	-11.1785
onomi	-11.1785
▁Almanca	-11.1785
▁Elif	-11.1786
▁tahminleri	-11.1787
▁Wil	-11.1787
▁süreyle	-11.1787
sonu	-11.1789
▁Yön	-11.179
▁ortamlarda	-11.1791
▁Güçlü	-11.1794
▁belirtiliyor	-11.1795
▁Donald	-11.1795
▁oluşturdu	-11.1797
▁teşebbüs	-11.1798
▁kulağı	-11.18
▁Açıklaması	-11.1801
▁Koz	-11.1803
▁tünel	-11.1808
▁Sahibi	-11.181
▁küfür	-11.181
▁MEB	-11.1811
▁tutarak	-11.1811
▁rahatlığı	-11.1812
▁Fırın	-11.1814
▁Birlikte	-11.1816
▁numarasının	-11.1816
▁çizil	-11.1819
▁müsait	-11.182
ustu	-11.182
▁kullanılmış	-11.1821
▁bitiş	-11.1822
▁refah	-11.1823
▁akciğer	-11.1826
▁Kulüp	-11.1827
▁baskısı	-11.1828
▁satım	-11.1828
▁anlatmaya	-11.1829
▁Mag	-11.1829
▁Tesisleri	-11.183
▁LG	-11.183
▁yüzlü	-11.183
▁ilmi	-11.1832
▁helal	-11.1832
▁Kimya	-11.1832
▁konsol	-11.1836
▁söylemişti	-11.1839
▁Zo	-11.184
▁Fakülte	-11.1841
▁Günümüz	-11.1842
▁gelmesini	-11.1846
▁Aksaray	-11.1846
▁ölçek	-11.1847
▁butonuna	-11.1848
▁yazımız	-11.1849
▁bittiği	-11.185
▁büyüdü	-11.1853
▁çarpıcı	-11.1853
▁bırakır	-11.1855
▁sorar	-11.1855
▁Buradan	-11.1861
▁garantisi	-11.1861
ref	-11.1863
▁arındır	-11.1863
▁ortaklığı	-11.1865
▁Kaynakları	-11.1865
▁Şampiyon	-11.1866
▁esmer	-11.1867
▁şarap	-11.1867
ness	-11.1867
REN	-11.1869
▁çocuğa	-11.1869
▁anlaşması	-11.1871
▁yaptırma	-11.1872
▁ayrıcalık	-11.1872
▁alay	-11.1872
▁Ltd	-11.1872
▁Liste	-11.1874
▁acele	-11.1874
▁alışkanlık	-11.1875
formasyon	-11.1876
▁gemisi	-11.1876
▁amaçlar	-11.1876
▁operasyonda	-11.1879
▁meraklı	-11.188
▁And	-11.188
leştiren	-11.1881
Top	-11.1881
▁şarkılar	-11.1883
▁sepet	-11.1885
▁bölgesine	-11.1886
▁endüstri	-11.189
▁sevgisi	-11.189
Büyük	-11.189
▁harcı	-11.1895
▁Latin	-11.1896
▁grupta	-11.1899
▁İşlemleri	-11.1899
▁yoğunluk	-11.19
▁görüntülü	-11.1902
▁ilişkili	-11.1902
▁avantajı	-11.1903
▁piyasası	-11.1905
▁ilçede	-11.1907
▁Konferans	-11.1908
▁memnuniyetini	-11.1908
▁dönüyor	-11.1908
▁tarihini	-11.1912
unuza	-11.1917
▁seçkin	-11.1918
Devlet	-11.1918
▁partinin	-11.1919
medik	-11.1919
▁olursanız	-11.1919
▁Yeniden	-11.1919
▁Türkistan	-11.192
eksi	-11.1922
olitik	-11.1922
▁yakınında	-11.1926
▁kaz	-11.1928
▁saklama	-11.1929
▁dostları	-11.1931
▁istiyordum	-11.1932
▁heves	-11.1932
▁aksiyon	-11.1933
▁yakınlarında	-11.1933
hab	-11.1934
▁Albayrak	-11.1935
▁Listesi	-11.1936
▁Fizik	-11.1937
▁benzet	-11.1937
▁peş	-11.1938
▁bilişim	-11.1939
▁zanlı	-11.1939
▁Temsilcisi	-11.1943
ılacağını	-11.1944
▁KAY	-11.1945
▁diyabet	-11.1946
▁Makam	-11.1948
LERİN	-11.1948
▁1994	-11.1949
▁islam	-11.1953
▁programını	-11.1954
▁Portekiz	-11.1956
▁Menderes	-11.1956
▁ulaşabilir	-11.1958
kendi	-11.1961
▁Post	-11.1961
▁Geleneksel	-11.1962
▁etiketi	-11.1964
▁arkasından	-11.1965
▁üretiminde	-11.1966
▁tersine	-11.1968
▁Afganistan	-11.1968
▁CEO	-11.1972
▁Black	-11.1978
ux	-11.1978
İD	-11.1978
▁Hazırlık	-11.198
▁KAR	-11.198
ğim	-11.1981
▁Demirel	-11.1984
▁sonbahar	-11.1984
▁Müftü	-11.1986
▁1997	-11.1987
▁Kafa	-11.1987
▁otuz	-11.1988
/11	-11.199
▁Ajans	-11.199
▁olağan	-11.1991
▁galeri	-11.1995
▁KULLAN	-11.1996
▁Boğaziçi	-11.1996
▁işine	-11.1997
▁yoğur	-11.1997
▁gününü	-11.1997
▁ayağa	-11.1997
▁dip	-11.1998
▁bankacılık	-11.2002
▁Madrid	-11.2003
▁kazası	-11.2004
Bölüm	-11.2006
▁Dere	-11.2009
▁İlkokulu	-11.2009
▁damga	-11.2009
▁anlaşılır	-11.201
▁çamur	-11.2012
▁kılavuz	-11.2014
▁İlhan	-11.2014
▁Uçak	-11.2015
▁Rabbimiz	-11.2016
▁Meydan	-11.2017
▁Çankırı	-11.2018
▁incelenmesi	-11.2026
▁Sinop	-11.2027
▁amaçları	-11.2029
▁üyelerimiz	-11.2029
▁edileceği	-11.2031
▁yakaladı	-11.2032
eğer	-11.2032
▁bölme	-11.2033
▁Fethiye	-11.2034
▁Tutu	-11.2035
▁çalıştım	-11.2038
▁Bilimsel	-11.2039
▁Planlama	-11.2039
▁toplantıya	-11.204
▁YAPI	-11.2044
▁görecek	-11.2046
▁Bölgesinde	-11.2047
▁sağlayabilir	-11.2048
▁özenle	-11.2049
▁riskini	-11.2049
▁biliniyor	-11.2052
▁sizlerde	-11.2053
▁oluşma	-11.2053
▁inşaatı	-11.2054
▁fren	-11.2054
▁milletimiz	-11.2055
▁Filistinli	-11.2056
▁yazmaya	-11.2056
▁Detayları	-11.206
Yap	-11.2062
▁biç	-11.2063
▁Kullanımı	-11.2065
▁şaşırt	-11.2065
▁plaka	-11.2066
▁yaralanan	-11.2067
▁sahiplerinin	-11.2068
shop	-11.2073
Â	-11.2076
bahis	-11.2077
▁baþ	-11.208
ûr	-11.2082
bük	-11.2082
▁yapılırken	-11.2082
▁TÜBİTAK	-11.2084
▁öneriler	-11.2086
ettiği	-11.2087
▁dolaşım	-11.2088
▁İçerik	-11.2089
sî	-11.209
▁kullanıyorum	-11.209
stri	-11.2092
▁Panel	-11.2093
ctor	-11.2093
▁Mezar	-11.2093
▁Ersoy	-11.2095
▁koymuş	-11.2095
dio	-11.2096
oksi	-11.2098
INDA	-11.2099
▁iddiasıyla	-11.21
▁İşbirliği	-11.21
▁Chris	-11.2101
▁azgın	-11.2102
▁Anahtar	-11.2103
▁Gid	-11.2104
▁subay	-11.2104
▁mensup	-11.2108
▁edebilmek	-11.2108
lıyordu	-11.2108
▁tehlikesi	-11.2109
▁Şişli	-11.2109
▁fıkrasında	-11.2109
▁vaat	-11.2113
▁farkındalık	-11.2115
▁Yozgat	-11.2116
▁Dayanak	-11.2116
▁önemine	-11.2117
Devamı	-11.2122
▁Abdul	-11.2123
▁kısıtlama	-11.2125
▁otomotiv	-11.2126
▁çilingir	-11.2126
▁unsuru	-11.2126
ous	-11.2128
▁kararının	-11.213
▁ferah	-11.213
▁TÜRKİYE	-11.2132
▁Vol	-11.2132
▁çocuklarının	-11.2135
bâ	-11.2137
mân	-11.2137
▁sark	-11.2138
▁suçundan	-11.2138
▁Sanatçı	-11.2139
▁operasyonlar	-11.214
amadık	-11.2141
▁Düşün	-11.2143
▁hesaba	-11.2143
▁kronik	-11.2145
▁ucunda	-11.2145
▁bakır	-11.2149
▁Görüş	-11.215
▁Yarış	-11.2151
dağı	-11.2151
▁adresleri	-11.2152
▁plak	-11.2153
▁Ürünler	-11.2156
▁gerçekleştirme	-11.2157
▁talimatı	-11.2158
▁Yurtdışı	-11.2161
▁kadarıyla	-11.2163
▁katman	-11.2163
▁vatandaşın	-11.2163
nom	-11.2164
▁tanınmış	-11.2165
▁koalisyon	-11.2167
digim	-11.2169
▁kapsamı	-11.2171
▁Danışmanlık	-11.2173
▁kapsamındaki	-11.2173
▁Koyu	-11.2173
▁iradesi	-11.2174
▁zordur	-11.2174
amazsınız	-11.2177
▁uyguladığı	-11.2178
tter	-11.2179
▁Kılavuzu	-11.218
▁Birim	-11.2182
amayacağını	-11.2182
▁yürürlükte	-11.2183
▁çalıştığını	-11.2185
▁vaz	-11.2186
▁TUR	-11.2186
▁Logo	-11.2187
lanmıştı	-11.2187
▁taraflı	-11.219
▁unvanı	-11.2191
▁Hakk	-11.2191
▁tartışmalar	-11.2192
▁öyküsü	-11.2192
▁Show	-11.2192
▁bulaşık	-11.2193
▁Real	-11.2196
▁Tekin	-11.2196
▁allah	-11.2197
TH	-11.2197
▁filan	-11.2198
▁Bakımı	-11.2199
▁isteriz	-11.22
▁turistik	-11.2202
▁desteğiyle	-11.2204
▁element	-11.2205
▁kaşık	-11.2208
▁Tercih	-11.2212
▁sayısız	-11.2218
▁çekilmiş	-11.2219
▁oluşmuş	-11.222
▁Benzer	-11.222
▁Gazze	-11.2221
▁internetten	-11.2221
▁kendiliğinden	-11.2221
▁Değiş	-11.2224
▁sunulması	-11.2227
▁Aslı	-11.2231
▁süsleme	-11.2233
▁iktidarı	-11.2236
▁kesimi	-11.2236
▁Kenan	-11.2236
The	-11.224
▁metni	-11.2241
▁Kod	-11.2244
▁uzunluğunda	-11.2245
ward	-11.2245
▁sonuçta	-11.2246
▁yükümlü	-11.2247
▁World	-11.225
▁üreticisi	-11.2251
▁geçebilirsiniz	-11.2251
▁sorumludur	-11.2251
▁Ayhan	-11.2252
▁Sene	-11.2252
▁Davutoğlu	-11.2256
▁Konusu	-11.2257
▁ayarlama	-11.2258
TAR	-11.2258
▁dönmesi	-11.2259
▁açıktır	-11.2259
▁kaldığını	-11.2259
▁götürme	-11.2263
▁dünyasına	-11.2263
-9	-11.2263
Gör	-11.2265
▁gelmedi	-11.2265
▁ameliyatı	-11.2266
▁batarya	-11.2266
▁ahiret	-11.2266
▁bakımlı	-11.2267
▁çocukluk	-11.2268
lanacağı	-11.2268
DR	-11.2268
▁merkezlerinde	-11.2269
▁antrenör	-11.2272
▁teyze	-11.2272
▁Emek	-11.2273
▁çevresindeki	-11.2273
▁Tatar	-11.2281
koz	-11.2282
▁Hizmeti	-11.2285
▁fırında	-11.2286
▁İlişki	-11.2286
diyor	-11.2287
▁kelimeleri	-11.2291
▁teşkilatı	-11.2291
▁Müslümanların	-11.2292
▁Henüz	-11.2293
▁içecekler	-11.2295
▁hatalı	-11.2299
▁konulara	-11.2302
▁Plus	-11.2302
▁versiyon	-11.2304
▁ocağı	-11.2305
▁Transfer	-11.2305
▁yerlerden	-11.2306
▁(10	-11.2308
▁ekmeği	-11.2309
▁kalmıştır	-11.231
▁kırılma	-11.2311
▁AC	-11.2313
▁Konferansı	-11.2313
Ser	-11.2314
▁kaldırmak	-11.2318
▁değişiyor	-11.2318
▁yaralanma	-11.232
▁Adım	-11.232
▁şubesi	-11.2321
▁Nokta	-11.2325
▁temelinde	-11.2325
▁sorumlusu	-11.2327
▁taraftarı	-11.2327
Kay	-11.2327
▁tuhaf	-11.2328
▁istemediği	-11.233
▁gösterecek	-11.233
▁ANA	-11.233
▁koştu	-11.2331
▁Yar	-11.2334
▁gitmeye	-11.2334
work	-11.2335
▁vatandaşları	-11.2336
▁Hikmet	-11.2337
▁Otomatik	-11.2338
▁doyur	-11.2338
▁kalmayı	-11.234
▁1996	-11.2341
▁genişliği	-11.2344
Yaz	-11.2345
▁Key	-11.2346
▁becer	-11.2349
▁Marşı	-11.2349
▁imha	-11.235
▁koyar	-11.2351
▁azdır	-11.2354
▁dereceye	-11.2358
▁çözmek	-11.236
▁Asıl	-11.2361
larımla	-11.2361
▁gerçekleştiği	-11.2362
▁ayni	-11.2362
▁taraflar	-11.2362
▁edeceğim	-11.2364
▁olmamız	-11.2365
▁güçlük	-11.2366
▁arayış	-11.2366
▁Edebiyatı	-11.2369
▁hücreleri	-11.237
▁aşma	-11.2371
▁tesadüf	-11.2373
▁:))	-11.2373
▁kırıklığı	-11.2373
▁Yapım	-11.2374
DAN	-11.2375
▁konudaki	-11.2378
▁Esen	-11.2379
▁AŞ	-11.238
▁kırma	-11.238
▁sunulmaktadır	-11.2381
▁fırsatları	-11.2381
▁SMS	-11.2384
▁etkilenme	-11.2386
▁hissediyor	-11.2387
▁akın	-11.2388
▁kurduk	-11.2389
▁öğrendik	-11.2393
▁2,5	-11.2393
▁Önümüzdeki	-11.2395
▁zekâ	-11.2396
▁çabası	-11.2398
▁objektif	-11.2399
▁sıkıntısı	-11.24
Ho	-11.24
▁portföy	-11.2402
▁barışı	-11.2403
▁masası	-11.2403
lanacaktır	-11.2404
▁Cennet	-11.2405
yapı	-11.2407
▁öğretmenlerin	-11.2408
▁yaşını	-11.2408
▁112	-11.2412
▁mısır	-11.2413
▁Pre	-11.2414
▁koç	-11.2415
▁ortaokul	-11.2416
▁boyama	-11.2416
▁mutsuz	-11.2416
▁bellek	-11.2418
▁Takip	-11.2419
▁cihazların	-11.2421
▁uğrat	-11.2424
▁takılan	-11.2424
▁şehre	-11.2425
▁adresinde	-11.243
▁sorusunu	-11.2431
▁pul	-11.2432
▁herşeyi	-11.2433
▁arayüz	-11.2434
▁Lirası	-11.2436
▁sayfamızda	-11.2439
-17	-11.244
▁zinciri	-11.2441
▁görevine	-11.2442
▁aranan	-11.2442
▁Nor	-11.2443
AĞI	-11.2443
▁kullanmanız	-11.2446
▁garantili	-11.2447
▁Nevşehir	-11.2448
▁eserin	-11.2448
▁yapacağım	-11.2449
tus	-11.245
▁Bingöl	-11.2451
İlk	-11.2452
▁çekildi	-11.2452
▁konuşmak	-11.2454
▁fonksiyonu	-11.2457
▁İzin	-11.246
▁sahiplerine	-11.2463
şah	-11.2464
▁Yüzyıl	-11.2466
▁bahçesi	-11.2466
▁mısınız	-11.2467
▁koleksiyonu	-11.2467
▁dövme	-11.2467
▁Gerekli	-11.2467
▁siyasetçi	-11.2469
▁sokma	-11.2469
▁Suyu	-11.247
▁Oldukça	-11.2471
▁düşmanı	-11.2471
▁öldüğü	-11.2472
▁stüdyo	-11.2474
culuk	-11.2475
▁birbiri	-11.2475
▁konsept	-11.2477
▁becerileri	-11.2478
▁azalması	-11.2478
▁bölünme	-11.248
▁döşe	-11.2482
▁konusudur	-11.2483
▁anlattığı	-11.2486
▁Kırıkkale	-11.2487
▁ümmet	-11.2487
▁görünüş	-11.2488
▁söylüyorum	-11.2488
ZA	-11.2488
▁konulan	-11.249
▁yararlanma	-11.249
ılmakta	-11.2492
Tur	-11.2493
▁dram	-11.2493
▁Meksika	-11.2494
DIR	-11.2494
▁geçirilmesi	-11.2496
▁inanıyorsanız	-11.25
▁içimde	-11.2501
▁Yücel	-11.2501
▁Sonuçta	-11.2505
▁Yazılı	-11.2506
PU	-11.2506
▁Medine	-11.2506
▁Kanser	-11.2507
▁erit	-11.2508
▁şampiyonluk	-11.2509
▁avcı	-11.251
▁yükselme	-11.251
MAK	-11.251
▁oluyoruz	-11.2512
▁başkent	-11.2512
▁q	-11.2513
▁edilmez	-11.2514
▁Üretici	-11.2514
▁Derece	-11.2515
▁Üstün	-11.2515
lendirici	-11.2516
▁şoför	-11.2516
▁açarak	-11.2519
▁İhsan	-11.252
▁örgütlenme	-11.252
▁ilgilendiren	-11.252
▁atılması	-11.2521
▁arttırmak	-11.2521
▁indi	-11.2523
▁alüminyum	-11.2523
▁alfabe	-11.2523
▁efekt	-11.2524
▁Grafik	-11.2524
▁sıva	-11.2526
▁tasarrufu	-11.2526
▁Satılık	-11.2527
hy	-11.2531
▁ölçekli	-11.2531
ph	-11.2535
▁animasyon	-11.2537
▁telefonla	-11.2538
▁sunuluyor	-11.2539
▁ARA	-11.2539
▁Başkanlık	-11.2541
▁KARA	-11.2542
▁şov	-11.2545
▁Dir	-11.2545
▁antalya	-11.2546
▁renkte	-11.2548
RC	-11.2549
▁duydukları	-11.2549
▁ligde	-11.255
▁Opera	-11.2551
▁burç	-11.2553
▁Tıkanıklığı	-11.2553
▁oldugunu	-11.2557
oğlan	-11.2557
▁kılavuzu	-11.2558
▁(5)	-11.2561
umuzun	-11.2562
▁tüketme	-11.2564
▁dengeli	-11.2565
oid	-11.2565
▁Auto	-11.2565
ılmıyor	-11.2566
▁aşağıya	-11.2569
▁fragmanı	-11.2571
▁olabilmek	-11.2571
▁Prens	-11.2572
▁geçtiğini	-11.2573
▁Kötü	-11.2573
YP	-11.2574
▁belirtilme	-11.2576
▁paneli	-11.2576
▁kişiliği	-11.2578
▁1992	-11.2579
▁Stadı	-11.2579
▁yerleşme	-11.258
▁yükseltme	-11.2583
▁YIL	-11.2583
▁Nas	-11.2584
▁olmadığına	-11.2585
▁giydir	-11.2585
▁onaylı	-11.2585
▁şahıslar	-11.2585
▁teröristler	-11.2588
▁danış	-11.2589
▁ISO	-11.2589
▁harcan	-11.2591
▁azaltmak	-11.2593
▁Deprem	-11.2593
▁Erkan	-11.2593
▁bulunabilir	-11.2595
▁sakinleri	-11.2595
▁bahsedil	-11.2598
▁çerez	-11.2599
▁şanslı	-11.2604
▁Bilet	-11.2604
▁wi	-11.2605
▁Kalesi	-11.2606
▁numaranın	-11.2607
▁Bilgileri	-11.2611
▁törenle	-11.2613
▁Tıbbi	-11.2613
▁göstermeye	-11.2616
▁ertelen	-11.2616
▁Şimşek	-11.2616
▁tedarikçi	-11.2616
▁ülkelere	-11.2617
▁merakla	-11.2619
▁hissedil	-11.262
▁gözünü	-11.2621
▁Saati	-11.2621
▁Atölye	-11.2623
▁ötesi	-11.2626
▁MS	-11.2628
▁Darbe	-11.263
▁saygın	-11.2632
▁maliyetleri	-11.2633
ruz	-11.2633
http	-11.2633
▁yapmıştı	-11.2634
çağ	-11.2638
Kim	-11.264
▁kullanılmaya	-11.2641
▁KOBİ	-11.2643
▁diyordu	-11.2645
▁tasarlanan	-11.2645
▁nezdinde	-11.2646
Der	-11.2647
▁üstelik	-11.2647
▁çıkarken	-11.2648
▁YÖK	-11.2649
▁69	-11.265
▁oynanacak	-11.265
▁Güneydoğu	-11.265
▁alçak	-11.2652
▁Siirt	-11.2653
▁Sitemiz	-11.2653
▁Tip	-11.2654
MEK	-11.2655
▁koyarak	-11.2657
▁yapılmasına	-11.2658
▁boşanma	-11.266
▁cisim	-11.266
▁sözlük	-11.2662
▁edinme	-11.2666
▁gergin	-11.2668
▁Gri	-11.2669
▁statü	-11.2672
▁maçını	-11.2674
▁yılbaşı	-11.2676
▁baktım	-11.2677
▁yanındaki	-11.2677
▁kurtarmak	-11.2679
▁kalktı	-11.2681
▁doğduğu	-11.2682
▁almasını	-11.2682
phone	-11.2683
▁gelebilecek	-11.2686
▁götürül	-11.2689
▁uygulamayı	-11.2691
▁masaya	-11.2692
▁şartıyla	-11.2695
▁ml	-11.2696
▁kimseyi	-11.2697
▁Bağlantı	-11.2697
▁hukuku	-11.2697
▁Günde	-11.2698
▁kredisi	-11.2698
▁doğrultuda	-11.27
▁rezerv	-11.2701
▁köşesinde	-11.2702
▁orjinal	-11.2703
▁reaksiyon	-11.2703
▁korur	-11.2703
▁şikâyet	-11.2706
▁İnceleme	-11.2708
▁tansiyon	-11.2708
▁davanın	-11.2709
▁parmağı	-11.271
▁güldü	-11.2713
▁Bitcoin	-11.2713
▁dolandırıcı	-11.2713
▁tıkan	-11.2713
▁üstlendiği	-11.2716
▁jüri	-11.2717
▁Arşiv	-11.2717
▁koruyan	-11.2717
▁oluştu	-11.2718
▁1970	-11.2722
▁fabrikası	-11.2722
▁Uzay	-11.2722
▁SER	-11.2725
este	-11.2725
▁İkili	-11.2726
▁yurttaş	-11.2727
▁okunması	-11.2727
▁erişimi	-11.2728
▁Vo	-11.2731
▁füze	-11.2733
▁heyecanlı	-11.2734
▁parlamento	-11.2737
▁döndüğü	-11.2737
▁geçirdik	-11.2744
▁ray	-11.2746
▁Şerif	-11.2747
▁balon	-11.2747
▁kutluyor	-11.2748
▁play	-11.275
skop	-11.2751
▁Vadisi	-11.2751
▁komite	-11.2752
ılamaz	-11.2753
▁1993	-11.2753
▁yükümlülükler	-11.2753
▁mülakat	-11.2754
▁Boyut	-11.2755
▁insanlığın	-11.2756
▁Plaj	-11.2757
itch	-11.2758
▁Parlamento	-11.276
▁Mete	-11.2761
▁konfor	-11.2761
▁YENİ	-11.2764
▁iştah	-11.2767
▁itaat	-11.2767
▁süresini	-11.2768
▁mahallesi	-11.2769
▁Çiftçi	-11.2771
▁geliştirdiği	-11.2772
▁gittikçe	-11.2772
gö	-11.2773
▁Fikir	-11.2773
▁hissettiği	-11.2775
▁bütünlüğü	-11.2776
▁dayanarak	-11.2777
▁İmalat	-11.2777
ranıyorsanız	-11.2777
▁kırk	-11.278
SİAD	-11.278
▁Geçici	-11.2781
▁girmeye	-11.2782
▁yuvarla	-11.2786
▁İr	-11.2787
▁Çocukların	-11.2788
qui	-11.279
▁Fabrika	-11.279
▁umarım	-11.2791
▁bağışıklık	-11.2794
▁Havaalanı	-11.2794
▁anlatma	-11.2795
▁uluslar	-11.2797
▁Demokrat	-11.2797
başka	-11.2799
▁kentte	-11.28
▁anahtarı	-11.2801
▁bulacak	-11.2801
▁sakınca	-11.2801
▁Birimi	-11.2802
▁Evren	-11.2802
▁hedefleyen	-11.2803
▁Ödül	-11.2804
▁ıslak	-11.2804
▁söylenen	-11.2808
▁derim	-11.281
cus	-11.2812
▁kapılarını	-11.2813
▁arkasına	-11.2814
▁Jack	-11.2814
▁Festival	-11.2818
▁sorunlara	-11.282
▁çıkmaz	-11.2823
▁WhatsApp	-11.2825
▁edilmeye	-11.2827
▁dakikalık	-11.2829
▁Demek	-11.283
▁çalışmış	-11.283
▁açmış	-11.2833
▁öğün	-11.2833
▁yetenekli	-11.2834
▁anlayabil	-11.2834
saray	-11.2835
▁erkeği	-11.2836
▁Sami	-11.2838
▁malum	-11.2838
▁miktarını	-11.2838
▁diyelim	-11.2843
Bizim	-11.2843
VER	-11.2845
▁dönemlerinde	-11.2845
▁İTÜ	-11.2846
▁kalkan	-11.2848
mızdaki	-11.2851
▁telif	-11.2851
▁Boyu	-11.2851
▁Çankaya	-11.2852
▁Fonu	-11.2852
▁bilgisini	-11.2855
▁Sonuçları	-11.2856
▁sabun	-11.2856
▁Deli	-11.2857
▁programının	-11.286
▁filo	-11.2861
▁1960	-11.2861
▁halkına	-11.2863
▁liradan	-11.2864
▁inceledi	-11.2867
▁Bonus	-11.2867
▁Beykoz	-11.2867
▁arkadaşımız	-11.2868
▁Diyet	-11.2869
▁mg	-11.287
şey	-11.287
▁düşkün	-11.287
▁başarıya	-11.2871
▁Olimpiyat	-11.2872
▁uğrama	-11.2873
▁getirmeye	-11.2874
▁dönü	-11.2876
▁deyince	-11.2877
▁Paul	-11.2878
▁bankaların	-11.2879
▁hücum	-11.2879
▁Babası	-11.2883
▁etse	-11.2883
▁Gebze	-11.2886
▁hizmetine	-11.2888
▁74	-11.289
▁Acı	-11.289
▁bazlı	-11.2893
▁global	-11.2893
▁benzersiz	-11.2894
▁indirimli	-11.2894
▁içerme	-11.2894
▁eğilimi	-11.2899
▁Yetiş	-11.2899
▁sonuçlarına	-11.2901
▁ilâh	-11.2902
▁miydi	-11.2902
▁yazıp	-11.2902
▁verecektir	-11.2903
▁Herkesin	-11.2904
BI	-11.2907
▁balığı	-11.2909
▁fır	-11.2911
▁çevreye	-11.2912
▁mermer	-11.2913
▁Kahvaltı	-11.2913
▁Pakistan	-11.2913
▁hani	-11.2914
▁Ercan	-11.2917
▁Porno	-11.2917
▁boğul	-11.2917
▁seviyesini	-11.2921
▁kestir	-11.2921
▁alabil	-11.2921
▁Doku	-11.2922
▁makamında	-11.2922
▁önü	-11.2922
word	-11.2926
▁bır	-11.2927
▁tri	-11.2927
▁aylarda	-11.2928
▁izlenim	-11.2929
▁romantik	-11.2929
▁sunacak	-11.2931
▁düşündüm	-11.2934
▁Plastik	-11.2934
▁Çıkar	-11.2934
▁tonu	-11.2936
▁Vize	-11.2937
▁veritabanı	-11.2937
digini	-11.2938
▁ulaşmış	-11.294
▁1-0	-11.2944
▁sunmaya	-11.2944
▁değiştirilmesi	-11.2946
▁ehli	-11.2948
▁BİL	-11.2948
▁Sonunda	-11.295
▁Kel	-11.2951
▁gösterebilir	-11.2952
▁Atık	-11.2952
▁hadi	-11.2955
▁saatlerde	-11.2957
▁bulunarak	-11.2963
▁olabilmektedir	-11.2964
▁Marmaris	-11.2965
▁bıraktıysa	-11.2966
▁Görsel	-11.2968
▁geçtikçe	-11.297
▁laik	-11.297
▁Zirvesi	-11.2972
▁mübarek	-11.2972
▁Dilek	-11.2972
▁Bilindiği	-11.2972
▁devamını	-11.2975
▁İcra	-11.2975
▁Robert	-11.2976
▁Uzak	-11.2977
▁materyaller	-11.2978
▁sokul	-11.2978
▁Şan	-11.2979
▁travma	-11.2979
back	-11.2982
▁hapse	-11.2982
▁kılıf	-11.2983
400	-11.2988
▁ilişkiye	-11.2989
▁seramik	-11.2989
▁faaliyetlerine	-11.299
▁fen	-11.2992
▁koordinasyon	-11.2993
▁gördükleri	-11.2993
▁Soma	-11.2995
▁üyelerine	-11.2998
▁atak	-11.2999
▁Yarı	-11.2999
▁Vücut	-11.3
▁durağı	-11.3
▁işlemlerinde	-11.3002
▁Otomotiv	-11.3003
▁mevduat	-11.3003
▁yenilgi	-11.3003
▁CO	-11.3004
▁çıkarıldı	-11.3004
▁hâlinde	-11.3005
▁listesine	-11.3005
▁Endüstriyel	-11.3006
▁tribün	-11.3007
▁Cemil	-11.3007
▁Süre	-11.3008
▁öğrencilerinin	-11.3011
▁izah	-11.3011
▁giyen	-11.3012
▁ehliyet	-11.3015
▁Burhan	-11.3016
▁karıştırın	-11.3019
▁Sürücü	-11.3019
Yıl	-11.302
▁7/24	-11.302
▁gelirse	-11.3021
lamayacak	-11.3022
▁rakipleri	-11.3023
▁yayımlandı	-11.3024
▁Ödülleri	-11.3026
▁tıkanıklığı	-11.3027
html	-11.3031
▁sırf	-11.3031
▁Bilgisi	-11.3034
▁olacağına	-11.3034
▁formunu	-11.3035
▁Kemer	-11.3036
▁Tro	-11.3037
▁dolandırdığın	-11.3038
▁harekat	-11.3038
▁bürün	-11.3038
yacağınız	-11.3038
▁Tuz	-11.3039
▁titre	-11.304
▁padişah	-11.3041
▁Bireysel	-11.3041
▁Sigara	-11.3041
▁Trakya	-11.3042
▁ruhunu	-11.3044
▁Bisiklet	-11.3045
▁Michael	-11.3045
▁Andre	-11.3047
▁olduğumuzu	-11.3048
▁tozu	-11.305
▁ölçüsü	-11.3052
▁tabanca	-11.3053
▁yapmaz	-11.3053
▁Onay	-11.3054
▁tav	-11.3056
▁seçeneğini	-11.3058
▁istiyorlar	-11.3061
▁çekip	-11.3068
rız	-11.3069
▁komisyonu	-11.3069
▁eklenmiş	-11.3072
▁çıkabilir	-11.3076
▁hesabına	-11.3077
▁özetle	-11.3078
▁You	-11.3078
▁hazırladık	-11.3079
▁Uyku	-11.308
▁durumdur	-11.308
tüm	-11.3083
▁mola	-11.3084
▁yalıtım	-11.3084
▁lens	-11.3084
▁katılarak	-11.3084
▁Eğlence	-11.3086
▁biriktir	-11.3088
▁filminin	-11.309
▁kursları	-11.309
▁Spe	-11.309
▁Seviye	-11.3091
▁ikramiye	-11.3093
▁uğruna	-11.3093
▁gönderilmesi	-11.3094
▁öğrendim	-11.3096
▁dolaylı	-11.3096
▁görüşlerini	-11.3096
▁müzisyen	-11.3097
▁KHK	-11.3097
▁unvan	-11.3098
▁atıldı	-11.3099
▁ağaçları	-11.31
izleyebilirsiniz	-11.31
▁vadi	-11.3102
layınız	-11.3103
▁kullandığınız	-11.3103
▁Alper	-11.3103
▁sayısına	-11.3105
▁etmekten	-11.3107
▁alıntı	-11.3108
ileceği	-11.3109
▁dediğim	-11.311
ilemez	-11.311
▁teorik	-11.3113
▁Leyla	-11.3113
VE	-11.3115
▁senden	-11.3116
▁tümör	-11.3119
▁Hesabı	-11.3121
▁içeriğini	-11.3125
▁hisseder	-11.3125
▁rehberlik	-11.3126
▁Buraya	-11.3127
▁düşüncelerini	-11.3128
MET	-11.3128
▁Gold	-11.3129
▁evrim	-11.313
▁direnci	-11.3131
▁geliştirilmiş	-11.3131
▁dikiş	-11.3132
▁oluruz	-11.3135
▁bildirme	-11.3135
▁savunan	-11.3136
▁DERS	-11.3137
▁töreninde	-11.3138
▁05066	-11.3139
▁Tekstil	-11.3139
27231	-11.3139
▁oynayabil	-11.314
▁kalmaya	-11.3141
▁görüşmek	-11.3142
▁Win	-11.3143
▁destan	-11.3144
▁şimdilik	-11.3145
▁kablosuz	-11.3148
▁Pencere	-11.3149
▁konuşmacı	-11.3149
▁parfüm	-11.315
RG	-11.3152
▁beşinci	-11.3152
ATA	-11.3153
▁Ulaşım	-11.3155
▁İdlib	-11.3156
▁Satın	-11.3156
▁sütun	-11.3157
▁Turnuva	-11.316
▁çiçeği	-11.316
▁çekilmesi	-11.3161
▁spa	-11.3164
▁odasına	-11.3165
▁sektörüne	-11.3166
▁törenine	-11.3168
▁olunur	-11.3168
▁ilişkilerini	-11.317
▁iniş	-11.3172
▁Belli	-11.3173
▁Putin	-11.3173
▁Hediye	-11.3175
▁rehberi	-11.3178
HAN	-11.318
▁Mert	-11.318
▁David	-11.3181
▁boyutları	-11.3183
▁Aylık	-11.3183
▁miyim	-11.3184
▁edilmesine	-11.3185
▁gözaltı	-11.3188
zâ	-11.3188
▁zulüm	-11.3188
▁kısıt	-11.3191
▁kriterler	-11.3191
▁Dursun	-11.3191
▁Kimlik	-11.3192
▁eklemek	-11.3193
▁soruyor	-11.3197
▁samimiyet	-11.3198
▁TEK	-11.3199
▁açabilir	-11.3205
▁felsefesi	-11.3207
▁Buradaki	-11.3207
▁Hepimiz	-11.3209
▁kuruluşlarının	-11.3209
ruh	-11.3214
▁olduğunuzu	-11.3215
▁belirler	-11.3216
▁yurtiçi	-11.3217
▁deneyin	-11.3218
▁KAP	-11.3219
▁kah	-11.3219
tory	-11.3219
▁kanlı	-11.3222
▁Ekrem	-11.3224
İF	-11.3224
▁takma	-11.3224
▁dönümü	-11.3227
▁Endeksi	-11.3227
[...]
